<unk>	0
<s>	0
</s>	0
[PAD]	0
[CLS]	0
[SEP]	0
[MASK]	0
.	-2.92981
,	-3.18224
▁нь	-4.35909
▁	-4.77417
▁байна	-4.78091
-	-4.84369
▁"	-4.91716
"	-5.04651
▁байгаа	-5.19847
▁юм	-5.20384
ын	-5.2093
▁ч	-5.44577
▁гэж	-5.54126
д	-5.64275
ийн	-5.76864
▁энэ	-5.79497
▁байсан	-5.84465
▁л	-5.84595
▁бол	-5.91079
▁Энэ	-5.96091
▁болон	-5.98467
▁нэг	-6.0935
▁Монгол	-6.09725
▁олон	-6.10503
ыг	-6.20336
гүй	-6.20886
▁гэсэн	-6.26863
ийг	-6.28029
▁их	-6.28921
т	-6.29582
▁хүн	-6.31871
▁байх	-6.32019
:	-6.35013
▁тухай	-6.35225
▁оны	-6.36069
г	-6.40002
▁Улсын	-6.42795
▁улсын	-6.44535
тай	-6.45031
▁сарын	-6.46085
?	-6.50337
▁газар	-6.52658
▁дарга	-6.53644
ны	-6.53856
▁болсон	-6.55258
▁аж	-6.55941
▁байдаг	-6.5663
▁дээр	-6.57388
▁хоёр	-6.58127
ээ	-6.59597
▁болно	-6.62516
▁онд	-6.63632
▁улс	-6.63741
▁буй	-6.64614
▁үйл	-6.68436
▁УИХ	-6.68878
▁тус	-6.70289
▁талаар	-6.70325
▁бөгөөд	-6.7037
▁газрын	-6.70603
▁Засгийн	-6.70709
▁болж	-6.70732
аас	-6.71406
▁төрийн	-6.725
н	-6.73387
▁болох	-6.74052
аа	-6.76494
тэй	-6.77719
р	-6.79044
▁гэдэг	-6.80486
▁эрх	-6.80858
▁хууль	-6.81593
аар	-6.82104
▁хуулийн	-6.8224
▁ямар	-6.82574
▁Мөн	-6.82688
▁Харин	-6.8349
▁сайд	-6.83654
▁жилийн	-6.9096
▁орон	-6.91757
▁үед	-6.92502
▁эдийн	-6.92632
▁авч	-6.93126
▁уу	-6.93344
▁жил	-6.93722
▁Б	-6.9407
▁албан	-6.94194
х	-6.96746
▁хувьд	-6.96777
▁хийж	-6.97348
▁өдөр	-6.97616
▁Д	-6.97618
▁хувь	-7.00142
▁тэр	-7.00177
▁зохион	-7.00792
▁бий	-7.01016
▁сая	-7.01456
▁ажил	-7.01599
▁арга	-7.02184
▁санал	-7.03908
▁сайн	-7.0426
▁цаг	-7.04574
нд	-7.05142
▁ёстой	-7.05647
▁нэр	-7.05868
▁хамгийн	-7.0715
▁нар	-7.07444
▁Монголын	-7.07597
▁ажиллаж	-7.07702
▁зэрэг	-7.08221
▁вэ	-7.09042
▁буюу	-7.10548
"-	-7.1064
с	-7.10847
▁биш	-7.11095
▁үр	-7.11635
▁асуудал	-7.11768
▁засгийн	-7.12446
▁гишүүн	-7.1278
▁С	-7.14057
▁хэрэгтэй	-7.15983
▁гэх	-7.16071
▁бид	-7.16289
▁гээд	-7.17089
▁хэмээн	-7.17326
▁дараа	-7.17784
▁дугаар	-7.17908
▁дээ	-7.18922
▁өмнө	-7.19268
▁авах	-7.1931
▁хүний	-7.20194
▁бусад	-7.21238
/	-7.22764
▁хөрөнгө	-7.22795
▁градус	-7.22997
▁ажлын	-7.23592
ээр	-7.2401
▁манай	-7.24025
▁байж	-7.2556
▁зүйл	-7.26555
▁мэдээлэл	-7.27236
▁нийт	-7.27833
▁Их	-7.2864
▁Н	-7.28689
▁аймгийн	-7.28816
▁дахь	-7.289
гийн	-7.29236
▁хийх	-7.30027
▁шинэ	-7.31236
▁зарим	-7.31346
▁нутгийн	-7.31355
▁2	-7.32225
▁ам	-7.32484
▁шүү	-7.32805
▁гаруй	-7.33138
ад	-7.33252
▁эх	-7.33265
▁мөн	-7.33636
▁үг	-7.34127
▁хэрэг	-7.3419
▁гэдгийг	-7.34507
▁бүх	-7.35697
▁дагуу	-7.36162
▁та	-7.36712
▁хүмүүс	-7.38156
▁Ерөнхий	-7.38286
▁билээ	-7.38531
▁асуудлыг	-7.38762
▁тэрбум	-7.38959
▁ирсэн	-7.39251
▁бус	-7.393
▁10	-7.39313
▁маш	-7.39366
▁хүртэл	-7.39598
ж	-7.40543
▁юу	-7.42055
▁бүр	-7.42732
▁би	-7.43074
▁хугацаанд	-7.43499
▁авсан	-7.43554
▁Тиймээс	-7.43964
▁/	-7.44128
▁удаа	-7.44177
▁шиг	-7.44505
▁1	-7.44631
▁том	-7.44633
▁Ц	-7.44798
▁гол	-7.45384
▁өндөр	-7.46194
▁ард	-7.46439
ээс	-7.47154
ний	-7.47239
ч	-7.47554
▁Гэхдээ	-7.47871
▁нэгэн	-7.47926
▁3	-7.49216
▁эрүүл	-7.49627
▁мянган	-7.49835
▁байдал	-7.50232
▁ажиллагаа	-7.50659
▁бага	-7.50834
▁хийсэн	-7.50986
▁учраас	-7.52649
▁дахин	-7.53174
▁хүрээнд	-7.53814
▁илүү	-7.54095
▁Г	-7.54548
▁хотын	-7.54911
▁тодорхой	-7.5527
▁гэр	-7.5604
▁М	-7.5659
▁(	-7.5669
▁гарч	-7.57301
▁өөр	-7.57916
▁зүйн	-7.5797
▁Тэр	-7.58229
▁өөрийн	-7.58811
▁бүхий	-7.59273
▁иргэд	-7.5983
▁Х	-7.59867
▁байлаа	-7.59888
▁гурван	-7.60009
▁Та	-7.60018
▁үү	-7.61504
▁орж	-7.6179
▁үеэр	-7.62037
▁төсөл	-7.62074
▁тул	-7.62221
▁байр	-7.62257
▁ийм	-7.62595
▁нутгаар	-7.62769
)	-7.62951
▁хэдэн	-7.63434
▁ба	-7.63611
▁холбоотой	-7.63661
▁зам	-7.6399
▁хамтран	-7.64534
▁ажиллах	-7.64795
▁өдөртөө	-7.64868
▁хүнд	-7.65289
▁бүрэн	-7.65301
▁чухал	-7.65377
▁ахуйн	-7.66379
▁хэм	-7.66403
▁хойш	-7.67094
▁дунд	-7.67297
▁хөгжлийн	-7.67335
▁тулд	-7.67461
▁Би	-7.6773
даа	-7.67791
▁хэмжээ	-7.68078
▁өнгөрсөн	-7.68312
▁бас	-7.69026
▁байгааг	-7.6908
▁хувийн	-7.69089
▁намын	-7.69372
▁гаргасан	-7.70058
▁хорооны	-7.70068
▁хүүхэд	-7.70451
▁боломжтой	-7.71105
▁бие	-7.71293
▁байхгүй	-7.71502
▁Гэтэл	-7.71506
▁метр	-7.72113
▁гадна	-7.72129
▁дэлхийн	-7.7244
▁хэмжээний	-7.72874
▁Манай	-7.73025
▁байдлаар	-7.73288
▁дүүргийн	-7.73335
▁төгрөг	-7.73393
▁сайхан	-7.73517
▁баруун	-7.73732
▁төлөө	-7.73755
▁Улаанбаатар	-7.74055
▁мөнгө	-7.74223
▁төв	-7.75061
▁ажлыг	-7.75236
▁өгсөн	-7.75462
▁Төрийн	-7.75639
▁уг	-7.75647
▁төр	-7.7586
▁орны	-7.76174
▁хүлээн	-7.76702
▁маань	-7.76805
▁зах	-7.76903
▁4	-7.77106
▁гарсан	-7.77549
▁дэд	-7.77593
▁Нийслэлийн	-7.78423
▁20	-7.78554
▁МАН	-7.78993
а	-7.79029
▁гаргаж	-7.79049
▁байгууллага	-7.79189
▁өөрчлөлт	-7.7986
▁5	-7.80233
▁иргэдийн	-7.8024
▁тухайн	-7.80428
▁өнөөдөр	-7.80467
▁сард	-7.80488
v	-7.81063
▁өргөн	-7.81217
▁хэн	-7.81377
▁үнэ	-7.81382
ы	-7.8145
сан	-7.82252
▁ирэх	-7.82509
▁цагт	-7.8274
▁Улс	-7.82941
▁хэмжээг	-7.82975
▁түүний	-7.8347
▁боломж	-7.83531
▁одоо	-7.8356
▁байгуулах	-7.8369
▁хэсэг	-7.83829
▁байв	-7.83956
▁дээд	-7.84551
▁Ерөнхийлөгч	-7.84606
▁зөв	-7.84698
▁Ж	-7.85713
▁нийгмийн	-7.85754
▁хуульд	-7.86431
ий	-7.86448
▁гэнэ	-7.86568
▁тал	-7.86673
▁бодлого	-7.87159
▁оруулах	-7.87197
▁засаг	-7.87575
▁үндэсний	-7.87616
▁руу	-7.87876
▁шаардлагатай	-7.88021
▁ерөнхий	-7.88151
▁А	-7.88702
▁шийдвэр	-7.88891
▁тээврийн	-7.89006
▁нутаг	-7.89845
той	-7.90153
▁хамгаалах	-7.90653
▁мэт	-7.90693
▁Уг	-7.90752
▁компани	-7.91107
▁орчим	-7.9146
▁хэмжээнд	-7.91586
л	-7.91646
▁үүрэг	-7.91811
▁зээл	-7.91945
▁хэлж	-7.91951
▁чинь	-7.92062
▁нийслэлийн	-7.92521
▁иргэн	-7.92686
▁Т	-7.92851
▁Засаг	-7.93103
эд	-7.93192
▁хамт	-7.93252
▁замын	-7.93631
▁болоод	-7.93776
▁байвал	-7.94107
▁Тус	-7.94142
▁Бид	-7.94241
▁АНУ	-7.94288
▁нөхцөл	-7.94417
▁явж	-7.94903
▁байхад	-7.95095
▁АН	-7.9518
▁нийтийн	-7.95593
▁хамтын	-7.95659
▁секундэд	-7.95723
▁сэтгэл	-7.96026
▁аль	-7.96318
▁2016	-7.97402
▁тоо	-7.97413
▁Л	-7.97611
▁нарын	-7.97648
▁мэндийн	-7.97777
▁болгох	-7.98132
▁үзэж	-7.98302
▁улсад	-7.98927
▁төсвийн	-7.99067
▁хэрхэн	-7.99716
▁төгрөгийн	-7.99749
▁хариуцлага	-7.99987
▁хар	-8.00161
▁холбогдох	-8.00377
▁монгол	-8.00541
Н	-8.01054
▁энэхүү	-8.01082
▁үеийн	-8.01134
▁ёс	-8.01474
▁11	-8.01477
ан	-8.01824
▁дулаан	-8.01923
▁нам	-8.01956
▁аюулгүй	-8.02177
▁Үндсэн	-8.02292
▁Тэгвэл	-8.0257
▁2017	-8.02737
▁үе	-8.03166
▁ажиллагааны	-8.03218
▁байгууллагын	-8.03325
▁гэмт	-8.03326
▁байдлыг	-8.03684
▁дүгээр	-8.03689
▁Ч	-8.03763
▁ажиллагааг	-8.03763
▁байнгын	-8.03885
▁зээлийн	-8.03973
даг	-8.0425
▁Хурлын	-8.04328
▁6	-8.04573
дээ	-8.05075
▁эхэлсэн	-8.05432
▁багш	-8.05661
оо	-8.06137
▁өгч	-8.06223
▁шөнөдөө	-8.06363
▁сургуулийн	-8.06417
▁хүүхдийн	-8.0658
▁Олон	-8.06806
▁төслийг	-8.06822
▁байгуулж	-8.06915
▁өгөх	-8.07026
▁газраас	-8.07065
▁бэ	-8.07506
▁12	-8.07529
▁даргын	-8.07556
▁гадаад	-8.07946
▁гэхэд	-8.08398
▁сумын	-8.0853
▁хүчин	-8.08899
▁хүчний	-8.08929
▁7	-8.09549
▁уран	-8.09768
▁даа	-8.10014
▁2018	-8.10159
▁хэргийн	-8.10617
▁ирж	-8.10847
▁салбарын	-8.11771
▁болохгүй	-8.1179
▁Гэвч	-8.12271
▁байдлын	-8.12312
▁учир	-8.12324
▁бүс	-8.12892
▁хот	-8.13184
▁зүүн	-8.13366
▁гаргах	-8.13457
▁2015	-8.13477
▁нэгдсэн	-8.13533
▁дотор	-8.13846
▁гар	-8.14091
▁зөвхөн	-8.14155
mn	-8.1418
▁100	-8.14279
▁хэлсэн	-8.1459
▁эхний	-8.15691
▁Одоо	-8.15743
▁мэргэжлийн	-8.1575
▁ОХУ	-8.16024
▁болжээ	-8.16145
▁компанийн	-8.16192
▁болов	-8.16244
▁нас	-8.16366
▁хэрэгжүүлэх	-8.16609
▁танд	-8.16749
▁анхны	-8.16959
▁болохоор	-8.17205
▁хувийг	-8.17239
▁сүүлийн	-8.17401
▁гишүүд	-8.17511
▁30	-8.17516
▁дөрвөн	-8.17713
▁сургууль	-8.17959
▁газарт	-8.18861
▁орчин	-8.18893
▁байгуулсан	-8.18899
▁мэдээллийн	-8.19114
ууд	-8.19359
▁болгож	-8.1967
▁оруулж	-8.1983
▁өөрөө	-8.20296
▁анх	-8.20324
▁муу	-8.20532
▁–	-8.20703
▁хүрч	-8.20844
▁Түүнчлэн	-8.21011
▁байгаад	-8.21017
▁дээрх	-8.21322
▁байжээ	-8.21545
▁Энэхүү	-8.21604
▁салбарт	-8.21616
оор	-8.2162
▁шаардлага	-8.21693
▁хувиар	-8.21739
▁чадахгүй	-8.21924
▁Э	-8.21958
▁тусгай	-8.21972
ц	-8.2213
▁О	-8.22204
▁оролцож	-8.22279
▁Үндэсний	-8.22289
▁8	-8.22301
▁ашиг	-8.23007
▁эсвэл	-8.23176
▁Салхи	-8.23386
▁мэдээ	-8.23547
▁ХХК	-8.23648
▁оноос	-8.23683
▁жилд	-8.23958
▁төрлийн	-8.24021
▁таван	-8.24286
▁Тухайлбал	-8.2437
▁н	-8.24471
▁эсрэг	-8.24533
▁боллоо	-8.24622
▁гэрээ	-8.24869
▁шууд	-8.24903
▁түүнийг	-8.25446
▁харж	-8.26084
▁төслийн	-8.26488
▁санхүүгийн	-8.26648
▁үндсэн	-8.26734
▁чиглэлээр	-8.27134
▁өмнөх	-8.27261
▁ярьж	-8.27297
▁нарийн	-8.274
▁орсон	-8.27979
▁залуу	-8.28056
▁сонгуулийн	-8.28227
▁болгон	-8.28288
▁тийм	-8.28346
оос	-8.28742
▁миний	-8.2946
▁мэдээллийг	-8.29511
▁долоо	-8.29714
▁нэмэлт	-8.29933
▁хүч	-8.30187
▁албаны	-8.30271
▁Нэг	-8.30413
▁хүйтэн	-8.30482
▁барьж	-8.30515
▁хороо	-8.30848
▁хангах	-8.30857
;	-8.3092
▁хоногийн	-8.3098
Д	-8.31097
▁хугацаа	-8.31225
▁хэл	-8.31308
▁салбар	-8.31383
аад	-8.31451
▁цагдаагийн	-8.31507
▁сар	-8.31557
▁Тэрбээр	-8.31589
▁санаа	-8.31839
▁захирал	-8.32009
м	-8.32066
▁томоохон	-8.32127
▁гарах	-8.32171
▁насны	-8.32385
▁9	-8.32453
▁хэд	-8.32653
▁настай	-8.32724
▁хяналт	-8.33128
▁З	-8.3316
▁явдал	-8.33206
▁15	-8.33311
▁Ерөнхийлөгчийн	-8.33323
▁хэлбэл	-8.33485
▁агаарын	-8.33497
▁эд	-8.33642
на	-8.33712
s	-8.33781
▁минь	-8.33847
▁он	-8.34054
▁уул	-8.34119
▁өдрийн	-8.34221
▁тавьж	-8.34383
▁баримт	-8.34585
▁дэмжих	-8.34676
▁бодлогын	-8.34859
▁хооронд	-8.35004
▁Ийм	-8.35091
▁баг	-8.35303
▁бидний	-8.35668
▁хүү	-8.36082
▁Үүний	-8.3611
▁худалдан	-8.36208
▁боловч	-8.36258
▁эмч	-8.36309
Монгол	-8.36318
▁цэргийн	-8.36448
хан	-8.36503
▁аварга	-8.36685
▁удаагийн	-8.36777
▁хэсгээр	-8.36797
▁Учир	-8.37006
▁ил	-8.37291
▁шинээр	-8.37974
ид	-8.38283
в	-8.38299
▁хөтөлбөр	-8.38321
▁50	-8.38439
▁болдог	-8.38533
▁бичсэн	-8.38542
▁мал	-8.38561
▁хөгжүүлэх	-8.38761
▁сайдын	-8.38835
▁ус	-8.38839
▁хүлээж	-8.3884
▁Тэд	-8.39032
▁Ер	-8.39079
▁Тэгэхээр	-8.39185
▁У	-8.39468
▁дүн	-8.39809
▁явуулж	-8.39951
С	-8.40067
▁Дэлхийн	-8.40525
▁Өнгөрсөн	-8.40898
▁Монголд	-8.41024
▁ач	-8.4107
▁хотод	-8.41502
▁зүгээс	-8.41566
▁бодож	-8.41817
▁банкны	-8.42044
ш	-8.42053
хаа	-8.42146
▁банк	-8.42147
наас	-8.42511
▁үйлдвэрийн	-8.42737
▁дуу	-8.43091
▁БНХАУ	-8.43155
▁Өнөөдөр	-8.43161
▁барих	-8.43305
▁хүнийг	-8.4334
▁бичиг	-8.4348
▁Үүнээс	-8.4364
▁хуулийг	-8.4365
▁зураг	-8.43785
з	-8.43865
▁үйлчилгээ	-8.4394
▁Тийм	-8.44056
▁асуудлаар	-8.44277
▁тэд	-8.4428
Т	-8.44524
▁явах	-8.44548
▁х	-8.44591
▁2014	-8.44912
▁зорилгоор	-8.44946
▁олж	-8.45396
▁тэдний	-8.45423
▁баяр	-8.45448
▁алба	-8.45535
▁эмэгтэй	-8.45721
▁түр	-8.45986
▁төгрөгөөр	-8.46038
▁тогтвортой	-8.46285
▁таны	-8.46323
▁Ш	-8.46343
▁ээ	-8.46346
▁тохиолдолд	-8.46632
▁оролцсон	-8.46842
▁цахим	-8.47012
▁төмөр	-8.47179
▁яам	-8.47195
▁явсан	-8.47456
▁биз	-8.47577
▁хүмүүсийн	-8.47848
▁Хууль	-8.47871
▁эрчим	-8.47889
▁ажээ	-8.47909
▁нэмэгдүүлэх	-8.48752
▁олгох	-8.49092
▁буруу	-8.49133
▁цагийн	-8.49276
▁үгүй	-8.49471
▁14	-8.49608
▁уурхайн	-8.49646
▁дэх	-8.499
▁аймаг	-8.49915
▁цаашид	-8.49948
▁сэтгэгдэл	-8.49952
▁үйлдвэр	-8.49963
▁Ингээд	-8.50064
▁үйлчилгээний	-8.50136
▁хурал	-8.50142
▁төвийн	-8.50155
▁П	-8.50167
▁харилцаа	-8.50258
▁бүтээгдэхүүн	-8.50358
▁улам	-8.50398
▁гэлээ	-8.50606
▁гэвэл	-8.50758
▁хэрэгжүүлж	-8.51059
▁Тэрээр	-8.51088
▁Үүнийг	-8.51105
▁оронд	-8.51108
▁голын	-8.51173
▁үзэл	-8.51418
гүйгээр	-8.51467
Х	-8.51513
▁яаж	-8.51593
▁шүүх	-8.51825
й	-8.51908
▁Улсад	-8.51909
▁үл	-8.52101
▁таалагдаж	-8.52168
▁бичгийн	-8.52323
▁бууруулах	-8.52326
▁байгууллагууд	-8.52593
▁тэргүүн	-8.52957
▁Төв	-8.53117
▁хяналтын	-8.53208
▁ганц	-8.5343
▁үнэн	-8.53484
▁эрхийг	-8.54024
▁бүрийн	-8.54044
▁сонгуульд	-8.54123
▁Хятадын	-8.54474
▁урьдчилан	-8.54617
▁цахилгаан	-8.54698
▁Өөрөөр	-8.54779
▁орох	-8.54803
▁харин	-8.55044
▁сан	-8.55054
▁нутагт	-8.55293
▁зүй	-8.55439
и	-8.55469
▁сэргийлэх	-8.55571
▁эхлээд	-8.55724
▁аваад	-8.55837
▁гарын	-8.55856
▁дор	-8.56082
▁амь	-8.56083
▁амжилттай	-8.56256
Г	-8.56458
▁Эдийн	-8.56506
▁яг	-8.56625
▁улмаас	-8.56654
▁ажлаа	-8.56753
▁хөдөө	-8.56761
▁нэгж	-8.57001
▁холбоо	-8.57351
▁алга	-8.57933
▁зөрчсөн	-8.58015
сэн	-8.58059
▁эрхтэй	-8.58061
▁дэмжиж	-8.58062
▁тонн	-8.58093
эн	-8.58145
▁ажилласан	-8.58206
vv	-8.58346
▁үзүүлэх	-8.5856
▁18	-8.58792
▁заасан	-8.59107
▁гэдгээ	-8.59129
▁тавьсан	-8.59189
▁судалгаа	-8.59362
▁хийгээрэй	-8.59425
▁боломжгүй	-8.59491
▁иргэдэд	-8.59597
▁бэлэн	-8.60259
▁кг	-8.60402
▁соёл	-8.60576
▁шатны	-8.60869
о	-8.60876
▁орохгүй	-8.60991
▁Түүний	-8.61156
▁бүхэн	-8.61209
▁өмнөөс	-8.61673
лаа	-8.61893
▁тавих	-8.61969
▁татвар	-8.62074
▁16	-8.62185
▁цагаан	-8.62322
▁зүйлийг	-8.62486
▁бизнес	-8.6274
▁хэсгийн	-8.63088
▁Р	-8.63156
▁амжилт	-8.63221
▁км	-8.63222
▁оролцох	-8.63492
▁суурь	-8.63557
▁багийн	-8.63597
▁авто	-8.63971
▁Эрүүл	-8.64391
▁хоол	-8.64435
▁түмэн	-8.64675
▁Хамгийн	-8.64732
өө	-8.6474
▁эцэг	-8.64829
▁25	-8.64991
▁ял	-8.65017
▁барилгын	-8.65058
▁Ардчилсан	-8.65583
▁орно	-8.65602
▁дээрээ	-8.65602
▁шилдэг	-8.6562
од	-8.65792
▁дэмжлэг	-8.65817
▁40	-8.65934
▁Эх	-8.65958
▁хийдэг	-8.66038
гаа	-8.66151
▁толгой	-8.66398
▁өөрийгөө	-8.6649
▁цагаас	-8.66751
▁хойд	-8.66781
үүд	-8.67098
▁сайжруулах	-8.67249
▁Миний	-8.67368
А	-8.67585
▁барилга	-8.6783
▁холбооны	-8.67924
▁оруулалт	-8.68141
▁орлого	-8.68339
▁талын	-8.68371
▁замаар	-8.68407
▁17	-8.68925
▁гэв	-8.68959
▁ухааны	-8.69132
▁хэлэлцэх	-8.69168
Б	-8.6918
▁хүрсэн	-8.69238
▁рүү	-8.69467
▁хэр	-8.69658
▁эхлэн	-8.69705
▁урт	-8.69766
▁мянга	-8.69768
▁бодит	-8.6978
лан	-8.69838
▁байгаагаа	-8.69952
▁ажиллагаанд	-8.70057
▁хэргийг	-8.70179
▁аялал	-8.70349
▁талаас	-8.70463
▁онцгой	-8.70521
▁боловсролын	-8.7064
▁ахуй	-8.70696
▁авдаг	-8.70888
▁газраар	-8.70922
▁13	-8.71048
▁хөгжил	-8.7106
▁хийгээд	-8.71309
▁60	-8.7148
▁мэдээллээ	-8.71492
▁бүтээн	-8.71517
▁холбогдуулан	-8.71539
▁худалдаа	-8.71554
▁газрыг	-8.71588
▁Тэгээд	-8.71686
▁сөрөг	-8.72151
▁кино	-8.72489
▁дүнд	-8.72523
!	-8.7265
▁нийтэд	-8.72744
Энхболд	-8.72823
▁бололтой	-8.73094
▁худалдааны	-8.73173
▁байдалд	-8.73207
▁ажилладаг	-8.73215
▁саналыг	-8.73303
Эрдэнэ	-8.73309
▁хэрэгт	-8.73344
▁тэмцэх	-8.73355
▁эмнэлгийн	-8.73406
гаар	-8.73441
▁түмний	-8.73508
чин	-8.73598
▁яамны	-8.73735
▁шалтгаан	-8.73819
▁жижиг	-8.73858
▁Азийн	-8.73951
▁гүйцэтгэх	-8.7411
▁ёсны	-8.7414
▁болохыг	-8.74169
ин	-8.74259
▁Тухайн	-8.74343
▁21	-8.74756
▁тусламж	-8.74971
▁авна	-8.75074
▁ашиглах	-8.75137
▁хүнсний	-8.75401
▁амьдарч	-8.75606
▁зургаан	-8.75631
▁хэзээ	-8.75692
▁тун	-8.75956
▁Шөнөдөө	-8.76053
долларын	-8.76204
▁сум	-8.76523
▁бүлгийн	-8.76805
▁яриа	-8.76839
▁үүнийг	-8.76938
▁сангийн	-8.77047
▁дээш	-8.77661
▁Тодруулбал	-8.77685
▁ном	-8.77738
▁бараг	-8.7789
▁иргэний	-8.78079
▁хүртэлх	-8.78255
жээ	-8.78303
▁хэмээх	-8.7841
▁гал	-8.78517
▁шинжлэх	-8.78714
▁татварын	-8.78843
▁Хэрэв	-8.78958
▁ихэнх	-8.79024
▁журмын	-8.79174
▁өглөө	-8.79322
ах	-8.79343
ав	-8.79483
▁машин	-8.79917
▁хэт	-8.80033
▁бүлийн	-8.80064
▁2012	-8.80103
▁нэгдүгээр	-8.80152
▁хандаж	-8.80169
▁байгаль	-8.80427
▁нөгөө	-8.80433
Бат	-8.8048
▁боломжийг	-8.80524
▁сурвалж	-8.80601
▁Япон	-8.80846
өөр	-8.80867
уудыг	-8.80896
▁амьдрал	-8.80991
▁хийнэ	-8.81081
▁ухаан	-8.81084
▁даатгалын	-8.81107
▁уулзалт	-8.81123
▁Гадаад	-8.81168
▁бүлэг	-8.81215
▁LIKE	-8.81235
▁спортын	-8.81327
▁турш	-8.81353
▁төрсөн	-8.81491
▁боловсрол	-8.81495
лах	-8.8162
▁бэлтгэл	-8.81705
▁болгосон	-8.81725
▁өвчин	-8.81964
▁энд	-8.8228
▁мэнд	-8.8235
▁байгуулалтын	-8.8236
▁нээлттэй	-8.82481
▁байхыг	-8.82528
▁хүчтэй	-8.82561
▁эдгээр	-8.82732
▁тэрбээр	-8.82749
▁эсэх	-8.82894
▁хэсэгт	-8.82931
▁үсэг	-8.82932
▁шийдвэрлэх	-8.83069
▁ёсоор	-8.83319
▁гадаадын	-8.83546
▁ажилд	-8.83691
▁гэдэгт	-8.83814
▁цас	-8.839
▁2013	-8.83948
▁аргагүй	-8.84021
▁хоног	-8.84041
▁адил	-8.84087
▁боловсруулах	-8.84142
▁бүгд	-8.84347
▁яваа	-8.8437
▁усны	-8.84561
▁хурлын	-8.84602
▁шүүхийн	-8.84722
▁мөнгөн	-8.85009
▁тамирчин	-8.85135
▁дэлхий	-8.85333
▁шалгаж	-8.85394
▁1-	-8.85475
▁зүйтэй	-8.85599
▁ангийн	-8.85673
▁Ингэснээр	-8.85688
▁түвшинд	-8.85779
▁төвд	-8.8579
▁дүгнэлт	-8.85947
▁га	-8.86072
он	-8.86097
▁явуулах	-8.86197
▁ингэж	-8.86367
▁харилцан	-8.86546
▁гишүүдийн	-8.86552
▁Эдгээр	-8.86632
▁дотоод	-8.86668
▁яагаад	-8.86699
▁тод	-8.86749
▁айл	-8.86762
▁гомдол	-8.86795
▁зорилго	-8.86804
▁үзсэн	-8.86976
▁нөөц	-8.86995
доллар	-8.87176
▁бараа	-8.87583
▁байсныг	-8.87716
▁сууж	-8.87719
▁оруулсан	-8.87736
▁чиг	-8.87749
▁Хоёр	-8.87784
▁хатуу	-8.87804
▁хүргэж	-8.87899
▁70	-8.87963
▁зөвлөлийн	-8.87977
▁зээлд	-8.88129
▁нэлээд	-8.88154
▁Хятад	-8.88262
▁Оросын	-8.8829
▁очиж	-8.88363
▁хүүхдүүд	-8.88421
▁цалин	-8.88555
▁баталсан	-8.88964
▁найз	-8.88979
▁түүх	-8.89215
▁бүтээл	-8.89314
дэг	-8.89471
▁шударга	-8.89523
▁ирээд	-8.89716
▁ээж	-8.89726
▁эрхийн	-8.89789
▁давхар	-8.89836
▁чанар	-8.90046
▁хоногт	-8.90379
▁мэдэх	-8.90464
▁хэлэх	-8.90546
хээ	-8.90571
▁өдрүүдэд	-8.90582
▁сууцны	-8.90709
▁цэвэр	-8.90737
э	-8.90742
▁талаарх	-8.90919
▁эр	-8.90927
▁НҮБ	-8.91027
▁зүйлийн	-8.91337
▁шинж	-8.91354
▁бичихдээ	-8.9143
▁В	-8.91516
▁хуулиар	-8.91652
▁магадгүй	-8.91736
▁Үүнд	-8.91782
▁хуралдаанаар	-8.91783
▁мэдүүлсэн	-8.91818
М	-8.91968
▁бай	-8.92023
▁ур	-8.92086
▁үлдсэн	-8.92103
вал	-8.92122
▁Хүн	-8.92256
▁явдаг	-8.92295
▁Ямар	-8.92403
▁МАХН	-8.92631
▁ашигтай	-8.9278
▁өр	-8.92847
гээр	-8.92852
▁аливаа	-8.92991
▁намайг	-8.93048
▁сургалт	-8.93179
▁байгууллагад	-8.93223
▁үнэхээр	-8.93302
▁хоёрдугаар	-8.93383
▁надад	-8.93391
▁мах	-8.93401
▁хоорондын	-8.93402
▁м	-8.93438
▁оруулалтын	-8.93463
▁эхлэх	-8.93471
▁тогтоох	-8.93646
▁байнга	-8.93725
▁24	-8.94052
▁асан	-8.94095
өөс	-8.94168
▁чуулганы	-8.9423
▁анхаарал	-8.94323
▁нарыг	-8.94445
▁эзэн	-8.94451
▁хэвлэл	-8.94461
▁хөл	-8.94502
▁технологийн	-8.94541
▁тань	-8.94546
▁хаан	-8.94556
▁төдийгүй	-8.94831
▁талбайд	-8.95125
▁огт	-8.95182
▁ах	-8.9522
▁аймагт	-8.95356
▁яах	-8.95409
▁www	-8.9544
▁дотоодын	-8.956
▁устгах	-8.95662
▁эргэн	-8.9575
▁танхимд	-8.95856
▁байхдаа	-8.95903
▁амьдрах	-8.95965
▁Сүүлийн	-8.95996
▁чадвар	-8.96179
▁хэцүү	-8.96253
▁зан	-8.96294
▁бороо	-8.96329
▁19	-8.96465
▁итгэл	-8.96526
ь	-8.9662
▁гэхээр	-8.96888
▁Сангийн	-8.96906
▁болзошгүй	-8.96982
▁хүлээхгүй	-8.97003
▁Хэрвээ	-8.97074
▁5-10	-8.97193
▁хүссэн	-8.97215
▁асуудалд	-8.97278
▁тэрээр	-8.97391
▁охин	-8.97556
▁сонирхолтой	-8.97607
▁чадсан	-8.97675
▁Нийгмийн	-8.97692
▁Гэр	-8.97838
▁заавал	-8.97876
Уул	-8.97961
▁Японы	-8.97971
▁ногоон	-8.98028
▁алдсан	-8.98125
▁Таны	-8.98327
▁мөнгийг	-8.98362
▁бөхийн	-8.98434
▁бүл	-8.98441
▁талд	-8.98528
▁уур	-8.98589
▁үедээ	-8.98919
▁сайт	-8.9893
▁аав	-8.99125
▁сургуульд	-8.99173
▁техник	-8.99191
▁Зарим	-8.99296
▁үйлчилгээг	-8.9931
▁Европын	-8.99379
▁тэмцээнд	-8.99428
▁захиргааны	-8.99528
▁хэллээ	-8.99596
▁бүтээгдэхүүний	-8.99685
▁батлах	-8.99688
▁бидэнд	-8.99779
▁үнэтэй	-8.99914
▁эм	-9.00016
▁ийнхүү	-9.00024
▁хариу	-9.00083
чид	-9.00108
▁сонин	-9.00123
▁өссөн	-9.0023
▁дараагийн	-9.00325
▁хөтөлбөрийн	-9.00417
▁төсөв	-9.00441
▁хуралдаан	-9.00509
▁хэдий	-9.00567
▁хэрэгсэл	-9.00672
▁хөрөнгийн	-9.00893
▁ашиглаж	-9.00894
▁өөрсдөө	-9.0091
▁хугацааны	-9.00935
▁Иймд	-9.01209
▁өөрсдийн	-9.01235
▁нөлөө	-9.01349
нээс	-9.01375
▁Яагаад	-9.01514
▁сургалтын	-9.01526
▁гурав	-9.01562
▁үйлдэл	-9.01585
2	-9.01702
▁амын	-9.01714
▁хөтөлбөрийг	-9.01736
анд	-9.01829
▁нийгэм	-9.01934
▁нийслэл	-9.01951
▁хойноос	-9.02002
▁байгалийн	-9.02042
▁тохиолдол	-9.02052
▁үзүүлж	-9.02133
▁Шинэ	-9.02165
▁үзэх	-9.02191
▁Сүхбаатар	-9.02219
▁Ажлын	-9.02223
▁минут	-9.02224
▁оршин	-9.02245
▁ажилтан	-9.02324
▁төлөөлөгч	-9.02415
▁тогтоолын	-9.02441
▁медаль	-9.02519
▁төлбөр	-9.0253
▁учиртай	-9.02556
▁80	-9.02802
▁байгаагүй	-9.02843
▁долоон	-9.02853
▁шийдвэрийг	-9.02949
▁жишээ	-9.02988
сон	-9.0299
аараа	-9.03002
▁олны	-9.03027
▁наадмын	-9.03139
▁зөрчил	-9.03231
▁бөх	-9.03531
доо	-9.03539
▁сэтгэгдэлд	-9.0357
▁төсөвт	-9.03615
гээ	-9.03785
▁0	-9.0391
▁бүү	-9.03959
▁тав	-9.04
▁Хан	-9.04081
▁Ардын	-9.04087
▁дамжуулан	-9.04197
▁мэдэхгүй	-9.04241
▁ерөнхийлөгч	-9.04304
ар	-9.04513
ил	-9.04735
▁өгнө	-9.04837
▁нэмэгдэж	-9.04844
▁амьдралын	-9.05128
▁б	-9.05157
е	-9.05268
▁ихээхэн	-9.05282
▁эцсийн	-9.05395
▁Уншигчдын	-9.05593
▁т	-9.05706
▁ойр	-9.05799
▁судалгааны	-9.06113
▁хэрэггүй	-9.06128
▁ажиллана	-9.06166
▁нэн	-9.06298
▁баярлалаа	-9.06423
▁нөхөн	-9.06789
▁хурдан	-9.06815
▁дараах	-9.06834
▁6-11	-9.06866
▁чиглэлийн	-9.06869
▁анхаарч	-9.06872
e	-9.06955
▁харилцааны	-9.07162
▁нууц	-9.07171
▁the	-9.07201
▁хөдөлмөр	-9.07202
▁аймгуудын	-9.07226
▁Тамгын	-9.0728
▁Онцгой	-9.07297
▁урлагийн	-9.07314
▁орчны	-9.07359
▁дүр	-9.07386
▁мод	-9.07391
▁дуртай	-9.07789
▁үздэг	-9.07868
▁удирдах	-9.07985
▁тоглолт	-9.08003
5	-9.08033
▁гуравдугаар	-9.08222
▁бүрт	-9.08371
▁нарт	-9.08501
хэн	-9.08542
▁гэжээ	-9.08579
▁хүмүүст	-9.08943
▁төсөлд	-9.09124
▁200	-9.09157
▁аа	-9.09227
▁харах	-9.09365
▁монголчууд	-9.09501
ээд	-9.09562
эл	-9.09577
▁д	-9.09727
▁К	-9.09889
▁зардал	-9.09937
▁компаниуд	-9.10025
▁барьсан	-9.10184
▁шийдэх	-9.1024
▁хэлэлцэж	-9.10306
▁харилцах	-9.1032
▁найман	-9.10321
▁байранд	-9.10336
▁хэрэглэх	-9.1035
▁Сонгуулийн	-9.10425
▁түүнд	-9.105
▁хэлэлцүүлэг	-9.10542
▁үйлдвэрлэл	-9.10566
▁чадах	-9.10623
▁шалгалт	-9.1077
▁иргэдийг	-9.10776
▁хэлтсийн	-9.10802
▁ойлгож	-9.10825
▁татах	-9.10833
▁НУТГААР	-9.10873
▁Эрүүгийн	-9.10874
▁мэдлэг	-9.10898
▁хамтарч	-9.10969
▁Хөгжлийн	-9.11007
▁удирдлагууд	-9.11072
▁эв	-9.11209
▁Элчин	-9.11293
▁22	-9.11334
▁халуун	-9.11445
▁таатай	-9.1145
▁чөлөөт	-9.1163
▁тоног	-9.11757
▁тос	-9.11762
▁улаан	-9.11823
▁нэмж	-9.11887
▁соёлын	-9.12096
▁зориулсан	-9.1219
▁г	-9.12199
▁давуу	-9.12237
▁нүүрс	-9.12323
▁өгдөг	-9.12499
▁бүрдүүлэх	-9.12501
▁v	-9.12529
▁сав	-9.1259
▁залуус	-9.12722
▁хийхэд	-9.12736
▁байхаар	-9.12819
▁амиа	-9.12824
▁оюутан	-9.12854
▁бүтэн	-9.12856
▁АЙМГУУДЫ	-9.1291
▁Хөвсгөл	-9.12989
▁уулзаж	-9.13295
З	-9.13307
▁АТГ	-9.13339
▁ар	-9.1341
▁мөнгөний	-9.13536
▁орчинд	-9.13548
гаас	-9.13553
▁шуурга	-9.13614
▁өчигдөр	-9.13664
нэ	-9.13699
▁И	-9.13701
▁удаан	-9.13807
▁үүднээс	-9.13845
▁шуурхай	-9.13879
1	-9.13927
▁жилүүдэд	-9.13963
▁өнөөгийн	-9.14002
Би	-9.14037
чих	-9.14069
▁хүмүүсийг	-9.14111
▁хөдөлмөрийн	-9.14236
▁үнэт	-9.14283
▁төрөл	-9.14285
лээ	-9.14363
▁өөртөө	-9.14447
000	-9.14506
▁хариуцсан	-9.1462
▁харахад	-9.1463
▁хангаж	-9.14648
▁ой	-9.14667
▁хорих	-9.14672
▁татаж	-9.14753
▁Солонгосын	-9.14845
▁27	-9.1488
▁нүүрсний	-9.1496
▁мэдэгдсэн	-9.14976
▁эерэг	-9.14986
▁ханш	-9.15099
▁эхэлж	-9.1524
▁сонгууль	-9.15316
▁төлөөлөл	-9.1542
▁хорооллын	-9.15446
▁өнөөдрийн	-9.15488
▁шар	-9.15534
▁уулархаг	-9.15648
▁хэвлэлийн	-9.15711
▁ярих	-9.15758
▁Түүнээс	-9.15759
аг	-9.15851
▁асар	-9.15855
▁журам	-9.1587
▁хор	-9.15912
▁дүү	-9.15964
тайгаа	-9.16044
▁хагас	-9.1616
▁төлөвлөж	-9.163
аж	-9.16386
▁хил	-9.16442
▁цэцэрлэг	-9.16538
▁чадна	-9.16599
▁хувцас	-9.16652
▁боддог	-9.16669
▁орнуудын	-9.16682
▁биеийн	-9.16797
Ц	-9.16895
▁зорилготой	-9.1693
ов	-9.16983
▁Танд	-9.17045
▁с	-9.17071
Ж	-9.17261
▁даргаар	-9.17304
▁хур	-9.17392
▁бүхнийг	-9.17404
▁ашиглалтад	-9.17412
▁төлөх	-9.17465
▁хамтарсан	-9.1758
▁янз	-9.17584
▁тэмцээн	-9.17643
▁ээлжит	-9.17822
▁жуулчлалын	-9.17895
▁БНСУ	-9.1794
ал	-9.17962
▁а	-9.18112
▁энгийн	-9.18131
▁Мэдээж	-9.18172
▁удирдлага	-9.18431
▁өмнөд	-9.18676
▁сууц	-9.18681
▁з	-9.18955
▁орлогч	-9.18979
▁бизнесийн	-9.19011
▁бүтэц	-9.19053
В	-9.19105
▁тогтоосон	-9.19142
лэх	-9.19209
▁1.	-9.19213
▁холбогдолтой	-9.19248
▁ТА	-9.19255
▁хол	-9.19284
▁ашгийг	-9.19301
▁жүжигчин	-9.19435
▁Чингис	-9.19474
▁өнгө	-9.19503
▁өөрийнхөө	-9.19528
▁зөвлөх	-9.19554
▁нэртэй	-9.19606
▁жолооч	-9.19615
▁зохицуулах	-9.19615
▁асуулт	-9.19644
▁хайр	-9.19688
лаад	-9.19733
▁удирдлагын	-9.19789
▁эмнэлэг	-9.19907
▁2.	-9.19954
▁талбай	-9.19977
Л	-9.20014
▁Тэдний	-9.20028
▁гардаг	-9.2008
▁дэлхийд	-9.20168
▁Хэвлэл	-9.20184
▁эрс	-9.20217
▁эргэж	-9.20492
▁Хүний	-9.20518
▁байгуулалт	-9.20613
▁чадаагүй	-9.20659
▁замыг	-9.20908
▁шагнал	-9.20927
▁хүсч	-9.21043
▁заалт	-9.21051
▁тусгасан	-9.2109
▁хий	-9.21115
▁идэвхтэй	-9.21165
▁суух	-9.2126
▁түүхий	-9.2128
▁суртахууны	-9.21367
▁Баянзүрх	-9.2167
▁дүүрэг	-9.21795
▁сул	-9.21871
▁чиглэл	-9.21884
▁бэрхшээлтэй	-9.21921
▁Цагдаагийн	-9.21951
▁тэмдэг	-9.21988
▁хүргэх	-9.2202
▁анги	-9.22021
уудын	-9.22057
ор	-9.22104
▁хүсэл	-9.22185
▁хороонд	-9.22205
▁улмаар	-9.22356
▁баялаг	-9.22361
лэн	-9.22364
▁одоогийн	-9.2238
▁алт	-9.22391
ээрээ	-9.2249
лж	-9.22598
▁хөтөлбөрт	-9.22603
▁ярьсан	-9.22634
▁23	-9.22665
▁Яг	-9.22702
▁гараад	-9.22845
▁технологи	-9.22873
▁шигшээ	-9.22881
▁байгуулагдсан	-9.2293
▁дүнтэй	-9.22984
▁онцлог	-9.23023
▁эрэгтэй	-9.23258
▁нийгэмд	-9.23313
▁зочид	-9.23405
▁зүгээр	-9.23435
▁богино	-9.23518
▁наадам	-9.23538
▁туршлага	-9.23574
▁олгож	-9.23617
▁гэрэл	-9.23775
▁мэдэж	-9.23809
▁арван	-9.23897
▁зөвшөөрөл	-9.23921
▁хэмжээгээр	-9.23923
▁цагдаа	-9.23932
▁явна	-9.23956
▁эрхэм	-9.24018
▁админ	-9.24231
▁элдэв	-9.24237
▁ширхэг	-9.24277
▁шинжилгээний	-9.24437
▁төгрөгийг	-9.24456
ам	-9.24461
▁Ийнхүү	-9.2455
▁хаана	-9.24578
▁тайлбар	-9.24596
▁Бас	-9.2463
▁Монголчууд	-9.24715
▁нөхцөлд	-9.24783
▁Ази	-9.248
y	-9.24838
▁ажиллагаагаа	-9.24986
эх	-9.25023
▁хүрэх	-9.25048
саар	-9.25081
▁500	-9.25136
▁бүсийн	-9.25282
▁чанартай	-9.25297
▁90	-9.25339
▁ш	-9.2537
▁мэднэ	-9.25382
▁морь	-9.25412
3	-9.25768
▁хуралдаанд	-9.25834
▁СОНИН	-9.25913
▁хэлэхэд	-9.25935
▁алдаа	-9.26075
▁хэвээр	-9.26217
▁хүрэл	-9.26404
▁номын	-9.26442
▁ӨДРИЙН	-9.26489
▁Уул	-9.26552
▁зэрэгцээ	-9.26611
▁Төсвийн	-9.26667
▁дэвшигч	-9.26681
▁Байнгын	-9.2676
▁зөвлөл	-9.26762
▁цэрэг	-9.26808
▁бэлтгэх	-9.26976
▁зуун	-9.27078
▁бусаар	-9.27214
▁оноо	-9.27315
▁байгууллагаас	-9.27572
▁засагт	-9.27586
▁хэрэглэж	-9.27663
но	-9.27696
ас	-9.27757
▁3.	-9.27776
▁ор	-9.28037
▁явцад	-9.28119
▁нүүр	-9.28243
▁ойн	-9.2832
▁тэнд	-9.2834
▁өсөлт	-9.28419
▁хэрэгжиж	-9.28462
▁туслах	-9.28538
▁хуралд	-9.28551
▁тунадас	-9.28718
▁ихтэй	-9.28849
▁худалдаж	-9.28889
▁чиглэлд	-9.28977
▁АНХААРУУЛГА	-9.29051
▁уурхай	-9.29118
▁зэргийг	-9.29269
▁систем	-9.29362
▁тушаал	-9.2947
▁эрхлэх	-9.29554
▁хангалттай	-9.29572
▁Байгаль	-9.29648
▁хувьтай	-9.29681
▁дүнг	-9.29693
▁ярьдаг	-9.29728
▁бодлогыг	-9.29767
▁алтан	-9.29773
б	-9.29815
▁ороод	-9.29834
▁жинхэнэ	-9.29868
▁шалгах	-9.29987
▁түүнээс	-9.3005
▁тухайд	-9.30077
▁үргэлж	-9.30174
Баттулга	-9.30199
▁наяд	-9.30365
▁хэсгийг	-9.30422
▁үүлтэй	-9.30459
▁зохисгүй	-9.3073
▁Бага	-9.30835
▁хэвийн	-9.30987
▁хүндэтгэнэ	-9.31093
▁Орос	-9.31175
▁илэрхийлж	-9.31213
▁яваад	-9.31344
аасаа	-9.31378
▁сараас	-9.3142
▁нэрийг	-9.31472
▁хязгаарласан	-9.31502
▁урд	-9.31629
▁Хүүхдийн	-9.31631
▁боловсруулж	-9.31692
▁Like	-9.31863
▁түүхэн	-9.31869
▁хог	-9.3197
▁үүссэн	-9.32096
▁шат	-9.3224
▁мэргэжилтнүүд	-9.3235
D	-9.32351
▁холбоотойгоор	-9.32479
▁олгосон	-9.32607
▁чи	-9.32826
▁зайлшгүй	-9.32841
▁эсэхийг	-9.32849
▁мөрийн	-9.32869
▁хөдөлгөөний	-9.32921
▁тогтоол	-9.33077
▁байгууллагуудын	-9.3311
тэйгээ	-9.33136
▁Одоогоор	-9.33173
Р	-9.33267
▁урьдчилсан	-9.33295
▁олсон	-9.3331
▁саналаа	-9.33423
▁валютын	-9.33425
▁спорт	-9.33454
▁бусдын	-9.33675
▁Зам	-9.3371
Энэ	-9.33722
▁тогтмол	-9.33749
▁утсаар	-9.33837
▁ойлголт	-9.33997
▁сонгох	-9.34082
▁суманд	-9.34115
▁of	-9.34301
▁сонгон	-9.34301
И	-9.34347
▁тавдугаар	-9.34363
▁Баян	-9.34384
▁Өмнөд	-9.34476
▁хэлбэрээр	-9.34613
▁өрхийн	-9.3468
▁Дархан	-9.34688
S	-9.34721
сны	-9.34727
▁суугаа	-9.34743
▁малын	-9.348
▁амьдралд	-9.34835
▁зэргийн	-9.34861
▁бүсгүй	-9.34868
▁биеэ	-9.34889
▁үзүүлэлт	-9.34899
▁орнууд	-9.34914
▁өдрөөс	-9.34994
▁төрд	-9.35013
▁Замын	-9.35091
▁илэрхийлсэн	-9.35221
▁Ө	-9.35239
▁хааны	-9.35281
▁тайван	-9.35332
▁аз	-9.35338
▁аргаар	-9.35377
▁яаралтай	-9.35428
▁Бусад	-9.3559
▁ахмад	-9.35604
▁гарагт	-9.35606
▁гишүүний	-9.3562
▁бодол	-9.35639
▁өдрийг	-9.35747
▁ИТХ	-9.35813
▁шүүхэд	-9.35815
ынхан	-9.35957
▁26	-9.36015
▁орлогын	-9.36033
▁300	-9.36034
▁дүүрэгт	-9.36045
▁өөрчлөх	-9.36127
▁Дараа	-9.36415
▁явуулдаг	-9.36509
▁Орон	-9.36828
▁Түүнийг	-9.36919
▁тооцоо	-9.36996
▁Бидний	-9.37002
▁анхаарах	-9.37015
▁чаддаг	-9.37019
▁дөрөвдүгээр	-9.37027
▁бичиж	-9.37106
▁хичээл	-9.37115
▁байрны	-9.37146
▁хөдөлгөөн	-9.37168
▁Хар	-9.37259
▁Өмнө	-9.3728
Эрдэнэт	-9.37315
▁эрдэм	-9.37437
▁тусгаар	-9.37506
▁буурсан	-9.37536
▁өмчийн	-9.37551
▁тэгш	-9.37551
▁10-	-9.37658
▁хүсэлт	-9.37895
▁харагдаж	-9.37943
▁байдалтай	-9.37966
▁арай	-9.3808
▁Зүүн	-9.38272
▁орой	-9.38278
▁үнийн	-9.38419
▁Нөгөө	-9.38429
▁нохой	-9.38687
▁нэмэгдсэн	-9.387
▁ихээр	-9.3871
▁төхөөрөмж	-9.38834
▁нисэх	-9.38899
Монголын	-9.38901
тан	-9.38947
▁хийхээр	-9.38963
▁хариулт	-9.39028
▁шинжилгээ	-9.39033
▁Өдрийн	-9.39052
▁Үүлшинэ	-9.39081
▁айлын	-9.39113
▁нээж	-9.39133
▁Ингэж	-9.39187
▁хуучин	-9.39252
▁хотноо	-9.39327
▁яриад	-9.39351
ноос	-9.39368
▁алхам	-9.39684
▁Цаашид	-9.39697
я	-9.39778
Ч	-9.39927
▁техникийн	-9.40165
▁28	-9.40282
▁олох	-9.40316
▁мөрдөн	-9.40359
▁хэллэгийг	-9.40374
▁гудамж	-9.40394
▁осол	-9.4058
▁тоог	-9.407
▁ХХЗХ	-9.40813
▁батлан	-9.4083
▁бүтцийн	-9.40864
▁ирнэ	-9.40907
▁шуурна	-9.40979
▁хаагч	-9.40979
к	-9.40986
▁мэтээр	-9.41074
ай	-9.41142
▁дундаа	-9.4122
▁өвчний	-9.41226
▁хүүхдийг	-9.41241
▁гарган	-9.41262
лэг	-9.41374
▁жилдээ	-9.41427
▁Улмаар	-9.4143
▁дуучин	-9.41432
▁санхүүжилт	-9.41433
▁хохирол	-9.41473
▁тэднийг	-9.4154
▁хүүхдээ	-9.41553
▁Увс	-9.416
▁зэргээр	-9.41609
▁ангид	-9.41739
▁Я	-9.41899
▁Дээрх	-9.41959
▁зохистой	-9.4201
▁гарна	-9.42015
▁ахлах	-9.42022
▁Хэм	-9.42088
Засгийн	-9.42111
▁батлагдсан	-9.42162
▁Иймээс	-9.42178
▁төлөвлөгөө	-9.42292
▁хэв	-9.42379
▁ашиглан	-9.424
өд	-9.42412
▁бэлэг	-9.42415
▁өрх	-9.4242
жин	-9.42462
▁2011	-9.42594
үүдийг	-9.42636
▁хөрөнгийг	-9.42782
▁ирдэг	-9.42832
▁амьдардаг	-9.4296
▁харьцуулахад	-9.43075
▁мэргэжилтэн	-9.43076
▁үүргээ	-9.43081
▁хэлэлцээр	-9.43091
▁шалгаруулах	-9.43123
▁шатанд	-9.43213
хон	-9.43268
▁Америкийн	-9.43299
▁эмнэлэгт	-9.43388
▁минутад	-9.43412
▁агаар	-9.43421
▁ширүүснэ	-9.43542
▁даяар	-9.43611
▁хандах	-9.43712
▁нийттэй	-9.43742
▁судалж	-9.43757
▁хүнс	-9.43825
▁Бүгд	-9.43917
ийнхээ	-9.43942
▁МЭДЭЭ	-9.43946
▁утас	-9.43968
▁өрсөлдөх	-9.44023
▁төлөв	-9.44321
▁хориг	-9.44588
▁Туул	-9.44641
▁Хөдөлмөрийн	-9.44675
▁өдөрт	-9.44771
▁зөвлөгөө	-9.44818
▁хөгжиж	-9.4482
▁тамирчид	-9.44825
▁Цагаан	-9.44894
B	-9.45072
▁Өнөөдрийн	-9.45121
▁зардлыг	-9.45253
▁зорилт	-9.45263
▁явуулсан	-9.4537
▁өв	-9.45414
▁төрөөс	-9.45586
▁хараад	-9.45859
▁шугам	-9.45862
▁эмэгтэйчүүдийн	-9.45917
▁Солонгос	-9.45979
▁архи	-9.46003
▁мэддэг	-9.46043
▁нэмэр	-9.46066
▁үүргийг	-9.46067
▁цэцэрлэгийн	-9.4613
▁итгэлтэй	-9.4613
▁Мэргэжлийн	-9.46146
ол	-9.46151
▁шинэчлэл	-9.46307
▁хандлага	-9.46413
▁уулзалтын	-9.4644
▁магадлалтай	-9.46474
▁давж	-9.46589
даж	-9.46598
▁төслүүд	-9.46613
▁үүрэгтэй	-9.46616
▁төлбөрийн	-9.4675
▁цол	-9.46794
▁эс	-9.46932
▁сонгогдсон	-9.46983
▁сууриа	-9.47058
▁Ажил	-9.47081
▁хилийн	-9.47103
a	-9.47122
▁тооцох	-9.47174
▁хэлэхдээ	-9.47228
▁ер	-9.47233
00	-9.47303
10	-9.47304
▁гаргаад	-9.47353
У	-9.47387
▁дундаж	-9.47475
▁нөхөр	-9.47559
▁эхэллээ	-9.4773
▁Сэлэнгэ	-9.47779
▁зүйлд	-9.47792
▁гэрээг	-9.47801
ер	-9.47826
сээр	-9.47928
▁эхнэр	-9.47952
▁даваа	-9.47983
▁Ялангуяа	-9.48053
▁урлаг	-9.48163
▁Орхон	-9.48243
▁харилцааг	-9.48298
▁чиглэсэн	-9.48327
▁дүрэм	-9.48449
▁үзвэл	-9.4849
▁эрүүгийн	-9.48544
▁маргааш	-9.48594
▁парламентын	-9.4877
▁улиралд	-9.4878
▁үеэс	-9.48808
▁засгийг	-9.48858
К	-9.48867
▁20-	-9.48923
▁загвар	-9.49028
▁Нийт	-9.4907
▁доллар	-9.49084
▁урсгал	-9.49091
▁байдаггүй	-9.49139
▁маргаан	-9.49171
▁баярын	-9.49209
▁наадамд	-9.49226
20	-9.49227
▁зээлийг	-9.4924
▁одоогоор	-9.49291
Ш	-9.49294
▁утга	-9.49383
▁хариуцлагатай	-9.49428
▁S	-9.49457
чихсан	-9.49488
▁2000	-9.49505
▁сүлжээ	-9.49505
▁аюултай	-9.4971
▁7-12	-9.49879
▁үйлдвэрлэлийн	-9.49981
▁амьд	-9.50006
▁хийлээ	-9.50159
▁дэмжсэн	-9.50377
▁НИТХ	-9.50406
▁баяртай	-9.50442
▁гарц	-9.50471
▁нэмэх	-9.50552
▁залуучуудын	-9.50604
▁орондоо	-9.50619
▁Ард	-9.50634
▁2-	-9.50746
▁эхэнд	-9.508
ү	-9.50876
▁49	-9.50897
▁зүрх	-9.50904
йн	-9.51051
▁дүгнэлтийг	-9.51144
▁агентлаг	-9.51297
▁засвар	-9.51342
▁анхан	-9.51436
▁далайн	-9.51445
▁гэртээ	-9.51513
▁есдүгээр	-9.51513
▁доод	-9.51531
Энхбаяр	-9.51534
▁I	-9.51658
▁эмчилгээ	-9.51665
▁ойрын	-9.51677
▁хангасан	-9.51728
эр	-9.51729
▁үүнээс	-9.5177
▁сайдаар	-9.51801
▁эрсдэл	-9.51838
▁Хуулийн	-9.51868
▁хувьцаа	-9.52077
▁төгссөн	-9.52115
ЫН	-9.52143
▁хөнгөн	-9.52228
▁15-	-9.52266
▁дуудлага	-9.5231
▁байрлах	-9.52335
▁хөгжмийн	-9.52398
▁хаагчид	-9.52437
▁тамхи	-9.52462
▁тосны	-9.52472
▁Энд	-9.52479
▁говийн	-9.52481
▁гаргадаг	-9.52489
▁ижил	-9.52556
▁ирлээ	-9.52617
Эрдэнэбат	-9.52763
▁бар	-9.52908
▁бүсэд	-9.52925
уулж	-9.52961
▁олимпийн	-9.53007
▁бүхний	-9.53051
▁хүндрэл	-9.53182
▁шаардлагыг	-9.53245
уудад	-9.53269
▁төлөөлөгчид	-9.53292
▁явган	-9.53326
▁2010	-9.5337
▁сонголт	-9.53372
▁хямд	-9.53416
▁эрч	-9.5345
▁ноцтой	-9.53556
▁хамаагүй	-9.53559
▁сурах	-9.53608
лаг	-9.53751
▁зохицуулалт	-9.5379
▁гэрээний	-9.53862
▁эрт	-9.53928
▁Сэтгэгдэл	-9.5402
▁орчныг	-9.54031
▁зуур	-9.54096
▁усан	-9.54163
▁мэдэгдэл	-9.5422
дог	-9.54256
▁сэтгэлийн	-9.54307
▁тэмцээний	-9.54335
▁мөнгөө	-9.54351
▁таныг	-9.5442
▁хугацааг	-9.54433
▁дүүрэн	-9.54512
▁этгээд	-9.54552
▁үгийг	-9.54651
▁гоо	-9.54682
▁хүлээсэн	-9.54691
▁Хангай	-9.54782
▁Эл	-9.54924
▁төлөвлөсөн	-9.54949
▁B	-9.5495
▁эрдэмтэн	-9.5496
▁чуулган	-9.55028
аагүй	-9.55121
▁хорт	-9.55162
▁удахгүй	-9.55308
▁бодис	-9.5537
▁автомашин	-9.55592
▁Хэдийгээр	-9.55593
▁Бүх	-9.55719
▁нөлөөлж	-9.55831
▁лээ	-9.55878
▁наймдугаар	-9.55956
▁саад	-9.55967
▁амар	-9.56343
▁хэлний	-9.5642
▁насанд	-9.56428
▁35	-9.56457
лаж	-9.56486
▁сайдад	-9.56521
дах	-9.56535
▁Баянгол	-9.5667
▁есөн	-9.56909
),	-9.56955
▁эцэст	-9.57009
▁оюун	-9.57248
▁бүхэнд	-9.5729
▁арилжааны	-9.57427
▁уулын	-9.57484
ынхаа	-9.57486
▁эмэгтэйчүүд	-9.5753
▁өрөө	-9.57588
▁хэрэгслийн	-9.57632
▁огцруулах	-9.57687
▁чадвартай	-9.57746
▁мэргэжил	-9.5783
▁очсон	-9.57912
▁гавьяат	-9.57966
▁зүйлс	-9.58102
▁харьцангуй	-9.58219
▁гадны	-9.58273
▁татан	-9.58299
▁цөөн	-9.58313
▁C	-9.58351
▁үндэс	-9.58392
▁хамгааллын	-9.58411
▁тооны	-9.5844
▁хэлээд	-9.58467
энд	-9.58549
▁үүсгэн	-9.58605
▁дарамт	-9.58666
ээсээ	-9.58753
▁тогтолцоо	-9.58777
▁хүртсэн	-9.58805
лийн	-9.5888
▁харуулж	-9.58922
▁Хүүхэд	-9.59104
▁хоорондоо	-9.59112
хоо	-9.59123
▁үзэсгэлэн	-9.59136
ИЙН	-9.59149
▁Алтайн	-9.59149
▁дур	-9.59161
▁хамрагдах	-9.59173
▁хүнтэй	-9.59237
▁түүхтэй	-9.59305
▁хугацаагаар	-9.59372
▁хөдлөх	-9.59557
▁бүрдүүлж	-9.59595
▁станц	-9.5973
дөө	-9.59752
▁Ховд	-9.59866
▁шилжүүлэх	-9.59869
▁р	-9.60014
▁албанд	-9.6005
▁хүрээлэн	-9.60094
▁нэвтрүүлэх	-9.60124
га	-9.60199
▁улсаас	-9.60204
▁харсан	-9.60209
▁тэдэнд	-9.60229
▁сэргээх	-9.60347
▁төлж	-9.6042
▁буудал	-9.60506
▁мэс	-9.60558
▁зогсоох	-9.60559
▁45	-9.60635
▁үндэслэн	-9.6068
▁хэлтсээс	-9.6069
▁ашигт	-9.6077
▁бүртгэлийн	-9.6085
P	-9.60885
ө	-9.60973
▁Завхан	-9.60989
▁дагаж	-9.60993
▁тоглож	-9.61019
▁хотгор	-9.61031
▁лам	-9.61035
▁зориулж	-9.61175
▁шийдэж	-9.61198
▁дэвсгэрт	-9.61257
▁үлгэр	-9.61259
▁зохиолч	-9.61273
▁4.	-9.61356
ing	-9.61425
▁гүн	-9.61429
▁бодлоо	-9.61431
▁Дорнод	-9.61467
▁уралдаан	-9.61594
o	-9.61809
▁замд	-9.6181
▁баримтлах	-9.61843
▁байгуулахаар	-9.61864
▁ав	-9.61929
▁дотроо	-9.61982
▁асууж	-9.6207
▁компанид	-9.62103
Элбэгдорж	-9.62104
▁ноён	-9.6214
▁алдаж	-9.6218
▁Газрын	-9.62234
▁хамтдаа	-9.62268
▁ганцхан	-9.62269
▁хичээлийн	-9.62304
▁байгууламж	-9.62308
ир	-9.62338
эг	-9.62373
▁тооцож	-9.62376
▁Жишээ	-9.62376
▁бүтээлч	-9.62414
▁Төр	-9.62414
▁ОУВС	-9.6243
▁сэтгэгдлийг	-9.62566
▁тогтоож	-9.62581
▁НИЙГЭМ	-9.62594
▁газраа	-9.62854
▁ялангуяа	-9.62894
▁Ф	-9.62898
ка	-9.62983
▁айлчлал	-9.63092
▁дасгалжуулагч	-9.63148
▁ардчилсан	-9.63171
П	-9.63173
▁3-	-9.6319
▁шинэчилсэн	-9.63214
▁Харамсалтай	-9.63214
▁уламжлалт	-9.63264
дан	-9.63301
▁саяхан	-9.63309
▁орныхоо	-9.63408
▁асуудлын	-9.63435
▁цааш	-9.63471
▁тодорхойгүй	-9.63509
▁түрүүнд	-9.63558
▁ид	-9.63586
▁нөлөөтэй	-9.63656
▁шүүгч	-9.63701
I	-9.63751
▁бүгдийг	-9.63824
▁2009	-9.63856
▁тогтолцоог	-9.63939
хүү	-9.63963
▁мэдээлж	-9.63969
▁орд	-9.63971
тал	-9.63995
▁хийн	-9.6401
▁Анх	-9.64042
▁хүчингүй	-9.64073
▁цэцэрлэгт	-9.64176
▁ордог	-9.64323
Батболд	-9.64339
чууд	-9.64355
er	-9.64398
▁нэрийн	-9.64399
▁үнэлгээ	-9.64417
▁Зөвхөн	-9.64418
▁зарласан	-9.64482
on	-9.64528
▁хүчээр	-9.64557
▁талтай	-9.64588
▁тээвэр	-9.64613
▁Хэн	-9.64654
▁үнийг	-9.64671
▁хөх	-9.64672
▁орноо	-9.64682
▁суурин	-9.64686
▁явц	-9.64727
▁сурч	-9.64763
▁цус	-9.64798
▁байгуулна	-9.648
▁ирүүлсэн	-9.64801
▁1000	-9.64802
▁долларын	-9.64845
▁:	-9.64911
▁Одоогийн	-9.64934
▁хүүхдэд	-9.64938
▁материал	-9.65102
▁цэвэрлэх	-9.65184
Э	-9.65206
им	-9.6526
сөн	-9.65271
▁хайртай	-9.65327
▁мэдээж	-9.65437
▁шороон	-9.65448
▁дурдсан	-9.65493
гээс	-9.65534
▁санд	-9.65579
▁өмч	-9.65585
эй	-9.65625
▁киноны	-9.6565
▁иржээ	-9.65749
ран	-9.65908
▁усанд	-9.65911
▁Хойд	-9.65921
▁итгэж	-9.65955
▁хийгдэж	-9.65956
▁сонирхол	-9.66028
▁2008	-9.662
▁чөлөө	-9.66243
▁and	-9.66268
▁дээшлүүлэх	-9.66279
▁эргээд	-9.6628
▁долдугаар	-9.66395
▁утгаараа	-9.66462
4	-9.66497
▁үйлдсэн	-9.66513
▁залуучууд	-9.66601
▁бүтээгдэхүүнийг	-9.66635
▁Сонгинохайрхан	-9.66655
▁хамгаалж	-9.66719
▁амьтан	-9.66856
▁судлаачид	-9.66865
▁Эрдэнэт	-9.66875
30	-9.66928
▁бат	-9.66932
▁парламент	-9.67011
ed	-9.67024
▁унаж	-9.67039
▁баталж	-9.67092
▁ялалт	-9.67092
▁авахаар	-9.67093
▁зарчим	-9.67093
▁Баруун	-9.67138
▁онгоц	-9.67161
▁сүүлд	-9.67161
▁СЭТГЭГДЭЛ	-9.67221
маар	-9.67293
лын	-9.67307
▁Үүнтэй	-9.67402
▁өнөө	-9.67556
ой	-9.67655
▁зургийг	-9.67655
▁эхэлнэ	-9.67665
▁үүний	-9.67716
▁ердөө	-9.67806
үү	-9.67817
▁Ирэх	-9.67901
▁зууны	-9.67948
▁Шадар	-9.67981
▁32	-9.68072
▁бодох	-9.68124
▁34	-9.68166
▁удаад	-9.68198
▁далд	-9.68228
▁Ингэхдээ	-9.68232
▁ДАШТ	-9.6833
05	-9.68378
i	-9.68434
снаар	-9.68514
▁өгөөд	-9.68568
▁ан	-9.6864
▁зорчих	-9.68678
▁стандарт	-9.68686
▁доктор	-9.68704
▁тэтгэврийн	-9.68715
▁холбогдсон	-9.68718
▁багагүй	-9.68755
▁өсч	-9.68809
▁асуудлаа	-9.68935
▁хүүтэй	-9.68975
6	-9.68979
▁гүйцэтгэж	-9.68994
▁үргэлжилж	-9.69014
▁эмийн	-9.69028
▁заалтыг	-9.69063
▁монголын	-9.69075
▁арьс	-9.691
▁нэрээр	-9.69124
▁суурийг	-9.6916
▁гэрийн	-9.69244
▁ховор	-9.69251
▁танилцуулж	-9.69299
▁боловсруулсан	-9.69316
▁гаралтай	-9.69336
▁сэтгүүлч	-9.69343
▁уламжлал	-9.6935
▁амралтын	-9.69493
▁явагдаж	-9.69517
▁баталгаа	-9.69556
▁онцолж	-9.69617
▁малчин	-9.69666
у	-9.69685
▁зохих	-9.69714
▁шалгалтын	-9.69794
▁цэг	-9.69815
▁Батлан	-9.69832
▁бүтээсэн	-9.69922
▁баригчид	-9.69985
вэл	-9.70107
▁барсан	-9.70137
▁бусдад	-9.70162
▁хуудас	-9.70163
иа	-9.70188
▁зарцуулах	-9.70219
▁цай	-9.70305
▁авахыг	-9.70305
▁даасан	-9.70314
▁тэтгэвэр	-9.70384
▁Газар	-9.70457
▁зорьж	-9.70505
▁нөлөөлөх	-9.70546
▁өрийн	-9.70596
▁нэмэгдэх	-9.70599
▁танилцуулсан	-9.70652
▁гарчээ	-9.7067
▁эхээр	-9.70695
Ү	-9.70709
▁төслүүдийг	-9.70813
▁ярилцаж	-9.7083
▁авлаа	-9.70834
▁хаа	-9.70834
Улаанбаатар	-9.70875
▁төгөлдөр	-9.70887
▁харьяа	-9.70912
▁манайд	-9.70935
▁зориг	-9.70985
▁Шүүхийн	-9.71031
п	-9.71047
▁хөрш	-9.71047
▁Намын	-9.71095
▁хүүг	-9.71115
▁цагаар	-9.71218
сний	-9.71226
▁гоё	-9.71231
▁у	-9.71282
▁үнээр	-9.71471
▁хүсэлтэй	-9.71475
▁хүлээх	-9.71564
ли	-9.71595
▁Дээд	-9.71634
▁дутуу	-9.71667
нууд	-9.71779
▁Чингэлтэй	-9.71789
▁болохоос	-9.7187
▁29	-9.7187
▁зар	-9.71875
▁од	-9.71882
▁хэлдэг	-9.71904
▁чөлөөлөх	-9.71932
▁ажиллагаатай	-9.71947
▁байгаагаас	-9.72088
▁хэлбэр	-9.72271
▁хөдөлгөөнд	-9.723
▁Эрх	-9.7235
▁Цас	-9.72358
▁орнуудад	-9.72426
▁үзүүлсэн	-9.72454
▁шийдвэрлэсэн	-9.72476
▁ухаалаг	-9.72479
▁түргэн	-9.72515
▁хөгжлийг	-9.72518
▁Цаг	-9.7253
▁дамжин	-9.72616
▁жаахан	-9.72651
▁хонь	-9.72651
ит	-9.72755
▁удирдагч	-9.72866
▁зөөлөн	-9.72876
▁цаана	-9.72912
▁Холбооны	-9.72927
▁боловсон	-9.72927
▁судлалын	-9.73092
▁сайтар	-9.73186
▁болчихсон	-9.73237
Эрдэнэс	-9.73301
гоо	-9.73305
▁нөхөд	-9.73326
▁халдвар	-9.73367
▁мөр	-9.7347
▁шинжтэй	-9.73552
▁ажилтнууд	-9.7361
▁судлаач	-9.7379
чдын	-9.73812
▁өдгөө	-9.73847
▁цасан	-9.73898
▁эхэлжээ	-9.73911
▁хадгалах	-9.73994
ос	-9.74059
үүдийн	-9.74097
▁шийдсэн	-9.74127
уу	-9.74135
О	-9.74181
c	-9.74188
▁тэргүүтэй	-9.74188
▁Аль	-9.74197
▁гайхалтай	-9.74198
▁дууссан	-9.74205
▁яригдаж	-9.74388
▁зогсохгүй	-9.74431
▁асуудлууд	-9.74446
▁бэхжүүлэх	-9.74498
▁өртөг	-9.74527
▁сангаас	-9.74557
ье	-9.74568
▁ажиллахыг	-9.7457
▁нүд	-9.74572
▁шинэчлэн	-9.74588
▁Эрчим	-9.74594
▁байлгах	-9.7486
▁автомашины	-9.74871
▁машины	-9.74956
▁суурьтай	-9.7497
▁салбарыг	-9.74976
▁аюул	-9.74998
▁засах	-9.7504
▁ойлгох	-9.75057
▁талархал	-9.7506
▁ТҮГЭЭХ	-9.75114
▁хугацаатай	-9.75158
▁400	-9.75168
▁бич	-9.75231
▁Иргэдийн	-9.75275
▁үзэхэд	-9.75382
▁цөмийн	-9.75446
▁түвшин	-9.755
▁санхүү	-9.75509
▁Дуу	-9.75539
▁хэрэглэдэг	-9.75645
▁Тавантолгой	-9.75712
▁эрхлэгч	-9.75723
▁шөнө	-9.75728
▁эзэлж	-9.75791
▁холбогдол	-9.75801
▁компаниудын	-9.75805
▁бүртгэл	-9.75811
▁ЗДТГ	-9.75848
09	-9.75888
▁дахиад	-9.75954
▁хэрэглээ	-9.75956
▁дунджаар	-9.75969
▁хийгдсэн	-9.76003
▁хүүхдүүдийн	-9.76008
▁ногоо	-9.76121
▁чуулганаар	-9.76164
▁очих	-9.76172
▁Хэнтий	-9.76198
▁өвөр	-9.76208
▁үлдэх	-9.76274
Алтанхуяг	-9.76291
▁Иргэний	-9.76358
▁тогтоолоор	-9.76359
n	-9.76367
▁to	-9.76393
▁A	-9.76453
▁хөгжилд	-9.76509
▁хэрэгжилтийг	-9.76524
▁битгий	-9.7653
▁биднийг	-9.76552
▁12-14	-9.76678
▁магадлал	-9.76801
▁хэлтэс	-9.76908
▁авахад	-9.76908
▁сайхны	-9.76996
▁цогцолбор	-9.77121
ла	-9.77127
▁эрхээ	-9.77254
шин	-9.77288
7	-9.77314
ана	-9.77367
▁буурч	-9.77368
▁хандсан	-9.77376
▁гараг	-9.77415
▁үхэр	-9.77427
▁Хөрөнгө	-9.7745
▁30-	-9.77493
▁амьсгалын	-9.77494
▁зааж	-9.77571
▁Говь	-9.77625
▁Дээр	-9.77698
▁оролцоо	-9.77771
▁танай	-9.77867
▁өвлийн	-9.77897
▁байгаагийн	-9.78012
▁Булган	-9.78111
▁Чи	-9.78212
▁жилтнээ	-9.78252
▁ТББ	-9.78279
▁ир	-9.78383
▁ачаалал	-9.78448
u	-9.78515
ar	-9.78617
▁мэдэгдэж	-9.78634
▁хурандаа	-9.78634
▁аврах	-9.78657
▁суралцах	-9.7872
▁хоёрын	-9.78737
лоо	-9.78764
эв	-9.78851
▁жин	-9.78919
▁хуралдааны	-9.78935
▁гэгч	-9.78944
▁ойлгомжтой	-9.78948
▁M	-9.78967
11	-9.78982
▁шалгарсан	-9.78986
▁хоолны	-9.79148
▁хурлаар	-9.7924
▁5-	-9.79244
▁хөнгөлөлттэй	-9.79324
▁33	-9.7938
▁хүрэлцэн	-9.79428
би	-9.79555
▁нөөцийн	-9.79669
▁шинэчлэх	-9.79699
▁олгодог	-9.79706
▁хөрөнгөөр	-9.79738
▁цөөнгүй	-9.79739
8	-9.79756
▁хөндийгөөр	-9.79761
▁автобус	-9.79767
▁бодитой	-9.7978
▁ундаа	-9.79845
▁25-	-9.79847
▁бохирдлыг	-9.79895
▁18-	-9.79905
▁чадварыг	-9.80023
хөө	-9.80032
▁нэмэгдүүлж	-9.80085
C	-9.8009
▁хүсэлтийг	-9.80104
▁нэрэмжит	-9.80173
уул	-9.8031
▁зорчигч	-9.80316
ур	-9.80322
▁тойрогт	-9.80489
▁дэлгэрэнгүй	-9.80494
▁багатай	-9.80551
▁зургаа	-9.80554
▁үүнд	-9.80582
▁чадвал	-9.80647
▁Үнэхээр	-9.80659
ласан	-9.80695
▁хамгаалалтын	-9.80734
▁тэнцэх	-9.8075
▁бүтээх	-9.8076
▁түүхэнд	-9.80817
▁Хэрэг	-9.80858
▁зориулан	-9.80866
▁Таван	-9.80877
al	-9.80909
▁Гэсэн	-9.80916
▁Монголбанкны	-9.8093
▁онгоцны	-9.80974
▁үзэгдэл	-9.80979
▁томилох	-9.81
▁Иргэд	-9.81003
▁бичлэг	-9.81017
▁дээрээс	-9.81037
▁тоот	-9.81073
▁буйг	-9.81091
▁эзэмших	-9.81132
▁яамнаас	-9.81158
Энх	-9.81165
их	-9.81233
▁шаардлагагүй	-9.81269
▁доо	-9.81424
▁150	-9.81441
▁Сайн	-9.81448
▁хэрэгжүүлсэн	-9.81532
▁өгөхгүй	-9.81564
▁халдварт	-9.81565
▁талбайн	-9.8166
▁нуур	-9.81661
дсан	-9.81716
▁чулуу	-9.81763
▁За	-9.81821
гийг	-9.81948
ат	-9.81987
▁2020	-9.82006
▁Улаан	-9.82024
▁авчээ	-9.82215
▁онц	-9.82253
/;	-9.82254
▁очоод	-9.82288
ган	-9.82302
▁тодорхойлох	-9.82303
▁үндэслэл	-9.82323
A	-9.82347
▁ордны	-9.82353
▁тутмын	-9.82379
▁51	-9.82385
▁хэрэглээний	-9.82399
▁яруу	-9.82412
▁Гол	-9.82454
▁тариа	-9.82456
▁үргэлжлэх	-9.82484
▁нийтдээ	-9.82492
▁арав	-9.8251
04	-9.82531
▁Хотын	-9.82567
Хүрэлсүх	-9.826
▁дэргэд	-9.82621
▁үүсвэр	-9.8264
▁ордонд	-9.82679
▁чанарын	-9.82709
▁хүрээ	-9.82721
▁татсан	-9.82755
▁дасгал	-9.8278
▁үзээд	-9.82839
▁ахлагч	-9.82917
▁сүү	-9.82953
Нямдорж	-9.82972
▁бичигт	-9.82977
▁болоогүй	-9.83038
▁урьд	-9.83074
▁дипломат	-9.83079
▁чин	-9.83245
▁зургадугаар	-9.83248
12	-9.83276
▁мөнгөөр	-9.83288
▁буйгаа	-9.83338
Мөнх	-9.83354
▁Зэвсэгт	-9.83357
▁аравдугаар	-9.8338
▁хэдхэн	-9.83395
▁гэнэт	-9.83418
тайгаар	-9.83442
▁жирийн	-9.83485
▁болсныг	-9.83494
▁хэрэгжих	-9.83505
▁малтмалын	-9.8351
Алтай	-9.83619
▁хүргэе	-9.83652
▁бодсон	-9.8369
▁хянан	-9.83729
уулах	-9.83873
▁жилээс	-9.83905
▁дөрөв	-9.83935
▁туршлагатай	-9.84038
Сайханбилэг	-9.8406
▁мэдээлсэн	-9.84064
G	-9.84113
чихаад	-9.84315
▁өөрчилж	-9.84316
▁11-	-9.84366
▁ж	-9.84444
15	-9.84459
▁адилхан	-9.8451
▁ая	-9.84517
▁болгоно	-9.84538
9	-9.84657
▁байтал	-9.84712
▁гүйцэтгэгч	-9.84728
▁Нам	-9.84731
▁хоолой	-9.84739
▁ХК	-9.84751
▁мастер	-9.84762
рах	-9.84824
▁5.	-9.84887
ог	-9.84934
▁байцаагч	-9.85031
▁хэлэлцүүлэгт	-9.85077
▁оновчтой	-9.85092
▁дайн	-9.85125
E	-9.8514
01	-9.85185
лэж	-9.85188
▁суралцаж	-9.85219
▁байрыг	-9.85254
▁оруулалтыг	-9.85271
t	-9.85295
▁бохир	-9.85296
40	-9.85328
M	-9.85365
маа	-9.85394
▁илтгэл	-9.85395
▁эрсдэлтэй	-9.85427
▁хаяг	-9.85428
▁Аж	-9.8543
▁Алтай	-9.85477
▁бурхан	-9.85522
▁сурагч	-9.8555
эм	-9.85588
▁хаврын	-9.85598
нийг	-9.85655
▁судлах	-9.8566
дийн	-9.85677
Та	-9.85707
▁үүсч	-9.8571
▁сэдвээр	-9.85767
▁эхчүүд	-9.85788
▁хэрэгцээ	-9.85837
▁асуултад	-9.85849
▁харамсалтай	-9.85882
Алтан	-9.8594
▁удаагаа	-9.85946
▁тулгамдсан	-9.85946
▁Найрамдах	-9.85973
уур	-9.86037
▁Германы	-9.86113
▁дэвших	-9.86117
▁даргад	-9.86135
▁чөлөөтэй	-9.86172
▁салхи	-9.86245
▁тайлан	-9.86278
Их	-9.86385
▁даргыг	-9.86397
▁12-	-9.86403
▁бохирдол	-9.86492
▁байдлаас	-9.86497
жиж	-9.86561
▁хураалт	-9.86563
лээд	-9.86609
▁багц	-9.86628
▁сонгосон	-9.8674
Бид	-9.86931
▁хаагчдын	-9.86949
▁36	-9.86961
▁нөхцөлийг	-9.86965
▁Хурал	-9.87009
▁хэвшлийн	-9.87018
▁ажилдаа	-9.87058
▁Эхний	-9.87093
▁мэдээллээр	-9.87104
хи	-9.87119
ул	-9.87177
▁эл	-9.87199
▁бөмбөг	-9.87204
▁сонссон	-9.87309
▁дайны	-9.8733
▁телевизийн	-9.87367
▁гуай	-9.8738
▁бэрхшээл	-9.87398
▁баатар	-9.8747
▁сонгож	-9.87481
▁ариун	-9.875
▁гадаадад	-9.87508
▁тэжээл	-9.87513
▁Ар	-9.87523
▁Герман	-9.87537
▁нийцсэн	-9.87561
▁ярилцлага	-9.87572
▁D	-9.87634
▁худал	-9.87634
▁луу	-9.87719
▁зав	-9.87744
▁цэцэг	-9.87796
▁даван	-9.87796
▁нэгжийн	-9.87813
▁арслан	-9.8785
▁болоход	-9.87891
▁албаныхан	-9.87896
▁Гал	-9.87987
▁хүндрэлтэй	-9.88074
▁ажлууд	-9.88086
▁тоглох	-9.88093
▁танилцууллаа	-9.88109
▁Мал	-9.88142
▁сайдыг	-9.88189
ри	-9.88207
▁Си	-9.88237
▁эхлүүлсэн	-9.88278
▁65	-9.88368
▁ядуу	-9.88398
Я	-9.88443
▁онцлон	-9.88445
▁унасан	-9.88454
▁4-	-9.88493
▁төрөлд	-9.88749
▁тасралтгүй	-9.88784
ив	-9.88787
▁төсвөөс	-9.8879
▁тоглоом	-9.88796
▁хатан	-9.88845
Очир	-9.88857
▁гаргажээ	-9.88875
50	-9.88888
▁ачаа	-9.88906
▁хараат	-9.88989
▁стратегийн	-9.89091
▁07	-9.89127
гар	-9.89162
▁захирагч	-9.89185
▁үзнэ	-9.89244
▁хүрэхгүй	-9.89278
▁Өмнөговь	-9.89356
▁бичгийг	-9.89418
▁үзүүлдэг	-9.89471
▁танхим	-9.89585
▁хийлгэх	-9.89613
▁Магадгүй	-9.89712
гч	-9.89771
ус	-9.89847
▁өгчээ	-9.90016
▁1990	-9.90059
▁алдарт	-9.90061
▁2019	-9.90121
▁инженер	-9.90198
ун	-9.90219
▁зай	-9.90252
▁сонсох	-9.90272
▁мужийн	-9.90281
дөг	-9.90287
▁ардын	-9.90497
▁нийслэлд	-9.90504
▁хүүхэдтэй	-9.90546
▁байгуулан	-9.90564
▁хороолол	-9.90581
▁эрэлт	-9.90607
ъя	-9.9065
▁31	-9.90704
ис	-9.908
▁чанарыг	-9.90815
▁хамгаалахын	-9.90845
▁хятад	-9.90875
▁групп	-9.909
▁эрдэмтэд	-9.90989
▁үргэлжлүүлэн	-9.91131
▁F	-9.91198
иг	-9.91309
▁хурд	-9.91475
▁тэгээд	-9.91483
▁ипотекийн	-9.91556
03	-9.91671
▁хямрал	-9.91725
25	-9.91767
▁захиргаа	-9.91786
▁16-	-9.91853
▁суудал	-9.91896
▁үйлийг	-9.91908
▁мэдэл	-9.91934
▁илэрхийлэх	-9.92012
▁хөгжим	-9.92037
▁хандив	-9.92047
▁төгс	-9.92085
▁танил	-9.92095
▁баян	-9.921
▁чанга	-9.92141
▁анхаарлаа	-9.92158
▁хүргэсэн	-9.92204
▁банкнаас	-9.92296
▁санхүүжилтийн	-9.92306
▁48	-9.92351
▁ёслол	-9.92364
▁асуудалтай	-9.92406
▁судалгаагаар	-9.92474
▁хэлэлцүүлгийг	-9.92494
▁БИЧИХ	-9.92541
▁намууд	-9.92593
▁Захирагч	-9.92607
▁чуулга	-9.92611
▁нэгэнт	-9.92663
▁Налайх	-9.927
▁хүүгийн	-9.92757
▁уулзалтад	-9.92767
▁гараа	-9.92808
▁шилжүүлэн	-9.92814
▁шашны	-9.92864
▁дийлэнх	-9.92865
▁оффшор	-9.92893
▁оролцогч	-9.92919
▁гэрээнд	-9.92968
▁бэлтгэж	-9.92972
▁бэлгийн	-9.92989
▁шийдэл	-9.92991
▁дөнгөж	-9.93058
▁ХОТ	-9.93096
▁түвшний	-9.93115
▁УЛААНБААТАР	-9.93125
▁орших	-9.93125
▁6-	-9.93149
▁асуудлуудыг	-9.93176
▁дугуй	-9.93178
▁Боловсролын	-9.93214
▁эмчилгээний	-9.93251
▁үнэлж	-9.93356
лсан	-9.93361
▁сонгуулиар	-9.93415
Ганбаатар	-9.93435
▁тахиа	-9.93472
▁зөрчиж	-9.9352
таа	-9.9354
▁уулзах	-9.93549
▁Нэр	-9.93554
▁нартай	-9.93617
▁09	-9.93644
▁цогц	-9.93674
▁буу	-9.93725
▁түүхийн	-9.93759
▁суусан	-9.9377
▁Санхүүгийн	-9.93779
▁үзлэг	-9.93779
▁сайтай	-9.93834
▁санамж	-9.94028
▁танилцуулна	-9.9403
▁чаддаггүй	-9.9404
▁in	-9.94042
▁G	-9.94078
▁Монголбанк	-9.94085
▁ажлуудыг	-9.94092
▁алдартай	-9.94094
▁зарлаж	-9.94145
02	-9.94159
▁Тэс	-9.942
▁ургамал	-9.94235
▁75	-9.94239
▁хамрагдсан	-9.9427
▁гаргана	-9.94396
▁авлига	-9.944
▁МУИС	-9.94413
▁галт	-9.94494
▁болтол	-9.94494
▁бүрдсэн	-9.9463
▁сонгодог	-9.94648
▁санаж	-9.9473
▁ээлжинд	-9.94734
▁байшин	-9.94737
▁дулааны	-9.94742
▁арилгах	-9.94849
▁үйлдвэрлэх	-9.94856
дэж	-9.9491
▁үүсэх	-9.95092
▁хэрээр	-9.95095
▁Тавантолгойн	-9.95161
▁бор	-9.95174
▁хэрэгжүүлэхээр	-9.95265
▁буудлын	-9.95291
▁хэрэглэсэн	-9.95404
▁чадалтай	-9.95508
▁өргөдөл	-9.95673
лон	-9.95727
өн	-9.95817
▁авалт	-9.95852
▁Уулзалтын	-9.95887
▁алдагдал	-9.95895
▁орлоготой	-9.95966
▁дагаад	-9.96008
▁илүүтэй	-9.96078
▁оролцлоо	-9.96108
▁шалгуур	-9.96112
▁Архангай	-9.96147
рч	-9.96147
F	-9.96168
▁тэнгэр	-9.96227
▁авахгүй	-9.96235
▁тусламжийн	-9.96255
▁тэргүүний	-9.96282
▁хэрэгжүүлэхэд	-9.96312
лох	-9.96385
▁55	-9.964
▁халамж	-9.96408
▁шаардаж	-9.96587
▁өмчит	-9.96671
▁зурсан	-9.96688
▁үйлд	-9.96701
▁байрт	-9.96709
▁гэм	-9.96717
▁үйлчлэх	-9.96736
▁монголчуудын	-9.96738
▁ёслолын	-9.96753
▁идэх	-9.96821
▁эхийн	-9.96823
▁тусам	-9.96823
▁уух	-9.9688
▁амархан	-9.97096
▁загварын	-9.97103
▁зуны	-9.97157
▁төлөвлөлт	-9.97177
▁Намайг	-9.97329
инд	-9.97347
▁Хүмүүс	-9.97358
▁зохиол	-9.97377
▁хорооноос	-9.97397
▁экспортын	-9.97408
▁тушаалын	-9.97437
▁нэгдэж	-9.97439
▁гаригт	-9.97468
▁уншиж	-9.97524
▁бүрэлдэхүүн	-9.97561
сныг	-9.9758
▁нээлтийн	-9.97597
▁журмыг	-9.97743
▁онцлогтой	-9.9776
▁99	-9.97775
снаас	-9.97849
хны	-9.97933
▁санааг	-9.9795
▁орчмын	-9.98035
▁таслан	-9.98037
in	-9.98087
▁өнөөдрийг	-9.98136
▁газрууд	-9.98137
▁харагдах	-9.9822
ныг	-9.98253
▁наймаа	-9.98309
▁хурлыг	-9.98348
уулсан	-9.98349
▁ажлаас	-9.98354
▁өөрт	-9.98367
▁шийдвэрлэж	-9.98371
▁талууд	-9.9838
▁түмэнд	-9.98395
▁цалинг	-9.984
0	-9.9842
▁эгч	-9.98467
ю	-9.98586
▁багт	-9.9861
тэн	-9.98634
▁Богд	-9.98639
▁Дархадын	-9.98642
▁6.	-9.98643
▁хасах	-9.98699
▁шалтгаанаар	-9.98707
▁танилцуулах	-9.98752
▁зориулалтын	-9.98776
үүл	-9.98792
▁төрж	-9.98806
▁гүүр	-9.98834
▁АСЕМ	-9.9884
▁анхаарлыг	-9.98909
алж	-9.98927
▁Улаанбаатарт	-9.9893
▁дэлгүүр	-9.99055
▁a	-9.99085
▁данс	-9.9918
▁түрүүлж	-9.9919
▁бондын	-9.99207
▁муухай	-9.99228
▁онцолсон	-9.99274
▁багтсан	-9.99278
▁төлбөрийг	-9.99314
▁оролцоно	-9.99329
тон	-9.99333
▁мэндэд	-9.99459
▁амьсгал	-9.99462
▁нэгжүүд	-9.9955
▁хэрэглэгч	-9.99608
▁хандан	-9.99621
▁E	-9.99639
▁бод	-9.99759
▁хүргүүлсэн	-9.99767
▁сур	-9.99798
▁амьдралыг	-9.9981
▁оролцоог	-9.99821
▁Өмнөх	-9.99835
▁мөрөө	-9.99927
▁нээлт	-9.99927
▁эртний	-9.99936
▁татварыг	-10.0006
▁ажилтай	-10.0009
▁албанаас	-10.001
ель	-10.0011
▁илэрсэн	-10.0012
▁сонирхлын	-10.0018
▁клуб	-10.0019
▁Америк	-10.0029
ом	-10.0029
▁хаалга	-10.0034
▁тохирсон	-10.0035
▁төлөвтэй	-10.0042
T	-10.0045
▁генерал	-10.0052
▁саналын	-10.0054
▁сургуулийг	-10.0055
▁байгаагаар	-10.006
▁P	-10.0066
▁даруй	-10.0067
▁жимс	-10.0068
Болд	-10.0073
▁Хол	-10.0074
▁улсыг	-10.0074
▁мэдрэмж	-10.0076
жих	-10.0077
▁Франц	-10.0078
▁120	-10.0079
▁таагүй	-10.0082
▁06	-10.0087
▁байгуулагдаж	-10.0092
▁ярилцлаа	-10.0093
▁тавиад	-10.0096
▁орчмоор	-10.0097
▁3-8	-10.01
m	-10.0102
▁сэдэв	-10.0108
▁Бүр	-10.0113
an	-10.0114
▁хадгалж	-10.0119
▁13-	-10.0121
уй	-10.0124
▁тоогоор	-10.013
▁зарчмын	-10.0132
▁хуралдаж	-10.0134
▁талаараа	-10.0136
com	-10.014
▁тэмцэл	-10.0142
▁улирлын	-10.0146
▁тойрог	-10.0148
▁боловсронгуй	-10.0149
▁Сан	-10.0151
▁засгаа	-10.0157
d	-10.0164
▁тушаалтан	-10.0173
▁жагсаал	-10.0176
ен	-10.0194
▁хараа	-10.0194
▁Францын	-10.0204
▁үгээр	-10.0204
▁гараагүй	-10.0205
▁Ким	-10.0207
▁уулзсан	-10.0214
▁гаалийн	-10.0217
▁төрөх	-10.022
▁Төмөр	-10.0223
▁ордон	-10.0225
▁аваргын	-10.0227
ман	-10.0232
▁7-	-10.0235
▁Ли	-10.0236
▁Идэр	-10.0237
▁14-	-10.0239
▁комиссын	-10.024
▁гэрт	-10.0243
▁санааны	-10.0246
▁байтугай	-10.0246
▁хэлэлцэн	-10.0247
▁прокурорын	-10.0248
▁цаас	-10.0251
▁итгэх	-10.0252
▁хайх	-10.0254
▁зөвлөмж	-10.0259
▁эрчимтэй	-10.0262
▁02	-10.0266
▁ирээдүйн	-10.0267
–	-10.0273
▁хуурамч	-10.0277
тын	-10.0285
▁араас	-10.0286
▁огцом	-10.0289
▁жишиг	-10.0293
▁явдлыг	-10.0296
▁төлсөн	-10.03
▁2007	-10.0308
▁T	-10.0309
▁Тэнд	-10.031
▁урам	-10.0312
19	-10.0312
▁Хөдөлмөр	-10.0318
▁түүнийгээ	-10.033
▁зүйлээ	-10.033
▁зэвсэг	-10.0338
▁эрхгүй	-10.0339
▁харуулсан	-10.0339
▁Бат	-10.0341
▁ойрхон	-10.0341
▁эмзэг	-10.0357
▁хамааралтай	-10.0361
▁Утас	-10.0367
▁суулгах	-10.037
▁амин	-10.0374
▁урамшуулал	-10.0378
▁илэрхийллээ	-10.038
лт	-10.0382
▁хавар	-10.0382
▁хөлс	-10.0382
▁аваагүй	-10.0388
▁нийлүүлэх	-10.0389
▁төл	-10.0393
▁дарж	-10.0396
▁биед	-10.04
▁хөгжилтэй	-10.0401
▁судалгааг	-10.0406
▁төдий	-10.041
▁өвс	-10.0413
ко	-10.0417
▁муутай	-10.0417
▁томилогдсон	-10.042
▁Энэтхэг	-10.0423
▁байсаар	-10.0428
▁Аливаа	-10.0428
ох	-10.0437
▁болгодог	-10.0439
▁Шүүх	-10.0442
▁хувилбар	-10.0445
▁ажиллахаар	-10.0447
▁үс	-10.0455
▁үнэгүй	-10.0458
▁насыг	-10.0462
ни	-10.0463
▁экспорт	-10.0477
▁08	-10.0483
▁хэрнээ	-10.0484
▁зүтгэж	-10.0486
▁хариуцлагыг	-10.0486
▁Tweet	-10.0486
▁22-	-10.0488
▁газартай	-10.0489
▁нийтлэг	-10.049
эс	-10.0491
▁тас	-10.0492
▁тушаалд	-10.0492
▁сэргээн	-10.0493
▁аян	-10.0494
▁дэвшүүлсэн	-10.0494
▁гахай	-10.0494
▁санаачлан	-10.0495
ст	-10.05
▁ДНБ	-10.0502
▁оюуны	-10.0504
▁болой	-10.0506
ей	-10.0507
▁8-	-10.0507
▁системийг	-10.0509
▁Баянхонгор	-10.0512
▁бариад	-10.0512
▁10-15	-10.0515
▁гаргавал	-10.0516
▁зааснаар	-10.0518
▁бүтээлийн	-10.0521
▁хамтлаг	-10.0531
гоор	-10.0536
▁хүрээлэнгийн	-10.0539
▁могой	-10.054
▁тайлбарлаж	-10.0543
▁мэдэгдлээ	-10.0546
▁хязгаар	-10.0551
▁хурц	-10.0551
▁талдаа	-10.0553
▁намаас	-10.0557
▁жаргалтай	-10.0561
▁Оюутолгойн	-10.0563
▁оюутны	-10.0569
▁профессор	-10.0575
▁буцаан	-10.0577
▁төлөвлөлтийн	-10.0578
▁38	-10.0581
▁орлогыг	-10.0582
Манай	-10.0583
▁тооллын	-10.0588
▁албыг	-10.0589
▁бүртгэлтэй	-10.059
▁найруулагч	-10.0592
▁иргэдээс	-10.0593
рал	-10.0593
▁оруулагч	-10.0602
▁хан	-10.0606
▁Дэлхий	-10.0607
▁өвчлөл	-10.0611
▁II	-10.0613
▁Бороо	-10.0616
▁тоглолтын	-10.0616
▁хүндтэй	-10.0621
▁Соёлын	-10.0622
▁42	-10.0625
▁зарцуулсан	-10.0626
▁ажиллуулах	-10.063
▁Үр	-10.0633
▁шинэчлэлийн	-10.0635
▁ослын	-10.0636
▁Хур	-10.0646
▁олонх	-10.0657
▁яахав	-10.0663
▁тулгамдаж	-10.0663
▁Турк	-10.0664
▁туслалцаа	-10.0666
▁орчимд	-10.0669
▁9-	-10.0676
▁зургийн	-10.0678
▁гэмтэл	-10.068
эж	-10.0681
▁оюутнууд	-10.0684
▁ихэд	-10.0687
▁зовлон	-10.0688
▁тэгж	-10.0693
▁хүчирхэг	-10.0698
▁Хөдөө	-10.0698
▁хэрүүл	-10.0708
▁тулгарч	-10.0711
▁Жон	-10.0713
▁тодорхойлж	-10.0713
▁хугацаандаа	-10.0718
▁түүхийг	-10.072
▁удирдаж	-10.0721
▁банкинд	-10.0727
▁цагаа	-10.073
▁хийхгүй	-10.0735
ик	-10.0736
▁харилцаанд	-10.0736
▁мэдэгджээ	-10.074
▁Цэргийн	-10.0741
▁зөвлөж	-10.0744
өг	-10.0744
V	-10.0747
▁Өөр	-10.0751
▁системийн	-10.0751
▁ээлтэй	-10.0752
▁й	-10.0753
▁сэтгүүл	-10.076
▁19-	-10.0761
▁Дашрамд	-10.0764
▁бууруулж	-10.0769
▁Ам	-10.0771
▁сахилга	-10.0771
▁малчид	-10.0775
▁2-3	-10.078
оод	-10.0788
▁дундуур	-10.079
▁үүсгэж	-10.079
▁намрын	-10.0792
▁өрөөнд	-10.0797
▁Ю	-10.0798
хар	-10.0805
▁үйлчилгээнд	-10.0805
▁21-	-10.0806
▁...	-10.0808
▁наран	-10.0818
▁байгаатай	-10.082
▁хүртэж	-10.0822
агч	-10.0826
лыг	-10.0828
ян	-10.0831
▁эрхэлж	-10.0832
▁жаргал	-10.0833
▁2006	-10.0833
▁өрсөлдөж	-10.0834
▁дүгнэж	-10.0837
▁Тэрэлж	-10.0837
▁утасны	-10.0838
▁прокурор	-10.0847
▁тэмдэглэж	-10.0853
▁нуурын	-10.0856
▁туулай	-10.0856
▁мэд	-10.0858
▁даралт	-10.0861
▁шилжүүлсэн	-10.0861
▁дүнгээр	-10.0864
▁талыг	-10.0866
▁тэргүүлэх	-10.0866
▁28-	-10.0868
▁4-9	-10.0875
▁тогтсон	-10.0876
▁үнэндээ	-10.0877
▁анхааруулж	-10.0878
▁тууштай	-10.0881
▁сэдэвт	-10.0883
▁хялбар	-10.0883
▁бодолтой	-10.0885
▁Хоёрдугаарт	-10.0892
▁охид	-10.0893
22	-10.0895
▁харгалзан	-10.0898
▁Гурван	-10.0902
▁хуулиа	-10.0903
▁хүрээд	-10.0906
▁түүнтэй	-10.0908
▁иргэнийг	-10.0914
▁урагш	-10.0914
▁хөгжих	-10.0918
▁к	-10.0919
▁зогсоож	-10.0923
▁эзэмшиж	-10.0924
▁өөрчлөлтийг	-10.0928
▁сонсож	-10.093
▁найдаж	-10.0934
▁өгөхийг	-10.0936
▁алдах	-10.0939
▁Халх	-10.094
▁түгээх	-10.0942
хай	-10.0945
▁хүсвэл	-10.0946
▁өмгөөлөгч	-10.0946
дэх	-10.095
▁37	-10.0955
▁хүлээлгэн	-10.0958
▁барилдаан	-10.096
▁төвөөс	-10.0962
▁0-5	-10.0964
▁байгууллаа	-10.0966
Үүл	-10.0966
▁бичих	-10.0971
▁хүнээс	-10.0972
▁хүмүүстэй	-10.0975
▁ажилчид	-10.0978
үн	-10.0979
N	-10.0984
▁жинд	-10.0987
аль	-10.0989
▁компанийг	-10.0991
▁хоосон	-10.1
▁эхлүүлэх	-10.1004
▁махны	-10.1004
▁үгэндээ	-10.1007
▁химийн	-10.101
▁бяцхан	-10.1011
чихсэн	-10.1013
24	-10.1014
▁холбогдож	-10.1015
▁хулгай	-10.1017
▁даалгавар	-10.1017
▁унах	-10.1031
▁танилцаж	-10.1032
ак	-10.1033
▁амралт	-10.1036
▁хуур	-10.1038
▁суурилсан	-10.104
луулж	-10.1041
▁Өвөрхангай	-10.1044
▁бүтцийг	-10.1046
▁хотыг	-10.1052
▁Трамп	-10.1054
Батбаяр	-10.1057
Ф	-10.1058
▁Дэд	-10.1059
▁тавьдаг	-10.1067
▁ашигладаг	-10.1068
▁идэж	-10.1074
▁хориглосон	-10.1074
лийг	-10.1077
16	-10.1079
▁Авто	-10.108
▁чих	-10.1084
▁хөндий	-10.1086
▁дэг	-10.1094
▁говь	-10.1103
▁шатахуун	-10.1103
L	-10.1104
▁дэмжин	-10.1107
▁байдлаа	-10.1108
▁стандартын	-10.111
▁ашгийн	-10.1111
гаад	-10.1111
▁мэдээлснээр	-10.1111
▁товч	-10.1114
▁шил	-10.1118
▁хүүхдүүдэд	-10.1122
▁Аав	-10.1128
доллараар	-10.113
▁01	-10.1135
▁буян	-10.1143
▁хамрагдаж	-10.1143
▁Боловсрол	-10.1145
▁Дорноговь	-10.1146
руу	-10.1147
▁V	-10.1151
▁Ямартай	-10.1154
▁хэлэлцсэн	-10.1157
▁доош	-10.116
▁хос	-10.116
▁тийш	-10.1165
▁шашин	-10.1166
▁өсөлтийг	-10.1167
▁мөрдөх	-10.1168
▁эрхлэгчид	-10.1172
▁угаах	-10.1186
▁бусдыг	-10.1187
▁буруутай	-10.1189
▁Удирдах	-10.1189
▁ирээдүй	-10.1189
▁05	-10.1192
Баасанхүү	-10.1195
▁дэргэдэх	-10.1201
▁утаа	-10.1207
▁цаашдын	-10.1212
▁төсвийг	-10.1214
▁тохиромжтой	-10.1219
дыг	-10.122
R	-10.1221
▁зүйлсийг	-10.1224
▁иж	-10.1231
▁Гар	-10.1232
▁Татварын	-10.1233
▁цахилгаантай	-10.1236
▁амьтны	-10.1237
▁хамруулах	-10.1241
▁зарж	-10.1242
▁шатахууны	-10.1247
шил	-10.125
▁29-	-10.1251
▁эрхтэн	-10.1254
Мөнхбат	-10.1269
хөн	-10.1269
▁шинийн	-10.1274
▁түймэр	-10.1274
▁медалийн	-10.1276
▁Танай	-10.1278
▁багтаж	-10.1278
▁онцоллоо	-10.1281
▁саналаар	-10.1283
▁Хүнс	-10.1289
▁гишүүнээр	-10.1289
▁Алтан	-10.1291
▁шилжих	-10.1294
▁хүндэтгэл	-10.1294
▁мэдээлэв	-10.1296
K	-10.1297
Баяр	-10.1297
▁санаачилга	-10.13
▁худлаа	-10.13
▁жилээр	-10.1301
▁дүрс	-10.1302
▁байгууллагуудад	-10.1304
▁хөгжүүлж	-10.1305
▁76	-10.1306
▁ардчилал	-10.1318
▁өвөрмөц	-10.1336
▁энх	-10.1337
▁талбайг	-10.1337
▁24-	-10.1343
тер	-10.1347
▁менежер	-10.1349
▁Эр	-10.1349
▁шоу	-10.1353
▁тэргүүлж	-10.1356
▁сургалтад	-10.1358
▁хянах	-10.1358
▁зун	-10.1368
▁өртсөн	-10.1371
Чингис	-10.1375
чил	-10.1376
▁цаашлаад	-10.1388
14	-10.1389
шиж	-10.1392
ев	-10.1394
▁ирэхэд	-10.1395
▁эсэргүүцэж	-10.14
▁карт	-10.1406
▁26-	-10.1406
та	-10.1408
▁дургүй	-10.1409
▁ирээдүйд	-10.1409
▁өргөж	-10.1411
▁бүртгэгдсэн	-10.1413
▁хэрэгслээр	-10.1417
▁бонд	-10.142
өх	-10.1423
▁Ү	-10.143
▁кинонд	-10.1433
▁технологийг	-10.1435
▁эзэмшлийн	-10.1442
▁хашаа	-10.1444
▁см	-10.1463
27	-10.1464
▁Том	-10.1465
▁ул	-10.1467
▁хэдийнэ	-10.1468
18	-10.147
-19	-10.1472
▁эрсдэлийг	-10.1476
▁алтны	-10.1478
снээр	-10.1481
▁цаашдаа	-10.1484
▁давсан	-10.1486
▁хангамж	-10.1487
▁морин	-10.1489
▁царай	-10.149
▁хэлье	-10.1493
▁дамжуулах	-10.1507
оороо	-10.1509
▁төвийг	-10.1512
▁нөлөөлсөн	-10.152
▁мэдсэн	-10.1521
өл	-10.1525
йл	-10.1525
▁шөнийн	-10.1527
▁цэнгэлдэх	-10.1528
▁байгууламжийн	-10.1528
▁Хараа	-10.153
▁харвал	-10.1532
▁бүтээж	-10.1534
▁үйлдвэрлэж	-10.1537
бал	-10.1538
▁хийжээ	-10.1544
▁ойг	-10.1548
▁англи	-10.1554
▁согтууруулах	-10.1559
▁хэсгээс	-10.156
▁тэдгээр	-10.156
▁өргөжүүлэх	-10.156
▁багасгах	-10.1562
▁толгойн	-10.1564
▁хийгээгүй	-10.1567
▁Нийтийн	-10.1573
▁тутамд	-10.1577
▁Ээж	-10.1578
▁наад	-10.1585
нөөс	-10.1586
▁үлдэж	-10.1588
▁дээгүүр	-10.159
даггүй	-10.159
▁Европ	-10.1592
▁улстөрийн	-10.1594
://	-10.1595
▁дэвшил	-10.1595
▁17-	-10.1597
▁эхлэл	-10.1599
▁буйгаар	-10.1601
▁ихэвчлэн	-10.1607
p	-10.1608
▁телевиз	-10.1612
Өлгий	-10.1616
▁төлөөх	-10.1616
▁эрхэлсэн	-10.1616
▁эзэмшигч	-10.162
▁төлбөргүй	-10.1622
▁заасны	-10.1626
en	-10.1626
▁уулзалтыг	-10.1627
▁харагддаг	-10.1627
▁нөлөөлдөг	-10.1629
▁Саяхан	-10.1629
Төрийн	-10.1631
▁Аймгийн	-10.1633
▁хааж	-10.1634
▁засал	-10.1635
▁дээл	-10.1636
▁хулгана	-10.1643
▁хамгаалагч	-10.1645
▁гүйцэтгэсэн	-10.1645
/-	-10.1648
▁хүчээ	-10.1649
▁Оюутолгой	-10.1652
ф	-10.1653
or	-10.1656
▁ийн	-10.1662
▁хийхийг	-10.1663
▁идээ	-10.1664
▁зүгийн	-10.1671
13	-10.1673
▁үзэн	-10.1679
▁өөрөөр	-10.1679
▁жагсаалтад	-10.1684
▁гарт	-10.1684
▁мэндийг	-10.1689
▁бүрэлдэхүүнд	-10.1694
жиг	-10.1696
▁шүүхээс	-10.1697
▁өг	-10.1699
▁тоглосон	-10.1701
▁нэгдэл	-10.1701
▁үйлдлийг	-10.1705
үй	-10.1705
▁баригдсан	-10.1716
▁800	-10.1721
r	-10.1721
▁нийгмийг	-10.1728
▁айлчлалын	-10.173
▁Хот	-10.1732
▁байгуулдаг	-10.1733
▁үүсгэх	-10.1736
▁гарахгүй	-10.1738
▁нээх	-10.1739
▁бал	-10.1739
▁бууж	-10.1741
▁хотоос	-10.1742
▁Өөрийн	-10.1742
Улсын	-10.1744
▁банкууд	-10.1749
▁өрнөж	-10.1749
▁хэрэглээг	-10.1752
▁улирал	-10.1752
▁үз	-10.1754
▁тавин	-10.1758
▁шүүмжлэл	-10.176
▁хүрээгүй	-10.1761
▁гаднаас	-10.1762
▁цөөхөн	-10.1766
▁хүсье	-10.177
▁нягт	-10.1772
▁болгоод	-10.1779
▁Улсаас	-10.178
▁эргэлт	-10.1784
▁э	-10.1791
)-	-10.1792
▁Агаарын	-10.1793
60	-10.1796
▁дуусах	-10.1801
▁агентлагийн	-10.1805
▁зөрүүтэй	-10.1812
▁Умард	-10.1816
▁мэдэлд	-10.1819
▁ашиглалтын	-10.1828
17	-10.1833
▁1.5	-10.1833
▁багтаан	-10.1833
▁тоглогч	-10.1834
▁өвөл	-10.1835
▁өсөх	-10.1835
▁Хэнтийн	-10.1837
үүлж	-10.1839
▁солих	-10.1839
▁хуурай	-10.1841
▁хэчнээн	-10.1844
▁минутын	-10.1852
▁яв	-10.1858
Е	-10.1865
▁ө	-10.1869
▁өнгөрөх	-10.1871
le	-10.1878
▁шагналыг	-10.188
▁39	-10.1883
▁иргэнд	-10.1886
▁үйлдвэрийг	-10.189
▁зэс	-10.1891
лав	-10.1908
▁цагийг	-10.1911
▁баригч	-10.1918
▁орос	-10.1918
Миний	-10.192
▁баримталж	-10.1931
70	-10.1933
▁яс	-10.1938
▁Барилга	-10.194
▁усыг	-10.1944
ел	-10.1945
▁дараалан	-10.1949
▁тансаг	-10.1951
▁хэлэлцээ	-10.1957
▁харьяат	-10.1961
▁Өдөртөө	-10.1962
▁итгэлийг	-10.1962
▁зайд	-10.1964
▁Нэгдсэн	-10.1964
▁бэлтгэсэн	-10.1965
▁хувьцааны	-10.1968
▁дарна	-10.1975
▁гэхдээ	-10.1977
ГҮЙ	-10.1982
▁7.	-10.1982
▁эрчимжүүлэх	-10.1989
▁үнэмлэх	-10.1993
▁уриалж	-10.2007
▁хандлагатай	-10.201
ти	-10.2016
▁медальт	-10.2016
▁сэтгэлд	-10.2017
▁23-	-10.2022
▁сурталчилгаа	-10.2022
▁Ерөө	-10.2022
▁үүдэн	-10.2022
▁илт	-10.2029
▁27-	-10.2029
▁сүлжээний	-10.2029
▁зөвшөөрлийг	-10.2033
▁хэргээр	-10.2034
▁худалдах	-10.2036
b	-10.2038
▁ашигласан	-10.2038
▁найдвартай	-10.2039
▁хэмжээтэй	-10.2042
▁дэм	-10.2052
▁Солигдмол	-10.2058
▁эрэн	-10.2069
▁Үнэндээ	-10.2069
▁бодоод	-10.207
▁мэдүүлэг	-10.2071
▁хавдар	-10.2073
▁хэлжээ	-10.2074
▁гамшгийн	-10.2074
▁хэтэрхий	-10.2076
▁Ус	-10.2078
▁насаа	-10.2082
▁хэлэв	-10.2082
▁хүсэж	-10.2083
▁хагаст	-10.2083
▁57	-10.2084
▁ёсгүй	-10.2086
▁яаманд	-10.2087
▁хүүхдүүдийг	-10.2089
▁өөд	-10.209
▁бүрийг	-10.2091
▁тамир	-10.2092
▁үнэр	-10.2092
▁600	-10.2093
Оюун	-10.2093
илж	-10.2095
▁Нью	-10.2103
үүлэх	-10.2105
re	-10.2109
▁байдгийг	-10.212
▁элэг	-10.2122
ло	-10.2123
▁өөрчлөлтийн	-10.2126
▁тусмаа	-10.2127
▁овоо	-10.2129
▁ганцаараа	-10.2129
▁Эсвэл	-10.2143
▁зогсож	-10.2147
▁төлөвлөгөөг	-10.2147
▁идэвх	-10.215
▁өндөртэй	-10.2152
▁хөдөлгөөнийг	-10.2154
▁Маш	-10.2156
▁намар	-10.2156
▁эвсэл	-10.2156
▁ярилцсан	-10.2159
▁сүм	-10.2165
▁биелүүлж	-10.2175
▁төвшинд	-10.2177
▁хүрнэ	-10.2181
▁тоон	-10.2182
23	-10.2187
▁хайж	-10.2196
▁бүтээлчид	-10.2198
▁эхлүүлж	-10.2199
▁мэргэн	-10.2201
то	-10.2201
▁төрийг	-10.2204
▁хөгжүүлэхэд	-10.2205
▁муж	-10.2207
▁хаяж	-10.2208
▁хэрэгжилт	-10.2211
▁хөнгөлөлт	-10.2214
▁заан	-10.2218
мал	-10.2219
гий	-10.2222
▁уралдаанд	-10.2222
▁ОУХМ	-10.2222
▁хошуу	-10.2225
▁эвслийн	-10.223
НЫ	-10.2234
▁гарлаа	-10.2234
▁шим	-10.2241
▁найруулгын	-10.2244
▁хангалтгүй	-10.2245
▁солилцох	-10.2252
▁үйлдвэрлэлийг	-10.2252
▁байснаас	-10.2253
▁сурагчид	-10.2253
▁төрх	-10.2253
▁хойно	-10.2257
▁багшийн	-10.2257
▁арваннэгдүгээр	-10.2258
▁болчихоод	-10.2263
▁алдар	-10.2266
▁гаргахад	-10.2272
35	-10.2273
▁сурталчлах	-10.2274
▁манайх	-10.2275
▁нөөцийг	-10.2276
▁Юу	-10.2279
▁хүлээлт	-10.2286
▁байгуулахад	-10.2289
▁авлигын	-10.2301
▁чухам	-10.2302
▁борлуулах	-10.2304
▁Авлигатай	-10.2306
мээр	-10.2307
▁хэргээс	-10.2309
▁тэрэг	-10.2311
▁зарлах	-10.2311
▁тухтай	-10.2314
ма	-10.2314
▁аяга	-10.2317
▁компьютер	-10.2319
▁31-	-10.2319
▁шавь	-10.2322
лог	-10.2333
▁руугаа	-10.2339
бат	-10.2341
▁Сэтгэл	-10.2342
▁арванхоёрдугаар	-10.2357
▁баримтыг	-10.2357
▁суудаг	-10.2363
▁хүчийг	-10.2363
▁санагддаг	-10.2364
▁даатгал	-10.2367
▁бүтээлийг	-10.2368
▁таниулах	-10.237
▁52	-10.2384
рэн	-10.2385
▁шал	-10.2386
▁бодлогоор	-10.2388
▁залуусын	-10.2391
-1	-10.2394
▁эзлэх	-10.2395
▁барилгыг	-10.2399
▁буурах	-10.2402
▁шийтгэл	-10.2403
▁цэцийн	-10.2405
соор	-10.2417
▁вий	-10.2419
▁цохилт	-10.2419
▁хүндэт	-10.242
▁хариуцлагын	-10.2426
▁зогсоол	-10.2426
▁хэнд	-10.2428
раа	-10.2429
Баярсайхан	-10.2434
▁дэндүү	-10.2435
▁таалагдсан	-10.2436
иар	-10.2441
▁сануулж	-10.2441
▁илэрхийлэв	-10.2448
▁засаглал	-10.245
▁Нутгийн	-10.2452
▁дохио	-10.2453
▁сүлжээнд	-10.2455
ес	-10.2455
лэл	-10.2455
▁хүсдэг	-10.2456
▁бусдаас	-10.2458
▁ажиллуулж	-10.2461
энэ	-10.2462
▁үйлдэх	-10.2466
▁шалтгааныг	-10.2466
▁ЗХУ	-10.2466
▁хэлэлцээд	-10.2467
рэх	-10.2469
▁орныг	-10.2471
l	-10.2473
▁бүрдэх	-10.2473
аз	-10.2474
▁намд	-10.2477
▁Хайр	-10.2478
▁1-6	-10.2492
▁байгуулагч	-10.2495
▁Албан	-10.2497
үүдэд	-10.2499
▁дундаас	-10.2504
▁талт	-10.2505
▁бололцоо	-10.2512
▁агуулга	-10.2512
▁Британийн	-10.2516
▁улстөрчид	-10.2518
▁эрчүүд	-10.252
▁танилцуулав	-10.2525
▁зөвшөөрсөн	-10.2529
▁дурын	-10.2529
▁зарчмыг	-10.2535
▁вакцин	-10.2542
▁харуулах	-10.2543
▁захын	-10.2547
үүн	-10.2557
▁хүсэлтээ	-10.2557
▁нөхцлийг	-10.2558
▁хүндэтгэн	-10.2566
аарай	-10.2575
▁сургах	-10.2577
▁буудалд	-10.258
тэл	-10.259
O	-10.2593
▁Багавтар	-10.2594
▁15-20	-10.2599
▁эхэлдэг	-10.2603
▁цусны	-10.2606
▁дэвшүүлж	-10.2607
▁01-	-10.2608
▁бүгдээрээ	-10.2611
▁үндэстэн	-10.2613
▁2005	-10.2617
▁ханддаг	-10.2617
ба	-10.2622
▁найрагч	-10.2622
▁дэвшиж	-10.2623
УЛААН	-10.2624
▁43	-10.2624
▁хангалуун	-10.2626
тэйгээр	-10.2629
▁ган	-10.2631
жуулах	-10.2631
▁хохирогч	-10.2631
▁байгууллагыг	-10.2633
▁ярилаа	-10.2635
▁өгөөгүй	-10.2636
▁8-13	-10.2651
Шинэ	-10.2659
▁аудитын	-10.2671
▁санхүүжилтийг	-10.2674
▁төлөвлөгөөний	-10.268
▁олборлолт	-10.2683
▁хамаарч	-10.2685
▁дүрмийн	-10.2687
ра	-10.2692
▁журмаар	-10.2692
▁импортын	-10.2696
▁түлхүү	-10.2705
баатар	-10.2706
▁халамжийн	-10.2711
▁Сайд	-10.2712
▁виз	-10.2714
ё	-10.2715
▁дан	-10.2724
▁Өндөр	-10.2724
▁нэгний	-10.2724
алт	-10.2725
▁Ан	-10.2728
▁болсноор	-10.2733
▁тулгуур	-10.2736
▁хал	-10.2748
▁оргил	-10.2749
▁таг	-10.275
▁цахилгааны	-10.2751
▁хатагтай	-10.2751
▁нутгаас	-10.2755
▁танхимын	-10.2755
АН	-10.2758
▁цар	-10.2758
инг	-10.2759
▁олгоно	-10.276
▁комисс	-10.2764
▁амьдралаа	-10.2765
▁жүжиг	-10.2769
▁ойролцоо	-10.2773
▁амгалан	-10.2776
▁иргэдээ	-10.2776
▁хувьсгал	-10.2778
▁нэмэгдэнэ	-10.2779
иж	-10.2781
▁тэмцэж	-10.2784
▁өвчтэй	-10.2788
▁гадаа	-10.2788
ээгүй	-10.279
▁эрхт	-10.2793
▁чадал	-10.2794
▁талархаж	-10.2795
▁хандуулж	-10.2795
▁хээрийн	-10.2799
▁дандаа	-10.2801
▁хаанаас	-10.2805
▁өрсөлдөөн	-10.2807
▁үзжээ	-10.2815
▁анхаарлын	-10.2817
▁санхүүжүүлэх	-10.2817
▁эсхүл	-10.2818
▁Жил	-10.2821
▁мэргэшсэн	-10.2822
▁хад	-10.2826
▁ертөнцөд	-10.2827
▁тустай	-10.2831
▁вирус	-10.2832
▁14-16	-10.2833
▁иргэдийнхээ	-10.2833
▁ТУЗ	-10.2834
▁дотно	-10.2835
▁зохицуулалтыг	-10.2837
▁мэргэжилтэй	-10.284
▁үргэлжлүүлэх	-10.284
▁хоёрыг	-10.2841
▁тушаалтнууд	-10.2843
▁үйлчилж	-10.2844
▁Туркийн	-10.2845
▁хянаж	-10.2849
▁хуульч	-10.2849
▁Су	-10.2855
▁хамаг	-10.2871
сийн	-10.2871
▁Англи	-10.2873
▁төгсгөлд	-10.2877
▁доошгүй	-10.2878
▁тэрхүү	-10.2883
▁Эм	-10.2886
▁үйлдвэрлэгч	-10.2891
▁Жишээлбэл	-10.2891
▁Нийслэл	-10.2895
▁бүлэглэл	-10.2896
▁дуустал	-10.2898
▁элбэг	-10.29
▁нотлох	-10.2901
▁хүрээлэнд	-10.2902
▁Шар	-10.2907
▁тэмдэглэх	-10.2911
▁хийхдээ	-10.2913
▁зөрчлийг	-10.2914
▁сонирхлыг	-10.2914
▁2004	-10.2915
▁?	-10.2916
▁унших	-10.2923
▁одтой	-10.2925
29	-10.2932
▁шахам	-10.2933
уулан	-10.2936
▁44	-10.2937
▁туулах	-10.2937
ист	-10.2939
▁41	-10.294
▁дууны	-10.294
▁Өглөө	-10.2943
▁зүг	-10.2944
снээс	-10.2945
▁сайжруулж	-10.2947
▁мэдлийн	-10.2949
▁зээлээ	-10.2953
ож	-10.2956
▁гоол	-10.2956
▁сэтгэлийг	-10.2963
▁дар	-10.2974
▁өөрсдийгөө	-10.2977
▁доогуур	-10.2977
▁Гүйцэтгэх	-10.2978
▁Таныг	-10.298
▁зуурын	-10.298
▁250	-10.2981
▁инженерийн	-10.2985
хийн	-10.2986
баяр	-10.2988
▁мэтчилэн	-10.2994
▁Ноён	-10.2995
иас	-10.2995
▁баруунаас	-10.2998
▁цуврал	-10.2998
▁өрсөлдөгч	-10.3002
▁зөвшөөрч	-10.3002
Ө	-10.3005
▁s	-10.301
▁Билгийн	-10.3016
▁шир	-10.3018
өөрөө	-10.302
▁үүдэлтэй	-10.3023
▁тухайгаа	-10.3024
сүрэн	-10.3024
26	-10.3029
▁боловсролтой	-10.3029
▁Үс	-10.3035
▁Аюулгүй	-10.3048
▁нэрээ	-10.3052
▁жишээтэй	-10.3061
▁шингэн	-10.3061
▁ургац	-10.3067
▁түншлэлийн	-10.3067
▁хаягдал	-10.3071
▁хувьцааг	-10.3071
▁гурил	-10.3072
▁олонхи	-10.3072
▁Ерөнхийлөгчид	-10.3074
▁илгээх	-10.3086
▁бүрдэнэ	-10.3088
▁хамтлагийн	-10.309
▁шоронд	-10.3091
▁амтай	-10.3092
лгүй	-10.3097
▁холбооноос	-10.3104
▁ангилалд	-10.3106
▁явуулахад	-10.3108
▁ууж	-10.3113
лал	-10.3113
▁хөлөг	-10.3113
▁Шинжлэх	-10.3115
▁өнгөрч	-10.312
Хүрэлбаатар	-10.3126
▁хаах	-10.3129
▁театрын	-10.3129
▁сонины	-10.313
▁бодлогоо	-10.3132
▁000	-10.3134
▁ордыг	-10.3135
▁өнөөг	-10.3135
▁найруулга	-10.3141
ед	-10.3143
▁бичжээ	-10.3149
▁Ганц	-10.3149
▁танилцах	-10.3151
▁тохиож	-10.3151
▁бүрэлдэхүүнтэй	-10.3153
▁суудлын	-10.3155
▁тариалангийн	-10.3156
▁Худалдаа	-10.3157
ладаг	-10.3159
да	-10.316
▁урьж	-10.3172
▁Сар	-10.3172
▁болгоход	-10.3172
ИЙГ	-10.3173
эгч	-10.3179
▁хана	-10.318
▁засаглалын	-10.3181
▁ярилцах	-10.3181
▁буулгаж	-10.3182
▁хэлснээр	-10.3184
▁биелүүлэх	-10.3184
Амгалан	-10.319
от	-10.3191
▁Mongolian	-10.3198
вол	-10.3204
▁хурааж	-10.3205
▁хувьсгалын	-10.3207
▁Хөвсгөлийн	-10.3207
▁хүртлээ	-10.3211
▁тоглолтод	-10.3212
▁зэсийн	-10.3212
▁хэрэгслийг	-10.3213
▁хүйтнээс	-10.322
el	-10.3226
▁төлөөлөгчдийн	-10.3226
▁зарцуулж	-10.3232
▁явахад	-10.3233
▁туршилт	-10.3234
▁танилцуулга	-10.3234
▁тамхины	-10.3235
▁сөргөөр	-10.3235
▁гадуур	-10.3238
▁гэ	-10.324
▁үндэслэлээр	-10.324
▁явсаар	-10.3241
▁буулгах	-10.3244
▁борлуулалт	-10.3245
▁тушаалаар	-10.3247
▁ажилгүй	-10.3247
▁Хэлэлцэх	-10.3251
▁талаасаа	-10.3258
▁Путин	-10.3262
▁ялгаатай	-10.3267
▁цом	-10.3273
▁мандан	-10.3273
▁үргэлжилнэ	-10.3277
▁нутагтаа	-10.3282
▁Хэрлэн	-10.3283
▁Надад	-10.3283
▁тоонд	-10.3283
▁Ихэнх	-10.3289
▁Ал	-10.3291
▁дамжуулж	-10.3297
▁бүртгэх	-10.3299
▁харагдана	-10.3299
▁өргөтгөл	-10.3299
▁татвараас	-10.3307
▁үйлдвэрлэсэн	-10.3307
▁тодруулах	-10.3309
▁намынхаа	-10.3311
▁8.	-10.3312
▁тусгаж	-10.3314
▁агуу	-10.3316
▁п	-10.3317
▁чадлаа	-10.332
▁насандаа	-10.332
жилт	-10.3321
▁Хүрэн	-10.3323
▁төрүүлж	-10.3323
▁Багш	-10.3335
▁үеэрээ	-10.3336
чилж	-10.3339
▁төдийлөн	-10.334
▁дууг	-10.3341
▁компанитай	-10.3341
▁хамгаалалт	-10.3343
▁сонирхож	-10.3347
▁үнэнч	-10.3347
▁системд	-10.3351
▁учруулсан	-10.3355
▁хамаарах	-10.3357
▁бодлыг	-10.336
▁нэвтрүүлэг	-10.3361
▁хажуугаар	-10.3363
▁хичээж	-10.3364
▁гаргалаа	-10.3364
▁далай	-10.3364
▁олгохоор	-10.3364
▁хажууд	-10.3364
▁тогтоомжийн	-10.3367
▁онцлох	-10.3373
▁оршдог	-10.3377
80	-10.3377
▁тутам	-10.3378
▁зориулалтаар	-10.338
▁хардаг	-10.3387
▁НӨАТ	-10.3397
21	-10.3399
▁Москва	-10.34
▁аппарат	-10.3402
▁хилээр	-10.3409
▁хүнээ	-10.3411
ol	-10.3412
▁ядаж	-10.3412
рийн	-10.3413
▁эргүүлэн	-10.3413
▁олноор	-10.3416
▁нислэг	-10.3423
Ганхуяг	-10.3425
h	-10.3426
▁худалдаанд	-10.3427
▁ирээгүй	-10.3433
▁ардчиллын	-10.3441
▁Эцэст	-10.3442
▁53	-10.3444
вар	-10.3444
▁загас	-10.3447
▁амжилтыг	-10.3448
▁театр	-10.3449
▁захирамж	-10.345
▁унтраах	-10.345
▁экспортлох	-10.3456
өөд	-10.3458
▁шаардсан	-10.3458
▁авчирч	-10.3459
▁өгөөч	-10.3461
▁чадаж	-10.3461
▁тн	-10.3461
лөө	-10.3462
▁дэвсгэр	-10.3462
уд	-10.3462
▁гишүүдэд	-10.3469
нө	-10.3471
▁камер	-10.3474
▁жуулчлал	-10.3476
▁өсвөр	-10.3476
▁ц	-10.3478
▁зарах	-10.3497
▁хамарсан	-10.3498
▁шийдвэрийн	-10.3499
онд	-10.3504
▁оруулагчид	-10.3507
▁гэнэтийн	-10.3509
▁баялгийн	-10.351
▁цалингийн	-10.3511
▁14.00	-10.3513
▁тулгуурлан	-10.3518
▁Жижиг	-10.3522
▁бирж	-10.3525
ут	-10.3526
▁болголоо	-10.353
Ганбат	-10.3531
▁K	-10.3532
▁нэгдэн	-10.3533
▁зохиолын	-10.3536
гал	-10.3543
▁09.00	-10.3544
▁Бүрэн	-10.3544
▁эмээ	-10.355
жав	-10.3551
▁дадлага	-10.3553
▁Залуучуудын	-10.3553
▁өнгөрүүлэх	-10.3556
▁Хэнтэйн	-10.356
▁НУТАГ	-10.3563
▁хязгаарлах	-10.3564
▁тогтоолыг	-10.3565
▁Өчигдөр	-10.357
▁The	-10.3575
▁тэс	-10.3578
▁улсууд	-10.3578
▁хиймэл	-10.3579
▁сэргийлж	-10.3587
▁хэлнэ	-10.3588
▁сахиулах	-10.3595
▁зүгт	-10.36
▁ирц	-10.3608
▁болдоггүй	-10.3611
АА	-10.3614
▁13-18	-10.3614
▁автобусны	-10.3615
▁хичнээн	-10.3618
▁үүсээд	-10.3618
▁метрийн	-10.3618
луулах	-10.362
▁байснаа	-10.362
дгийг	-10.3623
▁адуу	-10.3624
▁дэглэм	-10.3625
гэн	-10.3627
▁Багануур	-10.3629
Улаан	-10.3636
лагч	-10.3637
▁элэгний	-10.3638
▁Уран	-10.3642
▁намуудын	-10.3643
▁өвчнөөс	-10.3656
▁9-14	-10.3656
▁Украины	-10.3657
▁бохирдлын	-10.3659
▁орчинг	-10.366
▁шуугиан	-10.3661
▁нэгийг	-10.3662
▁Төслийн	-10.3663
▁зүтгэл	-10.3663
▁шигээ	-10.3667
▁мэдэрч	-10.367
▁түлш	-10.3673
▁Эндээс	-10.3674
▁тэмдэглэн	-10.3674
▁гэрчилгээ	-10.3677
чихээд	-10.3678
▁өргөх	-10.3686
▁шалтгаалан	-10.3686
▁ертөнц	-10.3692
▁шийд	-10.3692
лүүлэх	-10.3704
▁өнгийн	-10.3714
▁бүлэгт	-10.3715
▁03	-10.3717
▁шүлэг	-10.3719
▁тогтоогдсон	-10.3731
▁хүртэх	-10.3731
▁тусгагдсан	-10.3732
▁ордын	-10.3735
▁хэвээрээ	-10.3737
үүлэн	-10.3746
лэсэн	-10.3746
▁төслүүдийн	-10.3748
▁засагч	-10.3748
▁хаалттай	-10.3756
ки	-10.3759
▁Мэдээллийн	-10.3775
▁асуулга	-10.3775
▁туйлын	-10.3782
ги	-10.3783
▁цоо	-10.3786
лага	-10.3788
▁шалгаруулалт	-10.3791
Эх	-10.3792
▁тохиолдуулан	-10.3792
▁үлдээх	-10.3793
гүйн	-10.3797
▁зуу	-10.3801
▁татгалзах	-10.3802
▁хөлсний	-10.3805
▁оролцдог	-10.3805
▁давс	-10.3806
▁тэжээлийн	-10.3807
нүүд	-10.3808
гэ	-10.3808
▁судалгаанд	-10.3815
▁Бие	-10.3816
▁мөнгөтэй	-10.3816
▁тов	-10.3816
ем	-10.3818
▁илрэл	-10.3821
▁төрлөөр	-10.3821
лүүлж	-10.3823
▁суугаад	-10.3823
▁зурах	-10.3825
▁холбох	-10.3827
▁ЗҮҮН	-10.3827
90	-10.383
▁задгай	-10.3831
▁өнөөх	-10.3833
хий	-10.3833
▁засч	-10.3837
▁наадмыг	-10.3839
▁04	-10.384
▁төхөөрөмжийг	-10.3841
▁байгуулагдах	-10.3842
▁гишүүнийг	-10.3844
▁очиход	-10.3845
▁газруудад	-10.3845
лин	-10.3851
▁мэргэжлээр	-10.3854
▁ололт	-10.3857
▁Ор	-10.3858
▁өөрийнх	-10.386
▁гишүүдийг	-10.3861
▁сургалтыг	-10.3861
▁зэрэгт	-10.3863
▁амлалт	-10.3868
▁Тэгсэн	-10.387
▁баталлаа	-10.3873
▁Сирийн	-10.3875
▁баасан	-10.3877
▁тусгах	-10.3883
ья	-10.3883
▁бүрдүүлсэн	-10.3888
▁буцааж	-10.389
▁баярлаж	-10.3891
▁Энэтхэгийн	-10.3891
▁барилдаанд	-10.3891
▁хэлмээр	-10.3892
эт	-10.3894
▁шийдвэрээ	-10.3894
▁зээлээр	-10.3894
▁нутгийг	-10.3897
▁хэлэлцүүлэх	-10.3899
▁хүслээ	-10.3904
▁тивийн	-10.3904
▁тогтворгүй	-10.3908
▁брэнд	-10.3909
▁өгөхөөр	-10.3911
▁хөшөө	-10.3911
▁Дэлгэрэнгүй	-10.3916
▁ирэхээр	-10.3917
▁хөрс	-10.3918
▁онцлов	-10.3921
тийн	-10.3927
▁гудамжинд	-10.3928
▁47	-10.3929
.06	-10.3932
▁Хөх	-10.3934
▁тараах	-10.3936
▁Олимпийн	-10.3938
▁зүрхний	-10.3941
Ган	-10.3941
▁бөхчүүд	-10.3941
▁булан	-10.3942
▁босгох	-10.3944
▁Гадаадын	-10.395
▁Ин	-10.3952
▁доор	-10.3954
▁түгээмэл	-10.3956
▁өсгөх	-10.3956
-2	-10.3957
▁шав	-10.3962
▁эмгэг	-10.3962
▁Бээжин	-10.3962
▁найр	-10.3963
▁буцалтгүй	-10.3963
▁тэргүүлэгч	-10.397
▁төмс	-10.397
▁үргэлжилсэн	-10.3971
▁хийгдэх	-10.3972
▁III	-10.3977
▁одогсод	-10.3979
▁Хувийн	-10.398
▁материалыг	-10.3981
▁бүрдэж	-10.3985
▁баригдаж	-10.399
▁тэмцээнийг	-10.399
▁нэвтрэх	-10.399
▁буцаж	-10.3996
▁элсэн	-10.4
▁хэлэлцээрийн	-10.4002
▁сурталчилгааны	-10.4003
▁олонд	-10.4003
▁дархан	-10.4007
▁суртал	-10.4008
Батзандан	-10.4008
▁хураамж	-10.401
▁хүрээний	-10.401
(	-10.401
▁Хувь	-10.4014
▁фэйсбүүк	-10.4019
▁үзүүлнэ	-10.402
▁бэлчир	-10.402
▁байгуулалттай	-10.4021
гоос	-10.4021
▁оруулна	-10.4021
▁илэрхийлээд	-10.4025
▁зүтгэлтэн	-10.4028
▁Ун	-10.4028
▁ҮЗХ	-10.4028
Нэг	-10.403
▁найрсаг	-10.4034
ван	-10.4036
▁шагналт	-10.4038
▁Оюу	-10.4039
▁Нэгдүгээрт	-10.4045
▁иргэдтэй	-10.4047
▁хүүгээ	-10.4048
▁лав	-10.4049
▁Бар	-10.4051
▁Тусгай	-10.4052
▁яваар	-10.4068
▁форум	-10.407
▁зогссон	-10.4071
▁дав	-10.4071
▁юунд	-10.4072
▁дүнгийн	-10.4074
▁тэтгэмж	-10.4077
▁аймгаас	-10.408
▁зарчмаар	-10.4086
▁Залуу	-10.4091
▁хэмээсэн	-10.4091
▁өсөж	-10.4096
▁БАЙНА	-10.4099
▁шарх	-10.4107
%-	-10.4108
▁заслын	-10.4109
▁тусгажээ	-10.411
▁гэхээсээ	-10.4114
▁жагсаалт	-10.4116
Ганболд	-10.4118
▁Нэгэнт	-10.4122
▁төлөөлөгчийн	-10.4123
▁9.	-10.4123
▁дураараа	-10.4123
алсан	-10.4127
▁нарны	-10.4129
▁заяа	-10.4131
▁сурагчдын	-10.4136
уулдаг	-10.4137
▁Холбоотой	-10.4143
▁мөрөөдөл	-10.4146
▁бэлэглээрэй	-10.4147
▁бодвол	-10.4147
▁малчдын	-10.4148
▁намыг	-10.415
гэр	-10.4151
▁өртөж	-10.4152
▁шаардагдах	-10.4152
▁эзэд	-10.4152
▁татгалзсан	-10.4152
▁гэрээгээр	-10.4154
▁Захиргааны	-10.4155
▁юуг	-10.4156
▁бүсгүйчүүд	-10.4159
▁Цахим	-10.416
өв	-10.4161
▁Монголчуудын	-10.4165
▁атлаа	-10.417
▁эзэмшдэг	-10.4171
▁Е	-10.4172
ших	-10.4175
дсэн	-10.4177
▁сэтгүүлчдийн	-10.4177
▁тор	-10.4179
▁ердийн	-10.418
▁аргыг	-10.418
▁Ногоон	-10.4183
өм	-10.4186
▁авьяас	-10.4186
▁уулзвар	-10.4187
▁ялсан	-10.4188
▁радио	-10.4189
▁начин	-10.4195
▁95	-10.4195
▁дэмждэг	-10.4196
▁нийлж	-10.4196
▁дагавар	-10.4197
ет	-10.4199
▁компаниудад	-10.4204
долларыг	-10.4204
▁барина	-10.4209
▁шийтгэх	-10.4209
үүлсэн	-10.421
▁амрах	-10.4216
▁төлөвлөжээ	-10.4217
▁тэдгээрийн	-10.4218
▁түнш	-10.422
▁ОРЧМООР	-10.422
▁тарих	-10.4226
▁ОТРЫН	-10.4228
▁ХЭРЛЭНБАЯН	-10.4228
▁Дундговь	-10.4238
▁гарахад	-10.4243
▁63	-10.4243
лагдсан	-10.4247
▁бүтээгдэхүүнээ	-10.4251
өр	-10.4253
▁Улсыг	-10.4256
▁иймэрхүү	-10.4257
▁улстөрч	-10.4262
дар	-10.4262
▁жаргана	-10.4273
▁тогтворжуулах	-10.4273
▁46	-10.4273
▁тооцсон	-10.4282
▁хишиг	-10.4284
▁илэрхийлье	-10.4288
▁тусдаа	-10.429
▁шороо	-10.4298
▁шүүхээр	-10.4302
▁Ашигт	-10.4303
▁эрхэлдэг	-10.4304
▁ТӨХК	-10.4304
▁гутал	-10.4305
▁бичил	-10.4306
28	-10.4311
▁хойч	-10.4312
▁хувьдаа	-10.4313
▁уялдаа	-10.4316
▁хүрчээ	-10.4316
f	-10.432
▁оруулахаар	-10.4328
▁өрийг	-10.4337
чдийн	-10.434
▁Гэмт	-10.4342
▁ханган	-10.4344
▁тарааж	-10.4346
▁түрээсийн	-10.4346
▁ерөнхийлөгчийн	-10.4349
▁уншаад	-10.435
▁дагуулж	-10.4356
АХ	-10.4357
▁тариалан	-10.4362
▁зэвсэгт	-10.4363
▁Онц	-10.4368
▁мэдлийг	-10.4368
▁баримтлал	-10.4376
▁20-25	-10.4381
▁цэргүүд	-10.4381
it	-10.4381
▁санаатай	-10.4392
▁хөгжсөн	-10.4393
▁ЦЕГ	-10.4399
▁тендер	-10.4406
▁дарах	-10.4412
▁дотооддоо	-10.4413
▁дүнгээ	-10.4416
▁малгай	-10.4418
▁урьдчилгаа	-10.4427
▁c	-10.4434
▁нийцүүлэн	-10.4435
▁засварын	-10.4438
▁зорилтыг	-10.4438
▁дотны	-10.4443
▁хэрэгцээг	-10.4445
ЫГ	-10.4449
▁Далай	-10.445
▁санаачилсан	-10.445
Бямбацогт	-10.4452
▁зэрэгцэн	-10.4452
▁төлөөлж	-10.4456
▁явдлын	-10.4457
▁хашиж	-10.4457
ic	-10.4457
▁Ма	-10.4462
▁сууна	-10.4469
▁гардуулах	-10.4469
▁хүндийг	-10.4471
▁мэдлээ	-10.4474
▁нээлтээ	-10.4474
▁биеэр	-10.448
▁Номхон	-10.4483
▁хэрэгжүүлэгч	-10.4493
тээ	-10.4493
▁Цаашдаа	-10.4495
▁нэлээн	-10.4497
▁ТӨВИЙН	-10.4497
цаг	-10.4499
лоод	-10.4502
▁чиглэлийг	-10.4503
▁тойргийн	-10.4504
▁бүжгийн	-10.4505
▁олдсон	-10.4505
▁Манайх	-10.451
▁тээвэрлэх	-10.4516
▁зуух	-10.4517
▁бүрээр	-10.4518
▁үндэстний	-10.4522
ек	-10.4522
▁өөрчлөгдөж	-10.4526
▁утгаар	-10.4529
▁худаг	-10.453
уудаас	-10.4533
▁заалдах	-10.4534
▁арилжаа	-10.4541
▁Барилгын	-10.4542
▁нэрт	-10.4542
▁этгээдийн	-10.4543
ur	-10.4544
▁оронч	-10.4547
▁хутга	-10.4559
▁оролцогчид	-10.4564
жүүлэх	-10.4574
▁захиалга	-10.4575
▁төлөвлөгөөтэй	-10.4583
▁зөрүү	-10.4583
▁түмэндээ	-10.4584
▁эрэг	-10.4585
▁түрүүлсэн	-10.4589
▁нээсэн	-10.4589
▁гомдлыг	-10.459
▁товчоо	-10.4593
▁хэвшил	-10.4602
us	-10.4603
▁Хэдэн	-10.4607
ль	-10.4607
▁Баримт	-10.4609
▁бодоход	-10.461
▁будаа	-10.461
▁56	-10.4611
NDE	-10.4612
▁хэлээр	-10.4614
▁таарсан	-10.4614
▁гэхээс	-10.4619
▁дэвшүүлэх	-10.4619
▁11.00	-10.462
▁бичгээр	-10.462
ая	-10.462
го	-10.4621
дорж	-10.4622
▁цаасны	-10.4623
▁суудалтай	-10.4625
▁онол	-10.4627
дийг	-10.4628
джээ	-10.4628
▁хийлгэж	-10.4629
▁дүрд	-10.4629
▁ХБНГУ	-10.4629
▁нуруу	-10.463
▁тоглолтыг	-10.4632
даад	-10.4633
▁сонгогчдын	-10.4634
арч	-10.4635
▁1992	-10.464
▁нүдний	-10.4643
▁зургаадугаар	-10.4644
▁хангахад	-10.465
▁нүх	-10.4653
▁дүгнэлтээ	-10.4657
▁ажиллаад	-10.4657
▁Мөнгө	-10.4667
▁эрдэс	-10.4668
▁ахиц	-10.4669
▁иргэддээ	-10.4669
▁механизм	-10.4669
▁түмнийхээ	-10.467
▁Хүүхдүүд	-10.4675
▁Австрали	-10.4675
▁тогтнол	-10.4676
▁байлгүй	-10.4679
▁төлбөрөө	-10.468
▁чадварлаг	-10.4683
ок	-10.4684
▁этгээдийг	-10.469
▁ханшийн	-10.4694
▁нэмрээ	-10.4698
▁ойлгодог	-10.4698
▁Канад	-10.47
▁чадвараа	-10.4701
▁за	-10.4702
▁мэдээлжээ	-10.4702
▁мундаг	-10.4703
▁анхаар	-10.4704
ац	-10.4706
▁үхрийн	-10.4706
▁захидал	-10.4706
▁Да	-10.4709
гай	-10.471
▁барихаар	-10.4711
▁сурсан	-10.4711
▁цагдан	-10.4713
▁компаниас	-10.4716
АЛ	-10.4716
▁тархи	-10.4718
▁хөлбөмбөгийн	-10.4718
▁Чингисийн	-10.472
▁бут	-10.4722
▁700	-10.4725
07	-10.4736
ЭЭ	-10.474
▁хийд	-10.4741
▁зохицуулалтын	-10.4753
▁хайгуулын	-10.4754
▁юмуу	-10.4755
ьд	-10.476
▁шилжүүлж	-10.476
▁шалгарч	-10.4761
▁тэргүүнд	-10.4761
▁таарна	-10.4764
▁ойролцоогоор	-10.4765
▁бэлтгэлээ	-10.4768
▁морины	-10.4772
▁оруулагчдын	-10.4774
▁санг	-10.4775
▁Санал	-10.4776
▁боловсруулан	-10.4778
▁томилсон	-10.478
▁хортой	-10.4783
▁тогтоомж	-10.4784
ийнх	-10.4796
гээд	-10.4798
▁хүр	-10.4799
▁туршид	-10.4799
▁ажилчдын	-10.48
▁уугуул	-10.4801
▁багаар	-10.4804
▁Өдгөө	-10.4805
▁Английн	-10.4808
▁эдэлж	-10.4809
Сүхбаатар	-10.4825
▁маягаар	-10.4828
STEN	-10.483
▁чимээ	-10.4831
▁мэдээлэх	-10.4832
45	-10.4836
▁шүүмжилж	-10.4844
▁85	-10.4848
▁маркийн	-10.4848
▁Тэднийг	-10.485
▁анагаах	-10.4852
▁хуультай	-10.486
ad	-10.4862
▁54	-10.4866
▁хөрсний	-10.4867
▁түүнчлэн	-10.4872
.07	-10.4873
▁үүсдэг	-10.4879
▁станцын	-10.4882
▁сонгуулийг	-10.4885
▁тодорхойлсон	-10.4891
▁үйлдвэрт	-10.4898
▁Хүй	-10.4901
▁эмчлэх	-10.4901
▁ГОВИЙН	-10.4904
▁тодорхойлолт	-10.4904
▁шинжээчид	-10.491
▁дуулж	-10.4914
▁санагдаж	-10.4915
▁охины	-10.4916
лөх	-10.4916
▁юун	-10.4918
▁гадагш	-10.4919
▁модон	-10.4921
▁сүр	-10.4923
ва	-10.4924
▁цуглаан	-10.4924
▁тамга	-10.4926
▁удирдан	-10.4927
алгүй	-10.4929
▁нойр	-10.4932
▁барилдаж	-10.4937
▁хэлэлцээрийг	-10.4941
рээ	-10.4941
▁зураач	-10.4943
▁танилцсан	-10.4943
▁хариуг	-10.4944
▁мөртлөө	-10.4947
▁болгоомжтой	-10.4948
▁хадгаламж	-10.4949
▁оо	-10.4953
▁үүсвэрийг	-10.4959
▁72	-10.4959
ио	-10.496
ОЛ	-10.4962
▁стандартыг	-10.4962
▁утгатай	-10.4963
▁чиний	-10.4963
▁цолтой	-10.4966
▁хайгуул	-10.4966
▁Ай	-10.4967
Оргил	-10.4969
▁хүсэн	-10.4969
▁өөрсдийнхөө	-10.4975
▁мөрдөж	-10.498
▁зохицуулж	-10.4983
▁тангараг	-10.4985
▁66	-10.4985
Шударга	-10.4989
лөн	-10.4992
▁босго	-10.4995
ина	-10.4997
▁58	-10.5002
▁ажиллахад	-10.5003
▁сургуулиуд	-10.5005
▁ажилтны	-10.5006
▁11-16	-10.5014
снийг	-10.5017
жаргал	-10.5023
▁хань	-10.5024
▁түрүү	-10.5024
эндээ	-10.5025
▁оролцохоор	-10.5027
▁зүс	-10.5034
▁Хамт	-10.5034
агийн	-10.5035
▁нэгдэх	-10.5036
▁хэрэгжүүлнэ	-10.504
▁рүүгээ	-10.5049
▁статистик	-10.505
▁үер	-10.5053
▁тодрууллаа	-10.5067
▁гаргахаар	-10.5067
андаа	-10.5068
▁байгуулжээ	-10.5068
▁эзэлдэг	-10.507
▁говиор	-10.5071
▁Дараагийн	-10.5075
▁бодисын	-10.5075
▁зардлын	-10.5077
▁зорилтот	-10.5077
▁гарцаагүй	-10.5081
си	-10.5082
▁менежмент	-10.5082
▁цөм	-10.5089
▁боломжийн	-10.5089
шиг	-10.5091
▁эрхлэгчдийн	-10.5092
▁оруулаад	-10.5096
▁бүжиг	-10.5097
▁төлөөлөн	-10.5098
▁Фэйсбүүк	-10.51
▁тоглоомын	-10.5102
ТАЙ	-10.5104
▁үзлээ	-10.5108
▁"...	-10.5108
▁тайланг	-10.5109
▁нэгтгэн	-10.5112
▁Сая	-10.5114
▁парк	-10.5119
өж	-10.5124
▁үүр	-10.5124
▁ялгаа	-10.5134
www	-10.5135
▁бүхэлд	-10.5136
▁барилдааны	-10.5143
▁бааз	-10.5144
▁уурын	-10.5153
Баярцогт	-10.5153
▁тавина	-10.5154
▁хуулинд	-10.5156
▁дурсамж	-10.5164
▁алдалгүй	-10.5164
▁18-23	-10.5167
▁доторх	-10.5167
лэ	-10.5169
са	-10.517
▁бүтээлээ	-10.5175
▁самбар	-10.5184
▁удалгүй	-10.5185
▁баримтална	-10.5187
▁хөтөлбөрөө	-10.5187
Дэлхийн	-10.5193
члэн	-10.5195
▁Үгүй	-10.5199
▁замбараагүй	-10.5202
▁ургамлын	-10.5204
ЭХ	-10.5205
et	-10.5207
▁түүн	-10.5207
▁шилэн	-10.5209
Цагаан	-10.5209
▁өвдөх	-10.5211
▁тэрбумын	-10.5212
дад	-10.5216
.10.	-10.5218
▁2003	-10.5219
▁номыг	-10.522
▁үнэлэх	-10.5221
▁баахан	-10.5221
▁хүмүүсээс	-10.5222
▁оршиж	-10.5222
▁Хангайн	-10.5225
▁нийгэмлэг	-10.5228
▁гэдгээрээ	-10.5229
▁индекс	-10.5233
оп	-10.5236
▁илрүүлэх	-10.5238
▁байхын	-10.5247
▁улстай	-10.5253
▁барил	-10.5257
▁байгууллагатай	-10.5258
бай	-10.5258
АД	-10.5259
▁болгохоор	-10.5262
Хар	-10.5266
Тэмүүжин	-10.528
▁одон	-10.528
▁эрхзүйн	-10.5282
▁музей	-10.5285
Чи	-10.5288
▁юуны	-10.5299
▁үзээгүй	-10.53
▁ярьжээ	-10.5305
▁амарч	-10.5306
▁хураах	-10.5311
▁эхлэв	-10.5312
лож	-10.5323
▁http	-10.5323
▁алд	-10.5324
ум	-10.5329
▁усаар	-10.5333
▁Монголдоо	-10.5335
▁зорьсон	-10.5337
▁ялж	-10.5339
▁явагдах	-10.534
il	-10.534
▁хэлтэст	-10.5341
хад	-10.5343
▁нараас	-10.5343
▁байгуулалтыг	-10.5349
▁Ха	-10.535
Нийслэлийн	-10.5351
▁тат	-10.5356
▁анхдугаар	-10.5357
▁2002	-10.536
дал	-10.5361
▁зогсох	-10.5365
08	-10.5368
▁төлдөг	-10.5369
луулсан	-10.5371
▁амт	-10.5376
▁тамирчдын	-10.5383
▁томуу	-10.5383
▁доорх	-10.5385
▁цаасан	-10.5386
▁Хятадад	-10.5391
▁хэлцэл	-10.5392
▁бүлэглэлийн	-10.5393
▁ялыг	-10.5395
▁Японд	-10.5397
▁харилцаатай	-10.5397
▁ЖИРГЭХ	-10.5398
▁жагсаалтыг	-10.5398
гөө	-10.54
▁санаанд	-10.5405
▁эвгүй	-10.5407
▁холбоог	-10.5407
75	-10.5411
▁төстэй	-10.5415
▁хураан	-10.5416
▁сэтгэлтэй	-10.5418
чуудын	-10.5425
▁дээж	-10.5425
▁оролцов	-10.5437
▁барилдах	-10.5438
▁өнгөтэй	-10.5439
▁зурагт	-10.5442
▁1998	-10.5445
▁байгуулаад	-10.5448
▁татгалзаж	-10.5448
▁L	-10.5449
бо	-10.545
▁болгохын	-10.5451
▁үгүйсгэхгүй	-10.5454
▁больсон	-10.5455
рай	-10.5456
▁явцыг	-10.5456
▁Сайхан	-10.5461
▁сонсоод	-10.5467
.08	-10.547
▁Mongolia	-10.547
▁зөрчилтэй	-10.5472
▁чармайлт	-10.5472
▁хувааж	-10.5474
▁Эрхэм	-10.5474
▁зур	-10.5478
▁нулимс	-10.5479
▁Аялал	-10.5479
▁ү	-10.5482
ди	-10.5483
▁Үйл	-10.5486
▁авчирсан	-10.5488
▁дансанд	-10.549
▁ханд	-10.5492
▁тог	-10.5494
31	-10.5494
▁өгөв	-10.5495
▁чамайг	-10.5495
▁авчрах	-10.5496
▁хянамгай	-10.5497
лд	-10.5498
▁мөч	-10.5499
500	-10.55
▁эмх	-10.5502
▁Эцэг	-10.5509
▁чамд	-10.5511
▁зоригтой	-10.5517
▁багаж	-10.5522
▁үүргийн	-10.5524
Энхтүвшин	-10.5524
Гантөмөр	-10.5526
▁нэгдмэл	-10.5529
ент	-10.5533
аб	-10.5534
▁ААН	-10.5534
▁материалын	-10.5535
▁Соёл	-10.554
▁Эмэгтэй	-10.5541
▁сэтгэлээр	-10.5543
▁сайжирч	-10.5546
▁бүртгүүлэх	-10.5548
▁нөхдүүд	-10.5549
АЙ	-10.5551
▁салах	-10.5553
▁тэг	-10.5553
▁байгаарай	-10.5555
▁зориулалттай	-10.5556
▁эндээс	-10.5557
▁үүнтэй	-10.5558
▁найм	-10.5559
▁хамгаалалтад	-10.5559
▁импорт	-10.5563
▁эзэмшсэн	-10.5564
▁үлдээсэн	-10.5566
▁боомт	-10.5568
▁National	-10.5569
▁шаардах	-10.5573
▁дэмжинэ	-10.5575
▁хэнийг	-10.5576
▁10.00	-10.5578
▁хөршийн	-10.5579
▁фракц	-10.5582
▁дутагдалтай	-10.5582
▁хандуулах	-10.5584
айн	-10.5584
▁сэтгүүлчид	-10.5584
▁эхэн	-10.5584
▁зөрчлийн	-10.5585
▁сүлд	-10.5587
▁найзууд	-10.559
жил	-10.5591
▁тодотгол	-10.5593
▁уялдуулан	-10.5593
▁корпораци	-10.5593
▁ингээд	-10.5594
▁учруулж	-10.5594
▁сувилагч	-10.5596
▁Бидэнд	-10.5596
▁хонины	-10.5596
▁нэрлэж	-10.5598
▁шийдвэрээр	-10.56
▁уралдааны	-10.5602
▁дотуур	-10.5605
▁Тээврийн	-10.5607
Гантулга	-10.5609
▁тархины	-10.561
▁Тэгж	-10.5611
▁байгууллагаар	-10.5611
▁өнгөрөгч	-10.5612
▁Холбоо	-10.5612
▁эцэслэн	-10.5612
▁Банкны	-10.5615
▁орхисон	-10.5616
▁сүүлчийн	-10.5616
▁хэрэглэгчид	-10.5617
▁хуулбар	-10.5617
аш	-10.5625
▁үнэлгээний	-10.5625
▁и	-10.5626
▁хориглох	-10.5627
▁цайны	-10.5629
до	-10.5629
Оюунхорол	-10.563
▁Монголоос	-10.5633
▁Төлөөлөгчдийн	-10.5637
▁суваг	-10.5639
▁бөмбөгийн	-10.564
чихлаа	-10.564
▁тэнэг	-10.5645
▁уншигч	-10.5646
▁амаргүй	-10.5647
▁сагсан	-10.5648
чихдаг	-10.5651
▁зөвлөлдөх	-10.5653
▁Баяр	-10.5654
▁шатандаа	-10.5663
за	-10.5665
▁ойлгосон	-10.5667
▁нэгтгэж	-10.567
▁Зах	-10.5684
▁таарч	-10.5685
▁тарьж	-10.5688
▁процесс	-10.569
▁асуух	-10.5692
▁төвлөрсөн	-10.5693
▁салаа	-10.5695
За	-10.5703
▁үх	-10.5703
▁тулаан	-10.5704
▁Тиймдээ	-10.5704
▁үзүүлэлттэй	-10.5707
▁хөнөөсөн	-10.571
ээрэй	-10.571
55	-10.5711
▁торгууль	-10.5711
▁жилийг	-10.5713
▁зэрэглэлийн	-10.5714
▁үйлчилдэг	-10.5719
▁Бурхан	-10.5721
▁өглөөний	-10.5721
▁64	-10.5722
▁хүчирхийлэл	-10.5722
Сайн	-10.5724
▁онош	-10.5724
▁нэрлэдэг	-10.5726
▁стратеги	-10.5727
▁мэдээг	-10.5728
▁үйлдвэрүүд	-10.5734
es	-10.5734
▁Үнэн	-10.5736
▁эн	-10.5738
▁шувуу	-10.5738
▁шилжсэн	-10.5739
▁тараасан	-10.5741
лүүлсэн	-10.5742
▁дурлал	-10.5743
▁нэвтрүүлж	-10.5748
ОР	-10.5749
жи	-10.5749
▁гэгддэг	-10.5752
Ар	-10.5755
▁эргэлтэд	-10.5755
▁жирэмсэн	-10.5755
▁зэргээс	-10.576
▁3000	-10.576
▁гэгээн	-10.5763
▁төгрөгт	-10.5764
сээ	-10.5767
▁Британи	-10.5773
▁гаргахгүй	-10.5777
▁Иргэн	-10.5783
▁шимтгэл	-10.5784
▁хийв	-10.5785
▁шахалт	-10.5788
▁дэвшсэн	-10.5789
дэн	-10.5792
k	-10.5795
изм	-10.5795
▁f	-10.5796
▁үлдэгдэл	-10.5799
06	-10.58
▁e	-10.5805
▁шаарддаг	-10.5807
▁болсны	-10.5815
▁Гаалийн	-10.5816
▁луйвар	-10.5817
▁завсар	-10.5823
am	-10.5827
▁даан	-10.5832
▁хэмнэх	-10.5833
▁нөхөх	-10.5834
▁гэрч	-10.5835
▁долоодугаар	-10.5839
▁Хэдий	-10.584
▁чөлөөний	-10.5841
▁14-19	-10.5842
▁намынхан	-10.5842
▁агуулсан	-10.5844
▁багийг	-10.5847
▁чихэр	-10.5851
▁авагч	-10.5851
▁Ко	-10.5851
▁машиныг	-10.5853
▁O	-10.5854
▁гэмээр	-10.5856
▁мөсөн	-10.5857
▁гэмтсэн	-10.5858
▁Түүнд	-10.5858
▁холбож	-10.5861
▁хэрэглэгчийн	-10.5863
гууд	-10.5864
▁нэрлэсэн	-10.5867
ью	-10.5872
w	-10.5872
▁байгууламжийг	-10.5874
▁оржээ	-10.5874
САН	-10.5875
▁илгээсэн	-10.5876
▁сургуулиудын	-10.5879
▁алдагдлыг	-10.5881
▁зөвшөөрөх	-10.5887
чиг	-10.5888
▁Зөрчлийн	-10.5888
▁толь	-10.5898
▁оролдлого	-10.5903
▁тогтолцооны	-10.5906
▁хорио	-10.591
▁хувиас	-10.5912
▁сэтгэлээ	-10.5914
▁хавдрын	-10.5914
▁N	-10.5922
Үндэсний	-10.5923
▁68	-10.5925
▁уламжлалтай	-10.5928
▁69	-10.5929
▁Ил	-10.5929
▁зарлан	-10.593
▁зарлага	-10.5934
▁бүртгүүлсэн	-10.5939
▁өөрийг	-10.594
▁16-18	-10.5946
саа	-10.5948
▁ялгаагүй	-10.5953
▁мансууруулах	-10.5955
▁5000	-10.5965
un	-10.5966
▁хав	-10.5967
▁сэтгүүлчдэд	-10.5969
хний	-10.597
ви	-10.5971
▁цуглуулж	-10.5973
..."	-10.5974
▁программ	-10.5981
▁Са	-10.5981
▁тодруулж	-10.5982
▁компаний	-10.5982
лэгч	-10.599
▁сонинд	-10.599
▁оройн	-10.5992
▁нийлүүлж	-10.5996
▁түвшинг	-10.6001
32	-10.6005
▁тоглолтоо	-10.6008
▁шалгалтыг	-10.6011
▁өнцөг	-10.6013
▁нийтлэл	-10.6013
▁дуулиан	-10.6014
▁ороход	-10.6014
▁юмаа	-10.6014
▁алдагдалтай	-10.6016
оосоо	-10.6018
▁үндсэндээ	-10.602
▁хариуцлагагүй	-10.6032
▁байраар	-10.6034
▁өөрчлөгдсөн	-10.6035
▁дансны	-10.6036
▁эмчийн	-10.6037
▁БНАСАУ	-10.604
▁ф	-10.6042
▁Эс	-10.6043
нээсээ	-10.6045
▁ол	-10.6046
Даваасүрэн	-10.6048
▁Даваа	-10.6051
▁ашиглалт	-10.6053
▁гарвал	-10.6053
▁дагуул	-10.6058
чийн	-10.6059
▁олгогч	-10.6063
▁нүдэнд	-10.6067
▁MNB	-10.6072
▁харилцаагаа	-10.6073
▁дэвшигчид	-10.6078
йг	-10.608
▁амжаагүй	-10.6084
ЭЛ	-10.6089
▁өргөө	-10.6091
▁завсарлага	-10.6094
▁тусалж	-10.6101
▁мэдэгдэх	-10.6101
▁нэмсэн	-10.6101
▁баталгаажуулах	-10.6101
Уянга	-10.6103
▁харьцах	-10.6113
▁батлуулах	-10.6117
▁элчин	-10.6122
▁биет	-10.6123
ап	-10.6126
▁хэний	-10.613
▁түймрийн	-10.6134
▁түмнээ	-10.6138
▁хүлээлгэх	-10.6138
▁зардлаа	-10.6138
▁амны	-10.6142
▁буух	-10.6142
%	-10.6144
▁амжилтад	-10.6145
▁МУ	-10.6148
▁Биеийн	-10.6149
▁барааны	-10.6151
▁сүүл	-10.6156
▁дурдахад	-10.616
▁шилжиж	-10.6161
▁гэлтгүй	-10.6162
АР	-10.6163
▁соёлыг	-10.6164
▁дуудаж	-10.6165
g	-10.6165
▁Итали	-10.6166
▁парламентад	-10.6169
▁гэтэл	-10.617
▁хаагчийн	-10.6172
▁шилжилт	-10.6175
▁хайрцаг	-10.6175
ия	-10.6177
▁оролцуулах	-10.6178
▁Шударга	-10.6178
▁цэц	-10.6179
▁давхарт	-10.6181
▁хүсэх	-10.6189
▁жижигхэн	-10.6189
▁тойрсон	-10.6189
▁залуусыг	-10.619
▁чуулганд	-10.6196
▁Цэцийн	-10.6197
▁Мэдээ	-10.6203
▁салбарынхан	-10.6203
▁чөлөөлж	-10.6204
▁хуваарийн	-10.6204
▁хурим	-10.6206
хгүй	-10.6207
▁хийсний	-10.621
▁зогсоо	-10.6212
▁12-17	-10.6212
ск	-10.6224
▁үйлдэж	-10.6225
▁оруулалтаар	-10.6226
39	-10.6227
▁байсангүй	-10.6228
раад	-10.6232
▁аюулаас	-10.6241
▁хүндэтгэлийн	-10.6241
▁хэмээжээ	-10.6242
▁чөлөөг	-10.6242
▁Үзсэн	-10.6245
▁Үнэ	-10.6246
▁мэддэггүй	-10.6249
▁хэрэв	-10.625
▁үеийг	-10.6253
▁зааг	-10.6255
▁гариг	-10.6263
▁дутагдал	-10.6264
▁өөх	-10.6264
▁жигд	-10.6268
▁дангаараа	-10.6268
▁уян	-10.6269
▁нойтон	-10.6281
34	-10.6283
▁засгаас	-10.6286
▁хожим	-10.6289
▁тодруулахад	-10.629
▁дорвитой	-10.6291
▁явахдаа	-10.6292
▁илтгэлийг	-10.6296
▁модны	-10.6297
▁бөөн	-10.6298
▁дараагаар	-10.6299
▁асуудлаас	-10.63
▁Австралийн	-10.63
▁эртнээс	-10.6301
▁дэвсгэрийн	-10.6306
▁Хуралд	-10.6306
▁толгойг	-10.6307
▁шүүгчийн	-10.6308
▁сургамж	-10.631
▁идэвхитэй	-10.6311
▁Монголыг	-10.6312
▁ашиггүй	-10.6312
▁Ка	-10.6317
▁шүд	-10.6318
▁алдагдсан	-10.6321
▁хараахан	-10.6322
▁болгожээ	-10.6335
▁садан	-10.6336
▁сонирхсон	-10.6336
▁халдлага	-10.6344
цаа	-10.6344
▁тавь	-10.6345
▁лаборатори	-10.6346
▁Эзэн	-10.6347
▁хөрөнгөө	-10.6348
чүүд	-10.6356
▁малтмал	-10.6356
▁Нэгдүгээр	-10.6357
▁оноогоор	-10.6361
▁түгжрэл	-10.6363
▁2.5	-10.637
▁гарсаар	-10.637
▁энхийг	-10.6374
▁R	-10.6377
▁үүсгэсэн	-10.6379
лга	-10.6387
▁мөс	-10.6387
33	-10.6387
▁сүлжээг	-10.6396
▁мэдрэх	-10.6397
▁дугаарын	-10.6398
▁аяны	-10.6402
▁үгээ	-10.6404
▁Өршөөлийн	-10.6404
▁Ур	-10.6405
▁учраа	-10.6412
▁үерийн	-10.6414
▁МОНГОЛ	-10.6415
▁судасны	-10.6418
▁хэвлэлд	-10.6419
▁манайхан	-10.642
▁74	-10.642
▁Нөгөөтэйгүүр	-10.6421
▁шийднэ	-10.6426
▁туулж	-10.643
▁for	-10.643
▁өмсөх	-10.6431
▁сууцанд	-10.6437
▁11:00	-10.6438
▁чулуун	-10.6439
▁61	-10.644
▁Өдөр	-10.6443
▁хангамжийн	-10.6445
▁брэндийн	-10.6445
▁хүмүүнлэгийн	-10.6449
▁хамгаалалттай	-10.6452
▁үйлс	-10.6452
99	-10.6455
▁дуусч	-10.6456
▁үүнийгээ	-10.6458
▁сурвалжийн	-10.646
Эдийн	-10.646
үүр	-10.6465
▁Хүү	-10.6468
ныхаа	-10.6469
бар	-10.6474
▁эмийг	-10.6477
Өлзий	-10.6478
▁стандартад	-10.6483
▁Казахстан	-10.6486
▁лиценз	-10.649
уулаад	-10.6498
▁Жан	-10.6503
▁дуусгах	-10.6504
▁мэх	-10.6505
▁харуул	-10.6506
Энхболдын	-10.6506
▁жинтэй	-10.6508
▁сургуулилт	-10.651
▁өгүүлсэн	-10.6514
Оюутолгой	-10.6516
▁заавар	-10.6517
▁гишүүдээс	-10.6523
▁захирамжаар	-10.6524
ро	-10.6524
▁нэгжүүдийн	-10.6526
аан	-10.653
▁ширээ	-10.653
НИЙ	-10.6534
▁зарцуулдаг	-10.6535
▁хамааран	-10.6536
▁Тэдгээр	-10.6538
▁осолд	-10.6539
▁чуулганыг	-10.6539
▁Улаанбаатарын	-10.654
▁тайлбарлах	-10.654
▁тохиролцсон	-10.6542
▁хамгаалсан	-10.6546
▁Банк	-10.6548
▁оролцоотой	-10.6549
▁бүтээлүүд	-10.6551
▁сураг	-10.6554
▁18-20	-10.6554
▁чинээ	-10.656
▁тохижилт	-10.656
▁хүргүүлэх	-10.6564
▁татвараа	-10.6568
▁сүүлээр	-10.6568
▁хүргүүлж	-10.6568
▁томилгоо	-10.6575
▁удам	-10.6577
▁тойрон	-10.6579
▁байрладаг	-10.6579
▁бүлд	-10.6579
▁дэвшилтэт	-10.658
▁Анхны	-10.6581
▁мэдээлэлд	-10.6583
▁гарагийн	-10.6583
▁бүхэл	-10.6584
Зоригт	-10.6586
▁олдохгүй	-10.6586
▁энхрийлүүштэй	-10.6588
▁ногдох	-10.6589
▁зогсоосон	-10.6594
▁тааруу	-10.6594
▁88	-10.6598
Болор	-10.6599
▁Эрдэнэ	-10.6603
▁Сургуулийн	-10.6606
▁Онон	-10.6611
▁нефтийн	-10.6613
▁тэмдэглэсэн	-10.6614
▁ямагт	-10.6614
▁Охин	-10.6619
▁тэмдэглэл	-10.6621
▁гардан	-10.6627
▁хахууль	-10.6633
▁180	-10.6637
▁залгамж	-10.6642
▁Манайд	-10.6645
▁настан	-10.6651
▁албадан	-10.6651
ддаг	-10.6653
▁дэвшигчийн	-10.6655
лалт	-10.6658
:30	-10.666
▁хурдтай	-10.6663
▁Хүнд	-10.6666
уудаа	-10.6671
▁эрхлэлтийг	-10.6674
▁ОУ	-10.6674
36	-10.6675
Гансүх	-10.6675
▁байгуулалтад	-10.6678
▁өртөх	-10.6679
▁ээлжийн	-10.6681
▁аялах	-10.6683
▁дайрч	-10.6683
▁зөвшөөрөлгүй	-10.6686
▁дархлаа	-10.6687
▁хэмжээнээс	-10.6692
▁киног	-10.6692
▁Хэвлэлийн	-10.67
▁насан	-10.6701
ra	-10.6707
▁Солонгост	-10.6711
мж	-10.6714
Алтанхуягийн	-10.6715
▁харьцаа	-10.6717
▁СЕХ	-10.672
үр	-10.672
▁хандлагыг	-10.672
▁хүрдэг	-10.6724
▁уулсаар	-10.6728
▁цэнхэр	-10.6732
тар	-10.6733
▁нягтлан	-10.6733
▁төхөөрөмжийн	-10.6734
▁нэгтгэх	-10.6738
▁гүнзгий	-10.674
▁ерөөсөө	-10.674
▁Юуны	-10.6743
Цогтбаатар	-10.6744
▁эцэс	-10.6745
▁үзэгч	-10.6745
▁эргүүл	-10.6746
▁татдаг	-10.675
▁интернэт	-10.6753
▁элс	-10.6754
▁хүрээг	-10.6755
ri	-10.6758
▁дугаарт	-10.6759
▁чадсангүй	-10.676
▁ээлж	-10.6762
▁төлөвлөөд	-10.6766
▁таамаг	-10.6767
▁өвөг	-10.6768
ша	-10.677
наа	-10.6772
as	-10.6774
ТЭЙ	-10.6777
ндаа	-10.6779
▁Дээрээс	-10.678
▁хүлээлгэж	-10.678
▁дахинд	-10.678
▁дам	-10.6783
▁уяач	-10.6786
▁тусгайлан	-10.6788
▁зурж	-10.679
▁Дотоод	-10.6796
▁ташаа	-10.6797
▁баримтлалыг	-10.6798
▁62	-10.6799
▁Broadcaster	-10.6799
ent	-10.68
▁хуруу	-10.68
▁махан	-10.6802
▁тархалт	-10.6806
ахгүй	-10.6808
▁нарийвчлан	-10.681
▁байсны	-10.6811
▁олдог	-10.6812
▁хагалгаа	-10.6813
▁шид	-10.6814
?"	-10.6815
▁бууруулахад	-10.6817
▁барьцаа	-10.6818
▁ёсыг	-10.6818
▁гайгүй	-10.6818
-20	-10.6828
▁ноос	-10.6838
▁тогтоожээ	-10.6839
▁Ах	-10.6844
▁хязгаарлалт	-10.6846
at	-10.685
▁цалинтай	-10.6853
▁16-21	-10.6853
▁ороогүй	-10.6854
▁Рио	-10.6857
▁Үйлдвэр	-10.6858
▁олборлох	-10.6863
ха	-10.6864
▁Ра	-10.6866
ич	-10.6867
▁зөндөө	-10.6868
▁7012705	-10.6871
▁Өнөө	-10.6873
▁зөн	-10.6877
▁сэр	-10.6878
▁шагналын	-10.6879
▁угааж	-10.688
▁босгож	-10.688
чихсон	-10.6881
▁шийддэг	-10.6882
▁хам	-10.6882
▁1999	-10.6883
▁ал	-10.6888
ру	-10.689
▁дуулах	-10.6891
▁давах	-10.6894
уг	-10.6895
▁нөөцтэй	-10.6896
▁орхиж	-10.6897
гуй	-10.6898
▁дотроос	-10.6899
▁суу	-10.69
▁акт	-10.6904
▁1996	-10.6906
▁ажилтнуудын	-10.6908
▁үүрэгт	-10.6909
▁гараар	-10.6909
▁бэр	-10.6912
гүйгээс	-10.6914
▁Жи	-10.6914
▁ахлуулсан	-10.6915
▁хайрлаж	-10.6916
▁авахын	-10.6917
▁илэрч	-10.6924
▁музейн	-10.693
▁Ши	-10.693
48	-10.693
▁гүрний	-10.6936
гэл	-10.6937
▁язгуур	-10.6937
▁сумдын	-10.6938
▁банкуудын	-10.6939
пер	-10.694
▁уриа	-10.6942
▁олимп	-10.6943
▁багтдаг	-10.6943
▁талх	-10.6944
ань	-10.6946
дээд	-10.6951
ук	-10.6953
▁удаатай	-10.6953
▁Зээлийн	-10.6954
▁сольж	-10.6954
▁ачааллыг	-10.6955
нуудыг	-10.6957
▁галын	-10.6961
▁нийтээр	-10.6962
▁160	-10.6964
▁нэгдлийн	-10.6966
▁үетэй	-10.6966
▁битүү	-10.6972
▁менежментийн	-10.6973
▁эдлэх	-10.698
▁торгох	-10.698
▁үзүүр	-10.6984
▁хүргэнэ	-10.699
▁зүйлээс	-10.6991
▁бэлчээрийн	-10.6998
▁байрлал	-10.7001
▁орлоо	-10.7004
▁тайлах	-10.7006
▁өө	-10.7007
▁эдүгээ	-10.7013
▁нэгжид	-10.7014
▁Хоол	-10.7015
▁хэрэглэгчдийн	-10.7016
▁тагнуулын	-10.7017
▁авахдаа	-10.7017
▁унд	-10.7017
▁хэрэгжилтийн	-10.7018
▁яасан	-10.7018
▁нэвтэрч	-10.7019
▁улсынхаа	-10.7021
▁Шинээр	-10.7024
▁хуралдааныг	-10.7025
дэд	-10.7027
▁Ми	-10.7028
▁хариуцах	-10.703
▁литр	-10.7032
▁баригдах	-10.7032
УУ	-10.7035
49	-10.704
▁золиос	-10.7044
▁хаягдлын	-10.7046
▁санах	-10.7053
▁хэтэрсэн	-10.7053
▁шалгагдаж	-10.7054
▁Хүнсний	-10.7058
▁хамруулж	-10.7062
▁хөлөө	-10.7062
▁хохирлыг	-10.7065
▁тар	-10.7066
▁Үүнийгээ	-10.7069
▁Байгалийн	-10.7072
▁ширүүн	-10.7074
▁17-22	-10.7074
ЭР	-10.7077
▁350	-10.7078
▁ухаантай	-10.7079
долларт	-10.7079
▁суртахууныг	-10.7081
▁ОБЕГ	-10.709
▁өвчнийг	-10.7095
▁нийлээд	-10.7097
▁хөндөж	-10.7104
▁Миеэгомбы	-10.7105
Отгонбаяр	-10.7106
Рио	-10.711
▁сандал	-10.711
▁байртай	-10.7116
▁ойлгохгүй	-10.7119
▁халбага	-10.7121
▁төлөлт	-10.7124
▁барьдаг	-10.7125
▁өдрөөр	-10.7126
▁Удахгүй	-10.7126
▁өвгөн	-10.7129
▁суулгаж	-10.7134
:10	-10.7135
Үүд	-10.7137
▁оролдож	-10.7138
▁Бизнес	-10.7139
▁хүртээмжтэй	-10.714
▁хүчинд	-10.7142
▁зөвлөлд	-10.7143
▁тухайлбал	-10.7151
▁ертөнцийн	-10.7154
▁Хуучин	-10.7156
▁цорын	-10.716
▁хаашаа	-10.7162
▁ачаар	-10.7162
▁130	-10.7163
▁хэлэлцэнэ	-10.7166
▁Ван	-10.7167
▁гоц	-10.7172
▁үеэ	-10.7175
▁хайрлах	-10.7176
Цолмон	-10.7176
▁орлогоо	-10.7176
▁зовж	-10.7177
▁ШУА	-10.7179
▁километр	-10.718
▁59	-10.7187
▁гүйцэтгэл	-10.7188
▁заал	-10.7191
▁болтугай	-10.7195
ИЛ	-10.7196
▁цээж	-10.7199
▁Үүлэрхэг	-10.7205
▁тамгын	-10.7205
▁автомат	-10.7208
▁хаалт	-10.7215
▁Нэгэн	-10.7216
▁дааж	-10.722
▁барагдуулах	-10.7221
▁өвчнөөр	-10.7222
▁явуулна	-10.7223
▁хороололд	-10.7224
Олон	-10.7229
▁хээл	-10.7231
▁төрүүлэх	-10.7232
▁орноос	-10.7232
▁явагдсан	-10.7233
▁санхүүжилтээр	-10.7237
▁тэлж	-10.7238
▁өдрүүд	-10.7242
▁учирсан	-10.7243
▁ЭСЯ	-10.7243
▁байлгаж	-10.7246
▁төрөлхтний	-10.7248
▁таслах	-10.7251
amp	-10.7256
▁ес	-10.7258
▁багууд	-10.726
▁сошиал	-10.7261
▁багадаа	-10.7268
▁даган	-10.7268
өнд	-10.7272
▁гишүүнтэй	-10.7272
▁өөрчлөн	-10.7273
▁Сү	-10.7273
▁төвтэй	-10.7273
▁баймаар	-10.7275
▁соёрхон	-10.7277
▁тавигдах	-10.7278
▁хүүхдийнхээ	-10.728
▁асуу	-10.7284
▁хогийн	-10.7285
руулах	-10.7287
▁шинэлэг	-10.7287
▁таних	-10.7288
шир	-10.7291
▁статистикийн	-10.7295
▁нүүрсийг	-10.7296
▁сонгогдох	-10.7301
▁Чин	-10.7301
УИХ	-10.7303
▁хариуд	-10.7304
ари	-10.7311
▁судлал	-10.7311
▁Сүхбаатарын	-10.7315
мар	-10.7316
▁шахаж	-10.7316
▁эрхэнд	-10.7322
▁сэтгэлээсээ	-10.7327
Жавхлан	-10.7333
▁болчихлоо	-10.7336
▁3-4	-10.734
▁Италийн	-10.734
th	-10.7341
▁тайлбарласан	-10.7344
44	-10.7344
▁хүүхдүүдээ	-10.7345
▁сэргээж	-10.7347
▁явлаа	-10.7347
оно	-10.7352
▁асуухад	-10.7354
▁сайтад	-10.7357
▁эзэлсэн	-10.7359
▁Нас	-10.7367
▁зүүд	-10.737
те	-10.737
▁мөнх	-10.7374
▁биедээ	-10.7375
чи	-10.7379
нээ	-10.738
▁үйлчлүүлэгч	-10.7385
шээ	-10.7386
▁юү	-10.7387
▁онуудад	-10.7388
▁тасалбар	-10.7389
▁2001	-10.739
▁харанхуй	-10.7391
▁Маргааш	-10.7392
▁Тэмцээний	-10.7393
▁нийгэмлэгийн	-10.7394
тойгоо	-10.7397
▁хуримтлал	-10.7398
▁байцаалтын	-10.7398
члан	-10.7399
▁шаттай	-10.74
▁завгүй	-10.7401
▁бүрээс	-10.7407
▁ирэв	-10.7408
▁асуусан	-10.741
▁Эхлээд	-10.741
▁унтаж	-10.7413
▁өвөө	-10.7417
▁юмсан	-10.7418
дон	-10.7428
▁айж	-10.7429
▁цац	-10.7429
▁Африкийн	-10.7432
дох	-10.7433
▁төрүүлсэн	-10.7434
▁учирч	-10.7434
▁ортой	-10.7436
▁дэлгэр	-10.7436
нэг	-10.7442
▁лекц	-10.7443
▁тэтгэлэг	-10.7445
Путин	-10.7447
▁зэрлэг	-10.7447
id	-10.7452
▁эрүү	-10.7457
▁хө	-10.7459
▁Он	-10.7461
▁болго	-10.7462
▁Үүн	-10.7463
ханд	-10.7464
арсан	-10.7468
▁ялагдсан	-10.7468
▁явахгүй	-10.7469
▁хамаатан	-10.7472
▁заримдаа	-10.7472
ЭН	-10.7474
Гэр	-10.7474
▁солилцож	-10.7475
▁хаягдлыг	-10.7478
▁хурлаас	-10.7479
▁сэдвийн	-10.748
▁айлд	-10.7483
▁үргээлгэх	-10.7484
▁харъяа	-10.7485
▁2030	-10.7488
▁амийг	-10.7489
лөг	-10.7495
▁холбосон	-10.75
▁нийтийг	-10.75
▁Бу	-10.7502
▁Энх	-10.7503
▁багийнхан	-10.7506
снаа	-10.7507
▁тэмдэглэв	-10.7516
▁шахуу	-10.7517
▁олныг	-10.7517
▁Зүгээр	-10.7519
▁Эд	-10.752
▁захирлаар	-10.7523
▁цүнх	-10.7524
▁в	-10.7526
▁цэвэрлэж	-10.7527
▁мужид	-10.7529
▁нэгэнд	-10.7534
▁өрнүүлж	-10.7535
▁Сайт	-10.7536
ахад	-10.7538
огийн	-10.754
▁Өөрөө	-10.7543
уулна	-10.7545
▁оруулдаг	-10.7545
▁борооны	-10.7546
▁ван	-10.7548
сөөр	-10.7551
▁эдлэл	-10.7552
▁шаттайгаар	-10.7558
▁86	-10.7558
▁is	-10.7559
Батзориг	-10.7563
▁Лу	-10.7564
▁өгвөл	-10.7565
-12	-10.7565
▁шинэхэн	-10.7565
▁дуулсан	-10.7565
▁цэврийн	-10.7567
▁гартаа	-10.7568
▁Хэл	-10.7568
▁96	-10.7569
чдыг	-10.7569
▁чоно	-10.7569
▁бичлэгийг	-10.7571
▁Аз	-10.7573
лана	-10.7576
▁Эмч	-10.7579
▁үйлдвэрлэдэг	-10.758
▁спортоор	-10.7581
▁заншил	-10.7582
▁нэгнийг	-10.7583
▁тулж	-10.7587
▁дундын	-10.7592
▁ХҮН	-10.7593
▁чадваргүй	-10.7593
▁хоёулаа	-10.7594
▁сэргээгдэх	-10.7594
▁нийтээрээ	-10.7595
▁бүртгэж	-10.76
▁илрүүлж	-10.7606
▁маргааныг	-10.7613
гэж	-10.7614
єє	-10.7615
▁Иран	-10.7615
▁Тинто	-10.7615
▁110	-10.7618
▁ойд	-10.7619
▁Дунд	-10.7619
▁эргэлзээтэй	-10.7622
▁дэмжигч	-10.7627
▁ман	-10.7628
▁клубын	-10.763
▁шийдвэрт	-10.7631
▁Шилдэг	-10.7633
▁Гурав	-10.7635
ly	-10.7638
▁үнээ	-10.7638
▁унтах	-10.764
▁гаргахыг	-10.764
▁Бразил	-10.7641
▁халаа	-10.7646
▁Төрөөс	-10.7651
ынх	-10.7652
оль	-10.7655
▁байхаас	-10.7656
▁дурджээ	-10.7658
бол	-10.7658
▁тоос	-10.7665
▁гүйж	-10.7665
▁дүрийг	-10.7665
/:	-10.7667
▁илрүүлсэн	-10.767
▁аяныг	-10.767
▁мэдлэгтэй	-10.7671
▁байлдааны	-10.7672
▁73	-10.7672
▁хат	-10.7673
▁байцаах	-10.7673
▁хүргэдэг	-10.7676
▁хэлбэрийн	-10.7676
▁айдас	-10.7677
▁re	-10.7682
Хүн	-10.7682
▁бичигдсэн	-10.7685
гүүр	-10.7686
▁талбар	-10.7686
▁шинжилгээнд	-10.7688
▁дэмий	-10.769
▁хохирсон	-10.7691
▁түрээс	-10.7694
▁тасгийн	-10.7699
▁халж	-10.7701
▁нэвтрүүлгийн	-10.7701
▁олонхийн	-10.7704
▁сургуулиа	-10.7706
▁үдээс	-10.7706
▁Ав	-10.7709
▁тэндээс	-10.7712
▁засаж	-10.7712
88	-10.7712
мийн	-10.7714
▁орц	-10.7715
▁бүртгэлд	-10.7717
▁сэтгэлгээ	-10.7719
элж	-10.7719
АМ	-10.772
▁чимээгүй	-10.7726
▁болтлоо	-10.7726
▁нөлөөлөл	-10.7729
▁үнэнийг	-10.7732
▁гадагшаа	-10.7734
▁борлуулалтын	-10.7735
▁хэмээв	-10.7739
▁тушаалыг	-10.7739
лагын	-10.7739
▁хөөр	-10.7739
▁надаас	-10.7741
▁гарга	-10.7742
сын	-10.7742
▁БАРУУН	-10.7744
▁сонсгол	-10.775
▁валют	-10.7754
Батсуурь	-10.7756
▁төслөө	-10.7756
▁паспорт	-10.7758
▁түмнийг	-10.7759
▁март	-10.7762
ваа	-10.7763
▁унадаг	-10.7765
▁өсөн	-10.7765
▁болзол	-10.7766
▁дэвшигчдийн	-10.7768
▁чанаргүй	-10.7769
65	-10.777
▁арвин	-10.7771
▁тив	-10.7774
▁Толгой	-10.7775
▁Ерөнхийдөө	-10.7778
▁нөлөөлнө	-10.778
▁хүрлээ	-10.7781
Батхүү	-10.7782
▁салж	-10.7785
▁гуйх	-10.7786
сар	-10.7787
▁Онцлох	-10.7791
▁саруул	-10.7793
▁Тай	-10.7795
▁хуулиуд	-10.7799
хныг	-10.7803
▁лигийн	-10.7804
▁хэрэгцээнд	-10.7805
▁витамин	-10.7811
▁амьдралдаа	-10.7816
▁буудай	-10.7816
▁Тэгэхэд	-10.7819
▁зэвсгийн	-10.782
▁өсгөж	-10.7822
▁суудалд	-10.7823
тнууд	-10.7825
▁өдий	-10.7829
▁буруутгаж	-10.783
▁нийлүүлэлт	-10.7831
▁санаачлагчийн	-10.7832
ант	-10.7835
um	-10.7837
мэн	-10.784
▁экс	-10.7842
78	-10.7843
▁АНХААР	-10.7847
▁хариуцлагаа	-10.7847
▁тоглодог	-10.7849
▁хийвэл	-10.7849
96	-10.785
▁голдуу	-10.785
▁үргэлжлүүлж	-10.7853
лээгүй	-10.7854
▁Дүүргийн	-10.7855
▁сургаж	-10.7865
▁тогтоомжийг	-10.7866
▁Дөрвөн	-10.787
▁жүдо	-10.7876
▁гэдэсний	-10.7877
▁Сингапур	-10.7879
▁тохироо	-10.788
▁үйлсэд	-10.7883
▁дэв	-10.7884
▁боловсролыг	-10.7886
▁хэрэгсэхгүй	-10.7888
▁сүнс	-10.7888
▁санаагаа	-10.7896
▁оврын	-10.7897
▁Чөлөөт	-10.79
▁w	-10.7903
▁Хаан	-10.7905
кг	-10.7911
▁бэлдэж	-10.7914
▁уруу	-10.7915
▁хямралын	-10.7917
раг	-10.7919
▁анд	-10.7919
Эрүүл	-10.792
▁малаа	-10.792
▁үзэгчид	-10.7921
▁сор	-10.7921
▁хорин	-10.7922
▁талаархи	-10.7923
▁хичээ	-10.7923
▁нааш	-10.7924
Болдбаатар	-10.7925
АВ	-10.7926
▁хариуцаж	-10.7927
▁ууланд	-10.7928
▁шалтгаалж	-10.7933
▁хөдлөл	-10.7935
▁онцгойлон	-10.7937
▁ширээний	-10.7937
▁Хөрөнгийн	-10.7938
▁байгуул	-10.7938
▁өмчлөх	-10.7939
▁бэрх	-10.7943
▁хэдийн	-10.7943
▁хийснээр	-10.7944
▁сураггүй	-10.795
▁хотхон	-10.7952
▁үзүүлбэр	-10.7952
▁алхаж	-10.7952
▁Хилийн	-10.7952
▁зорилгоо	-10.7959
▁коридор	-10.796
▁шинэчлэлийг	-10.7961
▁Мөрдөн	-10.7963
▁нууруудын	-10.7963
▁зарлиг	-10.7964
▁хүртээл	-10.7968
▁зүйлүүд	-10.797
▁тусламжтайгаар	-10.797
оны	-10.7977
вөл	-10.7979
▁баярыг	-10.7981
▁ойлголтыг	-10.7981
▁Спортын	-10.7984
▁эхлэхэд	-10.7985
▁Дональд	-10.7986
▁ай	-10.7986
▁сүүний	-10.7987
▁Цэц	-10.7987
▁хоёрхон	-10.799
▁хичээллэж	-10.7992
▁борлуулж	-10.7993
чир	-10.7995
▁эвлэлийн	-10.7999
▁шив	-10.8
ѳ	-10.8002
▁мэдэгдэв	-10.8011
▁төлнө	-10.8012
нийхээ	-10.8012
37	-10.8018
▁учрыг	-10.8018
▁дугуйн	-10.8019
лэдэг	-10.8019
▁бодлоор	-10.8023
▁тогтнолын	-10.8025
▁туссан	-10.8028
▁Обама	-10.8031
▁төмрийн	-10.8031
▁худалдааг	-10.8034
▁бүхэндээ	-10.8035
▁хүчирхийллийн	-10.8036
▁зайтай	-10.8038
▁тайзнаа	-10.8038
▁намаа	-10.8039
▁ирэхгүй	-10.8041
▁нартаа	-10.8043
te	-10.8047
▁босгосон	-10.8047
▁барилдлага	-10.8053
▁тэнцүү	-10.8053
Эрдэнэчимэг	-10.8054
наасаа	-10.8055
▁үзэгчдийн	-10.8059
Сэлэнгэ	-10.8063
▁шинэчилж	-10.8063
▁нэгдүгээрт	-10.8063
▁тайланд	-10.8066
▁угтан	-10.8069
▁хас	-10.8074
бу	-10.8077
▁захиалгаар	-10.8083
▁бэлчээр	-10.8084
▁хэлэлцүүлгийн	-10.8085
▁шаардлагад	-10.8086
▁оролцохыг	-10.8088
▁ажиллалаа	-10.8089
▁оролцогчдын	-10.8094
▁гэрийнхэн	-10.8095
▁хүзүү	-10.8099
▁зөвшөөрлийн	-10.8103
▁хийхээс	-10.8108
▁цаад	-10.8108
▁бямба	-10.8111
▁шилжин	-10.8111
жуулж	-10.8111
▁төвүүд	-10.8112
▁бүхнээ	-10.8113
өс	-10.8113
▁дэл	-10.8116
▁удаагүй	-10.8118
▁бүхнээс	-10.8119
▁газруудын	-10.812
▁нэмэгдүүлэхэд	-10.8121
▁армийн	-10.8121
▁өмсөгч	-10.8121
▁1.2	-10.8123
эхэд	-10.8124
▁барууны	-10.8126
▁эргэх	-10.8129
▁үүсгэдэг	-10.8131
ce	-10.8133
0%	-10.8135
▁тийшээ	-10.8135
▁ашгаа	-10.8137
▁ТЭЗҮ	-10.8138
▁юунаас	-10.8138
▁дайнд	-10.8138
▁хангахгүй	-10.8138
▁стресс	-10.8139
▁дүгнэх	-10.814
▁оч	-10.814
▁тооцвол	-10.814
▁Хэт	-10.8142
вэр	-10.8145
▁төлбөрт	-10.8147
▁Өөрийгөө	-10.8152
шгүй	-10.8153
▁тодруулсан	-10.8155
▁заах	-10.8157
▁зөвшөөрөгдсөн	-10.8159
▁байшингийн	-10.8165
▁хүрэн	-10.8166
▁өгье	-10.8167
▁хамтаар	-10.8167
▁аманд	-10.8167
85	-10.8171
екс	-10.8173
▁Кино	-10.8183
▁эсрэгээрээ	-10.8184
▁шалган	-10.8184
▁b	-10.8185
▁харагдсан	-10.8185
▁p	-10.8185
▁оруулан	-10.8185
▁хэлэлцээрт	-10.8186
▁23-28	-10.8187
▁Зөвлөлийн	-10.8188
100	-10.819
ro	-10.819
▁хуваалцах	-10.8199
▁буцаах	-10.8201
▁бүлгээс	-10.8202
ЭД	-10.8206
▁хаасан	-10.8206
▁гүний	-10.8212
гор	-10.8214
▁гамшиг	-10.8219
▁Уур	-10.8223
▁гээч	-10.8225
▁халах	-10.8229
▁дэмжихгүй	-10.8237
▁чадалгүй	-10.824
▁зүтгэх	-10.824
▁хошууч	-10.8241
▁Орчин	-10.8242
▁ажиллажээ	-10.8244
▁тэтгэвэрт	-10.8245
▁тэргүүлсэн	-10.8245
▁зөвлөгөөн	-10.8247
▁хийдийн	-10.8247
▁бодлоготой	-10.8248
▁ходоод	-10.8249
▁хүсээгүй	-10.825
▁зөвлөлөөс	-10.8251
▁зөвлөмжийг	-10.8251
▁шинжээч	-10.8253
▁хэрэгжүүлдэг	-10.8254
▁Хөл	-10.8254
▁зурвас	-10.8258
▁ирснийг	-10.8259
▁зорилтын	-10.8261
▁жүжгийн	-10.8261
Амаржаргал	-10.8265
▁над	-10.8266
co	-10.8268
▁1997	-10.8268
Энхсайхан	-10.8272
▁тух	-10.8272
▁нүдээ	-10.8273
▁зас	-10.8275
▁нурууны	-10.8275
▁шуудан	-10.8279
▁ачааны	-10.828
▁зуунд	-10.828
▁ЕБС	-10.829
▁цэнэтэй	-10.829
ia	-10.8295
▁өсөлтийн	-10.8298
▁залууст	-10.83
▁хүлээ	-10.8302
руулж	-10.8302
▁1990-	-10.8302
▁амласан	-10.8303
▁Владимир	-10.8304
▁хямралаас	-10.8306
▁өөдрөг	-10.8307
▁Парламентын	-10.8308
УУД	-10.8309
▁Гавьяат	-10.8309
▁цуглуулах	-10.831
▁дулаанаас	-10.831
▁ахмадууд	-10.831
Сарангэрэл	-10.8311
▁гуравдагч	-10.8312
la	-10.8312
гаараа	-10.8314
▁найдвар	-10.8319
▁биенээ	-10.8322
▁сонгогч	-10.8328
▁хуудсыг	-10.833
▁хомс	-10.833
▁Энхболд	-10.8335
im	-10.8336
АГ	-10.8337
▁арми	-10.8341
▁Саудын	-10.8342
▁өөрчилсөн	-10.8342
▁Тү	-10.8342
▁агаарт	-10.8344
▁ЗГХЭГ	-10.8344
▁хохирч	-10.8344
▁хэлэлцэхээр	-10.8345
▁тавигдсан	-10.8349
▁тэлэх	-10.8351
агдсан	-10.8352
▁ялгаж	-10.8355
▁урсгалыг	-10.836
▁багтай	-10.8361
▁үзээрэй	-10.8361
▁дугаартай	-10.8362
▁бул	-10.8363
▁надтай	-10.8364
▁пуужин	-10.8367
сноор	-10.837
▁өгөхөд	-10.8371
▁жингийн	-10.8372
▁хятадууд	-10.8374
▁гуйж	-10.8377
ation	-10.8379
▁хаях	-10.8385
▁67	-10.8386
▁140	-10.8387
▁зуд	-10.8387
▁орсноор	-10.8388
▁Сум	-10.8393
.11.	-10.8398
▁тээвэрлэлт	-10.84
▁хувьчлах	-10.8401
▁үйлдвэрлэгчид	-10.8401
▁баригчдын	-10.8402
▁баталгаатай	-10.8402
▁хачин	-10.8402
▁бичдэг	-10.8406
▁авснаар	-10.8411
95	-10.8411
▁төгсөөд	-10.8414
зан	-10.8414
▁кофе	-10.8416
0.0	-10.8416
▁хэрвээ	-10.8416
▁оронтой	-10.8418
▁эрэгтэйчүүдийн	-10.8418
▁тушаалаа	-10.8419
▁ангилал	-10.8419
ард	-10.8421
▁БЗД	-10.8422
▁элч	-10.8429
▁Үл	-10.8431
▁удирдлагуудад	-10.8435
аасай	-10.8436
▁нотолгоо	-10.8439
лиг	-10.844
▁Канадын	-10.8443
▁байгуулахыг	-10.8444
▁нисдэг	-10.8447
▁97	-10.8453
▁1500	-10.8454
▁хэвлэлээр	-10.8455
▁13.	-10.8455
▁тооцдог	-10.8456
мер	-10.846
▁эрдмийн	-10.8461
▁санаачилгыг	-10.8468
ип	-10.8468
▁дүрмийг	-10.8469
▁тэнгэрийн	-10.8469
▁санагдсан	-10.8469
▁барихад	-10.8471
▁гэхчлэн	-10.8471
▁шүүс	-10.8472
▁ДЭМБ	-10.8475
▁Чухам	-10.8475
▁хүнээр	-10.8478
The	-10.8479
иан	-10.8499
▁олноороо	-10.85
▁Арабын	-10.8502
▁уншсан	-10.8502
▁санаачлага	-10.8503
▁хэвтэж	-10.8507
цэцэг	-10.8508
▁гэдэс	-10.8509
лэгдсэн	-10.8511
▁уулзалтаар	-10.8512
▁эхэлснээс	-10.8516
▁буцах	-10.8517
тны	-10.8518
▁хурдацтай	-10.8518
▁ивээн	-10.8521
▁өнөөдрөөс	-10.8521
▁томилж	-10.8522
▁унаа	-10.8524
▁тэмээ	-10.8525
▁Мэдээлэл	-10.8527
▁програм	-10.8528
▁там	-10.8533
▁угаал	-10.8534
▁хуурч	-10.8535
Баттулгын	-10.8538
▁байршилд	-10.8538
▁гай	-10.8539
нь	-10.8542
▁БОАЖЯ	-10.8548
элт	-10.8548
▁ногооны	-10.8553
▁судлаачдын	-10.8554
ЖЭЭ	-10.8554
дэл	-10.8556
▁21-26	-10.8558
69	-10.8558
▁19-24	-10.8559
▁өрсөлдсөн	-10.856
▁овог	-10.8562
VII	-10.8565
▁хурдны	-10.8568
▁тэн	-10.8569
▁тарьсан	-10.857
мон	-10.8575
and	-10.8576
▁хаагчдыг	-10.8576
тол	-10.8579
38	-10.858
▁хүсэхгүй	-10.8581
▁ааш	-10.8582
▁сүлжээгээр	-10.8582
▁евро	-10.8586
бэл	-10.8588
▁In	-10.8589
▁таамаглаж	-10.8589
47	-10.8591
▁авир	-10.8592
▁баяжмал	-10.8592
най	-10.8593
▁нараа	-10.8594
▁баяжуулах	-10.86
▁бодитоор	-10.8601
ЭНХ	-10.8611
▁ханиад	-10.8615
▁хэргүүд	-10.8617
▁өгөөж	-10.8618
▁h	-10.8621
▁ялагч	-10.8622
мын	-10.8624
агдах	-10.8626
▁зорчиж	-10.863
▁маяг	-10.8644
▁Бор	-10.8647
▁гаднын	-10.8648
▁хуваарилалт	-10.8652
▁Чуулганы	-10.8655
▁хүсэлтээр	-10.8655
ова	-10.8658
лов	-10.8661
▁өсөлттэй	-10.8662
▁хүмүүсээ	-10.8664
▁Арга	-10.8667
▁хороодын	-10.8669
▁охиныг	-10.8674
▁машинаар	-10.8674
▁хүүхэн	-10.8678
▁сайжруулахад	-10.8678
▁өндөг	-10.868
▁болгонд	-10.8681
▁25-30	-10.8681
лэв	-10.8685
▁хардлага	-10.8685
▁Ман	-10.8687
▁мөчид	-10.8687
▁хулгайч	-10.8696
▁эмчилгээнд	-10.8701
ИС	-10.8704
▁91	-10.8714
▁цуцлах	-10.8714
▁байгаагаараа	-10.8723
▁сүүлчээр	-10.8728
▁хамтрагч	-10.873
лаагүй	-10.873
▁баялгийг	-10.873
▁асуулгын	-10.8731
▁сартай	-10.8731
▁халдсан	-10.8732
Од	-10.8732
маг	-10.8733
оогүй	-10.8737
▁америк	-10.874
▁цэгт	-10.874
▁дээрэм	-10.8742
▁туг	-10.8742
▁Тодорхой	-10.8742
▁ажиллахаа	-10.8742
▁ням	-10.8743
▁замаа	-10.8746
▁Биднийг	-10.875
▁1-2	-10.8751
▁гүйлгээ	-10.8753
▁нийлүүлсэн	-10.8754
▁харцага	-10.8755
▁журамд	-10.8756
▁бичээд	-10.8756
лээр	-10.876
▁баталгаажуулсан	-10.8762
▁оныг	-10.8763
▁бэлдмэл	-10.8764
▁ухамсар	-10.8768
54	-10.877
▁НЗДТГ	-10.8772
▁холбогдоорой	-10.8772
▁мэдрэлийн	-10.8773
▁өчүүхэн	-10.8777
Бурмаа	-10.8777
▁итгэдэг	-10.8782
▁алс	-10.8783
▁ма	-10.8785
▁оролдсон	-10.8786
▁хариуцан	-10.8787
76	-10.8789
▁төгрөгөөс	-10.879
▁байршуулах	-10.879
рин	-10.879
▁автозам	-10.8795
▁ТҮЦ	-10.8795
▁эмчлүүлж	-10.8796
▁МИАТ	-10.8797
▁Тав	-10.8799
▁ухаж	-10.8801
▁нээлтэд	-10.8801
▁явдлууд	-10.8802
▁зориуд	-10.8804
▁арьсны	-10.8806
▁нүүдэл	-10.881
▁ханшийг	-10.8813
Сандуй	-10.8815
is	-10.8816
▁толгойгоо	-10.8818
▁илэрхийлэл	-10.8821
▁мартаж	-10.8823
▁мань	-10.8825
▁Зөв	-10.8829
▁үүд	-10.8838
▁хүлээдэг	-10.8839
-11	-10.8839
▁данстай	-10.8841
Гамшгийн	-10.8842
▁Сөүл	-10.8843
▁бололцоог	-10.8847
▁ярина	-10.8848
▁БСШУСЯ	-10.8849
Тэр	-10.8851
▁цаашаа	-10.8851
▁сонголтоо	-10.8851
лдаг	-10.8851
▁экологийн	-10.8852
▁бэлтгэн	-10.8854
▁дүүс	-10.8856
ee	-10.8857
▁ундааны	-10.8858
▁түншлэл	-10.8861
▁байршил	-10.8862
▁тайлбарыг	-10.8866
▁хүндээ	-10.8866
▁баривчлах	-10.8868
▁байгаадаа	-10.8868
▁Вьетнам	-10.8869
▁байцаалт	-10.887
▁учруулах	-10.8871
▁зардалд	-10.8874
▁хүргэн	-10.8874
гыг	-10.8875
▁үнэлэмж	-10.8877
▁о	-10.8878
еп	-10.8881
▁төсөлтэй	-10.8881
чны	-10.8884
▁урилгаар	-10.8888
рам	-10.8893
Чинзориг	-10.8895
▁өргөсөн	-10.8898
▁3-5	-10.8898
ers	-10.8898
▁Урьд	-10.8898
▁агсны	-10.8899
▁ШУТИС	-10.8899
агдаж	-10.8903
▁бүрдүүлдэг	-10.8905
▁1.3	-10.8908
дож	-10.8908
ми	-10.891
▁хүргүүлнэ	-10.8912
▁хамгаалал	-10.8913
▁гүрэн	-10.8914
▁үзэг	-10.8914
ИР	-10.8915
чилсан	-10.8919
▁be	-10.8919
рт	-10.892
▁бодлогод	-10.8928
▁төрөө	-10.8931
▁үзэсгэлэнгийн	-10.8935
li	-10.8937
▁өртөгтэй	-10.8939
дуулсан	-10.8939
мин	-10.894
▁Өнөөгийн	-10.8941
▁Архи	-10.8941
▁тооцогддог	-10.8942
▁шалгалтаар	-10.8946
▁гэрэлт	-10.8946
▁хамгаал	-10.8948
▁захирлын	-10.895
▁сонгогчид	-10.8951
▁Малын	-10.8951
Энхбаярын	-10.8951
▁олголт	-10.8951
▁арын	-10.8952
▁чадавхийг	-10.8963
▁дурсгалын	-10.8969
▁макро	-10.897
▁сонсч	-10.8971
79	-10.8972
хой	-10.8975
▁гудамжны	-10.8976
▁хамар	-10.8979
▁ойлгуулах	-10.8979
▁Пак	-10.898
▁уучлал	-10.8981
▁супер	-10.8982
▁бүхэлдээ	-10.8984
▁хамаатай	-10.8984
▁уулзлаа	-10.8993
▁энерги	-10.8994
▁Хо	-10.8996
▁жишигт	-10.8998
▁нэгтгэсэн	-10.8998
▁театрт	-10.9003
▁гайхамшигтай	-10.9004
▁охиноо	-10.9007
▁нефть	-10.9008
Хан	-10.9009
рав	-10.9011
▁төвлөрүүлэх	-10.9013
se	-10.9015
▁өндөрт	-10.9016
▁болсноос	-10.9018
▁мэдүүлэх	-10.9022
▁хучилттай	-10.9023
▁дунджаас	-10.9023
▁гавьяа	-10.9023
▁насныхан	-10.9025
▁уналт	-10.9025
▁видео	-10.9033
▁зайлуулах	-10.9034
▁аавын	-10.9034
из	-10.9035
дөж	-10.9036
▁1991	-10.9037
▁даргатай	-10.9038
Ням	-10.9045
▁гуайн	-10.9046
▁хуудсанд	-10.9046
▁хээр	-10.9047
98	-10.9047
▁худагт	-10.9048
▁сорилт	-10.9049
Батсайхан	-10.9053
▁үйлчилгээтэй	-10.9053
сг	-10.9053
▁хэрэглэгчдэд	-10.9056
Ганзориг	-10.9057
үл	-10.9057
▁авахаас	-10.9058
▁явуулахаар	-10.9062
▁цэнэ	-10.9062
▁цусан	-10.9063
▁санаачилж	-10.9063
▁үзэсгэлэнд	-10.9063
▁жуулчдын	-10.9064
▁хоршоо	-10.9064
▁хангадаг	-10.9066
▁Ху	-10.9068
▁дэлгэрүүлэх	-10.9068
▁нуух	-10.9068
▁хэрэглээнд	-10.9069
▁буусан	-10.9069
▁төлөгч	-10.9069
▁байгуулагчид	-10.907
▁хангаагүй	-10.9072
▁алхах	-10.9075
▁Эрдэнэтийн	-10.9076
Алдар	-10.9078
Амарсайхан	-10.908
▁чадварын	-10.9086
▁илүүдэл	-10.909
ИН	-10.9096
▁Хө	-10.9098
▁Тогтвортой	-10.9103
▁тэнгэрт	-10.9106
▁сэргэж	-10.9106
▁найрамдах	-10.9109
Жаргалсайхан	-10.911
▁төлөвлөгөөнд	-10.9113
▁анхдагч	-10.9116
лэлт	-10.912
▁хамаарна	-10.9121
▁санаачлагч	-10.9122
▁зорих	-10.9123
▁гарсны	-10.9124
▁хямралыг	-10.9125
▁ухаанд	-10.9126
фа	-10.9128
▁багаас	-10.9128
▁байрлаж	-10.9128
НД	-10.9136
▁хөөрхөн	-10.9138
▁санагдана	-10.9139
▁дуугаа	-10.914
▁шударгаар	-10.9141
▁Бай	-10.9142
▁институт	-10.9145
▁үнэлгээг	-10.9146
Зориг	-10.9147
▁болгохыг	-10.9151
▁дарс	-10.9153
▁өлсгөлөн	-10.9153
▁Тагнуулын	-10.9153
▁хорьж	-10.9157
▁цааз	-10.9157
▁ажлаасаа	-10.9157
▁сурвалжлах	-10.9158
▁Өр	-10.9161
84	-10.9163
▁Цаашлаад	-10.9164
▁хуваарилах	-10.9166
▁иддэг	-10.9169
▁хэрэгтээ	-10.9171
▁мэдэгдээд	-10.9172
▁үзэхээр	-10.9172
▁толгойд	-10.9172
▁баривчилсан	-10.9172
▁дагасан	-10.9173
▁эко	-10.9173
▁Хил	-10.9173
▁Эв	-10.9173
тоо	-10.9175
▁22-27	-10.9177
▁тэнцэж	-10.9182
▁өдөрлөг	-10.9184
▁Лхагва	-10.9186
▁ноолуур	-10.9187
66	-10.9188
▁нүүрээ	-10.9189
ter	-10.919
▁1995	-10.9191
▁будаг	-10.9194
▁78	-10.9203
▁суугчид	-10.9204
▁сүй	-10.9206
▁нэм	-10.9206
▁хуралдсан	-10.9206
▁сууцыг	-10.9207
▁цонх	-10.9214
43	-10.9214
▁хэрэгжилтэд	-10.9214
▁авт	-10.9218
▁гарснаас	-10.922
▁бизнесийг	-10.9221
▁шалгасан	-10.9221
▁На	-10.9222
▁холбон	-10.9224
УУЛ	-10.9224
-3	-10.9225
▁Өвөр	-10.9225
▁явбал	-10.9226
▁хөдлөлтийн	-10.9226
▁Нар	-10.9228
▁нөлөөгөөр	-10.923
▁тэднээс	-10.923
▁гамшгаас	-10.923
▁зээлээс	-10.9234
▁азтан	-10.9236
▁ногдуулах	-10.9237
хыг	-10.9244
▁архаг	-10.9246
▁гэргий	-10.9248
▁хятадын	-10.925
▁тэрбумаар	-10.9253
үүлээд	-10.9257
жүүлж	-10.9257
Ухаа	-10.9257
▁хэлбэртэй	-10.9258
ЭРДЭНЭ	-10.9259
▁цав	-10.9261
▁жанжин	-10.9264
▁Нарийн	-10.9265
▁тохирох	-10.9268
▁амьжиргааны	-10.927
▁юмыг	-10.9273
▁Цахилгаан	-10.9273
▁Хай	-10.9278
▁мессеж	-10.928
▁хөлд	-10.928
оё	-10.9283
▁байрлуулах	-10.9289
▁Мод	-10.9293
▁аван	-10.9293
▁эз	-10.9293
▁мисс	-10.9294
▁Эрээн	-10.9295
ИЙ	-10.9296
▁шүдний	-10.93
▁төсөөлж	-10.93
▁хорооллыг	-10.9307
лэнэ	-10.9309
▁улсуудын	-10.931
▁шийдвэрлэхэд	-10.9311
▁71	-10.9311
▁төртэй	-10.9312
▁хийлгэсэн	-10.9312
▁4-5	-10.9318
оз	-10.9318
▁арал	-10.9319
▁бүсгүйн	-10.9319
-10	-10.932
▁этгээдүүд	-10.9321
▁Улз	-10.9321
▁асран	-10.9322
▁тэвчээр	-10.9323
▁хадгаламжийн	-10.9325
▁ярихдаа	-10.9325
▁өмчийг	-10.9325
▁мэдээгээр	-10.9326
▁нухацтай	-10.9327
▁зузаан	-10.9327
▁Хуралдаанаар	-10.9327
▁хэвлэлүүд	-10.9328
▁81	-10.9331
▁Долоо	-10.9332
Хүүхдийн	-10.9334
▁2016-2020	-10.9335
all	-10.9336
▁салбартаа	-10.9338
ле	-10.9338
▁машинд	-10.9338
▁амжилтын	-10.9342
▁МХЕГ	-10.9342
▁ялах	-10.9353
▁шаардлагын	-10.9358
▁малыг	-10.9359
▁өөрөөсөө	-10.9365
▁зөвшөөрөлтэй	-10.9365
▁мессенжерт	-10.9368
▁анхааралтай	-10.9368
▁гаргаагүй	-10.9371
▁нэмээд	-10.9372
▁багачууд	-10.9373
▁шүүгчид	-10.9373
ши	-10.9373
▁эхнээс	-10.9375
▁маягийн	-10.9377
▁голлох	-10.9378
▁сүүлдээ	-10.9378
хийг	-10.9383
▁сунгах	-10.9383
моор	-10.9385
үүлдэг	-10.9388
▁сүүн	-10.9388
ag	-10.9389
77	-10.9393
▁нэгжүүдэд	-10.9395
▁өртэй	-10.9396
▁эргүүлж	-10.9397
▁сансрын	-10.9397
▁алсын	-10.9397
дод	-10.94
▁чадлыг	-10.94
ӨӨ	-10.9401
▁гэдгээр	-10.9403
▁нисэхийн	-10.9404
▁заалтууд	-10.9404
▁дуусаагүй	-10.9405
▁ойлго	-10.9411
mminfo	-10.9411
▁дөө	-10.9411
▁этгээдэд	-10.9412
▁сайхныг	-10.9413
▁үйлдлийн	-10.9416
▁засагчид	-10.9417
ео	-10.9418
▁Га	-10.942
▁давтан	-10.9424
▁шингэсэн	-10.9425
▁шалтгааны	-10.9426
Тэрбишдагва	-10.9426
су	-10.9428
уудтай	-10.9428
▁ярилцлагадаа	-10.943
▁Тэдэнд	-10.9431
▁хэтрүүлэн	-10.9435
▁хуваарь	-10.9438
▁нислэгийн	-10.9438
▁элсэх	-10.9438
▁байгаасай	-10.9441
▁цэвэрлэгээ	-10.9445
▁хэдийгээр	-10.9447
▁БНМАУ	-10.9451
лагдаж	-10.9451
▁өмнөхөн	-10.9456
▁тооцоолж	-10.9463
▁бололцоотой	-10.9464
▁хөөж	-10.9465
тэр	-10.9465
мэл	-10.9466
ре	-10.9466
▁айраг	-10.9469
▁Кон	-10.9469
▁харилцагч	-10.947
▁пост	-10.947
▁урлагт	-10.9473
▁ГХЯ	-10.9474
▁бү	-10.9475
59	-10.9475
▁талийгаач	-10.9477
Өндөр	-10.9478
▁баримтууд	-10.9478
дэв	-10.9479
ез	-10.9487
▁Хэзээ	-10.9487
st	-10.9489
▁вирусын	-10.9491
▁гаригийн	-10.9495
▁үзэсгэлэнг	-10.9495
▁төлөөд	-10.9496
▁1994	-10.9497
▁хэмнэлт	-10.9497
▁Санхүү	-10.9498
ѳѳ	-10.9501
▁хоёрт	-10.9503
▁үүгээр	-10.9503
▁согтуу	-10.9507
▁ХО	-10.9507
▁олоод	-10.9508
▁нэмэгдүүлсэн	-10.9509
46	-10.9511
▁нэмэгдэл	-10.9512
▁хичээдэг	-10.9512
▁дуусгавар	-10.9519
▁дэр	-10.9521
рон	-10.9522
▁Польш	-10.9529
▁үйлчлүүлэх	-10.9529
▁эмчилгээг	-10.953
▁хүртээмжийг	-10.9531
▁10:00	-10.9536
▁хотуудын	-10.9536
▁мөрний	-10.9536
▁эгэл	-10.9537
▁цогцоор	-10.9537
▁япон	-10.9538
▁далан	-10.9541
▁аймшигтай	-10.955
▁улсаа	-10.9552
▁шалгаруулалтад	-10.9552
▁зээлтэй	-10.9559
▁туршилтын	-10.956
▁гайхаж	-10.956
▁бодисыг	-10.9561
▁тасаг	-10.9561
▁Татвар	-10.9561
▁77	-10.9562
▁өвдөг	-10.9562
гуул	-10.9566
ЛАА	-10.9566
▁олно	-10.9567
▁Ядаж	-10.9568
▁сонго	-10.9568
аач	-10.9572
▁магистр	-10.9573
▁нутгаа	-10.9574
▁98	-10.9576
▁Мон	-10.9578
▁дэмжигчид	-10.9586
▁төрдөг	-10.959
▁алдаатай	-10.9592
Сүхбат	-10.9594
▁оролцон	-10.9596
▁хувцасны	-10.9596
▁буурна	-10.9596
▁m	-10.9597
▁төлөвлөх	-10.9597
▁дай	-10.9602
64	-10.9604
▁тэмцээнээс	-10.9605
▁ёсондоо	-10.9605
▁сонс	-10.9605
▁дэмжлээ	-10.9605
▁УБТЗ	-10.9606
▁Ган	-10.9611
▁хичээллэх	-10.9615
▁телевизээр	-10.9616
▁шинэчлэлт	-10.9618
▁тавихад	-10.9619
▁дэлгүүрийн	-10.962
▁МУГЖ	-10.9621
▁үнс	-10.9623
▁цэнэг	-10.9624
▁Урт	-10.9624
НА	-10.9625
▁хүнийхээ	-10.9626
▁хэлбэрт	-10.9627
атор	-10.9629
▁гэгчээр	-10.9631
▁идсэн	-10.9631
▁үхэх	-10.9631
▁иш	-10.9633
▁түлхүүр	-10.9634
▁Гэрэл	-10.9635
▁СХД	-10.9636
мс	-10.964
▁сал	-10.9646
▁салбараа	-10.9649
▁хайрхан	-10.9653
алдаг	-10.9653
wikim	-10.9656
▁орчноо	-10.9656
▁голомт	-10.9657
mo	-10.9658
▁Валютын	-10.9662
om	-10.9663
▁сантай	-10.9665
▁шог	-10.9666
арга	-10.9671
▁хураалтын	-10.9671
▁дэвшигчийг	-10.9672
▁гүйцэтгэдэг	-10.9673
▁компаниудыг	-10.9675
▁дэмжээд	-10.9676
▁хөдөлж	-10.9677
Эр	-10.9678
▁чамгүй	-10.9681
▁Амьдрал	-10.9682
▁холбоонд	-10.9682
▁усаа	-10.9683
▁бэх	-10.9685
▁Прокурорын	-10.9688
▁эхлүүлээд	-10.9688
▁удирдлагад	-10.9691
▁гаж	-10.9694
▁Аймаг	-10.9695
▁байгуулснаар	-10.9697
▁сэргээлт	-10.9702
▁ондоо	-10.9703
ЭГ	-10.9704
▁тодорсон	-10.9706
өөсөө	-10.9708
▁дадал	-10.9708
▁Дорнодын	-10.9708
▁уралдааныг	-10.971
▁бүтээмж	-10.9711
Лхагвасүрэн	-10.9714
▁Баасан	-10.9714
89	-10.9714
▁таарах	-10.9715
58	-10.9716
▁бахархал	-10.9719
▁бичигдэж	-10.9719
▁засаглалыг	-10.9719
▁хасч	-10.9722
▁орчихсон	-10.9726
нер	-10.9726
▁ас	-10.9727
▁буур	-10.9728
▁өвөлжилтийн	-10.9729
▁удаж	-10.9729
▁санагдах	-10.973
▁өргөжин	-10.9731
луулан	-10.9734
▁самар	-10.9734
▁сургаал	-10.9735
▁бүрд	-10.9741
▁бензин	-10.9741
▁гарал	-10.9745
▁манлай	-10.9748
▁үхсэн	-10.9751
Оюу	-10.9751
▁ёслолд	-10.9752
▁хаясан	-10.9753
▁Пүрэв	-10.9756
▁гр	-10.9758
▁орнуудтай	-10.9758
▁мэндчилгээ	-10.9759
▁IV	-10.9759
▁чадамж	-10.9762
▁салгаж	-10.9762
▁хөгшин	-10.9762
▁илэрхийлжээ	-10.9763
▁өгөхдөө	-10.9766
▁шигшээд	-10.9767
ку	-10.9768
▁хэрэгслүүд	-10.9768
▁сонирхох	-10.9768
▁хурлаа	-10.9769
▁де	-10.9769
▁ёстойг	-10.9772
▁уут	-10.9772
▁Ку	-10.9773
▁багассан	-10.9773
▁болохын	-10.9774
▁гуравны	-10.9776
▁Унгар	-10.9776
▁Ням	-10.9779
Хүрэлсүхийн	-10.9779
▁Голомт	-10.9782
▁цохи	-10.9782
▁тушаалтны	-10.9782
Оюунгэрэл	-10.9788
▁дуугүй	-10.9792
чихоод	-10.9792
▁мэдээлэлтэй	-10.9801
▁үндэслэлгүй	-10.9801
▁асга	-10.9801
ААР	-10.9803
▁дайсан	-10.9807
▁үүснэ	-10.9809
▁үй	-10.981
▁хэвтэн	-10.9811
▁оруулалттай	-10.9814
▁үрийн	-10.9816
▁авчихсан	-10.9819
▁сурвалжууд	-10.982
▁Шинэчлэлийн	-10.9821
▁төрч	-10.9826
ика	-10.9827
сноос	-10.9829
▁шунал	-10.9832
▁дүүргүүдийн	-10.9834
▁тогтолцоонд	-10.9836
est	-10.9838
Улс	-10.9839
▁босч	-10.9841
▁эвдрэл	-10.9842
дав	-10.9844
▁мэдээллүүд	-10.9845
▁хоолойг	-10.9845
▁байгууллагуудыг	-10.9849
▁хулгайн	-10.985
▁яамд	-10.985
▁Ла	-10.985
▁код	-10.9854
▁Бо	-10.9855
▁Эхнэр	-10.9856
▁дуудах	-10.9857
лсэн	-10.9857
▁нэвтрүүлсэн	-10.9859
▁нөхөж	-10.9861
▁хаалганы	-10.9862
▁өсчээ	-10.9863
▁рашаан	-10.9864
цэн	-10.9866
▁бэрхшээлийг	-10.9868
▁унагах	-10.9868
57	-10.9869
▁жарны	-10.9872
дам	-10.9872
▁Нийтэлсэн	-10.9873
▁бүсийг	-10.9873
▁жишгээр	-10.9875
▁барж	-10.9876
▁бодохоор	-10.9883
рүү	-10.9883
▁нүүрсээ	-10.9884
53	-10.9885
▁суга	-10.9886
▁бүлийнхэн	-10.9888
▁сараар	-10.9892
▁эмчид	-10.9893
▁өрнөсөн	-10.9894
▁явагдана	-10.9897
▁байгуулагдсаны	-10.9897
▁олборлож	-10.9898
дөх	-10.9901
▁байраа	-10.9903
▁байн	-10.9903
▁хүмүүжил	-10.9904
▁барах	-10.9904
-4	-10.9905
▁туршлагыг	-10.9909
▁Хяналтын	-10.9909
▁худалдаалах	-10.9916
▁даваанд	-10.9922
▁Од	-10.9925
▁тааламжтай	-10.9927
▁Зээл	-10.9936
▁улстөрчдийн	-10.9937
▁УБ	-10.9938
▁шоо	-10.9939
▁баттай	-10.994
▁домог	-10.9943
▁явагддаг	-10.9944
▁амьтад	-10.9945
▁тусламжаар	-10.9946
▁эсэргүүцсэн	-10.9947
▁ажлынхаа	-10.9948
▁дэмжлэгийг	-10.9953
▁сайжруулсан	-10.9955
▁нүүлгэн	-10.9955
лүүлдэг	-10.9955
▁дурсгал	-10.9955
▁цуг	-10.9956
▁нисгэгч	-10.9958
▁шалгаруулж	-10.9961
▁туяа	-10.9963
▁янзын	-10.9963
▁судлан	-10.9964
чихсөн	-10.9965
ul	-10.9966
▁одоог	-10.9967
▁цалингаа	-10.9968
▁зүйлгүй	-10.9968
▁тушаалаас	-10.9969
▁Өмнөговийн	-10.9969
▁хадгалагдаж	-10.9969
АТ	-10.9973
▁хавтгай	-10.9974
▁Зөвлөлтийн	-10.9974
▁хул	-10.9977
▁өртөө	-10.9979
▁яриаг	-10.998
ill	-10.9981
тойгоор	-10.9981
▁хаагчдад	-10.9982
▁хүдэр	-10.9983
▁бөөр	-10.9983
▁зөвшөөрөхгүй	-10.9988
▁Үлдсэн	-10.9989
▁ганцаар	-10.9992
▁1993	-10.9993
1-	-10.9995
▁ирвэл	-10.9996
Овоо	-10.9998
▁Мар	-10.9999
▁ХААН	-10.9999
▁хай	-11.0001
ош	-11.0003
▁мөрөн	-11.0005
▁өргөтгөх	-11.0007
▁судалсан	-11.0007
эгдсэн	-11.0016
кер	-11.0016
68	-11.0017
▁содон	-11.002
нуудын	-11.002
52	-11.0024
▁мэдлэгийг	-11.0025
▁чөлөөлсөн	-11.0025
▁Дотоодын	-11.0027
▁шүтээн	-11.0034
▁баталгааг	-11.0034
▁уя	-11.0035
▁онцолжээ	-11.0035
хэл	-11.0037
▁Хоёрдугаар	-11.0039
86	-11.004
▁хараагүй	-11.0042
▁хүндрэлийг	-11.0044
▁Стандарт	-11.0046
▁штабын	-11.0048
▁доллараар	-11.0049
▁бүтээгдэхүүнүүд	-11.0051
▁хошой	-11.0053
рх	-11.0055
тний	-11.0058
▁ТӨР	-11.0063
▁харваа	-11.007
▁оношилгоо	-11.0071
▁секунд	-11.0074
элгүй	-11.0078
▁зөрчлөөс	-11.0078
▁захиа	-11.008
дер	-11.0082
▁УЛС	-11.0083
▁холбогдуулж	-11.0084
▁St	-11.0086
▁замнал	-11.0088
▁хүчирхийлэлд	-11.0089
▁амаа	-11.0089
▁аяллын	-11.009
▁Өвлийн	-11.0093
▁болчих	-11.0094
Таван	-11.0094
▁батлагдсанаар	-11.0094
▁хөтөлбөрүүдийг	-11.0094
▁зэм	-11.0094
▁Тэргүүлэгчдийн	-11.0098
▁багасгаж	-11.0099
▁тэдэнтэй	-11.01
▁ахуйг	-11.0104
▁Кар	-11.0105
▁даргаас	-11.0107
▁өснө	-11.0111
▁билэг	-11.0114
▁хамгаалдаг	-11.0115
91	-11.0117
▁мэтийн	-11.0117
▁тогоо	-11.0118
▁хачирхалтай	-11.0118
▁хариулсан	-11.0119
▁алаг	-11.012
▁МАНАН	-11.012
▁мэдээгүй	-11.0122
▁дурьдсан	-11.0122
▁оршино	-11.0124
Төв	-11.0126
▁батламж	-11.0134
▁mminfo	-11.0134
assa	-11.0137
Цогзолмаа	-11.0138
▁унт	-11.0139
▁айлчилж	-11.014
Чойжилсүрэн	-11.0143
бер	-11.0145
уль	-11.0148
гуур	-11.0148
▁зочин	-11.0149
▁саналтай	-11.0149
▁булш	-11.015
▁Бизнесийн	-11.0152
▁авиа	-11.0152
▁гарцыг	-11.0155
800	-11.0156
▁өргөжүүлэн	-11.0158
▁биеийг	-11.0159
▁Уулзалтад	-11.0162
▁нөхдийн	-11.0162
▁тоолох	-11.0163
тор	-11.0165
▁шийдээд	-11.0165
▁оруулжээ	-11.0168
▁бэлгэ	-11.017
▁хүргэ	-11.0171
▁даргаа	-11.0171
▁хэлэлцлээ	-11.0172
▁Цагдаа	-11.0173
▁бусадтай	-11.0174
ot	-11.0175
▁Хал	-11.0179
▁Үүгээр	-11.0181
▁түлшний	-11.0181
▁батлуулсан	-11.0181
▁аймгуудад	-11.0183
▁Ди	-11.0184
▁дурлалын	-11.0184
▁сайдтай	-11.0184
▁зал	-11.0186
▁дамнасан	-11.0189
▁хороог	-11.0194
▁тогтоон	-11.0194
Очирбат	-11.0196
▁аялгуу	-11.0198
▁далайд	-11.0198
▁бурхны	-11.0199
▁амлаж	-11.02
▁машинаа	-11.0203
▁засварлах	-11.0203
▁эрдэмтдийн	-11.0206
▁ЭХ	-11.0206
▁байя	-11.0211
▁даашинз	-11.0212
▁алх	-11.0214
чихлээ	-11.0215
▁оруулахгүй	-11.0216
єр	-11.0216
үүдээс	-11.0218
▁бэл	-11.0218
лл	-11.0218
42	-11.0219
▁ашиглалтанд	-11.0222
▁салбараас	-11.0223
ээсэй	-11.0224
▁тавьжээ	-11.023
▁эе	-11.0232
▁эхнээсээ	-11.0235
▁босоо	-11.0236
жсэн	-11.0239
▁баталгаажуулж	-11.024
▁үлдлээ	-11.0242
▁танин	-11.0242
▁офицер	-11.0246
▁өртгийн	-11.0246
▁тавигдаж	-11.0246
▁муудсан	-11.0247
▁Тоглолтын	-11.0248
▁Америкт	-11.0251
▁Мо	-11.0252
▁очдог	-11.0253
▁амраг	-11.0253
▁үзэсгэлэнт	-11.0256
төл	-11.0257
доод	-11.0259
чихаж	-11.0259
▁гэмтэж	-11.026
Оюунчимэг	-11.0264
▁тэртээ	-11.0266
▁бууруулсан	-11.0266
▁угтаж	-11.0266
▁зөрчин	-11.0267
▁саарал	-11.0268
оц	-11.0269
▁дэмжлэгтэйгээр	-11.027
▁солонгос	-11.027
▁сайжрах	-11.0272
▁Товчхондоо	-11.0272
▁ундны	-11.0275
▁чимэг	-11.0275
▁хов	-11.0275
▁амины	-11.0277
▁огцрох	-11.0277
▁нэгдлийг	-11.0281
▁шалгалтад	-11.0282
▁явцын	-11.0282
▁Гу	-11.0283
▁эрхлэлтийн	-11.0284
▁хамруулсан	-11.0285
▁Тусгаар	-11.0285
▁цолыг	-11.0287
лэгдэж	-11.0293
▁банктай	-11.0293
▁саа	-11.0294
▁донор	-11.0295
ийж	-11.0296
▁Найз	-11.0297
▁ашигласны	-11.0298
▁үндэслэлтэй	-11.0301
▁дэлгэц	-11.0301
▁шугамаар	-11.0302
74	-11.0303
▁Манайхан	-11.0303
▁төлөвлөгөөгөө	-11.0308
▁хагарал	-11.031
▁900	-11.0311
насан	-11.0312
▁Хэ	-11.0313
ГА	-11.0314
▁хоолоо	-11.0319
▁мухар	-11.0321
▁сацуу	-11.0321
оч	-11.0324
▁соёлтой	-11.0326
▁загварыг	-11.0331
▁үрэвсэл	-11.0331
▁сургуулиудад	-11.0332
▁нандин	-11.0335
▁алдааг	-11.0336
▁үдэш	-11.0338
▁орохоор	-11.0341
▁төлөвшүүлэх	-11.0341
▁Түр	-11.0344
ланд	-11.0347
▁хордлого	-11.035
Пүрэвсүрэн	-11.0351
▁алдагдаж	-11.0356
▁(0)	-11.0356
lo	-11.0361
▁өөрчлөгдөх	-11.0362
▁биологийн	-11.0362
▁хоригийг	-11.0365
▁нааштай	-11.0368
▁нялх	-11.0371
анг	-11.0371
Йорк	-11.0372
▁экспортыг	-11.0375
члал	-11.0376
▁ирээдүйг	-11.0376
▁Мөнх	-11.0376
▁хоригдож	-11.0377
▁татаад	-11.0377
Энхбаярыг	-11.0378
элсэн	-11.0378
▁эрсдлийг	-11.0379
▁цамц	-11.038
▁нөхөрлөл	-11.0381
бор	-11.0383
▁яригдсан	-11.0386
▁Вашингтон	-11.0388
рийг	-11.039
▁хойшлуулах	-11.0394
▁УЛСЫН	-11.0396
▁гэрэлтүүлэг	-11.0398
Энхбат	-11.0398
▁тэнцсэн	-11.04
▁зайг	-11.0401
▁нэгнээ	-11.0403
▁олз	-11.0406
▁дурдаж	-11.0411
▁дахиж	-11.0412
▁махыг	-11.0413
Эм	-11.0414
▁ь	-11.0417
▁гурилын	-11.0419
▁мэнгэтэй	-11.0419
▁Хяналт	-11.0422
▁сонгогдож	-11.0422
▁хуулиудыг	-11.0425
▁Урлагийн	-11.0427
▁хая	-11.0429
гу	-11.043
▁Сургалтын	-11.0435
▁эрсдэлд	-11.0437
▁Зураг	-11.0438
єг	-11.0439
▁мэдэн	-11.0441
▁өгөөжтэй	-11.0444
лц	-11.0445
▁тооцоог	-11.0445
хэд	-11.0446
▁багтааж	-11.0452
41	-11.0454
▁зүйлээр	-11.0455
Цог	-11.0457
▁ИХ	-11.0458
▁танилцлаа	-11.0461
▁солилцсон	-11.0461
рыг	-11.0462
▁хийг	-11.0464
▁засагтай	-11.0464
▁чигээрээ	-11.0465
▁барилдсан	-11.0466
▁ивээл	-11.0469
▁хороод	-11.047
▁ядуурал	-11.047
200	-11.0472
өөгүй	-11.0472
▁хааяа	-11.0473
▁хараал	-11.0476
▁туйл	-11.0478
длаа	-11.048
▁залууг	-11.048
▁тур	-11.0482
▁явдалд	-11.0483
▁корпорацийн	-11.0486
▁амыг	-11.0488
▁инфляци	-11.0488
▁амжсан	-11.049
▁хориглоно	-11.049
▁сумдад	-11.0496
▁орнуудаас	-11.0501
▁тохижилтын	-11.0503
со	-11.0503
гасан	-11.0504
▁мөрдөгдөж	-11.0504
ch	-11.0508
▁хорхой	-11.0508
▁зэрэгтэй	-11.0508
▁экспортод	-11.0509
▁хууч	-11.0512
▁таашаал	-11.0512
▁нэгтэй	-11.0516
▁татгалз	-11.0516
Номтойбаяр	-11.0519
▁эмэгтэйн	-11.052
▁болбол	-11.0523
шинэчилсэн	-11.0524
▁санаачилгаар	-11.0525
▁Дундговийн	-11.0528
▁сэтгэцийн	-11.0528
лэгдэх	-11.0529
▁шүлхий	-11.0529
эмж	-11.053
▁сахих	-11.0536
▁бүтээгч	-11.0537
оу	-11.0538
▁өлгий	-11.0538
▁анхаарна	-11.0539
▁on	-11.0542
▁гэгдэх	-11.0544
▁бил	-11.0546
▁хувиа	-11.0546
▁цемент	-11.0546
▁Ерөнхийлөгчөөр	-11.0548
▁хүйтний	-11.0549
ата	-11.0552
▁огтхон	-11.0552
сэл	-11.0552
▁илэрдэг	-11.0552
▁өтгөн	-11.0554
▁ерөнхийдөө	-11.0559
▁багтах	-11.056
▁тогтоолд	-11.056
▁жуулчид	-11.0561
▁Дахин	-11.0563
▁эрдэнэ	-11.0564
▁хямралд	-11.0565
▁онлайн	-11.0565
▁академийн	-11.0567
▁уриалсан	-11.0567
▁төгсгөл	-11.0567
▁Go	-11.0573
▁дутмаг	-11.0575
▁l	-11.0576
иф	-11.0577
▁гардуулан	-11.058
▁зайн	-11.0585
▁хя	-11.0585
Хаянхярваа	-11.0587
▁маргаантай	-11.0587
▁Сири	-11.0591
▁даах	-11.0593
▁мэдээллээс	-11.0594
▁тариф	-11.0595
▁нэмэгддэг	-11.0597
▁явчих	-11.0599
▁гардуулж	-11.0602
▁ноёд	-11.0602
▁Муу	-11.0604
▁Мандал	-11.0604
▁галзуу	-11.0604
▁гаргахдаа	-11.0605
АС	-11.0607
▁84	-11.0607
▁твиттер	-11.0607
▁хүлээгээд	-11.0608
МАН	-11.0608
мент	-11.061
▁шонхор	-11.0611
▁94	-11.0613
▁түүхт	-11.0613
жир	-11.0614
▁зэрэглэл	-11.0615
ийх	-11.0618
▁төрчид	-11.062
▁Му	-11.0621
▁группийн	-11.0621
чихвал	-11.0623
▁бэлтгэлийг	-11.0623
▁гаруйн	-11.0624
2-	-11.0624
▁өргө	-11.0625
Мон	-11.0626
▁ойлголцол	-11.0627
▁үгс	-11.0631
▁Швейцарийн	-11.0633
▁эгнээнд	-11.0634
ино	-11.0636
▁халдаж	-11.0637
▁дал	-11.0638
▁эргэлтийн	-11.064
▁хүртээмж	-11.064
▁тан	-11.0641
▁хамаарал	-11.0642
▁буурчээ	-11.0645
лосон	-11.0646
▁оноог	-11.0647
▁хэлэлцүүлж	-11.0648
▁буцаад	-11.0649
▁агуулгатай	-11.065
▁грамм	-11.065
▁Тэргүүн	-11.0651
▁Дуучин	-11.0652
▁Багахангай	-11.0653
▁хийц	-11.0654
▁сайнаар	-11.0654
▁хуваах	-11.0656
▁биечлэн	-11.0657
▁номоо	-11.066
▁ХАА	-11.0661
▁үзэгчдэд	-11.0662
▁замтай	-11.0663
▁чихрийн	-11.0665
▁уусан	-11.0666
▁торгуулийн	-11.0671
ял	-11.0672
▁энергийн	-11.0677
▁зохиож	-11.0677
▁Ираны	-11.068
▁Бөхийн	-11.0681
▁дайчин	-11.0681
▁зохицуулагч	-11.0681
тн	-11.0682
▁лавлагаа	-11.0683
▁дуулгахад	-11.0684
▁нүдээр	-11.0687
▁хэрэгжсэн	-11.0687
▁хувилбарыг	-11.0688
▁тосгоны	-11.0688
▁гэдэгтэй	-11.0692
▁хариулах	-11.0693
▁насаараа	-11.0696
▁холбоод	-11.0699
▁зүү	-11.07
гэрэл	-11.0702
▁жолоо	-11.0708
▁угсралтын	-11.0709
▁илгээж	-11.071
хал	-11.0713
▁сэжиг	-11.0715
амба	-11.0717
ест	-11.0717
▁Хаврын	-11.0723
▁хаалгыг	-11.0725
97	-11.0728
▁Буриад	-11.0729
ков	-11.0731
▁хосууд	-11.0731
▁зохицуулсан	-11.0736
▁Сургууль	-11.0738
дугаар	-11.074
▁хэсэгтээ	-11.0743
үйц	-11.0745
иш	-11.0745
▁МоАХ	-11.0746
Нарантуяа	-11.0749
▁медалийг	-11.0751
▁цомын	-11.0751
ач	-11.0752
▁Түүх	-11.0756
▁эмэгтэйг	-11.0756
▁холимог	-11.0757
▁Арван	-11.0758
▁зүтгэсэн	-11.0758
▁тохиромжгүй	-11.076
▁гадуурх	-11.0761
▁ямаа	-11.0766
▁дах	-11.0769
▁шүүмжлэлтэй	-11.0769
▁баримтаа	-11.0769
▁багахан	-11.077
▁хэрэгтэйг	-11.0771
ГИЙН	-11.0774
▁харь	-11.0774
сал	-11.0775
▁агуулах	-11.0775
▁магад	-11.0777
▁Ойн	-11.0778
▁тохиолдсон	-11.078
▁хамрах	-11.078
▁халаас	-11.0781
▁сумаас	-11.0781
Дэмбэрэл	-11.0782
▁худалдаалж	-11.0782
56	-11.0785
▁өрөөний	-11.0788
гүүд	-11.0791
▁Алхам	-11.0798
Мо	-11.0801
▁ЮНЕСКО	-11.0803
▁шийдвэрлэнэ	-11.0805
▁тэмдэгт	-11.0805
▁92	-11.0806
▁захад	-11.0813
длээ	-11.0813
▁машинтай	-11.0813
▁хөдлөлт	-11.0821
▁цэгцлэх	-11.0821
▁ирэхийг	-11.0821
▁хаягаар	-11.0825
Даваа	-11.0827
▁тэнгисийн	-11.0828
▁дагах	-11.0829
▁түлхэц	-11.083
▁хэлэхгүй	-11.0831
▁хөдөөгийн	-11.0835
▁хооллох	-11.0836
▁нэгтгэл	-11.0836
▁сануулсан	-11.0837
▁аминд	-11.0838
▁Өөрийнхөө	-11.0838
▁үзүүлэлтийг	-11.0838
▁ахин	-11.0841
▁лидер	-11.0845
▁ярихгүй	-11.0845
▁ногдол	-11.0846
▁захиалагч	-11.0846
▁нүцгэн	-11.0848
▁зорилгодоо	-11.0849
▁тодотголтой	-11.0851
▁бүртээ	-11.0853
▁хамтраад	-11.0854
▁онцлоод	-11.0855
▁цагтаа	-11.0856
1.2	-11.086
▁секс	-11.0863
ut	-11.0865
▁00	-11.0865
▁уриалга	-11.0865
лаас	-11.0866
▁аудит	-11.087
▁салхинд	-11.087
▁тэнцэл	-11.087
чиж	-11.0871
▁арьсыг	-11.0875
▁ун	-11.0878
эрсэн	-11.0879
Элбэгдоржийн	-11.0882
▁Хас	-11.0883
▁мэндэлсэн	-11.0883
ори	-11.0884
▁төлөөлөгчдийг	-11.0885
СЭН	-11.0885
▁хамтрах	-11.0886
▁барин	-11.0886
▁тахих	-11.0888
▁утсаа	-11.0892
▁эргэлзээ	-11.0892
▁голд	-11.0892
▁ээжийн	-11.0893
вр	-11.0893
▁тү	-11.0893
▁ЭМЯ	-11.0894
араа	-11.0896
▁зарцуул	-11.0897
▁удирдлагуудтай	-11.09
▁найрал	-11.0903
▁Ойрын	-11.0905
▁Эн	-11.0906
▁учрах	-11.0906
▁тэсвэр	-11.0907
амж	-11.0908
▁даалгалаа	-11.0909
рэл	-11.091
▁анхнаасаа	-11.0911
инээв	-11.0911
▁тендерт	-11.0916
▁Жин	-11.0917
▁зөвлөгөөг	-11.092
▁олгогдсон	-11.0925
▁тусган	-11.0925
▁Заримдаа	-11.0926
▁хөндлөнгийн	-11.0926
go	-11.0932
▁устгаж	-11.0933
▁тасагт	-11.0935
▁бидэнтэй	-11.0937
▁нилээд	-11.0939
▁санамсаргүй	-11.094
▁азтай	-11.094
Номин	-11.094
▁зөгийн	-11.0943
▁өгснөөр	-11.0943
▁шатрын	-11.0944
гон	-11.0945
▁жуулчин	-11.0945
рээд	-11.0945
-15	-11.095
▁харна	-11.095
ау	-11.0952
▁холын	-11.0953
▁Гуравдугаар	-11.0956
Хууль	-11.0958
▁хичээх	-11.0962
▁өгүүлэх	-11.0964
▁сумд	-11.0966
▁амнаас	-11.0968
▁үгэнд	-11.0971
▁аймшигт	-11.0972
▁холбогдон	-11.0976
▁ОР	-11.0976
▁Ахмад	-11.0977
▁шалтаг	-11.098
▁Монголбанкнаас	-11.0981
Өнөөдөр	-11.0983
▁зоог	-11.0983
▁үүрч	-11.0985
▁Төсөл	-11.0985
▁болгов	-11.0986
цгаая	-11.0986
▁тодорч	-11.0987
▁ангийг	-11.0987
▁боомтын	-11.0988
фи	-11.0988
▁хоёрдугаарт	-11.0989
уш	-11.0989
▁багасна	-11.0989
▁уураг	-11.0992
▁хязгаарлагдмал	-11.0992
▁удирдлагыг	-11.0992
өрсөн	-11.0993
▁Эмэгтэйчүүдийн	-11.0994
▁сүрэг	-11.0994
▁боломжууд	-11.0994
▁авлага	-11.0995
▁өрөнд	-11.0999
болд	-11.0999
▁нутгийнхаа	-11.1
▁өргөдлөө	-11.1002
▁ХОЛБООТОЙ	-11.1002
▁ажиглагдаж	-11.1002
▁хөвгүүд	-11.1004
▁ялалтын	-11.1005
▁уурхайгаас	-11.1007
▁Өргөдлийн	-11.1008
▁шийдлийг	-11.1009
▁эрхлэгчдэд	-11.1009
:05	-11.101
▁20-30	-11.1011
Тавантолгой	-11.1011
пи	-11.1013
▁Ян	-11.1014
▁оюутнуудын	-11.1015
▁хайрын	-11.1016
▁импортоор	-11.1018
▁хөлийн	-11.1021
▁хольж	-11.1021
▁нэгээр	-11.1021
▁настайдаа	-11.1024
▁хийе	-11.1025
▁өнгөрлөө	-11.1027
▁дэлгүүрүүд	-11.1027
▁хумс	-11.1031
▁наадмаас	-11.1033
▁240	-11.1034
▁баримтаар	-11.1034
▁хаалгаа	-11.1035
члах	-11.1037
▁оролцоод	-11.1041
дээс	-11.1041
▁болсноо	-11.1042
▁хажуу	-11.1043
дэггүй	-11.1047
▁охидын	-11.1049
Занданшатар	-11.1051
▁аман	-11.1051
▁чаджээ	-11.1052
ён	-11.1054
▁дуусна	-11.1054
▁2-7	-11.1054
▁фото	-11.1055
▁наадмаар	-11.1055
▁Баярлалаа	-11.1057
▁зохиосон	-11.1061
▁ороо	-11.1061
▁Дэлхийд	-11.1064
▁Ch	-11.1066
▁хуралдуулах	-11.1067
87	-11.1067
▁амьдар	-11.107
▁дараахь	-11.107
▁өдрөө	-11.1071
сах	-11.1071
Наранбаатар	-11.1071
▁АМ	-11.1073
▁Гуравдугаарт	-11.1076
▁тулгуурласан	-11.1077
▁зардаг	-11.1079
▁байгууллагынхан	-11.108
▁ажиглаж	-11.1081
▁дууссаны	-11.1083
▁хөрөнгөтэй	-11.1088
Баатар	-11.109
Батжаргал	-11.1093
▁бүтээлчдийн	-11.1094
▁спортыг	-11.1095
▁ялгарах	-11.11
▁өвчтөн	-11.1101
▁тэдгээрийг	-11.1103
▁учиргүй	-11.1103
огоо	-11.1103
▁туу	-11.1104
▁Гагцхүү	-11.1104
гөөр	-11.1105
▁ялагдал	-11.1108
▁Африк	-11.111
▁дүнгээс	-11.1113
▁хэсгүүд	-11.1113
▁элссэн	-11.1114
▁Мягмар	-11.1114
▁Нээлтийн	-11.1115
▁авсны	-11.1117
Жи	-11.112
▁тайл	-11.1122
▁оруул	-11.1126
▁атал	-11.1128
▁хэрэглэл	-11.1129
▁мөнгөнөөс	-11.113
▁de	-11.113
▁хуулиас	-11.113
NE	-11.1131
▁ад	-11.1134
▁1989	-11.1135
▁баярт	-11.1135
▁алслагдсан	-11.1139
▁үзүүлэлтээр	-11.114
▁Чен	-11.1141
▁хассан	-11.1141
▁түшиглэн	-11.1142
Наран	-11.1146
▁Түүгээр	-11.1147
▁байрлуулсан	-11.1147
▁үгүйсгэх	-11.1151
▁Өмч	-11.1151
▁Хороо	-11.1151
▁өмссөн	-11.1152
▁цуваа	-11.1153
▁эрүүлжүүлэх	-11.1156
▁буд	-11.1156
▁про	-11.1156
▁тогтоосны	-11.1159
▁үлдэнэ	-11.116
▁хөтөлбөртөө	-11.1161
▁сэлгээ	-11.1162
▁алдахгүй	-11.1162
▁Нарны	-11.1162
▁4000	-11.1165
▁хүчирхийлэлтэй	-11.1166
▁бахархаж	-11.1167
ци	-11.1168
▁амьдралтай	-11.1172
▁Тан	-11.1175
▁Яармаг	-11.1176
▁амьдралынхаа	-11.1176
▁чөлөөлөгдөх	-11.1179
▁ирэхдээ	-11.1182
▁Малайз	-11.1184
▁Улстай	-11.1184
▁болгоё	-11.1186
▁томилогдох	-11.1189
▁хувиараа	-11.1192
▁боломжоор	-11.1196
▁зугаа	-11.1196
▁Наадмын	-11.1199
▁хязгааргүй	-11.1201
▁тооцон	-11.1201
▁үзүүлэн	-11.1202
▁хангамжийг	-11.1203
1.1	-11.1204
гү	-11.1205
▁дэлхийг	-11.1206
▁хэмээлээ	-11.1208
▁цөл	-11.1208
▁практик	-11.121
▁бетон	-11.1213
▁эзэмшүүлэх	-11.1215
▁Хам	-11.1217
▁Шин	-11.1217
ard	-11.1218
▁уриан	-11.1222
▁гэснийг	-11.1224
▁аварч	-11.1224
▁байгальд	-11.1224
▁тойрч	-11.1225
БХ	-11.1228
▁навч	-11.123
▁эрин	-11.1231
▁болсонд	-11.1231
▁үнэлэлт	-11.1231
▁Сарын	-11.1236
ион	-11.1238
▁хэрэгтэн	-11.1239
▁уурхайг	-11.1241
Отгон	-11.1243
▁бүлээн	-11.1248
ОД	-11.125
▁дэвтэр	-11.1252
▁өргөмжлөл	-11.1252
▁хүрээтэй	-11.1253
ity	-11.1255
▁87	-11.1256
▁ЖДҮ	-11.1256
▁дүгнэсэн	-11.1256
▁Ки	-11.1261
▁зайлсхий	-11.1262
▁хяналтад	-11.1267
▁удирдагчид	-11.1268
▁багаа	-11.1268
гаагүй	-11.1269
▁Токио	-11.127
▁170	-11.1276
▁даг	-11.1276
▁голлон	-11.1277
67	-11.1278
▁гашуун	-11.128
▁олохгүй	-11.1281
▁суугч	-11.1281
ОН	-11.1283
72	-11.1284
▁зарсан	-11.1284
▁дээдлэх	-11.1285
▁хүрэхэд	-11.1285
▁бүтэхгүй	-11.1286
▁улстөр	-11.1286
▁оруулахад	-11.1287
Зоригийн	-11.1288
▁хандивын	-11.1289
▁Мөнгөний	-11.1289
▁төгрөгтэй	-11.1291
▁12.00	-11.1291
снээ	-11.1294
▁зогсч	-11.1295
82	-11.1298
гэсэн	-11.1306
▁Испани	-11.1307
▁сэрүүн	-11.1307
▁жолоочийн	-11.131
▁зүйч	-11.1311
▁Эрэгтэй	-11.1312
▁хожсон	-11.1312
кв	-11.1314
▁харамсаж	-11.1316
▁шавар	-11.1316
▁Ном	-11.132
▁нэрлэх	-11.132
▁82	-11.1323
▁оролцохгүй	-11.1323
▁БОАЖ	-11.1325
эгдэх	-11.1326
▁хэрэгч	-11.1335
▁биднээс	-11.1337
▁Сайншанд	-11.1338
▁дамжиггүй	-11.1338
▁салхины	-11.1341
▁мөргөж	-11.1345
▁хуралдах	-11.1346
▁хүчинтэй	-11.1348
▁хариулж	-11.1349
▁Нийгэм	-11.1352
▁аажмаар	-11.1354
▁төсөөлөл	-11.1364
▁шөл	-11.1371
▁цэгц	-11.1372
▁өмс	-11.1373
уудаар	-11.1375
▁идэвхи	-11.1377
ту	-11.1377
▁илгээ	-11.1381
▁унаган	-11.1381
▁дурдаад	-11.1384
▁механик	-11.1386
▁цагаасаа	-11.1387
▁на	-11.1387
▁яригдах	-11.1388
лөөд	-11.1388
▁цагдаад	-11.1392
▁металл	-11.1394
▁ихсэх	-11.1394
▁хөтөлбөрүүд	-11.1396
▁хүндэрсэн	-11.1397
▁ТЕГ	-11.1398
▁хөөрхий	-11.1398
▁даатгалд	-11.1398
94	-11.14
▁малчдад	-11.1401
▁байцаа	-11.1402
▁жолоодох	-11.1402
▁нэмэгджээ	-11.1403
▁хөтлөгч	-11.1403
▁лабораторийн	-11.1403
▁мэдэгдлийг	-11.1405
гээгүй	-11.1411
▁хөдөлгөх	-11.1411
▁үйлдвэрлэлээ	-11.1411
жийн	-11.1412
▁хавь	-11.1415
▁оруулахыг	-11.1421
иод	-11.1421
▁ӨМӨЗО	-11.1421
▁зүйлтэй	-11.1422
об	-11.1424
▁сонслоо	-11.1429
▁Худалдааны	-11.1429
▁тэнцвэр	-11.1429
▁хуучны	-11.1431
▁дайралт	-11.1435
▁Бодит	-11.144
▁тосгон	-11.1442
▁амжилтанд	-11.1444
▁оросууд	-11.1446
▁хоолойн	-11.1449
▁НЭГ	-11.1449
▁талбайтай	-11.145
▁Бараг	-11.145
▁гэрээгээ	-11.1451
▁өөдөөс	-11.1453
▁авснаас	-11.1454
▁террорист	-11.1457
▁үзэмж	-11.1459
▁эмгэнэл	-11.1462
▁эгшиг	-11.1463
▁Бээжингийн	-11.1465
▁зовох	-11.1466
▁эхлэхээр	-11.1467
▁зурхай	-11.1472
▁агаад	-11.1473
▁барахгүй	-11.1474
▁пүрэв	-11.1475
▁төлөөллүүд	-11.1476
▁тохиолдож	-11.1477
▁бүтээлд	-11.1477
▁Төвийн	-11.1478
▁аргачлал	-11.1481
хор	-11.1487
▁мөргөлдөөн	-11.1488
▁байршуулсан	-11.1491
▁утгагүй	-11.1491
▁Яаж	-11.1492
▁гишүүнээс	-11.1496
▁Авлигын	-11.1496
▁тойронд	-11.1498
▁Яам	-11.1498
▁тайзан	-11.1498
Да	-11.1503
▁үргэлжилсээр	-11.1506
▁зарлаад	-11.1506
▁саванд	-11.1508
▁өнгөрөөх	-11.1508
▁төсвөө	-11.1508
▁замдаа	-11.1511
▁цогцолборт	-11.1512
63	-11.1512
лна	-11.1517
асан	-11.1517
▁салбарууд	-11.1518
▁сайтын	-11.152
▁Александр	-11.1522
үд	-11.1522
▁ухааныг	-11.1522
чихдэг	-11.1523
▁цацраг	-11.1524
▁Ардчилал	-11.1524
▁зөрчих	-11.1525
▁бизнесээ	-11.1528
▁цэнийг	-11.1529
вэ	-11.153
▁өгүүлбэр	-11.1532
▁жигүүр	-11.1532
▁дээдэс	-11.1533
▁тэмдэглэлээ	-11.1533
▁Де	-11.1533
Лүндээжанцан	-11.1535
▁Мин	-11.1535
▁шагнаж	-11.1536
▁унаад	-11.1536
АНУ	-11.1537
▁Ингэхэд	-11.1537
Сумъяабазар	-11.1538
▁цацаж	-11.154
▁адууны	-11.1542
ТГ	-11.1544
▁зөөж	-11.1545
▁50-	-11.1545
▁анзаар	-11.1546
▁тагнуул	-11.1547
▁Ме	-11.1548
▁тэмдэглэдэг	-11.1553
▁тоглолтонд	-11.1553
▁больж	-11.1554
▁дарсан	-11.1557
▁гэрээсээ	-11.1558
▁нээгдэж	-11.1558
чихэж	-11.1559
▁хотууд	-11.1563
▁хүчнийг	-11.1563
▁тамирчдыг	-11.1565
▁ре	-11.1567
▁Марк	-11.1569
▁эрсдэлээс	-11.1572
▁бөө	-11.1573
▁цул	-11.1574
▁Сонгууль	-11.1578
БАТ	-11.1578
▁хүчил	-11.1582
▁нотолж	-11.1584
▁тогтож	-11.1584
▁ашиглаад	-11.1584
▁зов	-11.1585
▁24-29	-11.1588
еф	-11.1588
▁зургууд	-11.1589
▁түүгээр	-11.1589
кс	-11.1589
▁системтэй	-11.159
▁Эцсийн	-11.159
▁залуучуудыг	-11.1593
Дархан	-11.1593
▁эсэргүүцэл	-11.1594
▁хадгал	-11.1595
:40	-11.1596
▁болсоор	-11.1599
▁Лондон	-11.16
▁Жилийн	-11.16
▁уруул	-11.1601
▁хамаардаг	-11.1601
▁ИЗНН	-11.1604
▁байг	-11.1608
▁эрхмүүд	-11.1609
үүдээ	-11.1612
▁лхагва	-11.1613
▁Үз	-11.1614
рэг	-11.1616
▁залруулах	-11.1617
▁илрүүлэн	-11.1618
▁үгийн	-11.1622
дуулж	-11.1622
чүүдийн	-11.1624
▁Усны	-11.1625
▁харц	-11.1629
▁дуучид	-11.1632
▁дуурийн	-11.1635
▁амттай	-11.1635
▁хөндийн	-11.1636
Мөнхбаяр	-11.1637
▁гараараа	-11.1639
▁нээн	-11.1641
▁явахыг	-11.1645
▁үзье	-11.1645
▁ха	-11.1645
▁Барак	-11.1645
▁Эдгээрээс	-11.1649
▁Ти	-11.1652
▁барьцаанд	-11.1652
▁үеийнхэн	-11.1652
▁байрандаа	-11.1652
71	-11.1654
81	-11.1655
ейн	-11.1657
▁тээж	-11.1657
▁онгоцыг	-11.166
▁хүндхэн	-11.1662
▁93	-11.1662
ег	-11.1662
▁сурын	-11.1662
▁No	-11.1667
ac	-11.1667
▁Пи	-11.1669
▁сургалтанд	-11.1669
▁хир	-11.1672
▁хэрэгцээтэй	-11.1672
▁үнэмшил	-11.1673
▁бүрдүүлнэ	-11.1675
▁Чех	-11.1676
▁хэмээгч	-11.1676
мб	-11.1677
▁илэрхий	-11.1678
▁төвшин	-11.1679
▁дорой	-11.1679
дсон	-11.168
▁тохиолддог	-11.168
▁богд	-11.168
▁багтаасан	-11.1682
▁даалгаврыг	-11.1683
▁төвөгтэй	-11.1683
▁гаран	-11.1684
▁үүсгээд	-11.1685
▁хөдөлгүүр	-11.1686
▁өрнүүлэх	-11.1688
▁Зуны	-11.1692
иад	-11.1696
▁утсыг	-11.1696
▁эхчүүдийн	-11.1697
▁цээрийн	-11.1701
▁шийдвэрүүд	-11.1706
▁урвуулан	-11.1706
▁академи	-11.1707
▁тулгарсан	-11.1708
▁аваргууд	-11.1709
▁хөндсөн	-11.171
ge	-11.1712
▁d	-11.1716
▁үзлэгт	-11.1717
▁Тэгтэл	-11.1719
▁салшгүй	-11.1719
НХ	-11.1722
▁суулгасан	-11.1723
▁автомашиныг	-11.1723
Мал	-11.1725
▁цагдаагийнхан	-11.1726
▁намдаа	-11.1726
▁ШХАБ	-11.1726
▁өгчих	-11.1728
▁ажилчин	-11.1728
▁өгөхөөс	-11.1729
сай	-11.1731
▁карьер	-11.1732
жсан	-11.1733
▁Морин	-11.1735
▁урилга	-11.1736
▁тогло	-11.1736
op	-11.1737
▁такси	-11.1739
▁идэвхжүүлэх	-11.174
▁олгохгүй	-11.1743
▁бүлгүүд	-11.1744
▁машинууд	-11.1746
▁унагаж	-11.1746
▁шимийг	-11.1747
▁нэмэгдүүлнэ	-11.175
▁Мах	-11.175
▁баланс	-11.175
▁булчин	-11.1752
▁боломжоо	-11.1753
▁онооны	-11.1754
ага	-11.1757
▁үлэмж	-11.1758
▁мэдэгдэлд	-11.1759
▁хамгаалахад	-11.1764
▁уурхайд	-11.1764
▁Юутай	-11.1766
▁уучлалт	-11.1769
ell	-11.1772
▁Компанийн	-11.1773
▁төрхийг	-11.1773
▁1.1	-11.1774
▁Чан	-11.1774
▁гэдгээс	-11.1775
вор	-11.1775
ig	-11.1777
ts	-11.1779
de	-11.1781
▁төгсөх	-11.1783
▁дайр	-11.1787
▁хямралтай	-11.1787
▁сайгүй	-11.1788
▁тархсан	-11.1789
▁нэмэгдсээр	-11.1789
ович	-11.1791
▁Цөмийн	-11.1792
▁ЗГ	-11.1792
▁шүүмж	-11.1794
▁орхиод	-11.1797
ааны	-11.18
▁судас	-11.1801
▁шалгаад	-11.1801
илсан	-11.1802
▁авбал	-11.1804
▁менежментийг	-11.1805
▁музейд	-11.1806
▁сэтгүүлийн	-11.1807
иц	-11.1811
▁давхардсан	-11.1811
▁боов	-11.1815
дас	-11.1816
▁таньж	-11.1816
▁заалтуудыг	-11.1819
▁хариултыг	-11.1819
▁олимпод	-11.1823
▁газруудыг	-11.1826
▁буруутгах	-11.1828
Хөгжлийн	-11.183
▁Нийслэлд	-11.1834
▁шалга	-11.1835
▁штаб	-11.1836
▁хүйс	-11.1836
▁дасан	-11.1836
▁эзэмшигчдийн	-11.1837
▁Наран	-11.1838
▁хязгаарыг	-11.1841
Билэгт	-11.1846
▁яамтай	-11.1849
▁хожиж	-11.185
▁ээжүүд	-11.1851
▁нүдэн	-11.1851
▁мэнгэ	-11.1852
▁танилцуулгыг	-11.1853
▁заалттай	-11.1854
▁тогтоодог	-11.1855
▁илчлэг	-11.1855
▁залуугийн	-11.1856
ir	-11.1857
гол	-11.1858
рол	-11.186
▁нэгжийг	-11.186
▁хомсдол	-11.1861
▁Хорооны	-11.1862
▁аваарай	-11.1862
Пүрэвдорж	-11.1863
▁гаргасныг	-11.1863
51	-11.1865
чээ	-11.1865
▁бүтээ	-11.1865
▁солилцлоо	-11.1866
▁харшил	-11.1868
Одоо	-11.1868
▁өвдөж	-11.1871
БАЯР	-11.1871
▁суларч	-11.1874
Ю	-11.1874
▁дурс	-11.1879
▁унш	-11.1879
пе	-11.1882
билэг	-11.1884
Ногоон	-11.1884
ГАН	-11.1885
▁халх	-11.1886
Баян	-11.1887
▁Тэрхүү	-11.1887
▁сам	-11.1888
▁па	-11.1889
▁өвчилсөн	-11.189
▁бичлэгийн	-11.189
▁вагон	-11.1891
▁тэтгэмжийн	-11.1891
▁толбо	-11.1895
▁дуусгаж	-11.1895
гэх	-11.1895
ийнхэн	-11.1896
вч	-11.1898
▁мэдэгдэхгүй	-11.19
▁Наад	-11.1902
▁ордод	-11.1902
▁хүндэтгэх	-11.1904
▁диплом	-11.1906
▁гацаа	-11.1906
▁ресурс	-11.1907
дуу	-11.191
▁тайлангаа	-11.1911
▁зөвшилцөх	-11.1912
▁бүртгэгдэж	-11.1914
▁бүрдүүлэхэд	-11.1915
▁Багшийн	-11.1915
▁үзүүл	-11.192
▁хүлэмжийн	-11.192
▁бэлдэх	-11.1923
кин	-11.1923
▁удирдлагуудын	-11.1923
▁гэгээ	-11.1924
▁хувцастай	-11.1926
▁зарцуулалт	-11.1928
▁Түүнтэй	-11.193
▁Бал	-11.1931
нээр	-11.1931
▁ихийг	-11.1932
▁шийдэлд	-11.1933
▁адилгүй	-11.1933
ОС	-11.1934
арь	-11.1934
▁хуудаснаа	-11.1934
▁ШӨХТГ	-11.1934
▁дараахан	-11.1936
Шилдэг	-11.1938
▁давалгаа	-11.1941
▁ирүүлэх	-11.1943
▁намтар	-11.1943
▁шижин	-11.1945
Батцэцэг	-11.1946
▁хэсгийнхэн	-11.1946
▁Нээлттэй	-11.1947
▁79	-11.1949
▁Украин	-11.195
ni	-11.1951
▁Намрын	-11.1953
сайхан	-11.1953
▁харагдахгүй	-11.1956
▁уулс	-11.1956
▁болих	-11.1957
▁тэрэгний	-11.1957
▁араасаа	-11.1958
▁боломжит	-11.1958
▁өргөөнд	-11.196
лаар	-11.1961
▁архины	-11.1961
▁цан	-11.1962
▁үймээн	-11.1965
▁аймгууд	-11.1966
▁нарийвчилсан	-11.1968
▁илэрхийлдэг	-11.1971
▁биетэй	-11.1972
▁оролцоогүй	-11.1972
вер	-11.1975
▁гагцхүү	-11.1975
▁цугласан	-11.1975
▁үзүүлэлтүүд	-11.198
Энхжаргал	-11.1982
▁тавцанд	-11.1982
▁нөлөөг	-11.1985
▁цахимаар	-11.1985
▁харьцаатай	-11.1986
▁үлдээд	-11.1987
▁тогооч	-11.1987
▁банкуудад	-11.1987
▁Хуралдааны	-11.1988
▁зовлонг	-11.1989
▁ерөөе	-11.1989
▁мэдэлтэй	-11.199
▁үйлдвэрлэлд	-11.1991
▁тогтооно	-11.1993
▁1072	-11.1994
мор	-11.1994
▁танихгүй	-11.1996
▁харлаа	-11.1997
▁ерөөл	-11.1999
▁аваар	-11.2
▁хайл	-11.2
▁Тэгэхдээ	-11.2
Сайханбилэгийн	-11.2003
▁авав	-11.2005
▁нууж	-11.2005
▁Испанийн	-11.2005
лүүлэн	-11.201
▁чанарт	-11.2014
▁зэрэгцээд	-11.2018
▁нэхэмжлэл	-11.2021
Эрдэнэбатын	-11.2022
▁багтжээ	-11.2024
▁шүүмжлэх	-11.2025
▁дамжиж	-11.2027
▁бардам	-11.2027
▁урагшаа	-11.2027
▁эзэнт	-11.2028
▁аялж	-11.2029
▁нэгжтэй	-11.2029
ЕР	-11.203
▁харьцаагаар	-11.2031
ынхоо	-11.2032
▁зохи	-11.2032
сс	-11.2033
▁авалтын	-11.2034
▁орхих	-11.2034
▁сурагтай	-11.2036
▁Хад	-11.2038
гаж	-11.204
▁тусламжийг	-11.2044
▁Эрдэнэс	-11.2046
▁бараан	-11.2047
▁vv	-11.2051
-2018"	-11.2051
▁сурдаг	-11.2052
▁шийдвэрлэлээ	-11.206
▁байцаагчийн	-11.206
чдад	-11.2061
▁Со	-11.2062
зо	-11.2062
1.5	-11.2063
▁тусах	-11.2063
▁хүндэрч	-11.2063
▁барилд	-11.2064
▁арилгаж	-11.2066
▁Өдөрт	-11.2066
▁ургах	-11.2069
▁хоёроос	-11.2071
▁сонирхдог	-11.2071
▁Иймэрхүү	-11.2071
▁үсээ	-11.2072
▁гарцгүй	-11.2073
▁цочир	-11.2076
аст	-11.2076
▁Казахстаны	-11.2078
▁Дарга	-11.208
▁Жаргалант	-11.2081
▁жуулчлалыг	-11.2084
▁Гацууртын	-11.2084
▁гайхамшигт	-11.2084
▁засуулбал	-11.2085
5%	-11.2085
▁зориул	-11.2085
стой	-11.2087
▁оросын	-11.2088
▁Москвагийн	-11.2088
▁багасч	-11.209
▁Хэд	-11.2092
▁нарынхаа	-11.2093
▁Трампын	-11.2094
▁удмын	-11.2095
▁чадавхи	-11.2096
▁томъёо	-11.2097
▁хуудсаар	-11.2099
▁дүүргээс	-11.21
▁төслөөр	-11.2101
▁булаг	-11.2104
▁сонирхлоо	-11.2106
Золжаргал	-11.2106
▁сууцжуулах	-11.2108
▁төлөөллийг	-11.2108
▁өсвөрийн	-11.211
▁үлддэг	-11.211
▁хэргээ	-11.2112
▁автозамын	-11.2116
3-	-11.2119
▁зайлсхийх	-11.212
▁хувьчлал	-11.2122
▁ихэр	-11.2124
▁төлөвлөн	-11.2127
▁танк	-11.213
▁сайжирна	-11.213
▁89	-11.2132
▁Харилцаа	-11.2133
▁сэв	-11.2134
▁Оны	-11.2135
▁Ганцхан	-11.2135
▁зул	-11.2137
▁үлджээ	-11.2137
62	-11.2138
▁Дар	-11.214
▁шаард	-11.214
▁Швед	-11.2142
Энхболдод	-11.2143
▁ажиллахдаа	-11.2145
▁орхи	-11.2145
▁юманд	-11.2147
▁5-6	-11.2148
▁түгээн	-11.215
▁таамаглал	-11.215
▁БСШУС	-11.2151
Энержи	-11.2153
▁нярай	-11.2156
▁хийхийн	-11.2157
кон	-11.2158
ОО	-11.2159
▁хийдэггүй	-11.2159
▁тариалалт	-11.216
▁мягмар	-11.216
▁гуй	-11.2163
▁хөнд	-11.2164
длын	-11.2167
▁зодож	-11.2168
▁дамжсан	-11.2168
▁чийг	-11.2169
▁тайлж	-11.2169
ХБ	-11.217
▁Дорж	-11.217
▁зоос	-11.2171
▁уй	-11.2171
▁суугчдын	-11.2172
▁1.6	-11.2172
▁давтамж	-11.2176
▁дэслэгч	-11.2182
▁Буянт	-11.2185
▁хуваалцаж	-11.2185
▁Юм	-11.2186
▁гараагаа	-11.2187
▁Судалгааны	-11.2187
▁Монголынхоо	-11.2189
▁with	-11.2192
луулдаг	-11.2193
▁өмсөж	-11.2195
▁мөнхийн	-11.2199
цах	-11.2199
▁хэвлэх	-11.2202
дэ	-11.2202
▁тосыг	-11.2203
▁ойлгомжгүй	-11.2206
▁нийцэхгүй	-11.2206
▁харвааны	-11.2207
▁хальс	-11.2207
▁төгрөгний	-11.2208
▁тэмцлийн	-11.2209
▁ярь	-11.221
лагаа	-11.2211
ive	-11.2212
▁нууцаар	-11.2213
▁сурталчлан	-11.2213
▁Жилд	-11.2214
▁түг	-11.2214
▁шалгуулах	-11.2215
▁уудам	-11.2222
▁зохицох	-11.2223
▁ажилласны	-11.2223
▁биржийн	-11.2224
▁ярианы	-11.2225
II	-11.223
алд	-11.2231
▁оноотой	-11.2233
▁терроризм	-11.2239
▁Орост	-11.224
▁ажилгүйдэл	-11.2241
▁баримтат	-11.2244
▁өмд	-11.2245
▁танигдсан	-11.2246
▁малтай	-11.2247
▁унага	-11.2249
▁чанд	-11.225
▁ядан	-11.225
▁Загвар	-11.2251
▁төлбөртэй	-11.2253
▁хөө	-11.2253
▁заажээ	-11.2253
▁ангиуд	-11.2254
▁зорилгын	-11.2255
▁хадгалсан	-11.2256
Трамп	-11.2258
ӨЛ	-11.2259
Амгаланбаатар	-11.2259
Эрдэнийн	-11.2261
▁хариуцдаг	-11.2261
▁айлууд	-11.2262
▁удирдсан	-11.2264
▁сонор	-11.2269
▁хэмнэл	-11.2269
▁агууламж	-11.2269
бан	-11.2271
▁тулгараад	-11.2274
▁соён	-11.2276
▁тогтнолоо	-11.2278
▁туршлагаас	-11.2281
▁заалтын	-11.2281
▁бүрэлдэхүүнийг	-11.2282
▁ардчиллыг	-11.2283
▁Ре	-11.2283
▁дайран	-11.2284
▁эрхэс	-11.2285
▁ажилла	-11.2286
▁Араб	-11.2288
▁манлайлагч	-11.2291
▁Хий	-11.2292
▁мэр	-11.2294
мен	-11.2294
▁ядарсан	-11.2295
▁хойших	-11.2295
Оросын	-11.2296
ist	-11.2299
▁хэлбэрийг	-11.23
▁хэрэгжүүлэхийн	-11.2302
▁хэрэглэхгүй	-11.2304
▁Амьдралын	-11.2307
▁бүтээлтэй	-11.2308
▁2012-2016	-11.2308
ine	-11.2311
лээс	-11.2311
▁өгчихсөн	-11.2312
▁буг	-11.2313
▁эрэмбэ	-11.2314
▁да	-11.2316
▁гүүрэн	-11.232
▁дараалал	-11.2321
!"	-11.2321
▁өдийг	-11.2322
▁Оюуны	-11.2323
лагдах	-11.2324
to	-11.2328
▁омог	-11.233
▁125	-11.2331
▁чадавх	-11.2331
▁нэмүү	-11.2332
▁хориотой	-11.2335
олж	-11.2337
лгын	-11.2338
▁ертөнцийг	-11.2341
ma	-11.2344
▁нийцэж	-11.2346
▁хурууны	-11.2347
▁хүлээнэ	-11.2347
1.3	-11.2348
▁хэрэгжүүлснээр	-11.235
▁норм	-11.2351
▁өн	-11.2351
вин	-11.2357
▁тойм	-11.2359
▁муудаж	-11.2362
▁амьдарсан	-11.2363
▁дуулгасан	-11.2363
▁Бямба	-11.2366
▁Говьсүмбэр	-11.2367
▁цогцос	-11.2369
▁хүргээд	-11.2369
▁Тун	-11.237
▁сайдаас	-11.2372
▁бэлтгэлийн	-11.2373
▁бүргэд	-11.2375
▁шалтгаантай	-11.2377
▁кон	-11.2377
▁хязгаарлаж	-11.238
▁цаазын	-11.2382
▁үнэд	-11.2385
▁бо	-11.2385
▁шатаж	-11.2388
▁Хор	-11.2389
▁хүндэтгэж	-11.2389
яа	-11.239
▁хөтөлбөрөөр	-11.2391
▁саналуудыг	-11.2391
том	-11.2392
▁оруулагчдад	-11.2393
▁төлүүлэх	-11.2393
▁зарлалаа	-11.2394
▁Ло	-11.2395
ЭМ	-11.2397
▁g	-11.2398
ху	-11.2399
our	-11.2401
▁одонгоор	-11.2401
:09	-11.2401
▁хэмжээнүүд	-11.2402
▁сурталчилж	-11.2403
news	-11.2405
▁хэлийг	-11.2405
ОХ	-11.2406
▁сонсдог	-11.2406
▁pro	-11.2406
▁ариутгал	-11.241
▁тохиролцоонд	-11.2411
▁ялгах	-11.2413
▁утсанд	-11.2414
руулсан	-11.2415
▁ху	-11.242
▁хаялт	-11.242
▁үлдээж	-11.2421
man	-11.2421
▁ажиллахгүй	-11.2422
▁хүрэлцээ	-11.2422
▁буцсан	-11.2425
▁дүрэмд	-11.2427
▁талуудын	-11.2428
▁өмчлүүлэх	-11.2429
жуулсан	-11.243
▁дагуулсан	-11.2431
▁маск	-11.2432
one	-11.2436
▁түүндээ	-11.2438
▁инновацийн	-11.2438
▁үйлчилнэ	-11.2439
▁зүүж	-11.2439
▁нийслэлээс	-11.2445
тэх	-11.2447
▁угсаа	-11.2449
▁Энгийн	-11.2449
иль	-11.2451
▁юань	-11.2451
▁зорин	-11.2452
▁05-	-11.2455
83	-11.2462
▁ажиллагаанаас	-11.2463
▁нээ	-11.2463
▁эхэлснээр	-11.2464
▁өнцгөөс	-11.2467
▁эмчлүүлэх	-11.2476
▁Буу	-11.2483
▁Загас	-11.2484
▁нуусан	-11.2486
▁Сэтгүүлч	-11.2488
▁хонгил	-11.2488
▁муугаар	-11.2489
▁ухаанаар	-11.249
▁банкаар	-11.2493
▁ойлголттой	-11.2493
аны	-11.2493
▁Сергей	-11.2496
▁зээ	-11.2496
Цэдэнбал	-11.2498
▁авлигатай	-11.2502
▁тоглолтууд	-11.2503
▁дарх	-11.2504
▁боксын	-11.2508
Си	-11.2508
▁105	-11.2511
▁тээвэрлэж	-11.2513
▁дэлбэрэлт	-11.2514
▁агуулдаг	-11.2514
▁зуслангийн	-11.2515
▁нүүрний	-11.2518
▁Кан	-11.2519
▁нөхцөлтэй	-11.2523
ого	-11.2526
▁Мэд	-11.2526
▁туулсан	-11.2529
Оюунбаатар	-11.253
▁илрэх	-11.2531
▁зодоон	-11.2537
▁өрхөд	-11.2537
▁гарахыг	-11.2538
▁өнгийг	-11.2539
сүрэнгийн	-11.254
▁МҮОНРТ	-11.2541
▁Зөвлөлдөх	-11.2543
▁аянд	-11.2544
▁108	-11.2546
алтын	-11.2548
▁мэтгэлцээн	-11.2549
▁хуримтлагдсан	-11.255
▁хувьцаат	-11.2553
▁халдах	-11.2554
▁хүндэд	-11.2554
▁ойролцоох	-11.2555
олон	-11.2557
рей	-11.2557
дэр	-11.2557
▁хэлхээ	-11.2559
АЗ	-11.2559
:11	-11.2562
▁сэргэх	-11.2562
дай	-11.2563
▁Төсөв	-11.2563
▁Угтаа	-11.2563
▁Говийн	-11.2566
92	-11.2567
▁үргэлжлэн	-11.2573
▁гуравхан	-11.2575
▁гүйцэтгэгчээр	-11.2576
▁бүртгэлийг	-11.2582
▁хувьцаагаа	-11.2583
▁220	-11.2587
▁тавилаа	-11.2591
▁Айлчлалын	-11.2592
ai	-11.2593
▁реклам	-11.2593
▁авилга	-11.2595
▁хөв	-11.2596
▁үрэгдсэн	-11.2596
▁газартаа	-11.2598
▁ангиллын	-11.2598
▁Ру	-11.2598
▁гэлтэй	-11.2599
▁Арслан	-11.2601
▁эрсдэлийн	-11.2606
▁Гэрээ	-11.2606
Орхон	-11.2608
▁Зар	-11.2608
▁чимэглэл	-11.261
▁ХУД	-11.2612
▁шийдэгдэх	-11.2616
▁адал	-11.2616
▁өндөрлөг	-11.2617
▁зааланд	-11.2618
▁Зиньпин	-11.2618
▁өнгөөр	-11.2618
▁хичээлээ	-11.2619
▁орсны	-11.262
▁Ой	-11.2624
▁вэб	-11.2625
▁1.4	-11.263
▁дагалдан	-11.2632
▁Тэмцээнд	-11.2632
Гал	-11.2633
▁сэрүүсч	-11.2633
▁хүрэгчдийн	-11.2633
▁хойшхи	-11.2635
▁инээд	-11.2636
▁мэдээд	-11.2639
▁тэгвэл	-11.2641
оли	-11.2647
▁зориулалт	-11.2651
▁Үе	-11.2651
▁Өөртөө	-11.2653
▁концессын	-11.2654
▁өгдөггүй	-11.2655
▁бүртгүүлж	-11.2656
▁орчуулагч	-11.2658
▁мянгаар	-11.2665
▁төрөлхийн	-11.2665
▁микро	-11.2666
▁органик	-11.2666
▁хяналтгүй	-11.2667
ЭЭР	-11.267
per	-11.2671
▁солилцоо	-11.2671
▁Жолооч	-11.2673
▁марафон	-11.2673
▁болохуйц	-11.2673
▁Ойр	-11.2675
▁хэлээгүй	-11.2675
▁зөвшөөр	-11.268
▁төвлөрүүлж	-11.2681
ect	-11.2683
▁ингэ	-11.2686
ance	-11.2687
▁утааг	-11.2689
▁хулгайлсан	-11.2689
▁Австри	-11.2691
▁суралцагч	-11.2692
▁гүнд	-11.2699
▁жагсаалтын	-11.2702
▁замаас	-11.2703
▁сааруулах	-11.2704
▁сургуулиас	-11.2705
▁алддаг	-11.2705
▁суралцсан	-11.2708
▁үүн	-11.2711
▁өөрчлөлтүүд	-11.2716
▁Ду	-11.2717
олт	-11.2717
▁эзэнгүй	-11.2717
▁тэмдэглээд	-11.2717
▁06-	-11.2719
▁шаардлагатайг	-11.2719
Хятадын	-11.272
▁өндрөөр	-11.272
▁өчнөөн	-11.2721
▁анхааруулсан	-11.2722
▁үрж	-11.2726
▁хуульчилсан	-11.2726
▁цаазаар	-11.2727
▁ресторан	-11.2727
өнө	-11.2727
ардаг	-11.2728
▁мэдэрсэн	-11.2729
логдсон	-11.273
▁Парис	-11.273
▁малчны	-11.2735
▁Гадны	-11.2736
ment	-11.2736
▁Тэрнээс	-11.2736
ER	-11.2741
▁Бусдын	-11.2743
ЭВ	-11.2743
▁Гишүүд	-11.2743
Пүрэв	-11.2745
▁үнэмлэхүй	-11.2746
▁уудаг	-11.2746
▁аваачиж	-11.2747
▁холбогдлыг	-11.2747
▁хэтийн	-11.2749
▁оноосон	-11.275
▁дэгийн	-11.275
▁баримтлан	-11.2752
▁тоглоно	-11.2753
ҮҮЛ	-11.2753
▁алдаагаа	-11.2754
▁ходоодны	-11.2757
▁ослоос	-11.2757
▁тунгалаг	-11.2758
лол	-11.2759
▁харууллаа	-11.2759
▁Төгс	-11.2762
▁семинар	-11.2763
-14	-11.2764
▁тэтгэмжийг	-11.2765
▁туршиж	-11.2766
▁40-	-11.2766
-2016"	-11.2767
▁атга	-11.2768
▁Хэдхэн	-11.277
▁саар	-11.2774
/1	-11.2776
▁нээгдсэн	-11.2777
▁Алт	-11.2778
▁дэлгэж	-11.278
▁зүйлсийн	-11.2781
▁байлга	-11.2783
▁температур	-11.2784
жид	-11.2785
▁төрөлх	-11.2786
авч	-11.2788
▁эгнээ	-11.2788
▁цэгийн	-11.2789
▁зөвлөхөөр	-11.279
▁хороогоор	-11.279
▁явчихсан	-11.279
▁1200	-11.2791
▁1-3	-11.2796
саг	-11.2797
▁Дур	-11.2797
▁харш	-11.2798
▁эрчүүдийн	-11.2799
▁хүй	-11.2799
улс	-11.2804
▁бухимдал	-11.2805
метр	-11.2807
▁урлагийг	-11.2807
▁суулга	-11.2809
окс	-11.281
93	-11.2816
▁цуглуулсан	-11.2819
▁Дан	-11.282
▁айлчлах	-11.2823
лаарай	-11.2825
ӨХ	-11.2826
▁тохируулан	-11.2826
▁хашаанд	-11.2827
▁болохоо	-11.2827
Гарамгайбаатар	-11.2828
далай	-11.2829
▁12:00	-11.2831
▁шийдвэрлүүлэх	-11.2831
▁Хаана	-11.2831
гана	-11.2832
▁Буд	-11.2837
үг	-11.2838
▁оролцжээ	-11.284
▁сэжигтэн	-11.284
▁дээвэр	-11.2841
▁илүүд	-11.2842
▁үгүйсгэж	-11.2843
▁ууган	-11.2844
нам	-11.2845
:06	-11.2845
▁дугаарыг	-11.2845
▁шилж	-11.2847
▁Co	-11.2848
▁хэвшлийнхэн	-11.2849
лу	-11.2851
III	-11.2852
▁Хог	-11.2853
рүүлж	-11.2854
эк	-11.2854
дол	-11.2855
▁жүжигчид	-11.2857
▁үнэлдэг	-11.2864
ong	-11.2865
мэд	-11.2866
дэнэ	-11.2867
▁гэрлийн	-11.2867
▁болчихдог	-11.287
▁хоолойгоо	-11.2872
▁Амар	-11.2872
▁зүйг	-11.2873
▁цөөнх	-11.2874
▁айх	-11.2874
▁бүгдэд	-11.2876
400	-11.2878
хо	-11.2881
▁тендерийн	-11.2881
▁оношлогоо	-11.2882
▁үүл	-11.2882
▁бүсгүйг	-11.2882
гах	-11.2883
рен	-11.2883
▁зочилж	-11.2884
▁харгис	-11.2885
▁тохиолдох	-11.2886
▁цомог	-11.2888
▁Шилэн	-11.2889
▁тулсан	-11.2891
▁ажиллагаандаа	-11.2892
▁хус	-11.2894
▁Оюутны	-11.2895
▁олигтой	-11.2895
▁дуунууд	-11.2896
▁Үндсэндээ	-11.2897
73	-11.2901
▁нуруун	-11.2902
▁яамыг	-11.2902
эгдэж	-11.2906
туул	-11.2906
▁оффис	-11.2907
▁болгоныг	-11.2908
▁алим	-11.2912
▁хорь	-11.2915
▁яллагдагчаар	-11.2916
▁хоногоос	-11.2919
▁Ашиг	-11.2922
аф	-11.2922
▁Цэвэр	-11.2924
ке	-11.2926
лг	-11.293
▁гаргуулж	-11.293
▁дэлгүүрт	-11.2931
▁нийлүүлэгч	-11.2933
Төмөрбаатар	-11.2934
▁хо	-11.2934
▁тамирын	-11.2936
арай	-11.2936
▁нуун	-11.2936
▁нян	-11.2938
▁өс	-11.2939
▁Re	-11.2939
▁морьдын	-11.2941
▁аавынхаа	-11.2943
▁хувцсаа	-11.2944
▁биелүүлээгүй	-11.2946
ion	-11.2947
▁тушаалтнуудын	-11.295
▁шоуны	-11.2951
уулга	-11.2951
▁хэзээнээс	-11.2952
▁хаант	-11.2953
▁цогцолборын	-11.2961
▁нөхцөлөөр	-11.2961
▁бүдүүлэг	-11.2962
▁болгосноор	-11.2962
▁боловсруулалт	-11.2963
Сан	-11.2965
▁ламын	-11.297
▁хөнөөл	-11.297
▁өгөөжийг	-11.2972
▁график	-11.2973
▁Тариалан	-11.2975
▁тараа	-11.2976
▁хором	-11.2977
▁номонд	-11.2978
▁бүтээгдэхүүнд	-11.2978
▁өчигдрийн	-11.2981
▁83	-11.2981
▁социалист	-11.2982
агдаагүй	-11.2983
▁байгуулав	-11.2983
длийн	-11.2985
▁гоёл	-11.2986
лер	-11.2991
▁хэрэглэнэ	-11.2991
▁дүгнэлтэд	-11.2991
ины	-11.2994
▁Нөхөр	-11.2995
▁өөрчлөлтөд	-11.2996
▁сугалаа	-11.2997
▁Шалгалтын	-11.2997
▁үзэгдэх	-11.2997
▁цохиж	-11.2997
Хоёр	-11.2999
ами	-11.2999
▁төлөгдөх	-11.3
▁СӨХ	-11.3
Цэрэн	-11.3003
▁өвч	-11.3006
▁уйлж	-11.3006
▁хөнгө	-11.3007
▁үүдэнд	-11.3012
▁монголд	-11.3014
▁түмнээс	-11.3014
▁уулзвараас	-11.3015
▁ахмадын	-11.3015
▁оролцуулж	-11.3017
▁гарааны	-11.3019
▁хаалтын	-11.3025
▁Хэргийн	-11.3026
То	-11.3027
▁бөөрний	-11.3027
▁тушаа	-11.3035
▁батлагдаж	-11.3035
▁хэрэглээгээ	-11.3037
na	-11.3038
61	-11.3038
▁хөшөөг	-11.3039
▁биелүүлсэн	-11.304
▁тархинд	-11.3043
▁халаалт	-11.3044
▁зарлигаар	-11.3045
▁нийлбэр	-11.3045
▁хэлсэнчлэн	-11.3048
таж	-11.3048
▁илэрхийл	-11.3053
▁группын	-11.3055
▁гадаадаас	-11.3056
ѳр	-11.3056
▁хэрэгжүүл	-11.3057
▁утааны	-11.3058
▁санаачлагыг	-11.306
гээрээ	-11.3064
▁баримжаа	-11.3065
▁бэлдсэн	-11.3067
▁нэгт	-11.3069
▁роман	-11.307
▁зорилтууд	-11.3071
▁залуучуудад	-11.3072
▁Зохион	-11.3076
▁бизнест	-11.3076
▁хадны	-11.3079
▁заадаг	-11.3081
▁эхлэхээс	-11.3081
▁14:00	-11.3082
▁хүчит	-11.3083
▁хөндөх	-11.3083
ta	-11.3084
▁настны	-11.3085
НЭ	-11.3086
▁топ	-11.3088
▁чуулгын	-11.3091
▁Шүтэн	-11.3091
▁уншина	-11.3092
▁by	-11.3093
▁тайз	-11.3094
▁бүдүүн	-11.3095
▁ягаан	-11.3095
▁хүүхэлдэйн	-11.3096
ud	-11.3098
▁харахаар	-11.3098
▁төрөлхтөн	-11.3099
▁тавилга	-11.3099
▁суралц	-11.3101
▁нэвтрүүлэгт	-11.3101
▁санаатайгаар	-11.3102
▁Спорт	-11.3102
▁итгэмжлэгдсэн	-11.3102
▁сонголтыг	-11.3103
▁аваас	-11.3104
▁контент	-11.3106
▁үзмэр	-11.3107
▁бүтцэд	-11.311
Болорчулуун	-11.311
шл	-11.311
▁Хөтөлбөр	-11.3112
▁тэнцвэртэй	-11.3113
лай	-11.3114
▁сонгоно	-11.3115
▁бэлд	-11.3119
▁мөрөөр	-11.3119
▁Хөтөлбөрийн	-11.3121
▁улсуудад	-11.3125
▁Эмнэлгийн	-11.3125
УР	-11.3126
▁жи	-11.3127
Бидний	-11.3128
▁салсан	-11.3128
▁хүрэхийн	-11.3128
▁Грек	-11.313
▁шүүгчдийн	-11.3131
де	-11.3132
▁Тоо	-11.3133
▁дураар	-11.3134
▁явуул	-11.3134
▁тулааны	-11.3136
1.4	-11.3138
▁ихэссэн	-11.3142
▁тодорхойлдог	-11.3143
▁визгүй	-11.3144
уулаа	-11.3145
▁нэхэж	-11.3148
▁ялгаварлан	-11.3149
Эрхэмбаяр	-11.3151
▁салгах	-11.3151
▁тогтоогоод	-11.3156
зи	-11.3157
▁үлдээ	-11.3158
▁Нууц	-11.3161
▁эсэхээ	-11.3161
▁Стратегийн	-11.3162
▁olloo	-11.3163
▁хоолойгоор	-11.3164
300	-11.3168
▁өрсөлдөгчөө	-11.3168
▁зөрчилд	-11.317
ОХУ	-11.317
▁хангахын	-11.3171
▁хүүхнүүд	-11.3171
tion	-11.3173
гджээ	-11.3174
▁эзгүй	-11.318
▁чиглэж	-11.3185
▁аргаа	-11.3186
▁анхаардаг	-11.3187
▁Яах	-11.3189
▁тасарсан	-11.319
▁рейтинг	-11.3194
▁солилцов	-11.3194
▁дөхөж	-11.3194
▁зардлаар	-11.3194
▁1,5	-11.3195
▁багавтар	-11.3196
есс	-11.3196
иб	-11.3197
лахад	-11.3199
▁орлон	-11.32
▁боловсруулжээ	-11.3207
ъё	-11.3209
▁тээвэрлэлтийн	-11.321
▁ээжийнхээ	-11.321
▁хичээсэн	-11.3213
ate	-11.3213
▁нум	-11.3214
▁билүү	-11.3215
▁ихэнхдээ	-11.3215
▁Ерөнхийлөгчийг	-11.3216
▁Машин	-11.3216
▁тэмдэглэжээ	-11.3217
ддэг	-11.3218
▁өвийг	-11.3219
▁тодруулбал	-11.3221
▁даруйдаа	-11.3223
▁саяар	-11.3223
▁ы	-11.3224
-5	-11.3225
▁түгээж	-11.3225
Баярхүү	-11.3232
ынхны	-11.3232
-200	-11.3236
Учрал	-11.3237
шилт	-11.3239
no	-11.3239
▁сануулах	-11.324
▁450	-11.3244
▁орлох	-11.3245
цэж	-11.3245
ве	-11.3245
юү	-11.3248
▁байхаа	-11.3249
▁үйлдвэрлэгчдийн	-11.3249
кар	-11.3249
▁уламжлалыг	-11.3251
▁СТА	-11.3251
▁багаасаа	-11.3252
▁Нүүрс	-11.3252
▁эхэл	-11.3252
▁татвал	-11.3253
▁Орой	-11.3253
▁Зөвлөл	-11.3257
▁уулзан	-11.3258
Төмөр	-11.3259
Энхболдыг	-11.3259
▁био	-11.3259
лагчид	-11.326
▁дурсгалт	-11.3261
▁хэмээж	-11.3264
▁түшээд	-11.3264
▁гаралт	-11.3264
▁Юун	-11.3268
уйц	-11.3268
▁дурдлаа	-11.3268
▁тойрогтоо	-11.3271
▁олоогүй	-11.3272
▁үүсэж	-11.3272
ang	-11.3274
▁санхүүжүүлж	-11.3274
▁суулт	-11.3274
▁хуралдаанаас	-11.3275
▁улсдаа	-11.3275
▁самуун	-11.3276
▁өвд	-11.3276
▁өргөжүүлж	-11.3277
▁байцаан	-11.328
▁хэрэгцээний	-11.3281
эц	-11.3282
▁гарахдаа	-11.3282
лен	-11.3283
▁мэдэхээр	-11.3284
▁зарлагын	-11.3284
▁дамжуулалт	-11.3285
▁мян	-11.3286
▁өршөөл	-11.3289
▁амжилтаа	-11.3292
▁монголчуудад	-11.3295
▁гаргуулах	-11.3296
▁тогтлоо	-11.33
МС	-11.3301
▁бөхчүүдийн	-11.3301
▁суртахуун	-11.3302
ду	-11.3302
▁уншдаг	-11.3304
▁амьсгаа	-11.3305
ашгүй	-11.3307
▁охинтой	-11.331
▁Оюун	-11.331
-9	-11.3314
шуу	-11.3317
▁бурханы	-11.3318
▁хэлэлцэхийг	-11.3318
▁коксжих	-11.3318
▁шалгаруулалтын	-11.3318
сен	-11.332
2.5	-11.3321
▁томил	-11.3321
▁тэтгэврийг	-11.3322
зул	-11.3324
▁маршрут	-11.3326
▁тэвчээртэй	-11.3326
▁балет	-11.3327
▁барьц	-11.3329
▁хамааралгүй	-11.333
таг	-11.333
үүлнэ	-11.3332
тах	-11.3332
▁байршуулж	-11.3332
▁тэрбумыг	-11.3337
▁хошин	-11.3338
▁дурдах	-11.3341
▁Хэр	-11.3343
▁ярив	-11.3344
тсан	-11.3347
▁орхин	-11.3347
▁халдварын	-11.3347
▁хяналтаа	-11.3347
▁сонгуулиас	-11.3349
▁that	-11.3353
▁1.8	-11.3354
лууд	-11.3357
▁даац	-11.3357
ГЭРЭЛ	-11.3357
▁зүйлсээ	-11.3359
▁блок	-11.3361
▁бүрэлдэхүүний	-11.3362
▁алджээ	-11.3365
▁соёлоо	-11.3372
▁бурууг	-11.3378
▁сангууд	-11.3381
▁толгойлсон	-11.3382
▁хэллэг	-11.3383
зүйн	-11.3383
▁Талууд	-11.3387
ub	-11.3387
Бо	-11.3387
▁хугацаанаас	-11.3387
▁хийгдээгүй	-11.3388
▁зөрчлүүд	-11.3389
▁27-32	-11.3389
ром	-11.3394
▁асуудлаарх	-11.3396
Ха	-11.3398
▁нимгэн	-11.34
▁суут	-11.3401
тра	-11.3401
▁өнгөр	-11.3401
▁системээр	-11.3401
▁гэрчилгээг	-11.3401
▁өөрсдийнх	-11.3406
▁авъя	-11.3407
уз	-11.3408
▁хэрээс	-11.3409
▁авъяас	-11.3412
▁шугамын	-11.3412
▁модыг	-11.3414
▁оролд	-11.3418
уга	-11.3418
▁командлагч	-11.3419
▁ясны	-11.342
▁тэргүүлдэг	-11.3421
чимэг	-11.3422
▁тохиролцож	-11.3424
▁өсгөсөн	-11.3424
ue	-11.3424
▁эрэл	-11.3425
▁оруулагчдыг	-11.3425
▁ирсний	-11.3426
▁дэлгэн	-11.3431
агдана	-11.3432
▁хуванцар	-11.3436
sh	-11.3437
Орос	-11.3438
сийг	-11.3438
▁Тайланд	-11.3438
▁БУСДАД	-11.344
Ард	-11.344
▁шулуун	-11.3441
▁тооцооны	-11.3442
▁дүй	-11.3443
▁тавилан	-11.3443
▁төрлүүд	-11.3443
▁тэмдэглэгээ	-11.3448
▁электрон	-11.3448
▁гүнж	-11.3449
▁ураг	-11.3449
▁эрийн	-11.3449
▁хоттой	-11.345
▁нэмнэ	-11.3452
▁зуслан	-11.3453
▁Баянхонгорын	-11.3454
▁сарыг	-11.3456
▁буйд	-11.3456
▁хүсээд	-11.3456
▁харагдаад	-11.3456
▁СУИС	-11.3459
▁эсэргүүцэн	-11.3461
▁хөдөлмөрч	-11.3462
▁импортлох	-11.3462
▁гэсээр	-11.3464
▁даагч	-11.3467
▁Алс	-11.3471
▁хотхоны	-11.3474
▁нүүдлийн	-11.3475
чихна	-11.3477
луул	-11.3478
▁асуултыг	-11.3478
▁уулзахад	-11.3478
▁зарцуулна	-11.3478
▁жишээг	-11.3478
сэж	-11.3479
▁баялгаа	-11.3479
▁6000	-11.348
▁заасныг	-11.3482
▁очно	-11.3482
▁хагалгаанд	-11.3482
▁Өнгөрөгч	-11.3483
чихвэл	-11.3483
▁Хүчит	-11.3486
▁гуниг	-11.3489
▁анхаарууллаа	-11.3491
▁хичээлийг	-11.3491
▁Жүжигчин	-11.3496
▁нэгээс	-11.3496
▁Ак	-11.3497
Бямбасүрэн	-11.3499
▁сувгийн	-11.3501
▁уулзаад	-11.3501
▁заяаг	-11.3505
▁зантай	-11.3509
▁дуудсан	-11.351
▁байршл	-11.351
▁олборлолтын	-11.351
дана	-11.351
▁Ви	-11.3511
▁МҮАН	-11.3512
MN	-11.3515
▁Сүүлд	-11.3518
УУР	-11.3518
▁судал	-11.3519
▁явуулахыг	-11.3519
▁мэдүүлгээ	-11.3519
иуд	-11.352
▁эмнэлгүүд	-11.3521
төр	-11.3521
▁хийлгэ	-11.3522
▁алан	-11.3526
▁мөргөл	-11.3526
▁хоногоор	-11.3527
▁орлогоос	-11.3528
уун	-11.3529
хүүгийн	-11.353
▁тооцно	-11.3532
▁станцыг	-11.3532
▁ажиллагсад	-11.3534
▁алдагдах	-11.3538
▁бүлээ	-11.3541
▁эмэгтэйчүүдийг	-11.3542
▁онолын	-11.3542
▁ширээн	-11.3545
▁бог	-11.3546
▁Худалдан	-11.3547
▁эрхлэлт	-11.3547
▁мандал	-11.3548
▁сурагчдад	-11.3548
▁суралцдаг	-11.3551
▁төлөгчдийн	-11.3552
▁оролцохдоо	-11.3553
▁МУБИС	-11.3553
▁хөгжинө	-11.3554
▁зорилгыг	-11.3555
▁нөөцөө	-11.3555
▁автсан	-11.3555
▁нийцүүлэх	-11.3556
▁Нум	-11.3559
▁цув	-11.3559
▁эцэстээ	-11.3559
луулаад	-11.356
лам	-11.356
▁оюутнуудад	-11.3562
8.2	-11.3564
лүүд	-11.3564
▁зохиолыг	-11.3567
▁өрнөх	-11.357
▁ҮЛДЭЭХ	-11.3571
бек	-11.3571
▁Арьс	-11.3573
▁бэлтгэдэг	-11.3573
▁зорилтуудыг	-11.3573
▁үүлшинэ	-11.3575
▁Айл	-11.3576
▁хээ	-11.3577
▁Бодлогын	-11.3577
▁хоногтой	-11.3578
▁бичгээ	-11.3578
▁сөх	-11.3582
▁ачааг	-11.3582
▁Кор	-11.3583
▁тооллого	-11.3584
▁эрхлэгчдийг	-11.3588
▁цор	-11.359
Гончигдорж	-11.3591
▁залилан	-11.3591
▁экспо	-11.3592
▁концерт	-11.3593
лүүлээд	-11.3595
мол	-11.3597
▁орноосоо	-11.3597
овын	-11.3597
Хүний	-11.3598
▁анхааралдаа	-11.3598
▁хутагт	-11.3598
▁яллах	-11.3599
▁цаанаа	-11.3599
▁Салбарын	-11.3604
▁хөрөг	-11.3606
▁гарахаар	-11.3606
▁Ийн	-11.3609
▁хадлан	-11.3613
▁зарцуулахаар	-11.3615
▁Сумын	-11.3617
баа	-11.362
▁баяраар	-11.3622
кт	-11.3623
▁үйлдвэрчний	-11.3624
▁хонож	-11.3626
лэлийн	-11.3627
▁сэлбэг	-11.3629
▁зодог	-11.363
▁Хятадаас	-11.3631
▁залгаа	-11.3633
▁тодотгож	-11.3638
▁шинжилгээг	-11.3638
▁VI	-11.3638
▁угаалгын	-11.3639
▁at	-11.3641
:07	-11.3642
▁лалын	-11.3643
▁барааг	-11.3648
еб	-11.3649
▁уулыг	-11.365
ААС	-11.3651
ууштай	-11.3652
▁төрөлт	-11.3652
▁ко	-11.3655
▁үйлдэлд	-11.3656
▁хүргэхээр	-11.3656
▁яаран	-11.3658
▁авдаггүй	-11.3658
▁бясалгал	-11.3659
▁арлын	-11.3661
гуу	-11.3664
▁нийлэх	-11.3664
ow	-11.3665
▁томьёо	-11.3666
▁олонтаа	-11.3668
▁урьсан	-11.3671
!!!	-11.3671
▁Тавдугаар	-11.3671
▁квот	-11.3672
▁олдвор	-11.3672
▁772	-11.3672
эрч	-11.3673
ant	-11.3673
▁өвөлжилт	-11.3673
▁тушаалтанд	-11.3675
ДАГ	-11.3677
▁ухах	-11.3677
▁удирдлагатай	-11.3678
▁интернет	-11.3679
▁онтой	-11.3684
▁урттай	-11.3685
▁Хурлаас	-11.3688
son	-11.369
▁танаас	-11.369
▁объект	-11.369
Сүхбаатарын	-11.3692
▁мэдээл	-11.3692
▁эзэмшил	-11.3692
по	-11.3692
▁хадаг	-11.3693
▁вирусийн	-11.3695
▁заль	-11.3695
элдэг	-11.3696
▁тохиох	-11.3698
▁гэрээс	-11.3698
▁хөлсийг	-11.3699
▁гамшигт	-11.3701
▁дайчид	-11.3701
ита	-11.3704
▁засаглалтай	-11.3706
▁үзүүлэхээр	-11.3707
▁авчирна	-11.3709
▁Мөнгөн	-11.3713
▁Оюутан	-11.3714
▁8-10	-11.3715
▁сурган	-11.3715
▁хоолыг	-11.3715
▁томилогдон	-11.3716
дсаар	-11.3716
pe	-11.3718
▁Буруу	-11.3723
▁хүлээгдэж	-11.3724
тик	-11.3724
▁цех	-11.3724
▁үйлдлүүд	-11.3726
▁хэлмэгдүүлэлт	-11.3728
▁(12/22-1/19)	-11.3728
▁үрс	-11.3729
▁ГАР	-11.373
▁айдаг	-11.373
-100	-11.3731
▁бокс	-11.3731
▁явуулаад	-11.3731
лүүл	-11.3733
▁Mo	-11.3733
▁обьект	-11.3736
▁шүүгдэгч	-11.3736
шсан	-11.3739
хаар	-11.374
▁бүтэцтэй	-11.3741
▁дэмжив	-11.3741
▁явцтай	-11.3742
▁гүйцэтгэлийн	-11.3742
Ал	-11.3743
▁хотгороор	-11.3743
▁тойрны	-11.3745
▁цамхаг	-11.3748
▁хөгж	-11.375
▁сахин	-11.375
▁курс	-11.3752
▁завшсан	-11.3753
▁адаг	-11.3753
▁Заавал	-11.3756
▁Цалин	-11.3757
▁илүүтэйгээр	-11.3757
▁боломгүй	-11.3757
ныхоо	-11.376
▁Швейцарь	-11.376
▁анхааралд	-11.376
▁жорлон	-11.3762
Нийгмийн	-11.3762
▁зохиох	-11.3763
Орон	-11.3764
▁оператор	-11.3765
▁дуугар	-11.3769
нэн	-11.377
▁төлөөгүй	-11.3772
▁(7/23-8/22)	-11.3772
▁одоохондоо	-11.3772
▁)	-11.3775
▁Ри	-11.3775
▁гаргасны	-11.3776
▁робот	-11.3781
▁Тайвань	-11.3782
Мөнгөн	-11.3784
зу	-11.3785
▁сургагч	-11.3785
▁импортлогч	-11.3786
шаа	-11.3787
▁эзэнтэй	-11.3787
сэх	-11.3788
▁Одоогоос	-11.3788
▁аймгийг	-11.3789
▁сэтгэгдлээ	-11.3789
▁агуулагддаг	-11.3789
▁мэдэрдэг	-11.3789
▁арч	-11.3789
Солонго	-11.3789
снөөс	-11.3792
▁буруугүй	-11.3793
▁хангуулах	-11.3793
▁оруулснаар	-11.3797
▁Мак	-11.38
▁шү	-11.38
▁угаасан	-11.3801
▁төгсөж	-11.3802
▁уснаас	-11.3805
▁Дани	-11.3806
▁өрсөлдөнө	-11.3807
▁чиглүүлэх	-11.3809
▁хангана	-11.381
▁ажиллан	-11.3811
лодог	-11.3813
▁ХХААХҮЯ	-11.3814
Төр	-11.3815
▁ахиу	-11.3816
▁сэтгүүлчийн	-11.3816
рөх	-11.3819
▁ди	-11.382
▁сардаа	-11.3821
age	-11.3823
▁ухаар	-11.3824
▁хаанаа	-11.3824
▁боомтоор	-11.3826
▁урамшууллын	-11.3826
▁Берлин	-11.3826
▁цам	-11.3826
▁сэтгүүлд	-11.3827
▁трейд	-11.383
▁зурлаа	-11.3834
▁Лондонгийн	-11.3834
▁онцлогт	-11.3835
▁сонирхогч	-11.3835
▁(2/19-3/20)	-11.3838
▁насаар	-11.3839
▁мотоцикл	-11.384
▁үхэл	-11.3843
ьж	-11.3843
▁Иракийн	-11.3844
▁хаус	-11.3844
Тэмүүлэн	-11.3846
▁Санамж	-11.3847
Үндсэн	-11.3849
илл	-11.3849
▁чансаа	-11.3849
▁ХХ	-11.385
▁технологиор	-11.3852
АЖ	-11.3853
▁09:00	-11.3853
▁боол	-11.3854
▁Хэлэлцүүлгийн	-11.3854
▁Өнгө	-11.3857
▁захиран	-11.3858
▁Сур	-11.3859
▁кампанит	-11.3859
цэх	-11.386
▁олдох	-11.386
▁дотоодод	-11.386
▁МСҮТ	-11.3863
▁сайжирсан	-11.3864
2.1	-11.3865
-16	-11.3866
мо	-11.3866
▁клип	-11.3867
▁завшаан	-11.3867
▁болмоор	-11.3868
▁МҮБХ	-11.3871
ҮТ	-11.3872
▁шуудай	-11.3874
01100	-11.3877
▁коллеж	-11.3878
▁гааль	-11.388
ери	-11.3882
ао	-11.3884
▁зээлжих	-11.3886
▁хамруулан	-11.3886
art	-11.3887
▁Өрхийн	-11.3889
▁шалгаруулалтыг	-11.3889
▁азарга	-11.3891
▁эсийн	-11.3892
▁мөрд	-11.3892
▁Аргентин	-11.3894
Бямбадорж	-11.3894
▁ачаалалтай	-11.3894
юр	-11.3895
▁тохирч	-11.3897
агт	-11.3897
▁аяндаа	-11.3899
▁шилжүүл	-11.39
▁хоцорч	-11.3904
Чалко	-11.3904
▁Ерөөсөө	-11.3908
▁доромжилж	-11.3912
нан	-11.3912
▁хүдрийн	-11.3912
▁Хэргийг	-11.3913
▁суурьшлын	-11.3913
▁дэлгэцийн	-11.3914
▁босоод	-11.3916
▁дөрвөлжин	-11.3916
▁давхарга	-11.3916
ИД	-11.3917
тен	-11.3917
hi	-11.3918
▁сэтгэхүй	-11.3918
▁2500	-11.3919
Дорлигжав	-11.392
▁цогцсыг	-11.3921
▁Хүүхдийг	-11.3923
▁Ир	-11.3924
▁шийдвэрлэхээр	-11.3925
рэй	-11.3926
orld	-11.3929
▁гор	-11.3933
▁өвийн	-11.3938
хайн	-11.3941
▁батлаад	-11.3943
▁(9/23-10/22)	-11.3945
▁дагалдах	-11.3946
оорой	-11.3946
не	-11.3946
сч	-11.3949
▁үндсийг	-11.3949
▁Сам	-11.395
сэг	-11.3952
лз	-11.3953
▁Өө	-11.3956
▁халсан	-11.3959
▁хэрэглэхийг	-11.3959
Говь	-11.3961
▁хэсэгчилсэн	-11.3961
▁сонгогдон	-11.3965
▁ух	-11.3965
▁буулга	-11.3966
▁Хурлаар	-11.3966
▁are	-11.3967
се	-11.3968
▁хоцорсон	-11.3971
▁нөхрөө	-11.3971
▁төрлийг	-11.3973
▁шадар	-11.3974
дүү	-11.3975
▁эвлэл	-11.3976
▁үйлдвэртэй	-11.3977
▁тарианы	-11.3977
▁хувирсан	-11.3977
▁ХХААХҮ	-11.3978
▁хөг	-11.3979
▁БОЛ	-11.3981
▁зассан	-11.3983
▁болгоомжил	-11.3988
▁дахины	-11.3989
▁нууцын	-11.399
▁бахархах	-11.399
▁буулт	-11.3991
▁03-	-11.3992
▁төвлөрч	-11.3993
▁ирэн	-11.3994
ном	-11.3997
▁үүсвэрээс	-11.3997
▁times	-11.3997
▁ханшаар	-11.3998
▁хорьсон	-11.3998
▁Парисын	-11.3999
▁Евро	-11.3999
▁боль	-11.4
▁долларыг	-11.4001
▁Германд	-11.4003
▁хандана	-11.4005
▁хүүхдүүддээ	-11.4006
▁төст	-11.4007
хир	-11.4008
Дагвадорж	-11.4009
Батсүх	-11.401
▁09-	-11.4012
▁АР	-11.4013
▁хураа	-11.4014
▁угаасаа	-11.4015
▁мэдүүлгийг	-11.4016
ава	-11.4017
▁дээрхи	-11.4018
▁сана	-11.402
Төрөөс	-11.4021
▁(1	-11.4021
▁мм	-11.4021
▁шахсан	-11.4022
▁Хуульд	-11.4022
▁су	-11.4023
▁авахуулаад	-11.4024
▁гарав	-11.4025
▁өнгөрдөг	-11.403
▁лиг	-11.4031
сыг	-11.4032
▁тэмцэлд	-11.4033
ээж	-11.4034
▁өрхийг	-11.4036
▁түрэмгий	-11.4036
▁Ирак	-11.4036
▁баримталдаг	-11.4036
▁организм	-11.4037
▁Дахиад	-11.4037
дсөн	-11.4037
▁оролдох	-11.4038
▁19.	-11.404
хаж	-11.4042
▁дүрэмт	-11.4043
▁Нүүрсний	-11.4044
▁ажлаар	-11.4044
▁драмын	-11.4045
▁ажигла	-11.4045
▁олговор	-11.4048
▁гектопаскаль	-11.4049
▁зориулах	-11.405
▁ДОХ	-11.4052
▁адгуус	-11.4054
лэхэд	-11.4056
▁хүлэг	-11.4056
▁коммунист	-11.4057
▁бэхжүүлж	-11.4057
▁тулгардаг	-11.4058
▁болъё	-11.4058
буу	-11.4058
жүүлсэн	-11.406
▁дуул	-11.4062
▁сувилал	-11.4062
▁хорлох	-11.4063
▁хаяа	-11.4063
▁хэмжээнүүдийг	-11.4063
▁Хилэнц	-11.4066
▁цуу	-11.4066
▁Аврах	-11.4067
▁орохыг	-11.4069
▁баталгаажсан	-11.4071
▁танах	-11.4072
▁Бүс	-11.4074
▁ЭЕШ	-11.4074
▁цээр	-11.4074
▁булчирхайн	-11.4078
▁Ас	-11.4079
▁нүүж	-11.4079
▁сүсэг	-11.408
▁хөтлөх	-11.4081
▁хэлээ	-11.4081
▁Алтанбулаг	-11.4082
ӨР	-11.4084
ТО	-11.4085
▁хамгаална	-11.4088
▁Ma	-11.4088
▁буурахгүй	-11.4088
▁амьдралаас	-11.4089
▁БГД	-11.409
▁айхтар	-11.4092
▁3.5	-11.4093
▁ажиглагчид	-11.4094
▁бууралт	-11.4094
▁төрсний	-11.4095
▁гэмгүй	-11.4095
▁Тэгэхгүй	-11.4096
▁болчихож	-11.41
▁тэтгэлэгт	-11.4101
▁төслөөс	-11.4103
2.3	-11.4105
ерс	-11.4106
▁хүндрэлээс	-11.4106
▁эдгээрийн	-11.4108
▁(11/22-12/21)	-11.4108
өндөө	-11.4109
▁(10/23-11/21)	-11.4112
▁давхрын	-11.4112
▁cap	-11.4113
ака	-11.4113
▁хөдөлмөрлөж	-11.4117
ЛЫН	-11.4119
▁энхийн	-11.4119
▁Зөвлөлт	-11.4119
▁эг	-11.412
▁ТВ	-11.4121
▁(4/20-5/20)	-11.4121
▁сэдвийг	-11.4121
▁хүмүүжүүлэх	-11.4122
Болормаа	-11.4122
▁шувууд	-11.4123
уулагч	-11.4125
▁Тог	-11.4126
▁Жо	-11.4127
▁хүрээгээ	-11.4128
▁мөнгөгүй	-11.4129
▁Амжилт	-11.4129
▁довтолгоо	-11.4133
▁эхчүүдэд	-11.4134
▁шүүн	-11.4136
▁томилолт	-11.4137
ie	-11.4138
▁хуримын	-11.414
▁эхийг	-11.4141
▁сонсогдож	-11.4142
▁гэрээт	-11.4143
▁гүйлтийн	-11.4146
▁докторын	-11.4147
▁одод	-11.4148
▁явцдаа	-11.4148
▁Санаа	-11.4151
▁нийлүүлдэг	-11.4153
▁шалгадаг	-11.4155
▁хичээллэдэг	-11.4156
▁Элбэгдорж	-11.4159
▁устай	-11.4159
▁хөөх	-11.416
▁Хятадууд	-11.4161
2.2	-11.4162
▁бүлээрээ	-11.4162
▁02-	-11.4163
▁дом	-11.4163
лэгддэг	-11.4165
gov	-11.4165
▁бэлэглэх	-11.4166
▁(5/21-6/21)	-11.4172
▁(8/23-9/22)	-11.4172
▁торгон	-11.4172
▁28-33	-11.4173
▁төхөөрөмжөөр	-11.4173
Өнгөрсөн	-11.4173
▁тооцогдох	-11.4173
▁гүйцэтгэнэ	-11.4173
-13	-11.4174
▁ЦАГ	-11.4174
▁үрээ	-11.4175
уйн	-11.4175
▁Оросууд	-11.4175
Баясгалан	-11.4176
▁Хэлэлцэж	-11.4176
▁холгүй	-11.4176
▁хөтөлбөртэй	-11.4177
▁санасан	-11.4179
цийн	-11.4179
▁баатрууд	-11.418
▁Ипотекийн	-11.4182
тин	-11.4183
▁Дарханы	-11.4184
▁борлуул	-11.4184
▁байдгаас	-11.4185
▁бэлгэдэл	-11.4185
▁ажиллуулдаг	-11.4186
▁буулгасан	-11.4189
алтай	-11.4195
арт	-11.4195
▁цэрэгт	-11.4198
▁яар	-11.4199
али	-11.4199
▁хуралдаанаараа	-11.42
▁Эмэгтэйчүүд	-11.42
▁гайх	-11.4201
▁харьцуулбал	-11.4202
▁удирдлагаар	-11.4203
▁эмчилж	-11.4204
▁ажиглагч	-11.4204
Даш	-11.4206
▁яамдын	-11.4216
▁эрчимжүүлж	-11.4218
▁ХӨСҮТ	-11.4218
▁түү	-11.4219
▁хайрлан	-11.422
▁цохон	-11.422
▁хулгайлах	-11.4223
▁гарахаас	-11.4223
▁Шууд	-11.4223
▁эмэгтэйчүүдэд	-11.4224
▁гишүүнд	-11.4225
▁допинг	-11.4227
▁казино	-11.4227
доллартай	-11.4228
заяа	-11.4229
Ай	-11.423
▁халз	-11.423
▁харийн	-11.4231
▁хийморь	-11.4233
▁автобусанд	-11.4233
пп	-11.4235
▁яр	-11.4238
▁ярилцлагыг	-11.424
▁нутгийнхан	-11.4243
▁зохиомол	-11.4244
ралт	-11.4244
▁боломжтойг	-11.4245
▁суудлаа	-11.4248
▁Хүрээлэн	-11.4249
▁авчихаад	-11.4249
▁зүрхэнд	-11.425
гдсан	-11.425
▁компаниар	-11.4251
.12.	-11.4252
▁Крым	-11.4253
▁тохижуулах	-11.4254
▁буяны	-11.4255
Ариунболд	-11.4259
▁өмчид	-11.4262
▁тусална	-11.4262
▁хөрсөнд	-11.4264
▁(6/22-7/22)	-11.4266
▁эрдэнийн	-11.4266
▁суудлыг	-11.4266
▁багасах	-11.4266
▁мэнддээ	-11.4266
ѳн	-11.4267
▁гаргав	-11.427
Гурван	-11.4272
▁ШШГЕГ	-11.4274
нүүдийг	-11.4275
▁амьтдын	-11.4278
▁зогсонги	-11.4279
айж	-11.4279
▁магадлан	-11.428
жа	-11.428
тав	-11.4282
▁(1/20-2/18)	-11.4283
▁Роберт	-11.4283
▁тохиролцоо	-11.4283
▁ХАР	-11.4284
▁зохиогч	-11.4285
▁эсэргүүцэх	-11.4285
▁хилс	-11.4286
▁Бодлого	-11.4287
▁эхлүүлэхээр	-11.4288
▁шалгарлаа	-11.4289
кан	-11.429
▁ямааны	-11.429
▁дэвшигчдийг	-11.429
▁ком	-11.4291
▁монголчуудыг	-11.4295
▁гардуулна	-11.4296
ЛТ	-11.4296
▁ингэснээр	-11.4296
үс	-11.4297
▁ялын	-11.4298
▁муудах	-11.4298
▁баримтын	-11.4299
▁хуваарийг	-11.43
▁зөвөөр	-11.4304
▁Удирдлагын	-11.4304
▁томилогдож	-11.4304
▁буцаагаад	-11.4305
▁Ассамблейн	-11.4305
жаа	-11.4306
▁урьдын	-11.4307
▁Урд	-11.4309
тлаа	-11.4309
▁орууллаа	-11.4312
▁үйлчлэл	-11.4313
▁импортыг	-11.4314
▁тохой	-11.4318
▁Асуудал	-11.4318
▁дүрмээ	-11.4318
▁Даралт	-11.4319
Жанжин	-11.4319
▁сэргээ	-11.432
▁муур	-11.432
▁батлагдах	-11.4321
▁ноолуурын	-11.4322
▁устга	-11.4322
▁тариаланчид	-11.4322
:02	-11.4325
▁хөнгөвчлөх	-11.4326
▁чинээлэг	-11.4328
▁амаржих	-11.4329
УГ	-11.4329
▁хэмнэлттэй	-11.4332
▁хохирох	-11.4334
▁доройт	-11.4335
▁махбод	-11.4337
▁бэртэл	-11.4337
▁бүүр	-11.4337
▁зүүх	-11.434
▁шагай	-11.434
▁Мянганы	-11.4341
▁сууцтай	-11.4342
▁дутагдаж	-11.4343
▁st	-11.4343
кийн	-11.4343
▁баар	-11.4344
▁ангийнхан	-11.4345
▁дуугаар	-11.4349
▁Ад	-11.4349
▁Бүртгэл	-11.4351
▁модель	-11.4353
▁уламжилж	-11.4354
▁бүрхэг	-11.4355
▁бүрддэг	-11.4356
▁ирүүлж	-11.4358
▁Филиппин	-11.4358
▁хэдийнээ	-11.4363
▁онлайнаар	-11.4367
чилсэн	-11.4367
сүх	-11.4368
▁хэрэгжсэнээр	-11.4368
▁хайрт	-11.4369
▁мөрөөдлөө	-11.4369
хам	-11.4373
▁төслүүдэд	-11.4373
▁15.00	-11.4374
▁бялуу	-11.4376
▁тахилга	-11.4377
▁зориулагдсан	-11.4378
▁дампуур	-11.4378
▁хэлэлцүүлгээр	-11.4379
▁зөвлөлийг	-11.438
▁алдаад	-11.4381
▁судар	-11.4384
▁түрүүлэх	-11.4386
▁Ле	-11.4386
Ор	-11.4388
▁хөшөөнд	-11.4389
▁харахгүй	-11.439
▁Хэв	-11.4393
▁цолны	-11.4393
▁өвдөлт	-11.4395
▁урлан	-11.4397
▁Баатар	-11.4398
▁тусгал	-11.4399
ологийн	-11.4399
▁цэнгэл	-11.44
▁аюулгүйн	-11.44
▁автомашинтай	-11.4401
▁Май	-11.4403
▁Бул	-11.4405
▁комиссар	-11.4406
▁461	-11.4411
▁ургийн	-11.4411
Оюундарь	-11.4412
▁зэхэж	-11.4412
▁Усан	-11.4413
▁багтаа	-11.4413
агддаг	-11.4415
▁5-7	-11.4416
Ариун	-11.4416
▁төрөн	-11.4418
▁эхэлбэл	-11.4419
▁зөөврийн	-11.4421
▁генетик	-11.4421
лүүлнэ	-11.4422
▁мо	-11.4422
▁дуугарч	-11.4422
▁илтгэж	-11.4423
гчид	-11.4425
өлөө	-11.4426
ОГ	-11.4427
▁барилгууд	-11.4427
▁оролцуулсан	-11.4427
▁жив	-11.4428
▁өглөг	-11.4429
-17	-11.443
▁өргөтгөсөн	-11.4434
▁устгасан	-11.4434
гер	-11.4435
Дамба	-11.4435
ҮҮ	-11.4436
▁ойлгоод	-11.4437
▁нэгнээс	-11.4439
▁сүрьеэ	-11.444
цээ	-11.444
▁батлуулж	-11.4441
▁ашиглахыг	-11.4441
▁довтлогч	-11.4442
▁болчихвол	-11.4442
▁Дулааны	-11.4443
▁тойруу	-11.4444
▁журамтай	-11.4444
▁хүчнийхэн	-11.4446
▁Хү	-11.4449
▁талбайгаас	-11.4451
▁эхээс	-11.4451
▁хүнсийг	-11.4452
▁хоорондох	-11.4453
▁асуулгад	-11.4454
▁оныхоос	-11.4454
▁явдлаас	-11.4458
▁адилаар	-11.4458
▁явжээ	-11.4459
▁Уу	-11.446
онг	-11.4462
▁шалтгаална	-11.4465
▁эрж	-11.4471
▁буурай	-11.4471
▁са	-11.4472
▁Facebook	-11.4473
▁ойртож	-11.4473
▁дуудлагын	-11.4473
▁шүүмжилсэн	-11.4474
▁нэгд	-11.4475
цогт	-11.4475
▁Амьд	-11.4475
▁хөөрөг	-11.4476
▁татна	-11.4476
▁хөдөлгөөнтэй	-11.4479
▁дундах	-11.448
Цахим	-11.4481
▁шан	-11.4482
▁Хархорин	-11.4483
▁урамшуулах	-11.4483
▁аминдэм	-11.4487
▁компаниудтай	-11.4487
▁Сургалт	-11.4489
цгээе	-11.449
▁Номын	-11.4492
▁2-4	-11.4492
▁тактик	-11.4494
▁Баянхошуу	-11.4494
▁эвэр	-11.4495
▁олго	-11.4495
▁механизмыг	-11.4501
▁амжилтаар	-11.4502
дуулах	-11.4504
▁бэхжүүлэхэд	-11.4506
▁ирснээс	-11.4506
▁07-	-11.4508
▁кноп	-11.4508
Батчимэг	-11.4509
da	-11.4509
▁сонгуультай	-11.451
▁оргилд	-11.4511
▁Лю	-11.4512
▁жор	-11.4513
▁жилийнхээ	-11.4513
▁мэдэлтнүүд	-11.4513
Бу	-11.4514
▁дуусаад	-11.4514
▁хэнээс	-11.4515
ааг	-11.4516
▁наснаас	-11.4517
▁НАТО	-11.4517
▁нийлсэн	-11.4519
▁ирснээр	-11.4519
▁тэнгис	-11.4524
▁худалдсан	-11.4524
▁ЗХЖШ	-11.4526
▁сахиж	-11.4526
▁шийдлээ	-11.4529
илдаг	-11.4529
▁дуулдаг	-11.4529
Одонтуяа	-11.4531
▁Хе	-11.4533
▁пуужингийн	-11.4535
▁дийл	-11.4537
▁алдан	-11.4537
▁бүтэлгүй	-11.4538
▁хөлбөмбөг	-11.4539
ho	-11.454
▁материаллаг	-11.4543
900	-11.4543
▁Манж	-11.4546
aa	-11.4548
▁нөгөөх	-11.4551
▁хөөцөлдөж	-11.4552
▁ТАН	-11.4553
ваас	-11.4553
▁гүтгэлэг	-11.4553
▁үсний	-11.4558
▁төсөвтэй	-11.4558
▁Бэлтгэл	-11.4561
▁түдгэлзүүлэх	-11.4562
▁Үхэр	-11.4562
▁дуусга	-11.4562
▁товчооны	-11.4563
▁эрхлэн	-11.4566
Амарбаясгалан	-11.4566
▁1945	-11.4566
Өргөтгөсөн	-11.457
Батмөнх	-11.4571
Дэнзэн	-11.4571
▁орохоос	-11.4573
▁дуугарах	-11.4573
▁эгүүлэ	-11.4573
▁олонтой	-11.4573
▁хуурамчаар	-11.4574
▁Оффшор	-11.4575
▁шалгуурыг	-11.4576
▁Азид	-11.4578
▁уялдуулах	-11.458
▁хэлэлцээний	-11.4584
▁зохицуул	-11.4584
▁Тэ	-11.4586
▁шанал	-11.4587
▁аппликейшн	-11.4588
▁хөндлөнгөөс	-11.4588
▁маягт	-11.4588
ням	-11.4589
▁зураглал	-11.4589
Булган	-11.459
▁2.1	-11.4591
Ма	-11.4594
▁үсгийн	-11.4595
▁хуралдуулж	-11.4597
▁ахалж	-11.4598
ДАА	-11.4598
елийн	-11.4604
▁дуулга	-11.4604
▁боловсрох	-11.4604
Чинбат	-11.4605
Хүүхэд	-11.4606
▁єєр	-11.4606
▁Жэ	-11.4608
▁Зургаан	-11.4609
лсон	-11.4609
▁жолооны	-11.461
▁1800	-11.461
▁олгожээ	-11.4612
▁Куба	-11.4614
▁хураасан	-11.4614
▁бохирдолтой	-11.4615
▁ярихад	-11.4617
▁БХЯ	-11.4619
▁Жорж	-11.4619
▁цирк	-11.4621
▁хонин	-11.4622
юу	-11.4622
▁анзаарч	-11.4623
▁Илүү	-11.4623
▁хийгддэг	-11.4623
▁төлөөлөлтэй	-11.4625
▁эсэхэд	-11.4625
▁бүрчлэн	-11.463
▁04-	-11.463
▁дайчлан	-11.4632
рсан	-11.4635
▁хөшүүрэг	-11.4636
▁то	-11.4638
рс	-11.4638
▁Хүрээ	-11.4639
-2"	-11.464
▁хэрэгжүүлэхийг	-11.4641
▁зовиур	-11.4641
ллын	-11.4643
Байгаль	-11.4645
1.6	-11.4645
▁нураа	-11.4648
үүдтэй	-11.4648
ҮҮД	-11.465
▁байхав	-11.4651
▁хэрхэх	-11.4651
▁хөөс	-11.4652
▁хөрсөн	-11.4655
▁зарчимд	-11.4656
▁яригддаг	-11.4656
▁мандат	-11.4657
▁агсан	-11.4657
▁бэлэглэж	-11.4658
▁ҮЕ	-11.4658
▁хохироосон	-11.4659
Бай	-11.4661
тнүүд	-11.4662
AR	-11.4662
▁констракшн	-11.4663
▁Москвад	-11.4664
алз	-11.4667
▁үйлчлэгч	-11.4667
▁СПОРТ	-11.4668
Жаст	-11.4668
▁жагсаж	-11.4668
▁бэлэглэсэн	-11.467
▁угаа	-11.4674
▁төлөхгүй	-11.4674
▁Баг	-11.4675
▁шийдэхэд	-11.4675
▁буулган	-11.4676
▁ястай	-11.4676
па	-11.4677
▁сайдууд	-11.4677
-8	-11.4677
▁Али	-11.4678
▁илрүүл	-11.4679
▁судл	-11.468
▁нэрийдлээр	-11.4685
▁хэмнэлтийн	-11.4689
▁хуурын	-11.469
▁онцлогийг	-11.469
▁цэгцтэй	-11.4692
▁хэвт	-11.4693
Жигжид	-11.4694
▁will	-11.4695
▁шүүж	-11.4695
▁элемент	-11.4696
oo	-11.4696
▁жингээ	-11.4697
▁ихэсч	-11.47
ЛЭЭ	-11.47
▁Уулзалт	-11.4701
▁эзлэн	-11.4701
▁аял	-11.4703
ru	-11.4704
▁спортод	-11.4705
Буянт	-11.4705
▁материалаа	-11.4705
сайн	-11.4706
Хайр	-11.4707
▁Мьянмар	-11.4708
Бадрал	-11.4709
▁МҮХАҮТ	-11.4711
▁аваргад	-11.4714
▁УАШТ	-11.4716
▁бусын	-11.4716
уулахгүй	-11.4716
▁хүчнүүд	-11.4718
▁булчирхай	-11.4718
▁ярилцаад	-11.4719
чим	-11.4719
▁нийцэх	-11.472
▁жиргээ	-11.472
▁харьцааг	-11.472
▁Ба	-11.4721
ото	-11.4722
▁По	-11.4725
хуу	-11.4726
лагчдын	-11.4726
▁1921	-11.4726
9.5	-11.4728
▁хүрээлэнгээс	-11.4729
▁тамирчны	-11.4731
▁олжээ	-11.4731
Лалын	-11.4732
гэнэ	-11.4734
▁өрнө	-11.4736
▁Зо	-11.4736
▁өрөөндөө	-11.4737
▁студи	-11.4739
▁Яармагийн	-11.4744
▁зургаар	-11.4746
▁торгуул	-11.4748
▁Үйлдвэрлэл	-11.4748
▁Эрдэм	-11.4749
▁хүйтэрч	-11.475
▁мэдэхэд	-11.475
ара	-11.4751
▁хандаад	-11.4751
▁томилдог	-11.4753
▁Алдарт	-11.4754
▁үзүүлэхийг	-11.4754
▁товлосон	-11.4754
▁дээшлүүлж	-11.4757
ry	-11.4758
▁1988	-11.4759
▁дороо	-11.4759
Ийм	-11.476
▁хэвлэн	-11.476
УС	-11.4762
BS	-11.4762
▁тусч	-11.4763
▁Нийтдээ	-11.4763
▁тунхаг	-11.4763
олд	-11.4764
▁үсгээ	-11.4765
игийн	-11.4766
▁магнай	-11.4766
▁ордууд	-11.4767
▁Дүнжингарав	-11.4767
▁Далайн	-11.4768
▁дэвшүүлье	-11.4771
▁агентлагууд	-11.4775
▁багана	-11.4776
Үйлдвэрчний	-11.4776
▁7000	-11.478
хаан	-11.478
▁2.2	-11.4783
▁үеийнхээс	-11.4786
чихгүй	-11.4786
▁Үнэт	-11.4787
▁тэргүүнээр	-11.4788
Ам	-11.4789
▁Арилжааны	-11.4791
▁гарахын	-11.4793
▁дэвш	-11.4796
▁Абэ	-11.4798
▁газ	-11.4799
▁үйлчлүүлж	-11.48
ЧИН	-11.4801
▁заалтад	-11.4802
ЛЭГ	-11.4802
▁Цагаар	-11.4802
▁Ресурс	-11.4802
▁үзүүлэхэд	-11.4803
цан	-11.4804
▁Богдын	-11.4804
▁үнэлсэн	-11.4804
▁кв	-11.4805
▁эрмэлзэл	-11.4806
-7	-11.4807
▁бухимд	-11.4808
▁үүсгэгч	-11.4809
▁зүүсэн	-11.481
▁удирдамж	-11.4811
Аз	-11.4812
8.3	-11.4814
▁өнгөрүүлж	-11.4814
▁даалгасан	-11.4816
▁сургуульдаа	-11.4816
▁цацсан	-11.4817
▁биелэлт	-11.4818
▁зуршил	-11.4819
▁бүсээс	-11.4821
▁хүүд	-11.4821
▁зөөл	-11.4822
▁сэтгэлгээний	-11.4823
▁боловсролд	-11.4824
гөөс	-11.4825
агдаад	-11.4826
▁нүдийг	-11.4826
▁Тиймээ	-11.4829
▁ирвэс	-11.4829
ay	-11.4834
5,000	-11.4835
▁хүсэлтийн	-11.4835
▁тэв	-11.4836
▁боловсруулахад	-11.4839
▁26-31	-11.484
▁3.2	-11.4842
▁геологи	-11.4842
ден	-11.4843
▁спирт	-11.4843
▁инфляц	-11.4843
▁ээлжээр	-11.4844
▁тэрийг	-11.4846
▁Гүн	-11.4848
▁тээврийг	-11.4848
▁Бүлгийн	-11.485
▁гишүүдээ	-11.4853
▁дийлэхгүй	-11.4855
▁гиш	-11.4855
▁Бол	-11.4858
Ы	-11.4859
▁мотор	-11.486
▁Агаар	-11.4861
тэж	-11.4861
▁цагаач	-11.4861
▁ургадаг	-11.4862
▁Малчид	-11.4863
▁бууруулна	-11.4864
▁хотуудад	-11.4864
▁авгай	-11.4867
▁дуудлагыг	-11.487
▁нөхдөө	-11.4871
ОЙ	-11.4872
▁бэлтгэ	-11.4874
▁түүхээ	-11.4875
▁тасарч	-11.4876
▁өөрийнхөөрөө	-11.4877
өлт	-11.4877
▁Салбар	-11.4883
▁үзэсгэлэнтэй	-11.4886
▁08-	-11.4886
▁автоматаар	-11.4886
ура	-11.4887
▁багтаамжтай	-11.4887
иу	-11.4888
▁бригадын	-11.4889
▁давт	-11.4889
лс	-11.4889
▁Дэвид	-11.489
▁орохдоо	-11.4893
▁дүрээр	-11.4895
▁биржид	-11.4896
▁(19	-11.4896
▁хамаараад	-11.49
рүүлэх	-11.49
▁засуулахад	-11.4904
▁АШТ	-11.4905
▁нийслэлчүүд	-11.4905
▁Утаа	-11.4906
▁дангаар	-11.4906
▁Португал	-11.4907
илт	-11.4907
▁нэлээдгүй	-11.4907
▁Ардчиллын	-11.4909
▁хангагдсан	-11.4909
дүүлсэн	-11.4911
▁Мексик	-11.4912
▁хөтөлж	-11.4913
▁мартах	-11.4913
▁холбоогүй	-11.4914
▁Хүмүүсийн	-11.4914
▁харьяалал	-11.4915
▁бодохгүй	-11.4915
▁туршлагаа	-11.4916
▁Сүүлдээ	-11.4918
▁хэрэгжүүлэн	-11.4918
▁болгоны	-11.4919
▁залж	-11.492
▁сай	-11.492
▁тооц	-11.492
▁эерэгээр	-11.492
▁байгуулагдаад	-11.4922
▁хамба	-11.4922
▁форумын	-11.4924
▁даатгуулагч	-11.4924
▁Найман	-11.4929
▁тэсвэртэй	-11.4929
▁Ял	-11.4931
9.2	-11.4933
▁гардууллаа	-11.4934
▁үүсгэ	-11.4935
бург	-11.4937
Магнай	-11.4941
▁хардаж	-11.4942
▁хангаад	-11.4942
▁Киноны	-11.4943
▁ХУРАЛДААН	-11.4943
▁чөтгөр	-11.4943
▁болгоомжлол	-11.4943
эгдэл	-11.4945
бр	-11.4946
▁дурсгалыг	-11.4949
▁шалгахад	-11.4952
▁аугаа	-11.4953
▁төлөвшил	-11.4953
ёо	-11.4956
▁шах	-11.4956
▁Тайван	-11.4957
ийнхаа	-11.4958
▁хүргэлээ	-11.4959
▁эмнэлэгийн	-11.496
▁хойноо	-11.4961
▁Жинлүүр	-11.4962
▁нэвтэрсэн	-11.4963
эль	-11.4963
▁ардаа	-11.4963
▁таньдаг	-11.4964
▁хөдөлмөрийг	-11.4965
▁Киргиз	-11.4966
bi	-11.4967
▁хүүхэддээ	-11.4967
▁үд	-11.4967
▁банкийг	-11.4969
▁хувцсыг	-11.4971
▁хүснэгт	-11.4971
▁шүтлэг	-11.4972
▁мөнөөх	-11.4973
▁ХДХВ	-11.4974
авар	-11.4975
▁баригд	-11.4975
▁Нобелийн	-11.4976
▁Европт	-11.4976
▁ээждээ	-11.4978
Амартүвшин	-11.4978
мийг	-11.4979
▁саруудад	-11.4979
▁Албаны	-11.498
▁болвол	-11.498
▁тоотой	-11.4984
▁эхнэрээ	-11.4984
▁Сон	-11.4986
▁орвол	-11.4988
Азийн	-11.4988
Баянсэлэнгэ	-11.4989
▁дуусгасан	-11.4989
▁Хожим	-11.4989
▁дурдав	-11.4991
▁Гэрийн	-11.4992
▁Хүүхдээ	-11.4996
▁тогтнох	-11.4996
▁хэтэрч	-11.4996
ондоо	-11.4997
сер	-11.4998
-18	-11.4999
▁Хөгжим	-11.5003
▁бордоо	-11.5004
▁тогтоомжид	-11.5005
▁сонсголын	-11.5006
▁олборлогч	-11.5008
▁уншигчдад	-11.5009
▁эрэгтэйчүүд	-11.5011
▁нөхөрсөг	-11.5012
▁эрлийз	-11.5012
▁түшиг	-11.5014
30-	-11.5016
▁Про	-11.5017
▁франц	-11.5017
▁мартсан	-11.5023
▁Шийдвэр	-11.5024
▁хөндлөн	-11.5024
▁гудамжаар	-11.5025
▁марк	-11.5026
▁торгоно	-11.5027
Ла	-11.5027
Амар	-11.5028
▁ядаргаа	-11.5028
▁гомдлын	-11.5031
▁Ангараг	-11.5035
▁хэрэглэхэд	-11.5035
лөл	-11.5036
▁хэлтэй	-11.5037
▁хандуул	-11.5038
▁харьцаанд	-11.5039
▁Хубилай	-11.5039
▁еврогийн	-11.5039
▁хардах	-11.504
▁чиглүүлж	-11.504
▁баривчилж	-11.5043
▁сурвалжлагч	-11.5044
▁хүндэтгэлтэй	-11.5051
▁горимын	-11.5052
▁ажиллагсдын	-11.5054
▁үнэний	-11.5056
дор	-11.5057
▁судлаад	-11.5059
▁багуудын	-11.5061
▁лус	-11.5062
▁хаагчийг	-11.5062
кү	-11.5062
▁цацагдсан	-11.5062
▁морио	-11.5064
▁гүйцэд	-11.5065
▁Халхын	-11.5067
▁дагуулан	-11.5069
▁Залуус	-11.5071
▁үзвэр	-11.5073
▁амарна	-11.5074
▁өнгөрүүлсэн	-11.5075
▁тусалдаг	-11.5075
▁төлөөлөх	-11.5075
▁шингэ	-11.5077
▁амлалтаа	-11.5077
дахгүй	-11.508
бус	-11.5083
▁өвчинд	-11.5083
▁ахиад	-11.5084
▁болсонтой	-11.5085
бэ	-11.5086
▁тогтох	-11.5087
▁Ник	-11.509
Баттулгыг	-11.5091
ллыг	-11.5092
▁гэгдэж	-11.5093
▁өвдсөн	-11.5093
IT	-11.5093
▁олоход	-11.5094
Ээлжит	-11.5096
▁жолоодсон	-11.5096
▁Манжийн	-11.5097
агүй	-11.5099
Аюурсайхан	-11.51
ална	-11.5102
Мөнхбаатар	-11.5102
▁дэвшин	-11.5102
лалаа	-11.5106
▁байлдан	-11.5106
▁Багийн	-11.5108
▁нэрс	-11.5108
▁анхлан	-11.5109
▁ХУВ	-11.5109
▁Ро	-11.5111
▁https	-11.5112
▁1960	-11.5112
▁түүхэндээ	-11.5115
▁зон	-11.5115
▁халаалтын	-11.5117
▁хэмжих	-11.5117
▁Удалгүй	-11.5119
лх	-11.512
▁цэвэрхэн	-11.512
▁ямархуу	-11.5121
нс	-11.5123
▁тулгаж	-11.5124
IV	-11.5126
▁тогтолцоотой	-11.5127
▁тушаалтнуудад	-11.5127
▁хүнтэйгээ	-11.5129
▁Лос	-11.5132
▁ЭНД	-11.5132
▁бүсээ	-11.5133
▁өвчлөх	-11.5133
▁нэмэгдүүлэхээр	-11.5134
▁хаш	-11.5135
▁оролцоотойгоор	-11.5135
▁эхлэлийг	-11.5135
▁хэмээгээд	-11.5136
▁хийсээр	-11.5136
▁статус	-11.5137
▁тохилог	-11.5137
▁жижүүр	-11.5138
▁нөлөөллийг	-11.5138
▁гэгээрүүлэх	-11.5138
▁хийчихсэн	-11.5139
▁судалгаанаас	-11.5141
▁өргөнөөр	-11.5141
Сайхан	-11.5143
▁Яахав	-11.5144
▁дараатай	-11.5144
▁сүүдэр	-11.5145
▁103	-11.5149
▁олимпын	-11.515
▁огцор	-11.5151
▁Жак	-11.5153
▁аюулт	-11.5156
жүүлэлт	-11.5156
▁бэлтгэгдсэн	-11.5157
▁гэрлэх	-11.5158
▁4-6	-11.5158
3.1	-11.5159
▁тайлагнах	-11.516
▁хаяад	-11.516
MA	-11.5163
▁Шагнал	-11.5163
▁рок	-11.5163
▁шорон	-11.5166
үүдээр	-11.5166
▁сурталчилгааг	-11.517
▁1,2	-11.517
▁хороон	-11.517
▁жам	-11.517
▁ашиглана	-11.517
▁хэрэгцээт	-11.5171
▁Чанар	-11.5173
▁Зайсан	-11.5176
▁хожих	-11.5176
ани	-11.5177
Хятад	-11.5178
▁онгоцонд	-11.5179
▁нуугдаж	-11.518
▁өнгөрөө	-11.5181
▁төсөвлөсөн	-11.5181
▁гардаггүй	-11.5181
:2	-11.5183
▁ачиж	-11.5185
Чимгээ	-11.5185
гүүт	-11.5185
▁Лам	-11.5185
▁сэрээ	-11.5186
▁1980	-11.5186
▁Ингэх	-11.5188
Анх	-11.5191
▁нутагтай	-11.5193
▁дэвжээнд	-11.5193
▁гуравт	-11.5198
▁тэмцэгч	-11.52
лагыг	-11.5202
▁лобби	-11.5203
▁тэсрэх	-11.5205
хаас	-11.5205
ыхаа	-11.5206
дагч	-11.5207
▁Зас	-11.5207
▁цонхоор	-11.5207
▁тооцоолсон	-11.5209
▁Майкл	-11.5209
▁хөдөлгө	-11.5209
:03	-11.5209
▁зориудаар	-11.521
▁төгсөгч	-11.5213
▁as	-11.5213
▁хун	-11.5216
▁кабинет	-11.5218
▁бүрхүүл	-11.5218
▁Хи	-11.522
▁дээлтэй	-11.5221
Сумъяа	-11.5223
▁тээвэрт	-11.5224
▁суларсан	-11.5224
▁одооноос	-11.5225
▁хүрэлцэхгүй	-11.5227
ab	-11.5229
тнуудын	-11.523
▁Гадаадад	-11.5231
▁эсгий	-11.5232
Ерөнхий	-11.5233
▁зовоож	-11.5233
сэ	-11.5234
Цэрэнбат	-11.5234
▁эргийн	-11.5234
▁аялан	-11.5235
▁Урьдчила	-11.5236
▁араншин	-11.5237
▁манайхаас	-11.5242
орт	-11.5242
▁эрхээр	-11.5245
▁буриад	-11.5246
▁саадгүй	-11.525
▁10-12	-11.525
▁өрхүүд	-11.5251
▁шийдвэрлэжээ	-11.5253
▁сунгаа	-11.5253
элтийн	-11.5254
▁Үзэсгэлэн	-11.5254
Батцэрэг	-11.5255
▁яривал	-11.5257
▁Apple	-11.5258
8.4	-11.5258
▁согтуугаар	-11.5259
▁шалгуулж	-11.5259
тэ	-11.526
нин	-11.526
▁жаргалыг	-11.5261
▁ажлуудын	-11.5261
▁гайхамшиг	-11.5261
▁үхлийн	-11.5262
▁байцаагчид	-11.5263
▁зод	-11.5263
▁нохойн	-11.5264
▁хуулиараа	-11.5264
▁бу	-11.5266
▁Шведийн	-11.5267
арна	-11.5267
км	-11.5268
▁инженерүүд	-11.5268
▁тунхаглал	-11.527
▁сунгаж	-11.527
▁15-17	-11.527
▁итгэхгүй	-11.527
Сэргэлэн	-11.5271
▁чадахаа	-11.5271
▁арьсан	-11.5273
Са	-11.5274
▁ширүүсч	-11.5276
▁өөрчлөлттэй	-11.5277
гө	-11.5278
▁прокурорт	-11.5278
▁Ерөнхийлөгчтэй	-11.528
▁үзүүллээ	-11.5286
▁Исламын	-11.5286
▁t	-11.5286
▁бүрдүүлэлт	-11.5287
▁шинжээчдийн	-11.529
лэлээ	-11.5291
▁горим	-11.5292
▁Жиньпин	-11.5293
▁Ирээдүйн	-11.5295
▁найргийн	-11.5297
▁хамаа	-11.5298
▁тооцоолол	-11.5301
▁ялаар	-11.5302
▁дархлааг	-11.5303
▁буруутан	-11.5303
▁эсэргүүцлийн	-11.5303
сныхаа	-11.5303
▁шүүмжилдэг	-11.5304
▁дээшээ	-11.5305
▁явдалтай	-11.5307
▁тарга	-11.5308
эрх	-11.5308
▁нэхэх	-11.5312
▁дарамтыг	-11.5315
:1	-11.5318
▁бүтцээ	-11.5319
▁үеийнхний	-11.532
▁нис	-11.532
▁шалтгаалах	-11.5322
▁эргэлтийг	-11.5322
▁Ингэхээр	-11.5326
▁гарчихсан	-11.5327
▁Сонирхолтой	-11.5327
▁я	-11.5327
ихгүй	-11.5328
▁дуулгалаа	-11.5328
▁төлөөлөгчөөр	-11.533
▁шөвгийн	-11.5331
▁бүхэнтэй	-11.5332
▁мэдрэмжийг	-11.5336
▁элсэлтийн	-11.5336
▁дамжих	-11.5337
▁баз	-11.534
▁агуулгаар	-11.5341
▁залги	-11.5342
▁дуудлагаар	-11.5345
▁маягтай	-11.5348
▁гэрээтэй	-11.5348
▁шийдвэртэй	-11.5348
тад	-11.5349
▁хүслийг	-11.5351
▁2017-2018	-11.5352
▁нэмэгдүүлэн	-11.5354
▁ЭМ	-11.5354
▁шийдэгдсэн	-11.5356
рак	-11.5358
▁хичээн	-11.536
▁осолдсон	-11.5363
▁ангиар	-11.5364
Хаан	-11.5364
Алтанхуягийг	-11.5365
▁дэмжигчдийн	-11.5365
5.2	-11.5366
▁бахархдаг	-11.5373
▁ажилтантай	-11.5374
▁Бразилийн	-11.5375
▁дэвшүүлэн	-11.5376
▁30-40	-11.5377
▁үргэлжлэл	-11.5381
▁лавтай	-11.5381
▁Пакистан	-11.5381
:04	-11.5383
▁санаачлагчид	-11.5383
▁барь	-11.5384
▁тарифын	-11.5384
▁конвенц	-11.5384
йм	-11.5386
em	-11.5387
▁Аг	-11.5387
ллаа	-11.5388
▁ялгарч	-11.5388
ne	-11.5388
▁харваач	-11.5388
▁гэрийнхээ	-11.5388
▁сэжигтнээр	-11.5389
▁ойлголцох	-11.5389
▁экспортолж	-11.5389
▁баталжээ	-11.5391
▁толгойтой	-11.5391
▁дээшлүүлэхэд	-11.5393
▁хойшлуулж	-11.5393
▁орнуудыг	-11.5393
▁нийлүүлэлтийн	-11.5393
▁нэмэгдээд	-11.5394
▁архив	-11.5396
▁Ажлаа	-11.5397
▁гоцлол	-11.5398
▁АВ	-11.5399
▁гүйх	-11.5401
▁үүсэн	-11.5401
▁Талийгаач	-11.5402
рэм	-11.5405
ИМ	-11.5405
▁уулз	-11.5408
▁захирамжийн	-11.5409
▁1984	-11.5409
▁эхтэй	-11.541
▁автаж	-11.5411
▁чадварт	-11.5411
▁балчир	-11.5413
▁тэрбумтан	-11.5413
▁гарсныг	-11.5415
▁Шал	-11.5415
▁төлбөрөөс	-11.5415
▁Халуун	-11.5417
▁өгүүлжээ	-11.5417
▁сурвалжилж	-11.5418
▁мэдрэмжтэй	-11.542
▁настнууд	-11.5421
▁нисч	-11.5421
▁чулууг	-11.5422
▁агуулгыг	-11.5423
▁тогтоогджээ	-11.5423
▁борлуулсан	-11.5425
▁барилаа	-11.5425
▁102	-11.5426
▁6-8	-11.5427
▁уршиг	-11.5427
▁уншигчид	-11.5428
day	-11.5428
▁шүтэн	-11.5429
▁юанийн	-11.5429
▁хямдхан	-11.5431
▁Бэл	-11.5431
▁Ердөө	-11.5432
▁алдаршсан	-11.5432
цар	-11.5432
лаач	-11.5433
▁дүрийн	-11.5437
▁iPhone	-11.5439
▁төлөвлө	-11.544
▁шагналаа	-11.544
▁шуу	-11.544
▁ханга	-11.5441
▁аюулын	-11.5443
▁урвал	-11.5444
▁Эдүгээ	-11.5444
бе	-11.5447
▁баримтуудыг	-11.5447
▁ги	-11.5449
▁жүдоч	-11.5449
?!	-11.5449
▁ашигла	-11.545
▁Баярын	-11.5451
Содбаатар	-11.5451
Ми	-11.5452
ийхээ	-11.5454
▁Ая	-11.5456
▁квадрат	-11.5456
▁хөтөч	-11.5456
▁Хон	-11.5458
so	-11.5459
▁ойлгоно	-11.546
▁уйл	-11.546
▁цөлжилт	-11.5461
▁жуулчны	-11.5461
▁Пол	-11.5461
▁иен	-11.5462
▁тусад	-11.5463
▁онгоцоор	-11.5464
▁бодогч	-11.5467
ноосоо	-11.5467
▁өгүүлж	-11.5467
▁Жа	-11.5468
▁0.5	-11.5471
аки	-11.5471
▁хуваан	-11.5474
▁лидерүүд	-11.5476
▁халагдсан	-11.5477
▁гүүрийн	-11.5479
▁очин	-11.5479
700	-11.5481
▁зөвшөөрдөг	-11.5482
▁олноо	-11.5483
Эрх	-11.5487
▁захирлууд	-11.5492
СОН	-11.5492
нуур	-11.5494
▁бэртсэн	-11.5495
▁нүүрийг	-11.5495
ойн	-11.5496
▁байснаар	-11.5501
▁таалал	-11.5504
▁боловсруулаад	-11.5506
▁хянадаг	-11.5508
вай	-11.5508
▁гэмтээсэн	-11.5509
▁явахаар	-11.5512
▁Малайзын	-11.5512
▁Сүү	-11.5514
▁баралт	-11.5515
▁оноогоо	-11.5516
▁Мор	-11.5517
рес	-11.5519
:08	-11.552
▁Тор	-11.5522
▁сонирхогчдын	-11.5524
наар	-11.5524
▁тогтоо	-11.5527
▁тодруул	-11.5529
▁үүдэж	-11.553
▁бүтсэн	-11.553
▁До	-11.5531
▁ерөнхийлөгчөөр	-11.5532
/2	-11.5533
ирч	-11.5533
▁шалгуулахаар	-11.5535
ээч	-11.5535
▁солилцооны	-11.5538
▁даваад	-11.5539
бүрэн	-11.5539
▁уна	-11.554
▁Эртний	-11.554
▁урагшлах	-11.554
▁хөдөлгөж	-11.5541
▁хуваалц	-11.5541
жавын	-11.5544
елл	-11.5544
▁ээжийгээ	-11.5545
Хулан	-11.5546
▁массаж	-11.5546
▁Дөрөв	-11.5546
▁багшаар	-11.5547
▁хамаарахгүй	-11.5547
луу	-11.5548
▁гав	-11.5549
▁тэжээх	-11.5549
▁буцаа	-11.5549
▁Өв	-11.5551
▁Угаасаа	-11.5552
▁хэтрэхгүй	-11.5553
Ундармаа	-11.5553
▁МВт	-11.5553
Нямбаатар	-11.5556
лөгч	-11.5557
▁сэдэл	-11.5557
мэг	-11.5559
▁баталдаг	-11.5559
▁хув	-11.5561
аци	-11.5563
▁мэргэд	-11.5565
▁дэмжихэд	-11.5568
▁нэгжүүдийг	-11.557
▁цэвэрлэгээний	-11.5572
▁хүргүүлжээ	-11.5572
▁ядуурлыг	-11.5572
▁Цэцэг	-11.5574
▁эрхэмлэн	-11.5575
▁бүтээлүүдийг	-11.5576
▁голчлон	-11.5576
▁ургацын	-11.5576
▁Өргөн	-11.5578
▁итгэ	-11.5582
▁гэдгийн	-11.5583
▁Авлига	-11.5584
▁шугамыг	-11.5585
▁нэмрийг	-11.5587
▁тэмдэглэлт	-11.5588
▁зөвшөөрлөө	-11.5588
▁дүрмээр	-11.5589
▁тоноглол	-11.559
▁шоколад	-11.5592
▁чийрэг	-11.5597
▁по	-11.5597
▁бодисууд	-11.5597
ико	-11.5599
▁кинонууд	-11.56
ров	-11.5601
▁амбиц	-11.5602
▁хашааны	-11.5602
▁1.7	-11.5602
▁гэсний	-11.5603
▁үсгийг	-11.5604
▁олондоо	-11.5607
Сайханбилэгийг	-11.5608
рис	-11.5608
▁агуулж	-11.5608
▁жилүүд	-11.5609
gt	-11.561
▁Ухаалаг	-11.5617
өрч	-11.5619
бү	-11.5619
▁Сайдын	-11.5619
▁одсон	-11.5619
▁Тоглолт	-11.562
▁арлууд	-11.562
▁үүдсэн	-11.5622
▁эргэлзэж	-11.5622
▁тэмцэхэд	-11.5623
▁дизайн	-11.5623
▁хэвлэж	-11.5626
▁бодно	-11.5627
▁Ту	-11.5629
▁төлөвлөлтийг	-11.5629
▁гардуулсан	-11.5632
▁сэргэ	-11.5638
▁өмчлөлийн	-11.564
▁өрөөсгөл	-11.5641
▁Эрт	-11.5641
АНД	-11.5641
Анхбаяр	-11.5644
▁номхон	-11.5644
▁Чиний	-11.5647
▁буйн	-11.5648
▁дэгдээ	-11.5648
▁зарлана	-11.565
▁удирддаг	-11.565
АЛТ	-11.5651
▁Хувьцаа	-11.5652
▁хийчих	-11.5653
▁хойшлуулсан	-11.5653
▁Залуучууд	-11.5655
▁con	-11.5655
▁Монголбанкинд	-11.5658
▁нэмэхгүй	-11.5663
▁сармис	-11.5666
▁шуудангийн	-11.5667
▁тээвэрлэгч	-11.5667
▁хоолонд	-11.5669
▁аврагч	-11.5669
▁харуулна	-11.5669
▁Чад	-11.5671
▁баяраа	-11.5671
Ослын	-11.5672
хнийг	-11.5674
▁асуудаг	-11.5674
Ху	-11.5675
▁Консулын	-11.5675
▁нунтаг	-11.5675
▁казах	-11.5675
▁халдвартай	-11.5677
▁поп	-11.568
▁дүгнэлтээр	-11.568
▁буланд	-11.5684
▁Арай	-11.5686
жуулалт	-11.5687
ci	-11.5689
▁шошго	-11.5689
▁Сөрөг	-11.5689
▁Швейцар	-11.5689
▁үүлэрхэг	-11.569
▁түрүүн	-11.569
▁явцуу	-11.569
▁инээ	-11.5691
▁шаардана	-11.5693
оф	-11.5693
▁даруу	-11.5695
▁харьцаж	-11.5696
ak	-11.5697
▁худалдаагаар	-11.5697
▁Итгэл	-11.5698
▁бяр	-11.5699
▁Гэртээ	-11.57
▁шимтгэлийг	-11.5701
▁тохиолдлууд	-11.5701
илсон	-11.5702
▁дэлгэсэн	-11.5702
▁тээврээр	-11.5704
Ан	-11.5706
▁сөнөөгч	-11.5708
кет	-11.571
▁түншүүд	-11.571
▁барилдана	-11.5711
▁бур	-11.5713
▁асуудлуудын	-11.5717
▁лигт	-11.5717
▁дүгнэлттэй	-11.5717
▁Галт	-11.5719
▁Хүннү	-11.572
▁шийджээ	-11.572
▁археологийн	-11.572
Түвшинбаяр	-11.572
▁эргэлзэхгүй	-11.5724
▁сэрэмжтэй	-11.5724
үүлэгч	-11.5725
▁халаагуур	-11.5726
▁амьтныг	-11.5726
▁америкчууд	-11.5727
▁Нохой	-11.5728
os	-11.5728
туу	-11.5729
▁дэвжээ	-11.5729
▁салбартай	-11.573
▁аятайхан	-11.5732
ге	-11.5734
▁хөдөлмөрлөх	-11.5737
▁нууцыг	-11.5737
Замын	-11.5738
▁архивын	-11.5743
▁цугларсан	-11.5743
▁Жанжин	-11.5744
▁хийгдэнэ	-11.5745
үүний	-11.5745
▁ОНӨААТҮГ	-11.575
лгыг	-11.575
▁инноваци	-11.575
ast	-11.5751
▁бууны	-11.5752
Өнөр	-11.5753
▁эмнэлгийг	-11.5755
▁Өрийн	-11.5755
▁нэрсийг	-11.5758
▁мөчлөг	-11.5759
▁иргэншил	-11.576
▁замууд	-11.5761
▁амьдарна	-11.5762
ста	-11.5764
▁цацагдаж	-11.5765
эдийн	-11.5768
▁тараг	-11.5769
▁намаасаа	-11.577
▁Эг	-11.577
Өдрийн	-11.5771
▁дүндээ	-11.5771
▁гаргаснаар	-11.5771
▁жилүүдийн	-11.5771
▁магт	-11.5772
▁үзүүлээд	-11.5772
▁тарифыг	-11.5774
▁яармаг	-11.5775
▁Ст	-11.5776
▁хэлэлц	-11.5776
▁дарамталж	-11.5778
ник	-11.578
▁гуйсан	-11.578
ув	-11.5781
▁захирагчийн	-11.5781
▁30-35	-11.5782
Өргө	-11.5785
▁буудлыг	-11.5785
луур	-11.5785
▁доромжилсон	-11.5785
▁оруулалтаа	-11.5786
▁явуулахгүй	-11.5788
▁ширээнд	-11.5789
▁увайгүй	-11.579
гоод	-11.579
▁сонирх	-11.5791
▁хуримтлуулсан	-11.5793
▁товло	-11.5794
▁үнэмш	-11.5795
▁ца	-11.5796
▁харагд	-11.5797
▁үгтэй	-11.5799
▁зөрчигдөж	-11.58
▁вон	-11.5801
Эрчим	-11.5801
▁гарьд	-11.5803
▁бүрдүүлэн	-11.5803
▁тонныг	-11.5803
Европын	-11.5804
▁конвенцид	-11.5804
▁Санкт	-11.5805
▁цаазат	-11.5806
▁тантай	-11.5807
▁шатсан	-11.5808
▁хэрэгсэлд	-11.5809
▁хүмүүстээ	-11.5809
▁форумд	-11.581
▁станцууд	-11.5812
▁завдсан	-11.5813
▁тулгар	-11.5815
▁биелэлтийг	-11.5815
▁хавсарга	-11.5816
▁ЭРХ	-11.5817
▁тэндээ	-11.5817
▁ярилц	-11.5818
▁үйлчилгээгээ	-11.5818
▁тарах	-11.5819
▁онгон	-11.5821
▁математик	-11.5822
Сугар	-11.5823
▁тахи	-11.5824
▁босгыг	-11.5825
▁анзаарсан	-11.5826
гин	-11.5827
уха	-11.5827
▁эрхэд	-11.5828
▁Дай	-11.5828
▁хориглож	-11.5833
▁байгуулагдана	-11.5834
▁арчилгаа	-11.5834
▁шалтгаалсан	-11.5835
▁дуурь	-11.5837
▁Долоон	-11.5837
▁ажлуудаа	-11.5838
пин	-11.5839
▁шилжилтийн	-11.5839
▁Чой	-11.584
▁дусал	-11.584
▁уртын	-11.5841
▁Унгарын	-11.5841
снөөр	-11.5842
Хөх	-11.5845
▁сэтгэцэд	-11.5846
тгэл	-11.5851
▁оролц	-11.5853
▁төсөөллийн	-11.5853
▁Ерөнхийлөгчөөс	-11.5854
9.1	-11.586
▁бухимдаж	-11.5861
▁академич	-11.5863
▁2.3	-11.5864
▁гарыг	-11.5866
▁харан	-11.5866
▁БАЙ	-11.5868
Монголчууд	-11.587
Өсөхбаяр	-11.587
УД	-11.5871
Ур	-11.5872
▁хум	-11.5872
4.5	-11.5873
▁De	-11.5873
▁Үүл	-11.5875
▁төрөлжсөн	-11.5875
▁хэрэгцээгээ	-11.5876
▁го	-11.5876
пор	-11.5878
▁таргалалт	-11.5878
▁хадгалан	-11.5879
▁түймрийг	-11.588
▁зүйд	-11.588
лө	-11.588
▁зүйрлэ	-11.5882
io	-11.5883
ice	-11.5884
▁өндөрлөлөө	-11.5885
▁чанадад	-11.5885
▁аварсан	-11.5886
8.6	-11.5888
зер	-11.5889
▁хатуухан	-11.5889
▁утгыг	-11.589
▁бүлтэй	-11.5892
цэрэн	-11.5892
▁хайрладаг	-11.5892
Хурц	-11.5893
▁шатаа	-11.5894
ОМ	-11.5894
▁нийлүүл	-11.5895
▁тооцогдож	-11.5895
▁бэртэж	-11.5895
Тогтвортой	-11.5897
▁шүүгчээр	-11.5898
▁нөлөөнд	-11.59
ЭС	-11.5902
▁хийл	-11.5908
▁бичнэ	-11.5909
Зууны	-11.5909
▁төвүүдэд	-11.5909
▁түүнийхээ	-11.591
▁БСШУЯ	-11.591
онго	-11.591
▁Уулын	-11.5911
ap	-11.5913
Женко	-11.5913
kh	-11.5914
▁Хоёрт	-11.5914
▁гаргагч	-11.5919
тел	-11.592
▁үгнээс	-11.592
Баттөмөр	-11.5925
Газар	-11.5925
▁нэвтрүүлгийг	-11.5926
▁Парламент	-11.5926
илга	-11.5927
▁ургаж	-11.5928
▁дөрөө	-11.5928
▁Түүн	-11.593
▁төлөөллийн	-11.593
▁компаниа	-11.5932
юн	-11.5934
▁Тэг	-11.5935
▁чам	-11.5935
4.9	-11.5936
[...]
