<unk>	0
<s>	0
</s>	0
[PAD]	0
[CLS]	0
[SEP]	0
[MASK]	0
.	-2.91519
,	-3.19291
▁нь	-4.30288
▁байна	-4.8015
-	-4.92676
▁	-4.97053
▁"	-5.01219
▁юм	-5.1313
"	-5.14386
▁энэ	-5.17383
▁байгаа	-5.22206
▁ч	-5.27539
ын	-5.33017
▁гэж	-5.4017
▁л	-5.64027
д	-5.70309
▁байсан	-5.79509
▁улсын	-5.81793
▁бол	-5.85604
ийн	-5.92106
▁нэг	-5.92457
▁их	-5.94802
▁олон	-6.00563
▁монгол	-6.02546
▁болон	-6.03439
▁хүн	-6.15352
▁гэсэн	-6.21772
гүй	-6.24144
▁байх	-6.2755
ыг	-6.27878
▁засгийн	-6.27928
▁тэр	-6.29065
?	-6.29884
:	-6.31934
▁тухай	-6.36975
ийг	-6.38764
т	-6.39461
▁мөн	-6.39936
▁хоёр	-6.41755
▁оны	-6.42543
▁улс	-6.42655
г	-6.43703
▁дээр	-6.45024
▁төрийн	-6.4905
▁би	-6.50216
▁газар	-6.50602
▁тус	-6.51922
▁сарын	-6.52593
тай	-6.52938
▁байдаг	-6.53239
▁болсон	-6.54468
▁аж	-6.58172
▁дарга	-6.59451
▁болно	-6.59665
▁харин	-6.63297
▁та	-6.64111
ээ	-6.64353
▁ямар	-6.65343
ны	-6.65392
▁буй	-6.66941
▁болж	-6.67437
▁онд	-6.69887
▁үйл	-6.71698
▁бөгөөд	-6.71786
▁болох	-6.71982
▁хууль	-6.72156
▁газрын	-6.72506
▁бид	-6.7395
▁талаар	-6.74668
н	-6.75952
▁гэдэг	-6.76402
аас	-6.77966
▁уих	-6.78702
▁манай	-6.79338
▁уу	-6.8025
▁эрх	-6.81878
▁эдийн	-6.82882
р	-6.84117
аа	-6.84177
▁хуулийн	-6.84952
▁хамгийн	-6.8778
▁орон	-6.88307
▁сайд	-6.88547
аар	-6.88678
▁сайн	-6.89734
тэй	-6.90325
▁авч	-6.90604
▁үед	-6.9071
▁жил	-6.94
▁жилийн	-6.94233
х	-6.96543
▁өдөр	-6.96645
▁хийж	-6.98019
▁албан	-6.98173
▁цаг	-6.98289
▁ерөнхий	-6.98773
▁ажил	-6.9899
▁дээ	-6.99591
▁д	-6.99698
▁б	-6.99892
▁хувьд	-7.00754
▁биш	-7.00915
▁вэ	-7.01938
▁нар	-7.01952
▁бий	-7.02159
▁хувь	-7.02687
▁арга	-7.03516
▁хүний	-7.03685
▁дараа	-7.03697
▁сая	-7.03876
▁ёстой	-7.04243
▁нэр	-7.04653
▁монголын	-7.05788
▁өмнө	-7.05869
▁зохион	-7.06932
▁-	-7.07245
▁гээд	-7.07747
▁хэмээн	-7.07943
▁санал	-7.08796
▁үр	-7.09176
▁зэрэг	-7.11493
▁хэрэгтэй	-7.11875
▁эх	-7.12009
▁бусад	-7.14026
▁юу	-7.14166
▁ажиллаж	-7.14549
▁буюу	-7.14714
▁ажлын	-7.15101
▁гэх	-7.16029
▁шиг	-7.16037
▁байж	-7.16154
▁шинэ	-7.16173
нд	-7.16943
▁шүү	-7.17214
▁н	-7.17329
▁асуудал	-7.1743
▁зарим	-7.17845
с	-7.17852
▁ийм	-7.18073
▁одоо	-7.19133
"-	-7.19707
▁уг	-7.20032
▁бүх	-7.20083
▁с	-7.20189
/	-7.2067
▁гишүүн	-7.21291
▁хөрөнгө	-7.22273
▁авах	-7.22609
▁зүйл	-7.22947
▁билээ	-7.24434
▁хэрэг	-7.24458
▁нийслэлийн	-7.24701
▁түүний	-7.24744
▁үг	-7.25692
▁дугаар	-7.26125
▁нийт	-7.27318
▁нэгэн	-7.2751
▁эрүүл	-7.28351
▁хүмүүс	-7.28549
▁засаг	-7.28999
гийн	-7.30135
▁хийх	-7.31102
▁аймгийн	-7.31206
▁байлаа	-7.31314
▁бас	-7.31374
▁градус	-7.31496
▁ам	-7.31648
▁маш	-7.32138
▁том	-7.32452
▁мэдээлэл	-7.32541
▁бүр	-7.32655
▁дахь	-7.32811
▁нутгийн	-7.32839
▁гэдгийг	-7.33932
▁өнгөрсөн	-7.34839
▁ирсэн	-7.35738
▁гэр	-7.36055
▁бага	-7.36424
ээр	-7.36767
▁гэхдээ	-7.36928
▁ард	-7.37195
▁дэлхийн	-7.37253
▁гол	-7.37531
▁хүртэл	-7.38158
ад	-7.38311
ж	-7.38514
▁өөр	-7.40431
▁гаруй	-7.40606
▁бус	-7.41001
▁үндэсний	-7.41669
▁өндөр	-7.41981
▁2	-7.4241
▁өнөөдөр	-7.42794
▁дагуу	-7.42974
▁удаа	-7.43018
▁төв	-7.43155
▁өөрийн	-7.43519
▁авсан	-7.44664
▁асуудлыг	-7.45011
▁энэхүү	-7.46806
▁дахин	-7.47454
▁10	-7.47685
▁тэрбум	-7.47848
▁х	-7.48085
▁тиймээс	-7.48246
▁илүү	-7.48268
▁гарч	-7.48476
▁гурван	-7.49566
▁үү	-7.49646
▁/	-7.49869
▁учир	-7.49939
▁хугацаанд	-7.50109
▁хотын	-7.50572
▁миний	-7.50616
▁нутгаар	-7.50793
▁зам	-7.5107
▁тийм	-7.51172
▁хэдэн	-7.51457
▁(	-7.51501
▁үндсэн	-7.51597
▁г	-7.51881
▁байдал	-7.51956
▁хийсэн	-7.52115
▁орж	-7.53061
▁сайхан	-7.53301
▁тухайн	-7.53361
▁хэн	-7.53474
а	-7.53576
▁хөгжлийн	-7.53837
▁ц	-7.5393
▁“	-7.54093
▁учраас	-7.54366
▁чинь	-7.54379
ээс	-7.5501
▁мянган	-7.55019
▁тодорхой	-7.55179
▁байв	-7.55189
)	-7.55333
▁тул	-7.55705
▁1	-7.55741
ч	-7.55836
▁хүүхэд	-7.55917
▁ба	-7.56459
▁3	-7.57739
▁ажиллагаа	-7.57825
▁бие	-7.58085
▁хэм	-7.59403
▁хүнд	-7.59429
▁иргэд	-7.59454
▁баруун	-7.59664
ний	-7.59688
▁тэд	-7.60219
▁улсад	-7.60348
▁холбоотой	-7.60559
▁гэтэл	-7.61369
▁м	-7.61441
▁хүрээнд	-7.61476
▁дунд	-7.61651
▁бүхий	-7.62126
▁бүрэн	-7.62413
▁нийгмийн	-7.63388
▁намын	-7.6364
▁зүйн	-7.64144
▁тулд	-7.65031
▁чухал	-7.65943
▁өдөртөө	-7.66064
▁байхгүй	-7.66092
▁байгааг	-7.66178
▁хойш	-7.66321
▁руу	-7.66461
▁байр	-7.67113
▁ерөнхийлөгч	-7.67335
▁төр	-7.67562
▁төсөл	-7.68096
▁түүнийг	-7.68187
▁мэт	-7.685
▁хар	-7.68707
▁мөнгө	-7.68802
▁ирэх	-7.69355
▁хувийн	-7.69745
▁үеэр	-7.69916
▁хамтран	-7.7083
даа	-7.70919
”	-7.71353
▁төлөө	-7.71798
▁дээд	-7.72021
▁маань	-7.72111
▁ажиллах	-7.72583
▁улаанбаатар	-7.72779
▁сэтгэл	-7.72937
▁ахуйн	-7.731
▁ман	-7.73762
▁хорооны	-7.73956
▁шөнөдөө	-7.74545
▁гадаад	-7.74565
▁хэмжээ	-7.74595
▁аль	-7.74703
▁хурлын	-7.75365
▁зах	-7.75507
▁гадна	-7.75517
▁минь	-7.75654
▁гаргасан	-7.75693
▁дэд	-7.75747
▁өгсөн	-7.76203
▁иргэдийн	-7.76323
▁боломжтой	-7.76496
▁ан	-7.77071
▁замын	-7.7743
▁дүүргийн	-7.77472
▁хүлээн	-7.77655
▁гаргаж	-7.78588
▁гарсан	-7.79114
▁байдлаар	-7.79562
▁хэсэг	-7.79965
▁хэмжээний	-7.80117
▁зөв	-7.80719
▁төгрөг	-7.81064
▁орны	-7.81275
▁ажлыг	-7.81574
▁метр	-7.81619
▁гэнэ	-7.81882
▁өргөн	-7.82058
!	-7.82114
▁өдрийн	-7.83499
▁цагт	-7.8355
▁төсвийн	-7.83588
ы	-7.8388
▁зүүн	-7.83998
▁хамт	-7.84011
▁үнэ	-7.84098
▁нутаг	-7.84179
▁тал	-7.84339
▁танд	-7.8457
▁а	-7.8538
▁байнгын	-7.85499
▁хүүхдийн	-7.85533
v	-7.85782
▁байгууллага	-7.85803
▁сард	-7.86043
▁4	-7.86045
▁сүүлийн	-7.86314
сан	-7.86728
▁өөрчлөлт	-7.86975
л	-7.87264
▁бэ	-7.8735
▁явж	-7.87621
▁хэлж	-7.87712
▁20	-7.8792
▁боломж	-7.88328
▁тэрбээр	-7.88339
▁байхад	-7.88507
▁5	-7.88697
▁үүнийг	-7.88803
▁ж	-7.88972
▁даа	-7.89139
▁зөвхөн	-7.89292
▁болоод	-7.8957
▁нам	-7.90441
▁тээврийн	-7.91055
▁таны	-7.91295
▁хэмжээг	-7.91329
▁нийтийн	-7.91554
▁байгуулах	-7.91621
▁бодлого	-7.91781
▁шаардлагатай	-7.91975
▁шийдвэр	-7.92428
ий	-7.92774
▁хот	-7.93272
▁хуульд	-7.9328
той	-7.93443
▁иргэн	-7.94312
▁тэрээр	-7.94611
▁мэдээ	-7.94947
▁ёс	-7.95125
▁оруулах	-7.95268
▁байвал	-7.95293
▁үүрэг	-7.95335
▁хамгаалах	-7.95496
▁гэхэд	-7.95987
▁үе	-7.96087
▁багш	-7.96156
▁т	-7.96432
▁нөхцөл	-7.96858
▁гэвч	-7.97384
▁компани	-7.97417
▁орчим	-7.97557
▁зээл	-7.97704
▁тэдний	-7.98372
▁нарын	-7.98415
▁өөрөө	-7.98491
▁дээрх	-7.98535
▁бидний	-7.98584
▁хэрхэн	-7.98685
▁хамтын	-7.98958
▁үзэж	-7.99084
▁болов	-7.99284
▁хэмжээнд	-7.99412
эд	-7.99433
▁гар	-7.99518
▁ану	-7.99625
▁мэргэжлийн	-7.99709
▁тэгвэл	-7.99843
▁аюулгүй	-8.00912
▁сонгуулийн	-8.01039
▁ирж	-8.01107
▁уран	-8.01159
▁болохоор	-8.01768
▁үеийн	-8.01791
▁анх	-8.02766
▁болгох	-8.02784
▁ер	-8.03247
▁дотор	-8.03254
▁яг	-8.03354
▁мэндийн	-8.03536
▁таван	-8.03906
▁зээлийн	-8.0407
▁гэмт	-8.04124
▁эсвэл	-8.04161
▁эхний	-8.04331
▁муу	-8.04398
▁сургуулийн	-8.04816
▁хариуцлага	-8.04924
▁болохгүй	-8.04948
▁өгч	-8.0511
▁секундэд	-8.05184
▁цагдаагийн	-8.05371
▁байдлыг	-8.05621
▁–	-8.05755
▁тоо	-8.06065
▁уул	-8.06219
▁холбогдох	-8.06375
▁залуу	-8.06496
▁2016	-8.06572
▁нас	-8.0684
ан	-8.06983
▁өгөх	-8.07077
▁байгууллагын	-8.0709
▁төгрөгийн	-8.07091
▁дулаан	-8.07222
дээ	-8.07679
▁хэлсэн	-8.08066
▁нэгдсэн	-8.08154
▁салхи	-8.08309
▁чи	-8.08566
▁үгүй	-8.08644
в	-8.08761
▁эхэлсэн	-8.08916
▁цагаан	-8.09267
▁харж	-8.09379
▁болжээ	-8.09447
▁ажиллагааны	-8.09636
▁чадахгүй	-8.09686
▁дөрвөн	-8.09702
▁санаа	-8.10157
▁ажиллагааг	-8.10318
▁тэгээд	-8.10544
даг	-8.10713
▁хүү	-8.11287
▁газраас	-8.11809
▁яагаад	-8.12066
▁11	-8.12446
▁байжээ	-8.12606
▁хүчин	-8.12751
▁дүгээр	-8.12808
▁сумын	-8.12851
▁хэргийн	-8.12996
▁анхны	-8.13055
▁6	-8.13182
▁дуу	-8.13324
▁төслийг	-8.14042
▁даргын	-8.14086
▁2017	-8.14293
▁байгуулж	-8.14628
▁ээ	-8.14634
▁хүчний	-8.14638
▁өмнөх	-8.15014
▁мэдээллийн	-8.15316
▁12	-8.15569
▁санхүүгийн	-8.15608
оо	-8.15843
▁байгаад	-8.15906
▁сургууль	-8.16036
▁салбарын	-8.163
▁орчин	-8.16408
▁тусгай	-8.16604
▁үүний	-8.16613
▁цэргийн	-8.16885
▁боловч	-8.17834
▁байдлын	-8.18031
▁хэл	-8.18055
▁эдгээр	-8.18119
▁7	-8.18159
▁гаргах	-8.18266
mn	-8.18396
▁хүрч	-8.18684
▁түүнчлэн	-8.18922
▁үүнээс	-8.18927
▁компанийн	-8.19083
▁шууд	-8.19122
▁намайг	-8.19157
▁бүс	-8.19267
▁боллоо	-8.19334
▁ярьж	-8.19484
▁энд	-8.19794
▁100	-8.20136
▁газарт	-8.20442
▁нарийн	-8.20536
▁болгож	-8.20739
▁эд	-8.21553
на	-8.21729
▁ус	-8.22005
▁цаашид	-8.22308
▁хэд	-8.2253
▁гишүүд	-8.22812
▁нөгөө	-8.22873
▁онцгой	-8.22908
▁мал	-8.22954
▁2015	-8.23129
▁30	-8.23492
▁ганц	-8.23496
▁бодож	-8.23661
▁явдал	-8.23723
▁эсрэг	-8.23729
▁тухайлбал	-8.23744
▁2018	-8.23837
▁биз	-8.24118
ууд	-8.24197
▁оруулж	-8.24198
▁болгон	-8.24262
▁хэрэгжүүлэх	-8.24483
▁сангийн	-8.24494
▁төслийн	-8.24518
▁барьж	-8.24586
▁хүч	-8.24732
▁э	-8.24828
▁долоо	-8.25
▁ингэж	-8.2514
▁байгуулсан	-8.25154
▁хувийг	-8.25305
м	-8.25531
▁сар	-8.25616
▁олж	-8.25986
▁оху	-8.26082
▁агаарын	-8.26575
▁орсон	-8.26673
▁ашиг	-8.267
▁гэрээ	-8.27548
▁з	-8.27584
▁шаардлага	-8.27654
▁хүйтэн	-8.2794
▁жилд	-8.28108
▁төрлийн	-8.28194
▁он	-8.28559
▁яаж	-8.28641
▁эмэгтэй	-8.29072
▁төмөр	-8.29117
▁баримт	-8.29592
▁салбарт	-8.29618
▁гарах	-8.2982
▁үл	-8.2999
▁ерөнхийлөгчийн	-8.30243
▁оролцож	-8.30511
▁8	-8.30905
▁хувиар	-8.30989
▁оноос	-8.3103
▁хугацаа	-8.31096
▁эрчим	-8.31207
s	-8.31374
▁надад	-8.31496
▁хүлээж	-8.31737
▁насны	-8.31856
▁хурал	-8.32057
▁болдог	-8.32101
▁эмч	-8.32346
▁ил	-8.32382
оор	-8.32784
▁настай	-8.3303
▁явсан	-8.33564
▁тавьж	-8.33578
▁хоногийн	-8.33691
▁хүнийг	-8.33747
▁ингээд	-8.3385
▁сэтгэгдэл	-8.34224
▁мэдээллийг	-8.34249
▁хороо	-8.34256
▁албаны	-8.34466
▁томоохон	-8.34495
▁баяр	-8.34647
▁ххк	-8.34774
▁хооронд	-8.34814
▁бүгд	-8.35019
ц	-8.3516
▁үнэн	-8.35397
▁ажээ	-8.35519
▁шинээр	-8.35523
и	-8.35787
▁чиглэлээр	-8.35864
▁сонин	-8.35878
▁салбар	-8.36256
▁нэмэлт	-8.36327
▁явах	-8.36348
▁захирал	-8.36424
▁хаан	-8.37011
▁банкны	-8.37124
▁хэлбэл	-8.37324
аад	-8.37528
▁аварга	-8.37531
▁худалдан	-8.37667
▁хүмүүсийн	-8.37797
оос	-8.37807
▁тэгэхээр	-8.38656
▁бодлогын	-8.38679
▁бичсэн	-8.38726
▁рүү	-8.38812
▁ш	-8.3882
▁алга	-8.38909
ш	-8.3893
▁эцэг	-8.38998
▁бичиг	-8.39103
▁о	-8.3946
▁төвийн	-8.39641
▁өөрийгөө	-8.39935
▁гэвэл	-8.39988
▁хойд	-8.40043
▁баг	-8.40116
▁гэлээ	-8.40143
▁хангах	-8.40283
▁сан	-8.40375
▁улам	-8.404
▁зураг	-8.40472
▁байгаль	-8.40546
▁өөрөөр	-8.40666
▁банк	-8.40805
▁буруу	-8.41035
▁сайдын	-8.41092
монгол	-8.41178
▁шүүх	-8.41238
▁эр	-8.4128
▁толгой	-8.4137
...	-8.41619
▁ардчилсан	-8.41638
▁like	-8.41685
▁дүн	-8.41775
▁гэв	-8.41876
▁монголд	-8.41919
▁9	-8.41948
▁15	-8.42066
▁аваад	-8.42262
▁ач	-8.42274
▁цахим	-8.42348
з	-8.42382
▁хотод	-8.42434
▁дэмжих	-8.42461
▁гал	-8.42664
▁ийнхүү	-8.42737
▁эхлээд	-8.43085
▁цагийн	-8.43119
▁у	-8.43172
▁хөтөлбөр	-8.43335
хан	-8.43612
▁50	-8.44475
▁хяналт	-8.44539
▁дор	-8.44589
▁оронд	-8.44612
▁үнэхээр	-8.44941
хаа	-8.45409
▁хэвлэл	-8.45694
▁тогтвортой	-8.45702
▁холбооны	-8.45732
▁түр	-8.45752
▁хөдөө	-8.45892
▁хэсгээр	-8.46127
би	-8.46307
▁явуулж	-8.46429
▁түүнээс	-8.46698
▁үйлдвэрийн	-8.47114
▁үзэл	-8.47124
▁удаагийн	-8.47247
▁аймаг	-8.47726
▁барих	-8.47785
▁хэзээ	-8.48154
▁хуулийг	-8.48337
▁хэрэв	-8.48363
▁харилцаа	-8.48428
ид	-8.48561
наас	-8.48612
▁хоол	-8.48821
▁аймгуудын	-8.48862
▁үйлдвэр	-8.48909
▁зүгээс	-8.49006
▁алба	-8.49044
▁өглөө	-8.49196
▁голын	-8.4979
о	-8.50195
▁цахилгаан	-8.50596
▁тохиолдолд	-8.50831
▁хятадын	-8.50948
▁соёл	-8.51115
▁үйлчилгээ	-8.5117
▁р	-8.51239
▁дээрээ	-8.51342
гүйгээр	-8.51525
▁урт	-8.51577
▁холбоо	-8.5161
▁тэргүүн	-8.51926
▁амь	-8.51948
▁монголчууд	-8.52406
▁зорилгоор	-8.52452
▁бнхау	-8.5247
▁бүрийн	-8.52562
▁яам	-8.52607
▁орох	-8.52622
▁асуудлаар	-8.52671
▁авто	-8.52752
▁магадгүй	-8.53024
▁оролцсон	-8.5358
▁боловсролын	-8.53663
▁п	-8.53888
▁хөгжүүлэх	-8.539
▁үйлчилгээний	-8.53975
▁хяналтын	-8.54112
сэн	-8.54229
▁дэх	-8.54423
▁охин	-8.54962
▁цас	-8.54976
▁ажлаа	-8.55021
▁төгрөгөөр	-8.55024
▁иргэний	-8.55038
▁урьдчилан	-8.55203
▁гарын	-8.55218
▁бичгийн	-8.55234
▁бүхэн	-8.55369
▁зүйлийг	-8.5558
▁бараг	-8.55606
▁зүй	-8.55671
б	-8.558
▁уурхайн	-8.55844
▁тун	-8.559
▁ээж	-8.56243
▁2014	-8.56287
▁жишээ	-8.56576
▁шүүхийн	-8.56724
▁жижиг	-8.56764
▁бүтээгдэхүүн	-8.56892
▁барилгын	-8.56935
▁улаан	-8.5694
▁нэмэгдүүлэх	-8.57077
▁олгох	-8.571
▁бизнес	-8.57196
▁түүнд	-8.57206
▁14	-8.57409
▁барилга	-8.57519
▁бэлэн	-8.57544
▁нийгэм	-8.57666
лан	-8.57824
▁аав	-8.57918
▁шилдэг	-8.57921
▁тавьсан	-8.58362
▁түмэн	-8.58385
▁бололтой	-8.58524
▁нутагт	-8.58539
лаа	-8.58714
▁хэрэгжүүлж	-8.58787
▁үүнд	-8.58824
▁сонгуульд	-8.58896
од	-8.59283
▁таалагдаж	-8.59362
▁хэлэлцэх	-8.59459
▁амжилттай	-8.60035
▁хятад	-8.60212
▁эзэн	-8.60215
▁байгууллагууд	-8.60937
▁дэлхий	-8.61098
▁гүйцэтгэх	-8.61105
▁шинжлэх	-8.61261
бат	-8.61366
▁эрхийг	-8.61381
▁гэдгээ	-8.61455
уул	-8.61623
▁судалгаа	-8.61874
▁боломжгүй	-8.6233
▁улмаас	-8.62358
▁үзүүлэх	-8.62477
▁татвар	-8.62619
▁өмнөд	-8.62655
▁бууруулах	-8.62662
▁худалдаа	-8.63082
▁ихэнх	-8.63287
▁сэргийлэх	-8.63354
үүд	-8.63372
▁адил	-8.63383
▁амжилт	-8.63946
▁амьдрал	-8.63958
▁иргэдэд	-8.63983
гаа	-8.64006
▁ном	-8.64497
▁боловсрол	-8.64512
▁болохыг	-8.64736
▁мэдээж	-8.64895
▁18	-8.6496
▁татварын	-8.6496
▁тавих	-8.65047
▁бодит	-8.65072
▁нэгж	-8.65176
▁яах	-8.65237
▁талын	-8.6528
▁багийн	-8.65431
▁кино	-8.6546
▁аргагүй	-8.65475
▁хөдөлмөрийн	-8.65476
▁ажилласан	-8.65508
▁хийгээд	-8.65566
▁ухаан	-8.65591
▁аялал	-8.65798
▁өмнөөс	-8.65833
▁заасан	-8.65894
▁дэмжиж	-8.65922
▁ухааны	-8.6605
▁суурь	-8.66184
▁хэргийг	-8.66301
▁эрхтэй	-8.66401
▁шалтгаан	-8.66489
▁хийдэг	-8.66591
эн	-8.66772
▁үзсэн	-8.66775
▁улмаар	-8.66923
▁өнөөдрийн	-8.67094
▁зөрчсөн	-8.67184
▁эрүүгийн	-8.67308
▁ах	-8.67538
vv	-8.6757
▁хийгээрэй	-8.67626
▁ирээд	-8.67671
▁хэр	-8.67761
▁тонн	-8.67823
өө	-8.67911
▁орохгүй	-8.68179
▁кг	-8.68345
▁хэсгийн	-8.6844
▁шатны	-8.68487
▁хүнсний	-8.68552
▁замаар	-8.68658
▁хүрсэн	-8.68666
▁сууж	-8.68863
▁мэдэх	-8.69068
▁ардын	-8.69144
▁аливаа	-8.69191
▁төрсөн	-8.69293
▁нэгдүгээр	-8.6951
▁16	-8.6956
жээ	-8.69605
▁зургаан	-8.70097
▁байгаагаа	-8.70135
▁хэмээх	-8.70146
▁худалдааны	-8.70306
▁хэт	-8.7031
▁яваа	-8.70639
▁км	-8.70652
▁бороо	-8.70841
▁найз	-8.70866
▁оролцох	-8.71051
▁яриа	-8.71108
▁орлого	-8.71225
▁талаас	-8.71298
▁эм	-8.71414
эрдэнэ	-8.71425
▁сөрөг	-8.71505
▁орно	-8.71579
▁эмнэлгийн	-8.71775
▁гадаадын	-8.71896
▁хан	-8.71974
▁хөл	-8.72204
▁амьдарч	-8.72256
▁дэмжлэг	-8.72564
▁байдалд	-8.72659
▁ял	-8.72671
▁дотоод	-8.72716
▁машин	-8.7278
▁цагаас	-8.72985
▁хөгжил	-8.73053
▁тэнд	-8.73073
▁аа	-8.73098
▁хүчтэй	-8.73161
▁авдаг	-8.73214
▁40	-8.73233
▁газрыг	-8.73352
▁25	-8.73592
▁бидэнд	-8.7375
▁мянга	-8.73873
чин	-8.73933
▁шар	-8.7398
▁очиж	-8.74204
▁үлдсэн	-8.74224
▁сайжруулах	-8.74252
▁хэрэгт	-8.74275
▁эхлэн	-8.74388
▁байхыг	-8.74498
▁хүүхдүүд	-8.74517
▁яамны	-8.75115
▁хэлэх	-8.75142
▁шударга	-8.75342
▁оруулалт	-8.75486
▁ахуй	-8.75492
▁спортын	-8.75542
▁авна	-8.75618
▁алтан	-8.75683
▁сум	-8.75727
▁огт	-8.76012
▁усны	-8.76022
▁япон	-8.76087
▁хатуу	-8.76241
▁ажиллагаанд	-8.76339
▁ногоон	-8.76379
▁бай	-8.76532
▁эргэн	-8.76638
▁бүтээн	-8.76645
▁хоног	-8.76742
▁азийн	-8.76758
▁бүлгийн	-8.76805
▁тусламж	-8.76917
▁хэдий	-8.76981
▁түмний	-8.77017
▁хэрвээ	-8.77057
▁мэдэхгүй	-8.77256
й	-8.77886
▁мөнгөн	-8.77903
энэ	-8.78017
▁17	-8.78193
▁дүнд	-8.78215
▁газраар	-8.78279
▁айл	-8.7848
▁ёсны	-8.78684
▁хол	-8.78867
▁одоогийн	-8.78892
▁өвчин	-8.78975
▁одоогоор	-8.79143
▁13	-8.79475
▁тэмцэх	-8.79643
▁саналыг	-8.79667
▁ашиглах	-8.79778
▁60	-8.7985
▁мэнд	-8.80149
▁уур	-8.80257
▁тодруулбал	-8.80328
▁мэдээллээ	-8.80404
энхболд	-8.80638
▁дээш	-8.80668
▁ажилладаг	-8.80723
▁түүх	-8.80753
▁нийтэд	-8.8089
▁гурав	-8.80893
▁оросын	-8.81216
▁бэлтгэл	-8.81252
▁холбогдуулан	-8.81345
▁зөвлөлийн	-8.81351
▁нээлттэй	-8.81398
ь	-8.81426
▁ажилд	-8.81448
▁хийнэ	-8.81726
▁хандаж	-8.81884
▁бүлийн	-8.81971
▁удирдах	-8.8222
▁ёсоор	-8.82267
▁бүлэг	-8.82584
▁хэцүү	-8.82589
▁хөдөлмөр	-8.82752
▁арван	-8.83113
▁the	-8.8328
▁нэлээд	-8.83333
▁хайр	-8.83346
гаар	-8.83418
▁болгосон	-8.83466
▁байсныг	-8.835
▁гэдэгт	-8.83567
▁зан	-8.83752
▁захиргааны	-8.83784
өөр	-8.8379
▁21	-8.84115
ав	-8.8413
▁зүгээр	-8.8444
▁сурвалж	-8.845
▁бүү	-8.84889
▁зорилго	-8.84939
▁хариу	-8.85006
▁заавал	-8.85097
▁баян	-8.85148
▁байнга	-8.85195
▁хүртэлх	-8.85217
▁ангийн	-8.8539
▁соёлын	-8.8543
▁журмын	-8.85451
▁турш	-8.85502
▁мах	-8.85525
▁даатгалын	-8.85586
▁хоёрдугаар	-8.85731
▁ар	-8.85747
▁цэвэр	-8.85814
ах	-8.85875
▁тод	-8.85957
▁дараагийн	-8.86005
▁явдаг	-8.86018
▁нийслэл	-8.86023
долларын	-8.86107
▁төвд	-8.86111
▁бараа	-8.86125
▁өөрийнхөө	-8.86279
▁харилцан	-8.86312
▁үсэг	-8.86338
▁ялангуяа	-8.86341
▁боломжийг	-8.86406
▁хэсэгт	-8.86609
▁в	-8.86804
▁өөртөө	-8.87106
▁амьдралын	-8.87188
▁га	-8.87455
▁давхар	-8.87458
▁байхдаа	-8.87673
▁ингэснээр	-8.87853
▁хуралдаанаар	-8.87925
▁эсэх	-8.881
э	-8.88115
▁цалин	-8.88444
▁уулзалт	-8.88454
▁шийдвэрлэх	-8.88468
▁гишүүдийн	-8.88615
▁бүтээл	-8.88809
▁халуун	-8.8889
▁нууц	-8.88952
▁хүргэж	-8.89003
▁2012	-8.89082
▁чуулганы	-8.89529
▁хэллээ	-8.8953
▁дүгнэлт	-8.89562
▁явуулах	-8.89686
▁байгалийн	-8.89738
▁эрхэм	-8.89814
▁зүйтэй	-8.90017
▁хэрэггүй	-8.90099
▁тань	-8.90285
▁нарыг	-8.90467
▁чиг	-8.90681
сон	-8.90694
▁хурдан	-8.90726
▁шалгаж	-8.90781
▁сонирхолтой	-8.90854
▁тамирчин	-8.90874
▁оруулсан	-8.90961
▁гомдол	-8.90979
▁боловсруулах	-8.91084
▁байгуулалтын	-8.91174
▁батлан	-8.91283
▁чанар	-8.91443
▁дотоодын	-8.9149
▁шинж	-8.91676
дэг	-8.91849
▁1-	-8.91851
▁хүссэн	-8.91935
▁бөхийн	-8.92435
▁талд	-8.92476
▁дуртай	-8.92596
▁түвшинд	-8.92902
▁ноён	-8.92982
▁байгаагүй	-8.93062
▁2013	-8.93097
▁хоногт	-8.93104
▁амьдрах	-8.93251
▁тэднийг	-8.93333
▁сургалт	-8.93387
хээ	-8.93414
▁биеийн	-8.93526
лах	-8.93598
▁мэдэж	-8.93819
▁нөөц	-8.93882
▁эцсийн	-8.93907
▁анхаарал	-8.93922
▁долоон	-8.93966
▁итгэл	-8.94006
▁төдийгүй	-8.94308
▁сургалтын	-8.94322
▁чадах	-8.94332
▁ур	-8.94481
▁удаан	-8.94483
▁хөрөнгийн	-8.94598
▁зүйлийн	-8.94611
▁бүл	-8.94857
▁орос	-8.94894
их	-8.94941
▁алдсан	-8.9496
▁сайт	-8.94988
ин	-8.95025
▁технологийн	-8.95076
▁сургуульд	-8.95097
▁өр	-8.95287
▁ашигтай	-8.95353
▁үзэх	-8.95367
▁гэрэл	-8.95667
▁эрхийн	-8.95669
▁өчигдөр	-8.95705
▁хур	-8.95905
доллар	-8.96019
▁талаарх	-8.96141
эх	-8.96185
▁японы	-8.96335
▁элчин	-8.9641
▁аз	-8.96493
▁баталсан	-8.96496
▁хуулиар	-8.96641
▁чадвар	-8.96691
▁зээлд	-8.96694
▁мод	-8.96777
▁70	-8.96977
▁олны	-8.97036
▁үедээ	-8.97352
▁тамгын	-8.97495
▁өдрүүдэд	-8.97563
▁тэмцээнд	-8.97627
▁баярлалаа	-8.97872
▁эргэж	-8.97928
▁сууцны	-8.98001
▁хоорондын	-8.9805
▁эв	-8.9811
▁махн	-8.98136
▁бүсгүй	-8.98143
▁чадсан	-8.98188
▁хааны	-8.9819
▁нүб	-8.98196
▁өгнө	-8.98291
вал	-8.98378
▁өөрсдөө	-8.98402
▁таныг	-8.98418
уудыг	-8.98436
▁нэн	-8.98508
▁цэрэг	-8.98573
▁хугацааны	-8.98705
▁за	-8.98723
▁дүү	-8.98724
▁наадмын	-8.98791
▁найман	-8.98903
гээр	-8.99101
хэн	-8.99129
▁ойлгож	-8.99134
▁ойр	-8.99181
▁24	-8.99249
▁v	-8.99266
▁бичихдээ	-8.99375
▁хөтөлбөрийн	-8.99442
▁урлагийн	-8.99478
▁мөнгийг	-8.99734
▁харах	-8.99742
▁өөрсдийн	-8.99804
▁чөлөөт	-8.99815
▁үнэтэй	-8.9982
▁төсөв	-8.99864
он	-8.99865
▁бөх	-8.99936
▁ой	-9.00019
▁мэдүүлсэн	-9.00149
▁талбайд	-9.00185
▁гуравдугаар	-9.00224
▁асан	-9.00316
▁эхлэх	-9.00356
▁оршин	-9.00417
▁хаана	-9.00637
▁танхимд	-9.00652
▁хуралдаан	-9.00697
▁тогтоох	-9.00899
▁бүтэн	-9.01067
▁дүр	-9.0112
▁гэхээр	-9.01147
▁оруулалтын	-9.01175
▁нөлөө	-9.015
▁аймагт	-9.01508
▁хойноос	-9.01654
▁байгууллагад	-9.01717
▁судалгааны	-9.01881
▁бүхнийг	-9.02028
▁www	-9.02068
гээ	-9.02136
▁европын	-9.02277
▁утас	-9.02465
▁сав	-9.02581
▁асуудалд	-9.02627
▁техник	-9.02714
▁хий	-9.02735
та	-9.02761
▁өнөөгийн	-9.02957
▁үйлдэл	-9.0309
аараа	-9.03194
▁хөх	-9.03211
▁болзошгүй	-9.03286
▁хүмүүст	-9.03312
▁учиртай	-9.0341
▁хор	-9.03502
▁бат	-9.03721
▁мэднэ	-9.03949
▁энгийн	-9.04052
▁устгах	-9.04137
▁чадна	-9.04211
▁гэжээ	-9.04219
▁янз	-9.04219
▁минут	-9.04225
▁үзүүлж	-9.04295
▁хүмүүсийг	-9.04347
▁зөрчил	-9.0455
▁хэвлэлийн	-9.04639
▁ажилтан	-9.04655
доо	-9.04719
▁бүтээгдэхүүний	-9.04721
▁тав	-9.04759
▁тогтоолын	-9.04821
нээс	-9.04937
▁өссөн	-9.05011
2	-9.05098
▁бодол	-9.05116
▁хувцас	-9.05145
▁морь	-9.05363
▁үздэг	-9.05426
▁ашиглаж	-9.05457
▁нарт	-9.05531
▁хүсэл	-9.05593
▁тохиолдол	-9.05609
▁оюутан	-9.05641
▁мөнгөний	-9.05746
▁5-10	-9.05847
▁амиа	-9.05983
▁хүлээхгүй	-9.06007
▁хагас	-9.06289
▁хэрэгсэл	-9.06323
▁хөтөлбөрийг	-9.06417
▁ихээхэн	-9.06422
ар	-9.06422
▁хуучин	-9.06445
▁эл	-9.06668
к	-9.06719
▁үйлчилгээг	-9.06983
▁зуун	-9.07131
▁дараах	-9.07244
▁ярих	-9.07357
▁явна	-9.07367
▁жинхэнэ	-9.07371
ал	-9.07498
▁хэлэхэд	-9.07536
▁үнэт	-9.07644
▁нүүр	-9.07693
▁иймд	-9.077
▁барьсан	-9.07805
▁төлбөр	-9.07839
▁орой	-9.07889
▁батлах	-9.07938
▁харамсалтай	-9.08064
▁арай	-9.08229
▁эс	-9.08241
▁сүхбаатар	-9.08289
▁чингис	-9.08389
▁хараад	-9.08597
▁эцэст	-9.08624
▁нөхөн	-9.08631
▁уулзалтын	-9.08708
▁төсөвт	-9.08719
▁нэмж	-9.08918
▁татаж	-9.08988
▁шийдвэрийг	-9.0903
▁асар	-9.09089
▁харилцааны	-9.09119
▁хүнс	-9.09147
е	-9.09618
▁харахад	-9.09636
▁дамжуулан	-9.09753
▁19	-9.09807
▁маргааш	-9.09832
▁амын	-9.09864
▁мэдлэг	-9.09893
▁хэлэлцэж	-9.09912
▁уншигчдын	-9.09952
▁боддог	-9.09957
▁үйлдвэрлэл	-9.0997
▁бизнесийн	-9.10036
▁тоглолт	-9.10079
▁эрэгтэй	-9.10118
▁медаль	-9.1023
▁өгдөг	-9.10305
өөс	-9.10519
▁гараад	-9.10598
▁сонгууль	-9.10619
▁0	-9.1062
▁өнгө	-9.10704
▁дэлхийд	-9.1071
▁нэмэгдэж	-9.10756
▁орчны	-9.10793
▁номын	-9.10912
▁төлөөлөгч	-9.1124
▁биеэ	-9.11447
1	-9.119
▁атг	-9.11944
▁уулзаж	-9.12201
▁бүрт	-9.12277
▁нүүрс	-9.12301
▁суух	-9.12332
▁хил	-9.1247
▁элдэв	-9.12525
гаас	-9.1267
▁жүжигчин	-9.12715
▁таатай	-9.12726
▁залуус	-9.12814
▁хүсч	-9.12973
я	-9.13037
5	-9.13148
▁80	-9.13195
▁байранд	-9.1328
▁анхаарч	-9.13317
▁хорих	-9.13369
нэ	-9.13375
▁сэтгэгдэлд	-9.13437
▁хэлээд	-9.13476
▁алт	-9.13488
▁төрөл	-9.13683
▁тайван	-9.1375
▁ажиллана	-9.13804
▁жолооч	-9.13867
▁шуурхай	-9.13867
▁чиглэлийн	-9.13991
▁говийн	-9.14147
▁тос	-9.1415
▁шалгалт	-9.14272
▁иргэдийг	-9.14391
▁давуу	-9.14419
▁тоног	-9.14471
▁төсөлд	-9.14484
▁хуралд	-9.14537
▁удирдлагын	-9.14547
▁хэрэглэх	-9.14643
▁дархан	-9.14722
▁нүүрсний	-9.14897
▁зардал	-9.15029
▁ойн	-9.15129
▁цагдаа	-9.15281
▁нөхөр	-9.15476
▁200	-9.1575
▁татах	-9.15756
▁харилцах	-9.15785
▁хийхэд	-9.15816
▁асуулт	-9.15972
▁эхнэр	-9.16024
▁хүрэх	-9.16025
▁ээлжит	-9.16045
чих	-9.16184
▁сул	-9.16202
▁бусдын	-9.16397
ээд	-9.16415
▁байхаар	-9.16516
▁гэртээ	-9.16531
▁эрс	-9.16559
▁нүд	-9.16575
▁зориулсан	-9.16577
▁чадаагүй	-9.16893
▁эхэлж	-9.16964
▁нэртэй	-9.17033
▁үүднээс	-9.17059
▁алдаа	-9.17094
▁яваад	-9.17155
▁тэмцээн	-9.17236
▁саяхан	-9.17438
▁ярьсан	-9.17589
▁хэлтсийн	-9.17625
▁компаниуд	-9.17629
▁архи	-9.17651
▁6-11	-9.17743
▁эерэг	-9.17803
▁хамтарсан	-9.17888
лж	-9.179
▁цэцэрлэг	-9.17917
▁ороод	-9.18021
▁ахмад	-9.18137
▁хаа	-9.1822
▁хэлэлцүүлэг	-9.18258
▁гардаг	-9.18304
▁ханш	-9.18313
▁үргэлж	-9.18517
▁замыг	-9.18619
▁удирдлагууд	-9.18679
▁урд	-9.18816
▁хамтарч	-9.18868
▁орчинд	-9.18928
▁малын	-9.18986
▁зүрх	-9.19124
▁и	-9.19135
ил	-9.19157
▁дүүрэг	-9.19181
▁амьд	-9.19196
▁22	-9.19619
▁талбай	-9.19637
▁шийдэх	-9.1975
▁тэмдэг	-9.19918
▁эмнэлэг	-9.19945
▁зөвлөх	-9.20001
лаад	-9.2002
▁баялаг	-9.20033
▁анги	-9.20092
▁тайлбар	-9.20136
▁шагнал	-9.20243
▁солонгосын	-9.20256
▁гүн	-9.20294
▁түүхий	-9.20306
▁богино	-9.20355
▁зочид	-9.20409
▁жилүүдэд	-9.20619
▁бурхан	-9.20726
▁1.	-9.20839
▁удирдлага	-9.20845
саар	-9.20954
d	-9.21097
▁хөвсгөл	-9.21265
▁нохой	-9.2142
▁наадам	-9.21512
▁зорилготой	-9.2176
▁хариуцсан	-9.21844
▁улсаас	-9.21917
лэн	-9.21942
▁залуучуудын	-9.21961
▁мэдэгдсэн	-9.21985
▁хэвээр	-9.22009
▁спорт	-9.22054
▁шинжилгээний	-9.22165
▁танай	-9.22511
▁27	-9.22611
▁ор	-9.22678
▁хангаж	-9.22685
▁нийгэмд	-9.22771
▁алхам	-9.2278
▁нэрийг	-9.22875
▁төлөх	-9.23194
▁уулархаг	-9.23225
▁ирлээ	-9.23389
▁сууц	-9.23549
▁хорооллын	-9.23679
▁төлөвлөж	-9.2388
▁мөрдөн	-9.23961
▁туслах	-9.24032
▁хог	-9.24125
▁амьдралд	-9.24168
▁идэвхтэй	-9.24219
чид	-9.24237
▁орнуудын	-9.24287
▁холбогдолтой	-9.2429
▁валютын	-9.24314
▁тогтоосон	-9.24459
▁бүтэц	-9.24461
▁даргаар	-9.24653
▁шуурга	-9.24715
▁журам	-9.24838
▁хангалттай	-9.24884
▁ярьдаг	-9.24886
▁сэтгэлийн	-9.24971
▁төлөөлөл	-9.24978
▁2.	-9.25027
▁хүрэл	-9.25062
▁тэдэнд	-9.25321
▁зохицуулах	-9.25332
▁ашиглалтад	-9.25336
▁жуулчлалын	-9.25357
▁шигшээ	-9.25467
▁онцлог	-9.25644
▁зөвшөөрөл	-9.2567
▁туршлага	-9.25735
▁чаддаг	-9.25947
▁ашгийг	-9.26
▁чанартай	-9.26083
0	-9.26291
▁олимпийн	-9.26395
▁амьтан	-9.26398
▁лам	-9.26408
тайгаа	-9.26465
▁орлогч	-9.26492
▁анхааруулга	-9.26612
▁хэмжээгээр	-9.26612
▁тусгаар	-9.26625
▁хуралдаанд	-9.26775
▁бар	-9.2678
▁удахгүй	-9.26788
▁суртахууны	-9.26825
чи	-9.26853
▁үгийг	-9.26933
▁эрдэм	-9.27148
▁ширхэг	-9.27148
▁хилийн	-9.27395
уудын	-9.27425
▁ирнэ	-9.27465
▁хөтөлбөрт	-9.27558
▁хэрэглэж	-9.27679
▁гэнэт	-9.27796
▁байгуулагдсан	-9.27804
▁даваа	-9.27892
▁өнөө	-9.27929
▁бүрдүүлэх	-9.28007
▁технологи	-9.28007
▁нөхцөлд	-9.2812
▁тушаал	-9.28166
▁бнсу	-9.28215
▁зэрэгцээ	-9.28381
▁олсон	-9.28382
▁хичээл	-9.28422
▁хэдийгээр	-9.28489
▁бичиж	-9.28529
▁тухайд	-9.28562
▁зөвлөл	-9.2858
▁амар	-9.28668
▁худалдаж	-9.28775
▁бүсийн	-9.28778
▁дүнтэй	-9.28883
▁жаахан	-9.28898
▁түгээх	-9.28898
▁хүүхдийг	-9.28923
▁өрхийн	-9.28975
▁биднийг	-9.29062
▁заалт	-9.29178
▁түүхэн	-9.29278
▁бэрхшээлтэй	-9.29311
▁оюун	-9.29344
▁ганцхан	-9.29447
▁23	-9.29494
▁утга	-9.29599
▁бичих	-9.29615
▁хүргэх	-9.29639
но	-9.29696
ээрээ	-9.29701
▁хороонд	-9.29808
▁олох	-9.29854
▁нисэх	-9.29939
▁тэгш	-9.30009
▁дуучин	-9.30033
▁тусгасан	-9.30062
▁говь	-9.30077
▁баянзүрх	-9.30088
▁хэвийн	-9.30089
▁олгож	-9.30112
▁шат	-9.30146
▁засагт	-9.30169
▁ихтэй	-9.30209
аж	-9.30232
▁төрөөс	-9.30247
▁зуур	-9.30292
▁оноо	-9.30294
▁чиглэл	-9.30348
▁ази	-9.3041
▁of	-9.30581
▁тавдугаар	-9.30593
▁шөнө	-9.30616
▁хайртай	-9.30717
аасаа	-9.30836
▁бэлтгэх	-9.30854
3	-9.30935
▁90	-9.30975
▁мэддэг	-9.31078
▁уулын	-9.31165
▁хэсгийг	-9.31241
▁хүүхдээ	-9.3125
▁хатан	-9.31359
▁усан	-9.31376
▁байгуулалт	-9.31735
▁зэргийг	-9.31836
▁харагдаж	-9.31838
▁өдөрт	-9.31872
▁500	-9.322
▁суугаа	-9.32238
▁харсан	-9.32308
▁3.	-9.32384
▁яаралтай	-9.32392
▁гоо	-9.32417
▁сонгон	-9.3243
▁ажиллагаагаа	-9.32517
▁дүнг	-9.32626
▁дээрээс	-9.32626
▁парламентын	-9.32637
▁айлын	-9.32678
▁урьдчилсан	-9.32681
▁эрт	-9.32715
▁эсэхийг	-9.32734
▁гарган	-9.33036
▁зайлшгүй	-9.3322
▁агаар	-9.33315
▁төгрөгийг	-9.33389
▁дүүрэн	-9.33434
▁үүссэн	-9.33524
▁тэгж	-9.33542
▁явцад	-9.33559
ган	-9.33668
▁байдалтай	-9.33783
▁бусаар	-9.33883
▁эмэгтэйчүүдийн	-9.33891
▁далайн	-9.33972
▁утсаар	-9.34247
▁өсөлт	-9.34559
▁дөрөвдүгээр	-9.34647
▁хөдөлгөөний	-9.34655
▁ашигт	-9.34733
▁америкийн	-9.34823
лэх	-9.34856
▁нэгэнт	-9.35034
▁солонгос	-9.35082
▁урьд	-9.35089
▁шалгах	-9.35166
▁дэвшигч	-9.35196
▁төрд	-9.35264
▁уурхай	-9.356
▁мөрийн	-9.35611
▁админ	-9.35733
i	-9.35756
▁үнэндээ	-9.3577
▁саналаа	-9.3584
▁ирдэг	-9.35901
a	-9.35972
▁бэлэг	-9.36003
▁хэрэгжиж	-9.36026
▁хариулт	-9.36056
▁илэрхийлж	-9.36079
▁хэв	-9.36123
▁бүгдийг	-9.36197
▁бодлогыг	-9.36251
▁ойрын	-9.36252
▁тэмцээний	-9.36396
▁манайд	-9.36427
▁яриад	-9.36429
▁мэргэжилтнүүд	-9.36471
▁дахиад	-9.36538
▁үүлшинэ	-9.36621
▁нээж	-9.36632
▁байгууллагаас	-9.36896
▁үнийн	-9.36907
▁зэргийн	-9.36964
▁ид	-9.3697
▁чиглэлд	-9.36982
▁эрхлэх	-9.36991
▁хувьтай	-9.36997
▁систем	-9.37236
▁байрны	-9.37256
▁өдрөөс	-9.37267
▁тогтмол	-9.37276
▁нэмэгдсэн	-9.37347
▁техникийн	-9.37387
▁дотроо	-9.37444
▁зохисгүй	-9.37453
▁цааш	-9.37476
▁өрөө	-9.3765
лээ	-9.37704
▁ихээр	-9.37789
▁гэрийн	-9.37972
▁ө	-9.37974
▁төлөвлөгөө	-9.37985
▁тунадас	-9.38032
▁сонгох	-9.38143
▁аргаар	-9.38157
▁ахлах	-9.38245
▁үүнтэй	-9.3828
▁олгосон	-9.3833
▁ойлголт	-9.38446
баттулга	-9.38594
▁хамаагүй	-9.38666
▁хүндэтгэнэ	-9.38855
▁суманд	-9.38982
▁хязгаарласан	-9.39078
▁өмчийн	-9.39096
▁хөдөлгөөн	-9.392
▁наяд	-9.39214
жин	-9.39215
▁үүлтэй	-9.39331
▁өдрийг	-9.39494
▁иймээс	-9.39662
▁баярын	-9.39692
анд	-9.39731
▁гудамж	-9.3977
▁гарна	-9.39927
▁дэргэд	-9.39951
▁шүүхэд	-9.39973
▁хөнгөн	-9.40042
▁итгэлтэй	-9.40056
▁осол	-9.40058
▁өөрчлөх	-9.40099
▁боловсруулж	-9.40198
▁тооцоо	-9.40327
▁мэтээр	-9.40353
▁хэлэв	-9.40391
▁сараас	-9.40615
сээр	-9.40678
▁есөн	-9.4068
▁бор	-9.40685
▁тамхи	-9.408
▁эмнэлэгт	-9.4085
▁анхаарах	-9.40904
▁хэлбэрээр	-9.40942
▁орлогын	-9.40984
▁амьдардаг	-9.41096
▁эхэллээ	-9.41104
▁гавьяат	-9.41354
▁холбоотойгоор	-9.4142
▁өдгөө	-9.41468
▁байгууллагуудын	-9.4147
000	-9.41506
▁a	-9.41701
өд	-9.41738
▁урлаг	-9.41785
▁зөвлөгөө	-9.41931
▁зэргээр	-9.4198
▁давж	-9.42037
▁гишүүний	-9.42148
▁байдаггүй	-9.42152
үүдийг	-9.42288
за	-9.42312
монголын	-9.42402
▁дур	-9.4247
▁явуулдаг	-9.42499
▁загвар	-9.42538
▁өвчний	-9.4255
e	-9.42565
▁ердөө	-9.42579
▁чин	-9.42616
▁26	-9.42631
▁шинжилгээ	-9.42662
▁хүсэлт	-9.42741
▁300	-9.42788
▁илэрхийлсэн	-9.42847
▁туул	-9.42866
▁ангид	-9.42897
▁цус	-9.43073
▁тогтоол	-9.43085
▁хийхээр	-9.43127
▁хандах	-9.4317
▁үзвэл	-9.43209
▁бусдад	-9.43221
▁дундаа	-9.43226
▁үс	-9.43234
▁гарагт	-9.43486
▁орнууд	-9.43664
▁жилдээ	-9.43708
▁доод	-9.43721
▁явуулсан	-9.43912
▁ижил	-9.44047
▁баяртай	-9.44153
▁цэцэрлэгийн	-9.44186
▁аюултай	-9.44473
▁10-	-9.44616
▁өрх	-9.44618
▁ашиглан	-9.44754
тэйгээ	-9.45006
▁хүнтэй	-9.45054
▁төхөөрөмж	-9.45118
▁эрч	-9.45219
▁эмэгтэйчүүд	-9.45307
▁зөөлөн	-9.4548
▁нэмэр	-9.45682
сны	-9.45713
▁буурсан	-9.45717
ас	-9.45797
▁хоёрын	-9.4589
▁үүргээ	-9.45922
эрдэнэт	-9.4595
▁явган	-9.45971
дог	-9.46
▁тэнгэр	-9.46043
▁хөгжиж	-9.46086
▁28	-9.4616
▁хохирол	-9.46348
п	-9.46391
▁баатар	-9.46444
▁хөгжмийн	-9.46486
▁насанд	-9.46495
▁итх	-9.4655
▁үзүүлэлт	-9.4655
▁тоог	-9.46563
▁дүүрэгт	-9.46595
▁цол	-9.46686
▁чиний	-9.46767
▁гараа	-9.46806
▁битгий	-9.46889
▁дэлгэрэнгүй	-9.46967
ынхан	-9.4715
▁зэвсэгт	-9.47162
▁судалж	-9.47172
▁зүйлд	-9.473
▁санхүүжилт	-9.47309
▁хэлэлцээр	-9.47386
▁даяар	-9.47387
▁хэллэгийг	-9.4742
▁хотноо	-9.47507
чихсан	-9.47519
▁төлбөрийн	-9.47581
▁хараа	-9.47587
▁цай	-9.47659
▁гадны	-9.47681
▁зохистой	-9.47737
лаж	-9.47741
▁од	-9.47798
▁төлөв	-9.48056
▁далд	-9.48069
ноос	-9.48133
▁хөрөнгийг	-9.48168
▁бодох	-9.48227
▁бүтцийн	-9.48247
▁дүрэм	-9.48349
даж	-9.48404
▁түргэн	-9.48408
▁дуудлага	-9.48427
▁мэргэжилтэн	-9.4854
▁өв	-9.48662
эр	-9.48727
эл	-9.48735
▁хоорондоо	-9.48749
▁сүүлд	-9.48798
▁монголчуудын	-9.48804
▁очсон	-9.48808
▁мөнгөө	-9.48832
▁ххзх	-9.48833
▁гаргаад	-9.48925
▁батлагдсан	-9.49005
засгийн	-9.49088
▁алдаж	-9.49152
▁ав	-9.49244
▁хандлага	-9.49285
▁увс	-9.4938
▁тэс	-9.49462
▁зорилт	-9.49471
▁хангай	-9.49503
▁есдүгээр	-9.49615
▁шалгаруулах	-9.49689
▁зохиолч	-9.49712
▁хаагч	-9.49738
▁2011	-9.49775
▁улсыг	-9.49825
▁үхэр	-9.49846
▁харьцуулахад	-9.49914
▁наадамд	-9.49952
үүл	-9.49991
▁татан	-9.50069
тан	-9.50085
▁хонь	-9.50086
▁яахав	-9.50209
ер	-9.50261
▁хариуцлагатай	-9.50288
тал	-9.50358
▁шуурна	-9.50411
▁доллар	-9.5042
▁саад	-9.50441
▁дундаж	-9.50456
▁үеэс	-9.50475
▁үйлдвэрлэлийн	-9.50564
▁гоё	-9.50566
аг	-9.50644
▁хэлэхдээ	-9.50698
▁орондоо	-9.50801
▁үүргийг	-9.50849
▁усанд	-9.50939
▁замд	-9.50944
▁үүрэгтэй	-9.5106
▁сурах	-9.51077
▁ир	-9.51081
▁онц	-9.51083
▁дагаж	-9.51327
▁эмчилгээ	-9.51401
▁төгссөн	-9.5144
▁өрсөлдөх	-9.51476
▁наймдугаар	-9.51536
▁ариун	-9.51659
▁шинэчлэл	-9.51666
▁шатанд	-9.51694
▁арилжааны	-9.5173
▁шадар	-9.51794
▁гэрээг	-9.51845
▁өвөр	-9.51904
▁үндэс	-9.52008
▁минутад	-9.52043
▁хэлний	-9.52088
▁шугам	-9.521
▁үзэсгэлэн	-9.52135
▁үлгэр	-9.5228
▁цөөн	-9.52324
▁бүхний	-9.52347
▁эргээд	-9.52371
▁хорт	-9.52458
▁доо	-9.52796
▁зууны	-9.52801
▁хийлээ	-9.52848
▁эрдэмтэн	-9.52913
▁нийттэй	-9.53055
▁зургийг	-9.53178
▁магадлалтай	-9.53243
▁сонгогдсон	-9.53276
▁бодлоо	-9.53302
▁ширүүснэ	-9.53356
▁тоглож	-9.53371
▁сэлэнгэ	-9.53505
▁тамирчид	-9.53513
▁зардлыг	-9.53515
▁анхан	-9.53525
▁цаана	-9.53528
▁зээлийг	-9.53536
▁сүлжээ	-9.53653
▁этгээд	-9.53765
▁нэмэх	-9.53832
▁хувьцаа	-9.53878
▁гэрээний	-9.53931
▁тооцох	-9.53934
▁итгэж	-9.53998
▁сонголт	-9.54006
▁мэргэжил	-9.54052
▁бүхэнд	-9.54057
эв	-9.54079
▁иржээ	-9.54154
▁чамайг	-9.54156
ам	-9.54203
▁хамтдаа	-9.54287
▁харилцааг	-9.54384
▁...	-9.54393
▁засгийг	-9.54396
▁хүлээсэн	-9.54397
▁чиглэсэн	-9.54424
▁өвлийн	-9.545
▁яруу	-9.54519
▁гаргадаг	-9.54558
▁хүрээлэн	-9.54603
▁цэцэг	-9.54701
▁унаж	-9.54735
▁уламжлалт	-9.54821
▁сууриа	-9.55057
у	-9.55099
ийнхээ	-9.55323
▁байтал	-9.5538
▁орхон	-9.55418
▁англи	-9.55528
▁маргаан	-9.55533
▁к	-9.5555
▁ноцтой	-9.55552
▁чуулган	-9.55666
▁лээ	-9.55879
▁улиралд	-9.56172
▁чулуу	-9.5618
▁мэс	-9.5623
▁я	-9.56293
▁цагаар	-9.56295
▁очоод	-9.56328
▁гайхалтай	-9.56345
▁буудал	-9.56466
▁эхэнд	-9.56493
▁2000	-9.56514
▁киноны	-9.56526
▁20-	-9.56658
00	-9.56674
▁чадвартай	-9.56697
▁царай	-9.56793
▁7-12	-9.56802
ов	-9.56805
▁тооны	-9.56826
▁эрсдэл	-9.56841
▁стандарт	-9.56857
7	-9.56866
▁and	-9.56964
▁ухаалаг	-9.56995
▁дэмжсэн	-9.57079
▁агентлаг	-9.57105
▁хугацааг	-9.57141
▁жин	-9.57159
▁сэтгүүлч	-9.57187
ка	-9.57224
▁хэдхэн	-9.57247
▁санхүү	-9.57292
▁төлөөлөгчид	-9.57369
▁доктор	-9.57456
▁шүүгч	-9.57469
дах	-9.57522
▁засвар	-9.57554
▁2-	-9.57585
▁суурин	-9.57587
▁далай	-9.57604
▁чухам	-9.57795
дөө	-9.57808
хон	-9.57839
▁урсгал	-9.5786
эрдэнэбат	-9.57896
▁49	-9.57981
▁автомашин	-9.57981
баяр	-9.58004
▁захирагч	-9.5819
энх	-9.58362
o	-9.58367
▁мөр	-9.58401
▁тосны	-9.58468
▁асууж	-9.58503
▁газраа	-9.58519
▁сайдаар	-9.58638
▁хүүхдэд	-9.58716
▁гэгч	-9.58765
дан	-9.58838
▁зориг	-9.5885
▁мэдэгдэл	-9.58902
▁харьцангуй	-9.58907
▁түүнтэй	-9.58936
▁шаардлагыг	-9.58988
▁харуулж	-9.59159
▁дорнод	-9.5918
▁төлөвлөсөн	-9.59187
▁2010	-9.59232
▁хүндрэл	-9.59358
▁дүгнэлтийг	-9.59397
▁төслүүд	-9.59484
▁хангасан	-9.59603
ор	-9.59666
▁хүчээр	-9.59746
▁гарц	-9.59766
▁долдугаар	-9.59795
▁байрлах	-9.59859
▁чанга	-9.59897
▁бүтээлч	-9.59933
▁нитх	-9.59979
),	-9.59995
▁түрүүнд	-9.60197
▁хичээлийн	-9.60221
▁зүйлс	-9.60294
энхбаяр	-9.60305
▁дөнгөж	-9.60368
▁бүсэд	-9.60463
▁дасгалжуулагч	-9.6048
▁шалгалтын	-9.60507
▁15-	-9.60521
▁хүүг	-9.60578
▁зохицуулалт	-9.60688
▁хөдлөх	-9.60727
▁орчныг	-9.60761
▁санд	-9.60817
▁найрамдах	-9.60988
сөн	-9.61005
▁сүү	-9.61084
ө	-9.61093
▁орчмоор	-9.61114
▁хаврын	-9.61167
▁цэцэрлэгт	-9.61185
▁бодис	-9.6123
энд	-9.61264
▁хаагчид	-9.61266
▁эмийн	-9.61319
▁хориг	-9.6135
▁хийн	-9.61359
нууд	-9.6157
▁жирийн	-9.61627
▁эртний	-9.617
▁сурч	-9.61748
▁аврах	-9.61795
▁материал	-9.61822
▁онгоц	-9.61828
▁өгөөд	-9.61891
▁төгөлдөр	-9.61932
▁нөлөөлж	-9.61949
▁бодсон	-9.62061
ай	-9.6211
t	-9.62227
▁бүртгэлийн	-9.62228
▁шийдэж	-9.62279
улаан	-9.62471
▁хаалга	-9.6253
уудад	-9.62637
▁авлаа	-9.62702
▁санаж	-9.62727
▁сайтар	-9.62816
▁хямд	-9.62859
▁арслан	-9.62978
▁хэлдэг	-9.62987
▁малчин	-9.63055
▁хугацаагаар	-9.63072
▁тогтолцоо	-9.63104
▁төгс	-9.63204
▁ван	-9.63269
▁тогтоож	-9.6332
▁арьс	-9.63342
▁ордог	-9.63405
▁35	-9.63466
▁тэтгэврийн	-9.63513
гээс	-9.63513
▁цөмийн	-9.63607
▁үүсгэн	-9.63699
▁зориулж	-9.63738
▁ойлгох	-9.63758
▁төлж	-9.638
лийн	-9.63802
▁эндээс	-9.63934
▁ховор	-9.64
▁алтайн	-9.64238
▁4.	-9.64327
▁амралтын	-9.64362
▁огцруулах	-9.64363
▁өрөөнд	-9.64398
▁ховд	-9.64431
▁сонирхол	-9.64481
▁өмч	-9.64593
▁зохих	-9.64635
▁зааж	-9.64691
▁араас	-9.64773
▁түүхтэй	-9.64777
▁цаашдаа	-9.64783
▁баянгол	-9.64787
▁явц	-9.64799
▁айлчлал	-9.64847
▁адилхан	-9.64854
▁to	-9.64905
ис	-9.64921
▁сэргээх	-9.64928
ит	-9.65053
▁албанд	-9.65165
▁дутуу	-9.6536
▁нөхөд	-9.65403
▁хоолны	-9.65458
▁сайдад	-9.65471
▁долларын	-9.65503
▁луу	-9.6567
хар	-9.65696
▁галт	-9.65704
▁асуудлын	-9.65727
▁хүртсэн	-9.65736
уулж	-9.65843
▁чамд	-9.65942
▁дөрөв	-9.66101
▁ингэхдээ	-9.66111
10	-9.66118
▁хэлбэр	-9.66167
4	-9.66194
▁өрийн	-9.66219
▁хүлээх	-9.66242
▁нэрийн	-9.66288
▁хэрэгслийн	-9.66299
▁сонссон	-9.66303
ран	-9.66319
▁нэвтрүүлэх	-9.66344
▁ярилцаж	-9.66371
▁зогсоох	-9.66384
▁авахаар	-9.66385
▁тэдгээр	-9.66462
▁хамрагдах	-9.66534
▁бүтээсэн	-9.66587
▁машины	-9.66647
▁гуай	-9.66679
▁тас	-9.66753
▁талтай	-9.66784
▁үзээд	-9.66788
▁зүг	-9.66834
▁станц	-9.66857
▁дарамт	-9.66894
▁бүрдүүлж	-9.66897
▁тээвэр	-9.66935
▁зуны	-9.67013
▁шилжүүлэх	-9.67068
▁очих	-9.67101
▁эхийн	-9.67138
▁дайн	-9.67153
га	-9.67166
маар	-9.67293
▁эгч	-9.67352
▁богд	-9.67357
▁удаад	-9.67381
▁судлаачид	-9.67457
лав	-9.67477
▁хамгаалж	-9.67566
▁тооцож	-9.67581
▁орд	-9.67604
▁үндэслэн	-9.67619
▁чөлөө	-9.67692
▁шинэчилсэн	-9.67736
▁аюул	-9.6777
алтай	-9.67777
▁завхан	-9.67778
▁орныхоо	-9.67861
▁хотгор	-9.67863
▁in	-9.68155
▁дайны	-9.68223
▁гаалийн	-9.68229
▁барсан	-9.68233
c	-9.6839
▁дэвсгэрт	-9.68442
▁зарчим	-9.68634
▁хамгааллын	-9.68691
▁удирдагч	-9.68744
▁үнэлгээ	-9.6875
▁хөрш	-9.68779
▁тодорхойгүй	-9.68792
▁дурдсан	-9.68815
▁компанид	-9.68902
▁цасан	-9.68908
▁нөлөөтэй	-9.68927
▁америк	-9.6893
▁болохоос	-9.68945
▁хуудас	-9.68948
▁үнийг	-9.68954
▁уралдаан	-9.69048
▁45	-9.69079
▁нэрээр	-9.69186
▁хуралдааны	-9.69241
▁тогтолцоог	-9.6929
▁хүрээ	-9.693
▁эрдэнэт	-9.69338
▁өсч	-9.69341
20	-9.69406
▁эхэлнэ	-9.69407
▁болчихсон	-9.69416
▁гэрт	-9.69477
▁залуучууд	-9.69594
▁судлаач	-9.69609
▁орноо	-9.69672
▁цэг	-9.69711
▁хэлтсээс	-9.69786
▁гарчээ	-9.6985
▁3-	-9.70016
▁шийдсэн	-9.70079
▁зар	-9.70185
▁суусан	-9.70204
▁үйлдсэн	-9.7029
▁хурлаар	-9.70317
▁хүчингүй	-9.70341
бид	-9.70424
▁цэвэрлэх	-9.7051
▁хурандаа	-9.70566
▁ирүүлсэн	-9.70641
элбэгдорж	-9.7065
▁ихэд	-9.7067
▁хүүтэй	-9.70677
▁баримтлах	-9.708
▁багагүй	-9.70802
▁хамаг	-9.70805
▁ялалт	-9.70862
▁муухай	-9.70898
▁герман	-9.70952
▁шороон	-9.71294
батболд	-9.71298
аагүй	-9.71327
▁2008	-9.71459
▁байгуулахаар	-9.71497
▁чөлөөлөх	-9.71499
▁дамжин	-9.71529
▁ган	-9.71531
▁оувс	-9.71557
▁2009	-9.71583
▁болоход	-9.71583
▁байгууламж	-9.71591
▁зарласан	-9.71684
▁хүүхдүүдийн	-9.71718
▁сэтгэгдлийг	-9.71767
▁шинжтэй	-9.71796
▁судлалын	-9.7195
▁уулзалтад	-9.71959
▁нийтдээ	-9.71981
ing	-9.71983
▁хүрэн	-9.71984
▁түвшин	-9.72084
▁өөрт	-9.72105
ман	-9.7223
▁болоогүй	-9.72241
▁:	-9.72357
▁авахыг	-9.72365
▁даасан	-9.72429
▁1000	-9.72519
▁ийн	-9.72567
▁онгоцны	-9.72584
▁автомашины	-9.72644
болд	-9.72656
▁мастер	-9.72777
мөнх	-9.7278
тэр	-9.72781
▁баталж	-9.72816
▁эхээр	-9.72825
ed	-9.72924
▁i	-9.72969
▁тэтгэвэр	-9.72975
▁байгуулна	-9.73015
ли	-9.73069
▁ажилдаа	-9.73107
▁сонгинохайрхан	-9.73151
▁утгаараа	-9.73188
p	-9.73192
▁арав	-9.73209
▁үзүүлсэн	-9.73254
хоо	-9.733
▁зогсохгүй	-9.73415
▁бүтээгдэхүүнийг	-9.73445
▁боловсон	-9.73501
▁гаралтай	-9.73558
6	-9.73613
▁энх	-9.73666
▁гүйцэтгэж	-9.73726
▁ойлгомжтой	-9.73729
▁өгөхгүй	-9.73751
▁бүртгэл	-9.73842
гар	-9.73856
үүдийн	-9.73875
▁алдарт	-9.73885
▁дээшлүүлэх	-9.73948
▁мэдээлж	-9.73966
▁s	-9.73991
снаар	-9.74034
▁нуур	-9.74043
▁танил	-9.74059
▁хоолой	-9.74066
▁авахад	-9.74129
▁болсныг	-9.74132
ээсээ	-9.74164
маа	-9.74202
▁баталгаа	-9.74209
▁бяцхан	-9.7423
▁үзэхэд	-9.74253
▁хүүгийн	-9.7431
▁дипломат	-9.74334
▁наад	-9.74414
▁үргэлжилж	-9.74442
▁зорчих	-9.74447
▁хийгдэж	-9.74691
▁суурийг	-9.74693
▁түүхийн	-9.74782
▁өвгөн	-9.74836
▁наран	-9.74857
▁холбогдсон	-9.74924
▁эхэлжээ	-9.74932
▁нийслэлд	-9.74935
▁байгаагаас	-9.74975
▁стратегийн	-9.75003
шин	-9.75007
▁зорьж	-9.75061
▁зарцуулах	-9.75179
▁гадаадад	-9.75202
▁халдварт	-9.75235
▁34	-9.75357
▁байлгах	-9.75589
▁нөлөөлөх	-9.75606
▁намрын	-9.75726
▁хоосон	-9.75765
▁уламжлал	-9.75784
▁түүнийгээ	-9.75817
▁ирэхэд	-9.759
▁асуудлаа	-9.75904
▁танилцуулж	-9.75948
▁хатагтай	-9.76006
▁баригчид	-9.7602
▁чөлөөтэй	-9.76151
8	-9.76156
▁үзэгдэл	-9.76189
▁хадгалах	-9.76289
▁суудал	-9.76404
▁шашны	-9.76472
улаанбаатар	-9.7654
▁буу	-9.76624
▁32	-9.76654
▁хурц	-9.76682
▁тоглоом	-9.76719
ынхаа	-9.7676
▁боловсруулсан	-9.76812
▁чингэлтэй	-9.76885
▁буйг	-9.76955
▁онцолж	-9.7698
▁дасгал	-9.77006
▁загас	-9.77082
▁сайхны	-9.77102
▁явагдаж	-9.77106
▁29	-9.77167
▁юуны	-9.77234
▁засах	-9.77333
▁тэрхүү	-9.77416
▁зогсож	-9.77429
▁хэрэглэдэг	-9.7743
▁унасан	-9.77442
дсан	-9.77459
алтан	-9.7764
▁хүсэлтэй	-9.77642
ье	-9.77643
▁ордны	-9.77651
▁ирээдүйн	-9.77658
▁заалтыг	-9.77742
▁чанарын	-9.77785
▁автобус	-9.7785
▁дашт	-9.77958
▁зав	-9.77959
▁халх	-9.7797
▁үнээр	-9.78025
гоо	-9.78051
y	-9.7807
▁хэлэлцүүлэгт	-9.78112
▁татсан	-9.7825
▁ногоо	-9.78284
▁бодоод	-9.78319
▁авчээ	-9.78349
ла	-9.78384
▁амархан	-9.78418
▁санамж	-9.78484
▁хамгаалалтын	-9.78539
▁аравдугаар	-9.78543
▁дууссан	-9.78568
▁танилцуулсан	-9.78612
▁хөгжлийг	-9.78676
▁чадвал	-9.78704
▁гараг	-9.78707
▁булган	-9.78718
▁ундаа	-9.78768
▁зай	-9.7878
▁хөдөлгөөнд	-9.78781
▁нээлтийн	-9.78835
▁парламент	-9.78956
лээд	-9.78968
▁харьяа	-9.79107
▁зургадугаар	-9.79138
▁сангаас	-9.79208
▁эрхлэгч	-9.7926
▁тариа	-9.7927
▁прокурорын	-9.79318
▁уншиж	-9.79347
▁нөөцийн	-9.79371
▁цэцийн	-9.79377
n	-9.79401
▁ипотекийн	-9.79428
▁түүхэнд	-9.79465
▁орнуудад	-9.7947
лэг	-9.79563
▁халдвар	-9.79585
▁төслүүдийг	-9.79702
ир	-9.79759
▁бич	-9.79783
йн	-9.79809
▁ажиллагаатай	-9.79838
▁хөгжилд	-9.79851
▁болтол	-9.79935
▁франц	-9.79935
▁оюуны	-9.79947
лаг	-9.79995
▁германы	-9.80007
▁хэлтэс	-9.8006
▁үргэлжлүүлэн	-9.8014
▁ядуу	-9.80174
▁амьсгалын	-9.80195
▁төдий	-9.80243
▁талархал	-9.80258
▁шинэчлэн	-9.80278
▁эзэлж	-9.80346
▁зургаа	-9.8041
▁суралцах	-9.80468
▁ордонд	-9.80492
▁жаргал	-9.8052
▁e	-9.80535
▁асуудлууд	-9.80674
▁тэргүүтэй	-9.80679
▁ахлагч	-9.80713
▁компаниудын	-9.80722
гийг	-9.80764
▁өртөг	-9.80803
▁байшин	-9.80846
▁холбогдол	-9.80859
ат	-9.80871
▁төлөөлөгчдийн	-9.80881
▁шийдвэрлэсэн	-9.80955
▁хэрэглээ	-9.8098
ү	-9.81028
▁хоёрдугаарт	-9.81049
▁ачаалал	-9.81061
▁зохиол	-9.81082
эрдэнэс	-9.81221
▁чадварыг	-9.81404
▁бичигт	-9.81472
▁хандсан	-9.8153
▁тийш	-9.81616
▁хугацаатай	-9.81695
тын	-9.8173
▁салбарыг	-9.81749
▁гэм	-9.81768
▁дунджаар	-9.81774
▁шинэчлэлийн	-9.81789
▁хэрэглээний	-9.81835
хүү	-9.81918
▁суурьтай	-9.81927
▁бэлгийн	-9.81974
▁зовлон	-9.81978
▁цөөнгүй	-9.82002
▁цогцолбор	-9.82005
▁зориулан	-9.8202
▁дулааны	-9.82055
▁зорчигч	-9.82062
чууд	-9.82135
▁тавантолгой	-9.82139
▁сурагч	-9.82227
▁бодитой	-9.82412
▁дундуур	-9.82475
▁чуулганаар	-9.82506
▁магадлал	-9.82637
▁шаардлагагүй	-9.82648
▁яригдаж	-9.82714
▁хэнтий	-9.82727
▁бөмбөг	-9.8284
▁буурч	-9.82851
▁худал	-9.82865
▁мөнгөөр	-9.82928
▁400	-9.82952
▁цаашлаад	-9.83064
▁хүрэлцэн	-9.83153
▁ядаж	-9.83179
▁мэдэгдэж	-9.83301
03	-9.83353
▁бууж	-9.83467
▁ажиллахыг	-9.83494
▁нэмэгдэх	-9.83498
▁бэхжүүлэх	-9.8352
▁тоглолтын	-9.83552
▁талбайн	-9.83566
▁морин	-9.83572
▁хурд	-9.83603
▁манайх	-9.83659
▁эрхээ	-9.83713
▁оюутны	-9.83735
▁санааг	-9.83737
▁багшийн	-9.83755
▁шөнийн	-9.83809
▁хийгдсэн	-9.83872
▁шалгарсан	-9.83883
▁байцаагч	-9.83907
▁талууд	-9.83974
лын	-9.84045
▁байгаагийн	-9.84104
▁өөрчилж	-9.84237
▁бохир	-9.84245
▁хөнгөлөлттэй	-9.84291
▁яв	-9.84309
▁жаргалтай	-9.84346
▁амьдралыг	-9.84416
алтанхуяг	-9.84425
▁багатай	-9.84627
▁байдлаас	-9.8463
▁болгоно	-9.84647
▁телевизийн	-9.84818
ласан	-9.84883
▁хэрэгцээ	-9.84999
гэр	-9.85014
вэл	-9.85022
▁дээгүүр	-9.85069
▁эрдэмтэд	-9.85075
▁идэр	-9.85076
▁тодорхойлох	-9.85097
▁30-	-9.85169
▁тогтоолоор	-9.85211
▁ганцаараа	-9.85351
▁хөгжим	-9.85373
▁тавиад	-9.85497
▁хавар	-9.85551
▁аян	-9.85573
▁хаяг	-9.85574
on	-9.85604
▁здтг	-9.85634
▁хүүхэдтэй	-9.85701
▁33	-9.85701
▁дугуй	-9.85752
▁олгодог	-9.85775
▁5-	-9.85799
▁байтугай	-9.85829
▁суралцаж	-9.85859
▁туршлагатай	-9.8587
▁тутмын	-9.85904
▁даруй	-9.85906
▁явдлыг	-9.85933
▁12-14	-9.8601
▁алтай	-9.86024
▁хоёрыг	-9.8611
▁судалгаагаар	-9.86158
▁сонсож	-9.86174
▁яамнаас	-9.86205
лыг	-9.86214
тайгаар	-9.86266
▁хойно	-9.86287
▁ачаа	-9.86432
▁орших	-9.86434
▁үлдэх	-9.86494
чихаад	-9.86501
m	-9.86562
▁хүрэхгүй	-9.86646
▁хүсэлтийг	-9.86674
▁төрж	-9.86736
▁амин	-9.86738
▁сонгож	-9.86753
30	-9.86768
▁харагдах	-9.8677
▁чанарыг	-9.868
▁бохирдлыг	-9.86875
▁буйгаа	-9.86884
▁сонгосон	-9.87004
▁өгчээ	-9.87053
▁жилтнээ	-9.87078
▁бусдыг	-9.87097
▁хөндийгөөр	-9.871
▁үзнэ	-9.87231
▁хэрэгжилтийг	-9.87242
▁дэндүү	-9.87259
▁дургүй	-9.87281
▁тэнцэх	-9.87352
▁өг	-9.87384
▁хянан	-9.87409
▁үргэлжлэх	-9.87499
▁удаагаа	-9.87695
миний	-9.87755
▁идэх	-9.87773
▁үгээр	-9.87844
▁жилээс	-9.87983
уулах	-9.88004
▁эрхгүй	-9.88012
▁чаддаггүй	-9.88015
▁ая	-9.88053
▁25-	-9.88058
▁нэрэмжит	-9.88108
▁нартай	-9.88185
▁тасралтгүй	-9.88226
▁чуулга	-9.88246
▁ярилцлага	-9.88265
▁сонгодог	-9.88369
хүрэлсүх	-9.88374
▁хөрөнгөөр	-9.88453
сайханбилэг	-9.88477
▁тойрогт	-9.88579
▁ургамал	-9.88592
▁хүргэе	-9.88611
▁тбб	-9.88673
▁дарж	-9.88761
▁си	-9.88778
▁бал	-9.88879
▁тусам	-9.88914
▁эхчүүд	-9.8896
▁даван	-9.88986
▁оролцоо	-9.88998
уулсан	-9.89045
▁овоо	-9.89087
50	-9.89156
▁бэрхшээл	-9.89189
▁нэмэгдүүлж	-9.89207
▁үүсвэр	-9.89215
▁ажилтнууд	-9.89328
9	-9.89381
▁сур	-9.89392
▁муутай	-9.89409
▁оновчтой	-9.89447
нямдорж	-9.89509
▁сэдвээр	-9.89605
▁эзэмших	-9.89612
▁идэж	-9.8964
▁11-	-9.89683
▁түүн	-9.89797
▁сонсох	-9.89902
▁үүсч	-9.89934
▁мужийн	-9.89985
▁байрыг	-9.90141
▁өнөөдрийг	-9.90143
▁хэрэгжүүлсэн	-9.90198
▁анхаарлаа	-9.90204
b	-9.90276
▁инженер	-9.90289
▁даргыг	-9.90304
ко	-9.90314
▁хараат	-9.90335
▁хос	-9.9041
▁эрсдэлтэй	-9.90424
▁тулгамдсан	-9.90432
▁ардчилал	-9.90433
▁5.	-9.90435
▁уулзах	-9.90457
▁буян	-9.90484
жиж	-9.90545
▁судлах	-9.90561
▁мэдрэмж	-9.90567
▁иймэрхүү	-9.90588
▁хүрээд	-9.906
▁нарны	-9.90605
лэж	-9.90624
▁ёслол	-9.90625
11	-9.9069
▁ёслолын	-9.90832
эм	-9.90915
▁тоот	-9.90949
▁алдартай	-9.90964
▁хүчирхэг	-9.90967
▁тахиа	-9.90985
▁мэдсэн	-9.91003
▁шинэчлэх	-9.91031
▁бүтээх	-9.91033
▁й	-9.91166
▁өнөөх	-9.91234
▁сэтгэлд	-9.91252
▁мөнх	-9.91255
гч	-9.91297
▁уух	-9.91329
▁бичгийг	-9.91364
▁150	-9.91473
▁гадаа	-9.91489
▁хичнээн	-9.9157
▁тайлан	-9.91615
▁сайтай	-9.91629
▁генерал	-9.91692
▁асуултад	-9.91721
▁даралт	-9.91766
▁хэрэгжих	-9.91884
▁томилох	-9.91933
▁танхим	-9.91935
▁байснаа	-9.91952
▁мэдээлсэн	-9.91966
▁18-	-9.91988
▁хк	-9.92121
▁бариад	-9.92132
▁тоглох	-9.92161
▁зэвсэг	-9.92163
▁заримдаа	-9.92187
▁эрэлт	-9.92233
▁үзүүлдэг	-9.92244
▁51	-9.92265
▁2020	-9.9227
▁ойрхон	-9.9239
▁тавин	-9.924
▁гаргажээ	-9.92413
▁монголбанкны	-9.92449
▁ослын	-9.92516
▁нэгдүгээрт	-9.92684
▁дагаад	-9.92727
▁малчид	-9.92752
▁хамгаалахын	-9.92762
▁хуурамч	-9.92763
▁мэргэн	-9.9277
▁буудлын	-9.92782
▁амьсгал	-9.92837
▁хүргэсэн	-9.92839
манай	-9.92887
▁шийдэл	-9.92896
▁үндэслэл	-9.92918
▁үйлийг	-9.92978
▁урам	-9.92982
▁хөгжилтэй	-9.93073
▁амгалан	-9.93177
▁малтмалын	-9.9319
▁мөрөө	-9.93234
▁үз	-9.93282
▁эмчилгээний	-9.93303
19	-9.93372
сныг	-9.93388
▁дийлэнх	-9.93418
▁лав	-9.93431
▁ф	-9.93432
▁албаныхан	-9.93443
▁үнэлж	-9.9346
▁даргад	-9.93481
▁оффшор	-9.93482
▁мэдэл	-9.93614
▁таагүй	-9.93625
▁сэтгэлийг	-9.93628
▁дэлгүүр	-9.93632
▁онцлох	-9.93757
▁санааны	-9.93794
▁ирэв	-9.93849
▁гэрээнд	-9.93895
▁чимээ	-9.93896
▁бохирдол	-9.93923
хөө	-9.93981
иг	-9.94055
▁худлаа	-9.94124
▁төрөх	-9.9415
▁түрүүлж	-9.94176
▁харвал	-9.94178
▁36	-9.94204
▁утаа	-9.94215
▁12-	-9.94248
▁бэлтгэж	-9.94309
▁комиссын	-9.9436
▁мэдээллээр	-9.94367
▁төсвөөс	-9.94407
▁хандан	-9.94424
▁4-	-9.94478
▁цаас	-9.94558
▁бичлэг	-9.94596
▁нийцсэн	-9.94603
▁зүйлээ	-9.94628
▁оруулалтыг	-9.94747
▁нөхцөлийг	-9.94768
▁1990	-9.94817
▁эхлүүлсэн	-9.94862
▁төрөлд	-9.94868
▁могой	-9.94937
▁үнэр	-9.94946
▁дан	-9.94973
▁хаагчдын	-9.94984
▁банкнаас	-9.94995
▁намууд	-9.9502
▁ал	-9.95045
▁дэвших	-9.95063
▁чадалтай	-9.95091
▁авлига	-9.95127
09	-9.95244
▁цогц	-9.95284
▁хүндрэлтэй	-9.95287
▁сайдыг	-9.95333
▁хураалт	-9.95338
▁нэгжийн	-9.95369
▁санхүүжилтийн	-9.9543
▁халамж	-9.9545
▁болой	-9.95505
▁хэрээр	-9.95537
▁онцлон	-9.9558
▁намар	-9.95583
▁найруулагч	-9.95599
▁авахгүй	-9.95643
▁багт	-9.95779
▁тэжээл	-9.95833
тэн	-9.95867
▁удалгүй	-9.95871
▁ажлууд	-9.95905
▁амьтны	-9.9598
▁хэвшлийн	-9.95983
лоо	-9.96018
▁хаанаас	-9.96093
▁загварын	-9.96136
▁урагш	-9.96137
▁хэлэлцүүлгийг	-9.96167
▁жимс	-9.96184
▁профессор	-9.96192
▁өмнөговь	-9.96198
▁гүйцэтгэгч	-9.96218
▁тэргүүний	-9.96398
▁ай	-9.96423
12	-9.96445
▁дашрамд	-9.96453
▁31	-9.96481
▁хэтэрхий	-9.96496
▁хийлгэх	-9.9657
▁хурлыг	-9.96574
▁65	-9.96584
инд	-9.96689
ъя	-9.96722
▁хөлс	-9.9674
▁баасан	-9.96745
▁францын	-9.9675
тон	-9.9676
ос	-9.96782
▁биед	-9.96783
▁захиргаа	-9.96785
▁өвс	-9.96785
▁хороолол	-9.96793
▁зун	-9.96806
▁гарлаа	-9.96905
▁өргөдөл	-9.96911
▁огцом	-9.96965
▁гамшгийн	-9.97005
▁гарт	-9.97006
▁хандив	-9.97033
▁ажлаас	-9.97082
▁дандаа	-9.97115
▁групп	-9.97131
дөг	-9.9715
▁экспортын	-9.97204
▁бод	-9.97257
▁охид	-9.97284
▁итгэх	-9.9729
өв	-9.97295
чдын	-9.97331
▁илүүтэй	-9.97337
▁ордон	-9.9738
▁шалгуур	-9.97403
▁асуудалтай	-9.97457
▁эрдэнэ	-9.9753
▁өөд	-9.97533
▁ажилтай	-9.97572
▁мэд	-9.97702
▁хүнээс	-9.97794
▁үүсэх	-9.97804
дэж	-9.9783
▁сонгуулиар	-9.9791
очир	-9.97972
▁сэргээн	-9.98003
▁доош	-9.98009
▁07	-9.98015
▁байгуулан	-9.98093
▁налайх	-9.9814
▁сүм	-9.98156
▁танилцууллаа	-9.98183
▁үзэн	-9.98187
▁илтгэл	-9.98296
▁зөрчлийн	-9.98374
ус	-9.98383
▁руугаа	-9.98416
▁зарлаж	-9.98424
▁өвөл	-9.98458
▁алдар	-9.98527
▁гаргана	-9.9853
▁бүрдсэн	-9.98581
▁харагдана	-9.98582
▁алдах	-9.98633
▁хуурай	-9.9865
▁нуурын	-9.98693
40	-9.98749
▁анхаарлыг	-9.98802
▁хэнд	-9.98803
▁гахай	-9.98847
▁шашин	-9.98872
▁хүмүүстэй	-9.98899
▁фэйсбүүк	-9.98914
сний	-9.98976
▁үйлд	-9.98993
▁хэрэглэсэн	-9.99028
▁зурсан	-9.9904
▁элэг	-9.99056
▁авлигын	-9.99094
▁нийтлэг	-9.99155
▁үүнийгээ	-9.99197
нэг	-9.99293
лон	-9.99326
▁хадгалж	-9.99409
▁эн	-9.99424
▁түвшний	-9.99486
▁тойрог	-9.99494
u	-9.99514
▁дүрс	-9.99516
ни	-9.99519
рч	-9.99567
▁ихэвчлэн	-9.99573
▁шаардаж	-9.99587
▁хямрал	-9.99652
▁асуудлуудыг	-9.99755
▁таслан	-9.99775
▁чих	-9.9988
▁2019	-9.9991
▁тэгсэн	-9.99969
▁бүгдээрээ	-9.99984
▁үйлдвэрлэх	-10.0003
▁туулай	-10.0003
▁хамрагдсан	-10.0007
▁түүхийг	-10.0008
▁зургийн	-10.0017
да	-10.0018
▁аяга	-10.002
▁гаднаас	-10.0021
▁хорооноос	-10.0021
▁байсаар	-10.0021
▁яс	-10.0022
▁багц	-10.0027
▁оюутнууд	-10.0028
▁тогтсон	-10.003
▁бондын	-10.0035
▁алдагдал	-10.0038
▁данс	-10.0041
▁шилжүүлэн	-10.0042
▁орчмын	-10.0044
▁оролцогч	-10.0048
▁гэмтэл	-10.0051
▁авлигатай	-10.0051
▁тохирсон	-10.0053
▁хэрнээ	-10.0055
дийн	-10.0061
▁цагаа	-10.0063
g	-10.0068
▁үзлэг	-10.0069
▁гүүр	-10.0074
▁тусламжийн	-10.0082
▁16-	-10.0091
▁хөндий	-10.0093
▁муис	-10.0102
▁жагсаал	-10.0103
25	-10.0104
▁тансаг	-10.0107
▁хал	-10.0111
▁арилгах	-10.0115
▁ээлжинд	-10.0119
▁монголбанк	-10.012
▁хүүхэн	-10.0123
▁намаас	-10.0125
▁үйлчлэх	-10.013
▁болгодог	-10.0142
▁архангай	-10.0146
▁орлоготой	-10.0147
▁шал	-10.0153
▁уулзсан	-10.0154
▁наймаа	-10.0161
▁суугаад	-10.0163
▁талыг	-10.0167
▁өргөж	-10.0172
▁6-	-10.0173
▁зөрчиж	-10.0178
уй	-10.0178
▁байгаагаар	-10.0188
▁сэдэв	-10.0188
▁бүтээлийн	-10.0191
▁алтны	-10.0194
▁48	-10.0195
–	-10.0201
▁журмыг	-10.0207
▁шил	-10.0208
▁b	-10.0213
▁хашаа	-10.0219
▁бүрэлдэхүүн	-10.022
▁ким	-10.0227
▁хүсэж	-10.0227
▁жон	-10.023
▁хялбар	-10.0245
▁ажлуудыг	-10.0246
▁махны	-10.0247
▁оргил	-10.0247
уу	-10.025
▁насыг	-10.0259
er	-10.0262
▁толгойн	-10.0264
▁шалтгаанаар	-10.0267
▁саналын	-10.0278
▁тавантолгойн	-10.0278
ен	-10.0284
▁товч	-10.0295
мал	-10.0299
ныг	-10.0306
▁тэмцэл	-10.031
▁буцаж	-10.031
▁улирлын	-10.0313
▁гаригт	-10.0313
▁зориулалтын	-10.0316
▁газрууд	-10.0321
▁хотыг	-10.0323
▁хэрүүл	-10.0328
▁нэгдэж	-10.0329
▁хэрэгжүүлэхэд	-10.0331
▁танилцуулах	-10.0332
▁09	-10.0333
▁түмэнд	-10.0336
▁дэг	-10.0337
▁зүтгэж	-10.0338
▁тов	-10.0338
▁танилцуулна	-10.0338
▁заяа	-10.0342
▁ирээдүйд	-10.0343
▁анхаар	-10.0346
иа	-10.0346
▁онцлогтой	-10.035
төрийн	-10.035
▁клуб	-10.0357
▁өмчит	-10.0357
▁зарчмын	-10.0359
▁өмгөөлөгч	-10.0363
▁хайх	-10.037
луулж	-10.0373
▁агуу	-10.0376
▁над	-10.0379
ол	-10.0379
▁оролцлоо	-10.0381
▁нүдээ	-10.0383
▁хажууд	-10.0388
▁өгөхийг	-10.04
▁энэтхэг	-10.04
▁харуулсан	-10.0403
▁хошуу	-10.0406
▁75	-10.0408
▁найдаж	-10.0408
снаас	-10.0411
▁химийн	-10.0414
рах	-10.0416
▁багавтар	-10.0417
▁турк	-10.042
▁юмуу	-10.0421
▁аваргын	-10.0429
▁55	-10.0432
▁шийдвэрлэж	-10.0433
▁илэрсэн	-10.0441
▁хүндтэй	-10.0453
▁тоогоор	-10.0471
▁төл	-10.0472
▁үнэгүй	-10.0473
▁улаанбаатарт	-10.0474
▁тагнуулын	-10.0474
▁хэрэглэгч	-10.0476
▁идээ	-10.0479
▁цэнхэр	-10.0484
▁олонх	-10.0485
▁хэрэгжүүлэхээр	-10.0485
▁хүндэт	-10.0495
▁нээлт	-10.0498
▁ирээдүй	-10.0504
in	-10.0505
▁сургуулийг	-10.0507
▁гараагүй	-10.0511
▁бодолтой	-10.0521
▁цалинг	-10.0523
▁хэчнээн	-10.0523
▁эхлэв	-10.053
▁аудитын	-10.0532
▁сэтгүүл	-10.0534
▁тайлбарлаж	-10.0537
▁иргэдээс	-10.0538
▁6.	-10.0538
▁талаараа	-10.0542
▁хийхгүй	-10.0548
▁байрт	-10.0556
▁тэнгэрийн	-10.0562
▁айлчлалын	-10.0567
▁шүлэг	-10.0578
▁хүрээлэнгийн	-10.0581
▁шавь	-10.0586
▁тэнэг	-10.0603
▁дохио	-10.0617
▁хулгай	-10.0621
▁шатахууны	-10.0621
▁дархадын	-10.0634
▁тэрэг	-10.0639
▁суулгах	-10.064
▁судалгааг	-10.0641
▁шир	-10.0641
▁сонирхлын	-10.0642
▁яасан	-10.0644
▁аваагүй	-10.0648
▁үлдээх	-10.0651
15	-10.0662
үү	-10.0664
▁татварыг	-10.0665
▁хасах	-10.0666
al	-10.0667
▁буцаан	-10.0673
▁хүүхдүүдэд	-10.0675
▁төлөвлөлт	-10.0675
▁прокурор	-10.0677
▁чулуун	-10.0679
▁эрчимтэй	-10.0682
▁ү	-10.069
чихсэн	-10.069
▁зөвлөмж	-10.0691
▁экспорт	-10.0694
▁илт	-10.0699
▁хавдар	-10.07
com	-10.0703
баатар	-10.0703
▁өвөрмөц	-10.0705
▁авалт	-10.0707
▁эмээ	-10.0708
▁шилэн	-10.071
▁оролцоно	-10.071
▁юун	-10.071
▁хүүгээ	-10.0718
▁багтсан	-10.0718
▁онцолсон	-10.0725
▁дотно	-10.0731
▁тушаалын	-10.0733
▁хайж	-10.0734
▁төлбөрийг	-10.0742
▁үнэнч	-10.0745
▁албанаас	-10.0753
▁хүчээ	-10.0759
▁хүсвэл	-10.0761
си	-10.0769
▁хуралдаж	-10.077
үүлж	-10.0771
ана	-10.0771
▁мань	-10.0776
▁согтууруулах	-10.0778
▁тодорхойлж	-10.078
▁ямартай	-10.0785
▁мэндэд	-10.0788
▁ярилцлаа	-10.0794
▁үлдэж	-10.0799
▁байдгийг	-10.08
▁талдаа	-10.0804
▁2007	-10.0804
▁засгаа	-10.0807
▁цусны	-10.0807
▁өөрийнх	-10.0809
▁асем	-10.081
▁системийг	-10.081
▁томилогдсон	-10.0818
▁хамааралтай	-10.0819
ба	-10.082
▁улстөрийн	-10.0823
▁боловсронгуй	-10.0824
▁системийн	-10.0826
▁дар	-10.0827
▁ii	-10.0832
▁европ	-10.0833
13	-10.0835
▁эмзэг	-10.084
▁сургалтад	-10.0841
▁хад	-10.0842
▁даалгавар	-10.0848
▁явахад	-10.0855
▁газартай	-10.0856
ес	-10.0857
▁сэтгэгдэлтэй	-10.0858
▁на	-10.0863
шинэ	-10.0871
▁цагийг	-10.0871
▁нүдний	-10.0872
▁вий	-10.0873
▁зэс	-10.0873
▁бүтээж	-10.0877
▁буруутай	-10.088
▁хожим	-10.0881
ю	-10.0886
▁төлөвтэй	-10.0897
▁ууж	-10.0903
▁жишиг	-10.0906
▁оролцоог	-10.0908
▁сэр	-10.0912
▁120	-10.0915
ф	-10.0915
▁утасны	-10.0927
▁тушаалтан	-10.0929
▁тушаалд	-10.093
▁засал	-10.093
▁хэлжээ	-10.0932
▁харилцаанд	-10.0933
▁эрхэлж	-10.0937
▁хамтлаг	-10.0941
уулан	-10.0943
▁хариуцлагыг	-10.0951
▁ажилчид	-10.0951
▁де	-10.0952
02	-10.0961
ганбаатар	-10.0962
▁шинийн	-10.0963
▁7-	-10.0969
▁удирдаж	-10.0969
▁тэмдэглэж	-10.0972
▁карт	-10.0973
▁зарцуулсан	-10.0973
▁хажуугаар	-10.0978
▁байгуулагдаж	-10.0978
▁ёсгүй	-10.0983
▁тохиромжтой	-10.0984
аль	-10.0984
▁нийлүүлэх	-10.0986
▁ул	-10.0995
▁кинонд	-10.0997
▁3-8	-10.1009
▁хөлөг	-10.1013
▁тулгарч	-10.1025
▁өө	-10.1028
-19	-10.1029
▁су	-10.1031
▁хуулиа	-10.1032
▁хүндэтгэл	-10.1039
▁төрх	-10.1044
▁зарж	-10.1049
▁баянхонгор	-10.1052
▁иж	-10.1053
▁цөөхөн	-10.1053
дэн	-10.1057
▁хэлэлцэн	-10.1058
▁харанхуй	-10.106
▁таалагдсан	-10.1063
▁орчимд	-10.1064
гэн	-10.1064
▁зүйлсийг	-10.1081
хны	-10.1086
ох	-10.1089
ив	-10.109
▁хүргүүлсэн	-10.1092
▁ерөө	-10.1093
▁эхлэл	-10.1101
▁хугацаандаа	-10.1103
▁бэлтгэсэн	-10.1107
▁манайхан	-10.1109
▁модон	-10.1111
▁юмаа	-10.1117
▁үүсгэж	-10.1123
▁хуур	-10.1126
▁хэлье	-10.1127
▁зогсоож	-10.113
▁тэргүүлэх	-10.1134
гоор	-10.1138
▁хийхийг	-10.1138
▁орлогыг	-10.114
▁дээл	-10.1144
▁эрэн	-10.1146
▁ээлтэй	-10.115
▁шатахуун	-10.1152
▁эрчүүд	-10.1153
▁цаашдын	-10.1153
▁8-	-10.1157
▁солигдмол	-10.116
▁дэвшүүлсэн	-10.1164
▁өөрчлөлтийг	-10.1178
▁ажиллуулах	-10.1184
▁му	-10.1186
▁хувилбар	-10.1186
▁нэгийг	-10.1188
▁зохиолын	-10.1191
▁төлөвлөлтийн	-10.1192
▁тавьдаг	-10.1194
▁42	-10.1197
▁хулгана	-10.1209
дэх	-10.1211
▁танилцаж	-10.1211
▁унах	-10.1213
▁нүдэнд	-10.1215
▁илэрхийллээ	-10.1225
▁өнгөрч	-10.1226
▁дэм	-10.1228
▁төлсөн	-10.123
▁зааснаар	-10.1238
▁доор	-10.1238
▁тууштай	-10.124
▁бүртгэлтэй	-10.124
▁дундаас	-10.1243
▁оруулагч	-10.1246
оороо	-10.1248
▁шүүхээс	-10.1252
▁гарахгүй	-10.1254
▁ашигладаг	-10.1255
▁хүртэж	-10.1256
▁оюутолгойн	-10.1256
▁жижигхэн	-10.1257
▁14-	-10.1258
▁санаатай	-10.126
▁99	-10.126
▁харгалзан	-10.1271
нүүд	-10.1277
▁минутын	-10.128
▁бүрийг	-10.129
▁усыг	-10.129
▁дэргэдэх	-10.1291
▁хамгаалагч	-10.1298
▁өнгөрөх	-10.13
▁10-15	-10.1303
▁шоронд	-10.1306
▁найдвартай	-10.1306
▁хааж	-10.1307
▁байснаас	-10.1311
▁зайд	-10.1317
▁мөрдөх	-10.1319
▁мэдэгдлээ	-10.1326
▁22-	-10.1327
▁санаачлан	-10.1328
▁явлаа	-10.1329
▁юунд	-10.1329
▁38	-10.1331
▁номхон	-10.1333
лох	-10.134
ур	-10.1343
▁албыг	-10.1345
▁см	-10.1347
▁ажиллахаар	-10.1351
▁явсаар	-10.1351
▁хүчийг	-10.1355
ун	-10.1356
▁хэдийнэ	-10.1357
▁охины	-10.1357
▁дүгнэж	-10.1358
▁хориглосон	-10.1359
▁угаах	-10.136
▁нулимс	-10.1362
аарай	-10.1371
▁стандартын	-10.1373
▁харагддаг	-10.1373
▁шоу	-10.1375
▁шахам	-10.1376
▁шигээ	-10.1377
▁эрхтэн	-10.1379
бал	-10.1381
▁мэдэрч	-10.1381
▁тэрэлж	-10.1382
▁ертөнц	-10.1383
▁банкинд	-10.1387
▁гаргавал	-10.1388
▁гэгээн	-10.1391
24	-10.1394
▁байдлаа	-10.1404
▁эзэмшиж	-10.1406
▁хаяж	-10.1426
▁9-	-10.1426
то	-10.1438
▁тамир	-10.144
ти	-10.1447
▁унших	-10.1454
▁мэдэгджээ	-10.1454
▁элбэг	-10.146
▁иргэнийг	-10.1462
▁улстай	-10.1463
▁барилдаан	-10.1467
▁хана	-10.1469
▁сахилга	-10.1472
f	-10.1472
▁2006	-10.1474
▁санагддаг	-10.1475
▁байсангүй	-10.1484
▁бонд	-10.1487
▁өрсөлдөж	-10.1488
▁заан	-10.1489
▁2-3	-10.1489
▁ю	-10.149
▁түймэр	-10.1491
лийг	-10.1494
▁оо	-10.1495
▁төсвийг	-10.1496
▁ардчиллын	-10.1499
▁холбогдож	-10.1501
▁нэгжүүд	-10.1504
лт	-10.1506
▁сэдэвт	-10.1512
улсын	-10.1521
▁тооллын	-10.1522
▁хийгээгүй	-10.1526
▁хотоос	-10.1527
▁амьдралаа	-10.1528
▁нээх	-10.1535
▁телевиз	-10.1535
▁болгоод	-10.1539
▁дэмжин	-10.1545
▁цэргүүд	-10.1545
лсан	-10.1545
▁урамшуулал	-10.1547
▁тамхины	-10.1549
▁байгаатай	-10.1549
▁днб	-10.1553
▁билгийн	-10.1554
▁надаас	-10.1555
▁сонсоод	-10.1555
▁солих	-10.1556
▁тулгамдаж	-10.1556
▁хянах	-10.1565
▁шингэн	-10.1567
▁байлгүй	-10.1569
▁компанийг	-10.1572
▁үйлчилгээнд	-10.1574
▁тусмаа	-10.1575
▁уралдаанд	-10.1581
▁байгууллаа	-10.1583
▁гадуур	-10.1584
ми	-10.1585
▁13-	-10.1588
▁ашгийн	-10.1591
▁хийжээ	-10.1596
▁залуусын	-10.1598
▁шим	-10.1599
▁бодвол	-10.1599
▁өвөрхангай	-10.1601
▁08	-10.1603
▁4-9	-10.1605
▁шагналыг	-10.1606
▁үгэндээ	-10.1608
▁анхааруулж	-10.1611
▁ертөнцөд	-10.1613
▁37	-10.1616
▁төвөөс	-10.1621
▁зүгийн	-10.1622
▁tweet	-10.1622
▁бууруулж	-10.1624
ет	-10.1633
▁дүнгээр	-10.1634
▁19-	-10.1635
чил	-10.1636
өлгий	-10.165
▁хүсдэг	-10.1651
▁шилжүүлсэн	-10.1653
таа	-10.1655
оюун	-10.1661
ев	-10.1667
▁бүртгэгдсэн	-10.1668
▁хүрнэ	-10.167
▁дуусах	-10.1673
▁илэрхийлэх	-10.1673
ян	-10.1676
▁доогуур	-10.1676
сайн	-10.1681
▁бүтцийг	-10.1682
▁ли	-10.1682
▁нягт	-10.1683
▁өглөөний	-10.1684
▁хүүхдүүдийг	-10.1685
▁сүүлчийн	-10.1686
▁хүлээлгэн	-10.1687
▁шилжих	-10.1688
▁21-	-10.1701
▁28-	-10.1703
▁баярлаж	-10.1705
ри	-10.1713
▁багтаж	-10.1715
▁жилээр	-10.1716
▁хөгжүүлж	-10.172
▁эсэргүүцэж	-10.1726
▁суурилсан	-10.1733
h	-10.1735
▁суудаг	-10.1738
▁дэмий	-10.1742
▁найрагч	-10.1747
▁өөрсдийгөө	-10.1749
▁0-5	-10.1749
▁захын	-10.1752
чингис	-10.1754
▁зүрхний	-10.1755
▁зөвшөөрсөн	-10.1755
▁өвчтэй	-10.1758
▁үндэстэн	-10.1758
▁тоглосон	-10.1761
▁ойг	-10.1763
▁нийгмийг	-10.1768
▁өсөх	-10.1771
▁ашиглалтын	-10.1773
▁цэнгэлдэх	-10.1782
▁үйлдлийг	-10.1791
▁уулзалтыг	-10.1793
▁дорноговь	-10.1795
мөнхбат	-10.1796
▁төрийг	-10.1804
▁баригдсан	-10.1812
▁эхэлдэг	-10.1815
▁хүрээгүй	-10.1821
▁рүүгээ	-10.1825
ог	-10.1826
руу	-10.1827
▁трамп	-10.1829
▁үүдэн	-10.183
▁дамжуулах	-10.1832
▁даатгал	-10.1833
▁06	-10.1844
▁жанжин	-10.1845
▁эрхэлсэн	-10.1846
▁хангамж	-10.1847
хай	-10.1848
ель	-10.1849
▁төвийг	-10.1858
▁таг	-10.1859
▁цөм	-10.1861
өөд	-10.1869
▁дараалан	-10.1872
▁сурагчид	-10.1879
▁хязгаар	-10.1883
▁тоон	-10.1887
▁туслалцаа	-10.1888
▁давсан	-10.1889
▁улирал	-10.189
▁өртсөн	-10.1894
▁гэнэтийн	-10.1897
▁хангалуун	-10.1903
▁умард	-10.1911
▁эхлүүлэх	-10.1913
w	-10.1914
эс	-10.1915
▁медалийн	-10.1917
▁нөлөөлдөг	-10.1921
▁насаа	-10.1923
▁хоёулаа	-10.193
даггүй	-10.1931
▁сууна	-10.1936
▁хачин	-10.1938
ст	-10.1941
▁26-	-10.1942
▁хэргээр	-10.1946
▁сүр	-10.1947
▁саналаар	-10.1948
▁ерөөсөө	-10.1951
▁c	-10.1952
рэн	-10.1955
баасанхүү	-10.1957
27	-10.196
гал	-10.196
▁хэлэлцсэн	-10.1964
▁менежер	-10.1964
▁санаачилга	-10.1968
▁чадал	-10.1971
▁тэдгээрийн	-10.1974
▁жинд	-10.1974
▁хамрагдаж	-10.1978
▁талбайг	-10.1986
▁29-	-10.199
▁эрэг	-10.1991
▁итгэлийг	-10.1993
▁цэц	-10.1994
▁хэлнэ	-10.1996
▁төлөөх	-10.2004
▁02	-10.201
▁үүр	-10.2015
үй	-10.2022
▁гүйцэтгэсэн	-10.2023
)-	-10.2026
доллараар	-10.2026
▁хамруулах	-10.2028
▁өсөлтийг	-10.2034
▁өнгийн	-10.2037
▁биелүүлж	-10.2046
▁зөвшөөрч	-10.2046
?”	-10.205
ки	-10.2052
▁хэсгээс	-10.2054
▁банкууд	-10.2054
▁үүсгэх	-10.2058
r	-10.2062
▁ё	-10.2063
▁мэдээлснээр	-10.2063
▁ханддаг	-10.2078
01	-10.2079
▁дууг	-10.2081
▁өөрийг	-10.2083
нөөс	-10.2095
жаргал	-10.2096
▁нэгдэл	-10.2096
▁нөлөөлсөн	-10.21
▁багасгах	-10.2102
▁байгууллагуудад	-10.2102
агийн	-10.2103
▁гишүүнээр	-10.2107
▁тариалан	-10.2109
▁шүүмжлэл	-10.2114
▁сүлжээний	-10.2119
▁өсвөр	-10.2128
▁тутамд	-10.2128
▁хорин	-10.213
▁баахан	-10.2131
▁айж	-10.2136
▁зөвлөж	-10.2139
▁өгөөч	-10.2141
▁чимээгүй	-10.2143
▁насандаа	-10.2149
▁эрсдэлийг	-10.2152
16	-10.2155
▁хээрийн	-10.2155
▁өрнөж	-10.2156
▁бүтээлийг	-10.2159
▁найр	-10.2162
▁өвчлөл	-10.2164
▁мэдүүлэг	-10.2167
▁авчирч	-10.2168
▁элэгний	-10.217
▁технологийг	-10.2172
▁онцоллоо	-10.2177
▁өргөө	-10.2182
▁эзлэх	-10.2182
▁юуг	-10.2183
го	-10.2191
▁намд	-10.2194
▁ашигласан	-10.2197
▁хувьцааны	-10.2202
▁баригч	-10.2203
дорж	-10.2203
▁дууны	-10.2207
▁хөөрхий	-10.2209
хи	-10.221
▁санагдаж	-10.222
ё	-10.2224
▁борлуулалт	-10.223
▁ойролцоо	-10.2232
▁зүгт	-10.2234
▁хэрэгслээр	-10.2235
▁төлбөргүй	-10.2237
▁яаманд	-10.2238
▁мэдээлэв	-10.224
▁агуулга	-10.224
▁мэндийг	-10.2244
▁гагцхүү	-10.2245
▁компьютер	-10.2251
▁хүсье	-10.2252
▁шарх	-10.2254
▁нутагтаа	-10.226
▁цахилгаантай	-10.226
гаад	-10.2263
▁элсэн	-10.2267
тийн	-10.2277
▁төлөвлөгөөг	-10.2277
▁эргэлт	-10.2277
▁агентлагийн	-10.2285
▁бусдаас	-10.2287
▁хандлагатай	-10.2289
▁болдоггүй	-10.2289
▁хариуцлагын	-10.2294
▁буйгаар	-10.2297
▁хувьсгал	-10.2299
▁арваннэгдүгээр	-10.2306
▁жагсаалтад	-10.2307
▁эзэмшлийн	-10.2308
үүлэх	-10.2309
▁хөгжих	-10.231
▁нотлох	-10.2312
▁бүрэлдэхүүнд	-10.2321
/-	-10.2322
ья	-10.2323
▁тухтай	-10.2323
▁амралт	-10.2323
▁төгсгөлд	-10.2325
▁хам	-10.2327
▁05	-10.2329
▁сурталчилгаа	-10.2331
▁танхимын	-10.2334
▁үйлдвэрлэж	-10.2335
▁76	-10.2335
дыг	-10.2338
▁шороо	-10.2343
жих	-10.2353
▁хохирогч	-10.2354
▁мөч	-10.2356
▁хөдөлгөөнийг	-10.2358
▁гурил	-10.2372
▁хэнтийн	-10.2372
▁надтай	-10.2374
▁мэдэлд	-10.2379
▁худалдах	-10.2381
▁харуулах	-10.2388
ма	-10.2397
▁үйлдвэрийг	-10.24
▁өргөжүүлэх	-10.2403
▁d	-10.2405
вол	-10.241
▁улстөрчид	-10.2411
▁шалтгааныг	-10.2414
нө	-10.2418
▁туйлын	-10.2422
▁цоо	-10.2424
▁хэрэглээг	-10.2425
://	-10.243
▁сургах	-10.2433
үүдэд	-10.2439
▁шуугиан	-10.2442
▁анагаах	-10.2443
▁бодлыг	-10.2446
▁үйлдвэрлэлийг	-10.2451
▁шувуу	-10.2452
сүрэн	-10.2454
▁800	-10.2459
▁байгууламжийн	-10.2462
▁тор	-10.2462
жав	-10.2462
▁импортын	-10.2469
от	-10.2471
▁буудалд	-10.2472
▁театрын	-10.2472
▁эрдэс	-10.2473
▁өгөв	-10.2478
▁нью	-10.2478
▁танилцах	-10.2481
▁ерөнхийлөгчид	-10.2482
▁уриалж	-10.2483
▁шийтгэл	-10.2484
▁зөвшөөрлийг	-10.2485
▁тэгэхэд	-10.2487
▁оюутолгой	-10.2487
▁баримтыг	-10.2489
▁хэмжээтэй	-10.2492
▁орныг	-10.2495
▁хэлэлцээ	-10.2498
17	-10.2502
▁өрсөлдөгч	-10.2503
14	-10.2503
▁ердийн	-10.2504
цагаан	-10.2505
▁гудамжинд	-10.2507
▁жишээлбэл	-10.2507
▁өөрчлөлтийн	-10.2511
▁анд	-10.2514
▁ерөнхийдөө	-10.2518
▁байгуулдаг	-10.2521
▁оройн	-10.2523
▁зогсоол	-10.2523
▁бодоход	-10.2524
▁ярилцах	-10.2524
▁болчихоод	-10.2526
▁хичээж	-10.2526
▁гаргахад	-10.2534
жиг	-10.2538
▁7.	-10.2539
▁эвсэл	-10.2539
▁үйлдэх	-10.2542
▁ад	-10.2542
▁сонирхож	-10.2545
▁хүлээлт	-10.2547
▁үнэнийг	-10.2554
ги	-10.2557
▁өнгөрөгч	-10.2562
▁сонины	-10.2566
▁судалгаанд	-10.2568
23	-10.2572
өн	-10.2572
▁баримталж	-10.2573
▁арванхоёрдугаар	-10.258
амгалан	-10.2581
▁комисс	-10.2584
▁зөрүүтэй	-10.2584
▁мөнгөтэй	-10.259
▁заасны	-10.259
▁цахилгааны	-10.2595
▁үхрийн	-10.2595
▁хиймэл	-10.2596
▁39	-10.2601
▁зөвлөлдөх	-10.2608
22	-10.2609
▁задгай	-10.2617
▁тэргүүлж	-10.2629
▁хөгшин	-10.2632
▁хувьсгалын	-10.2632
▁600	-10.2633
▁дарна	-10.2633
▁хүнээ	-10.2639
▁засаглал	-10.2645
▁багтаан	-10.2649
снээр	-10.265
эй	-10.265
▁бололцоо	-10.2651
▁17-	-10.2652
▁хэвээрээ	-10.2653
▁ялгаатай	-10.2656
▁чоно	-10.2657
▁эрхт	-10.2659
▁цохилт	-10.2659
▁эдүгээ	-10.2669
▁тэмцэж	-10.267
им	-10.267
▁түлш	-10.267
▁үзээгүй	-10.2672
▁нэрээ	-10.2673
▁үндсэндээ	-10.2673
▁холбооноос	-10.2673
нийг	-10.2674
▁инженерийн	-10.2676
▁төрүүлж	-10.2683
▁өндөртэй	-10.2684
▁тухайгаа	-10.2686
▁эрхлэгчид	-10.2688
▁өнөөг	-10.269
▁24-	-10.2691
▁буулгаж	-10.2693
▁толгойгоо	-10.2702
жи	-10.2703
▁санаанд	-10.2704
▁ярилаа	-10.2706
▁дэвшил	-10.2708
▁тустай	-10.2711
▁эзэмшигч	-10.2713
▁эрчимжүүлэх	-10.2717
▁эргүүлэн	-10.272
▁1.5	-10.2721
▁цуврал	-10.2722
▁олонхи	-10.2728
▁радио	-10.2729
батбаяр	-10.2735
▁хишиг	-10.2737
▁давс	-10.2743
▁нэгний	-10.2743
▁хөнгөлөлт	-10.2745
шил	-10.2749
▁бичжээ	-10.2753
▁хурааж	-10.2755
ик	-10.2756
▁дүрмийн	-10.2758
снаа	-10.2762
▁бөөн	-10.2775
▁сэтгэлээ	-10.2779
▁нөөцийг	-10.278
▁суудлын	-10.278
▁ертөнцийн	-10.2782
▁үүгээр	-10.2784
▁баялгийн	-10.2785
▁буцааж	-10.2787
олон	-10.2788
▁хөгжүүлэхэд	-10.2789
▁хань	-10.2794
▁хэлснээр	-10.2802
▁тариалангийн	-10.2803
▁харуул	-10.2803
▁зарлах	-10.2804
мээр	-10.2804
▁засаглалын	-10.2809
▁дуугүй	-10.2809
▁зху	-10.281
▁болсноор	-10.281
ой	-10.2813
▁гарахад	-10.2817
шиж	-10.2823
▁хүндэтгэн	-10.2828
▁бут	-10.283
▁төвшинд	-10.283
▁сандал	-10.2831
▁өрсөлдөөн	-10.2834
▁аргыг	-10.2843
▁өгөөгүй	-10.2848
▁эвгүй	-10.2848
▁модны	-10.2851
▁морины	-10.2854
агч	-10.2857
▁хас	-10.2863
▁m	-10.2864
▁зарчмыг	-10.2864
▁тархи	-10.2869
k	-10.2876
▁хөрс	-10.2878
▁хав	-10.2879
▁хангалтгүй	-10.288
▁хүрээлэнд	-10.2885
▁борлуулах	-10.2891
▁мөрөөдөл	-10.2892
▁цар	-10.2893
▁театр	-10.2895
▁төлөвлөгөөний	-10.2897
▁үйлчилж	-10.29
▁илгээх	-10.2901
▁ирээгүй	-10.2904
▁боловсролтой	-10.292
▁хэнийг	-10.2922
▁хагаст	-10.2922
▁вирус	-10.2929
▁нум	-10.293
▁зэсийн	-10.2933
▁иргэдээ	-10.2936
▁чадсангүй	-10.2937
лэсэн	-10.2944
▁журмаар	-10.2947
тэйгээр	-10.2949
▁иргэнд	-10.2955
▁байгуулагч	-10.2964
l	-10.2966
өр	-10.2968
▁дурын	-10.2969
▁муж	-10.297
35	-10.2972
▁салах	-10.2973
▁эвслийн	-10.2975
▁оюу	-10.2975
▁дэвшүүлж	-10.2976
▁ажилгүй	-10.2977
▁хөшөө	-10.2978
▁бэр	-10.2978
▁хонины	-10.298
▁үхэх	-10.2988
▁хаах	-10.2988
▁хардаг	-10.2989
▁шүд	-10.2991
▁хэргээс	-10.2992
▁ярилцсан	-10.2993
▁очиход	-10.2993
▁дэвсгэр	-10.2996
▁халамжийн	-10.2997
▁27-	-10.2997
▁иргэдийнхээ	-10.2997
▁сурагчдын	-10.3
▁23-	-10.3004
▁байгууллагыг	-10.3005
▁2005	-10.3005
▁хаашаа	-10.3007
алт	-10.3008
▁асуухад	-10.3009
▁тоглолтод	-10.301
60	-10.301
▁тэргүүлэгч	-10.3011
соор	-10.3011
▁эсхүл	-10.3012
▁адуу	-10.3012
▁сэтгэгдэлийг	-10.3016
▁хүсэлтээ	-10.3022
▁сүлд	-10.3026
▁малчдын	-10.3026
▁таниулах	-10.303
▁ма	-10.3031
▁учрыг	-10.3033
▁явдлын	-10.3033
▁хамаарч	-10.3033
ист	-10.3034
▁барилгыг	-10.3035
”-	-10.3039
▁урьж	-10.3045
▁хянаж	-10.3047
▁солилцох	-10.305
▁медальт	-10.305
▁зогсох	-10.3052
алж	-10.3053
▁олгоно	-10.3053
▁ха	-10.3062
▁одтой	-10.3064
▁зуурын	-10.3068
▁гүйж	-10.3074
▁ун	-10.3085
▁ням	-10.3087
▁алд	-10.309
▁ургац	-10.3092
▁номыг	-10.3094
▁найруулгын	-10.3108
▁ажиллуулж	-10.3109
18	-10.3109
▁бодлогоор	-10.311
▁сонирхлыг	-10.3114
▁сурсан	-10.3114
бай	-10.3118
джээ	-10.312
▁үүн	-10.3124
▁болгоомжтой	-10.3128
▁төмс	-10.3135
▁хамтлагийн	-10.3139
▁бүтээлчид	-10.314
▁нуруу	-10.3141
▁хүртлээ	-10.3145
▁туулах	-10.3146
дгийг	-10.3154
▁бичил	-10.3159
▁бямба	-10.3161
▁байгуулахад	-10.3162
▁намынхаа	-10.3164
▁тэмдэглэх	-10.3166
▁эхлүүлж	-10.3168
▁дадлага	-10.3171
▁57	-10.3174
▁олборлолт	-10.3175
▁2004	-10.3177
▁үргэлжлүүлэх	-10.3183
▁тангараг	-10.3192
эдийн	-10.3195
▁сурталчлах	-10.3195
▁булан	-10.3198
▁чихэр	-10.3205
▁чадаж	-10.3206
▁дуустал	-10.321
▁талархаж	-10.3211
▁дагуулж	-10.3222
▁британийн	-10.3222
▁мэргэшсэн	-10.3223
ших	-10.3225
▁хэрлэн	-10.3225
▁сүлжээнд	-10.3226
▁тутам	-10.323
▁аппарат	-10.3233
▁хандуулж	-10.3236
▁буурах	-10.3239
▁галын	-10.3242
уур	-10.3243
▁43	-10.3245
▁санхүүжилтийг	-10.3248
▁талт	-10.3251
▁тойрон	-10.3253
▁хүрээний	-10.3254
▁сэтгүүлчдийн	-10.3255
▁хэлэлцээд	-10.3258
лөө	-10.3264
▁хөлбөмбөгийн	-10.3264
▁өчүүхэн	-10.3268
▁дуулж	-10.3272
▁биеэр	-10.3274
▁хоёрт	-10.3276
▁танилцуулав	-10.3278
▁нэрт	-10.3281
тер	-10.3284
ar	-10.3287
▁хуульч	-10.3288
▁тоглогч	-10.3292
▁будаа	-10.3294
▁52	-10.3298
▁үйлдвэрлэгч	-10.3298
▁оршдог	-10.3302
▁харьяат	-10.3303
▁хэрэгжилт	-10.3307
▁31-	-10.3307
▁бүлэглэл	-10.3308
▁юү	-10.3313
(	-10.3322
▁зээлээ	-10.3324
▁хийхдээ	-10.3327
▁хүслээ	-10.3327
▁чадлаа	-10.3331
▁илэрхийлэв	-10.3336
ха	-10.3336
▁үзжээ	-10.3336
▁бүлэгт	-10.334
▁зэрэгцэн	-10.334
үүлсэн	-10.3346
үүлэн	-10.3348
▁гаргалаа	-10.3348
▁15-20	-10.3354
ина	-10.3357
▁автобусны	-10.3361
▁f	-10.3363
▁суртал	-10.3365
▁анхаарлын	-10.3366
▁найруулга	-10.3368
▁унтаж	-10.3369
▁хэлээр	-10.3371
луулах	-10.3372
▁1-6	-10.3377
лин	-10.3378
▁түрүү	-10.3378
▁болгоход	-10.3385
▁жишээтэй	-10.3386
▁дамжуулж	-10.3388
▁гэхээс	-10.339
▁шид	-10.3392
▁буулгах	-10.3392
▁гай	-10.3397
▁нэмэгдэнэ	-10.3398
▁татгалзах	-10.3401
▁туркийн	-10.3402
▁мэргэжилтэй	-10.3403
▁гарцаагүй	-10.3405
▁одон	-10.3417
▁хамгаалалт	-10.3419
▁44	-10.3428
иж	-10.3437
▁амтай	-10.3437
▁таарна	-10.3439
даад	-10.3441
▁толгойг	-10.3442
▁нөхцлийг	-10.3447
▁танилцуулга	-10.3447
▁идэвх	-10.3451
▁жүжиг	-10.3453
▁пүрэв	-10.3455
▁нийлж	-10.3459
раа	-10.346
▁ухаантай	-10.3464
▁8-13	-10.3467
▁насан	-10.3467
▁бүсгүйчүүд	-10.3469
▁ирэхээр	-10.3473
▁өргөх	-10.3474
▁түрээсийн	-10.3475
▁голомт	-10.3479
▁гартаа	-10.3481
▁найзууд	-10.3487
▁үүдэлтэй	-10.3488
▁уншигч	-10.349
хөн	-10.3492
▁ирц	-10.3493
▁тушаалаар	-10.3495
▁найрсаг	-10.3496
▁түгээмэл	-10.3498
▁хаягдал	-10.3503
▁үнэмлэх	-10.3504
▁зарах	-10.3505
▁талаасаа	-10.3506
онд	-10.3508
ладаг	-10.351
ди	-10.3512
▁гутал	-10.3512
▁английн	-10.3518
▁нутгаас	-10.3523
-1	-10.3526
▁онол	-10.3533
▁дэвшиж	-10.3535
▁төдийлөн	-10.3536
▁хо	-10.3537
▁41	-10.3538
баярсайхан	-10.3545
▁зарцуулж	-10.3548
▁хүртэх	-10.3553
▁намуудын	-10.3556
▁юмыг	-10.3557
▁биелүүлэх	-10.3558
эг	-10.3559
жуулах	-10.3564
▁түлхүү	-10.3565
▁тайланд	-10.3575
▁сануулж	-10.3578
▁төлөөлөгчийн	-10.3583
▁түншлэлийн	-10.3583
▁зөрчлийг	-10.3594
аз	-10.3597
▁хаалттай	-10.3599
▁москва	-10.36
хүрэлбаатар	-10.3601
▁сэтгэлтэй	-10.3608
▁тоонд	-10.361
▁тэндээс	-10.3611
▁засч	-10.3612
▁орхисон	-10.3614
▁дотуур	-10.3615
▁хэрэгслийг	-10.3618
▁хилээр	-10.3618
▁хө	-10.3622
▁01-	-10.3624
▁хэний	-10.3626
▁дураараа	-10.3631
▁mongolian	-10.3634
▁зоригтой	-10.3636
▁тийшээ	-10.3643
▁сайжруулж	-10.3643
▁олноор	-10.3648
уг	-10.3652
▁мэдлийн	-10.3652
▁таарсан	-10.3652
▁ханд	-10.3654
▁төлөөлөн	-10.3656
▁доошгүй	-10.3657
▁атлаа	-10.3659
▁цаасан	-10.3662
ая	-10.3664
▁мөртлөө	-10.3665
▁толь	-10.3667
▁сургалтыг	-10.3669
▁алс	-10.3672
▁сэтгэлээр	-10.3672
▁ангилалд	-10.3674
▁нэвтрүүлэг	-10.3674
▁зохицуулалтыг	-10.368
▁ес	-10.3682
▁үгээ	-10.3688
ганхуяг	-10.3702
▁re	-10.3704
▁тусгах	-10.3707
▁ялгаа	-10.3708
▁авьяас	-10.3709
▁ойролцоогоор	-10.3712
▁хамаарах	-10.3712
▁улсууд	-10.3717
▁гэмээр	-10.372
▁01	-10.3725
▁дотны	-10.3736
▁дэглэм	-10.374
▁цалингийн	-10.3741
өг	-10.3743
▁зурах	-10.3746
▁лхагва	-10.3753
▁хувьцааг	-10.3755
▁бөхчүүд	-10.3757
▁сүүлдээ	-10.3758
оод	-10.3769
▁татвараас	-10.3769
чихлаа	-10.3769
▁тодруулах	-10.377
▁үргэлжилнэ	-10.3776
дар	-10.3777
▁санхүүжүүлэх	-10.3784
▁дарах	-10.3786
▁дотроос	-10.3787
▁байгаарай	-10.3787
▁тэмцээнийг	-10.3789
▁мандан	-10.3791
▁14-16	-10.3791
▁форум	-10.3793
▁үхсэн	-10.3793
▁жагсаалт	-10.3796
▁худалдаанд	-10.3798
▁үйлдвэрлэсэн	-10.3799
▁бодлогоо	-10.3801
▁нэлээн	-10.3804
▁тусгаж	-10.3805
ел	-10.3808
▁амжилтыг	-10.381
▁?	-10.3813
бо	-10.3813
▁хүй	-10.3815
▁ол	-10.3818
▁эзэд	-10.3821
▁зурагт	-10.3824
гий	-10.3824
▁авчирсан	-10.3825
▁бүжиг	-10.3827
▁асуух	-10.3829
▁баруунаас	-10.384
▁ширүүн	-10.3841
▁шаардсан	-10.3846
гуй	-10.3849
▁нутгийг	-10.385
▁үргэлжилсэн	-10.3855
▁дуудаж	-10.3856
▁явуулахад	-10.3856
▁тохиож	-10.3858
▁туз	-10.386
▁уншаад	-10.386
29	-10.3863
▁жан	-10.3866
▁250	-10.3868
▁амлалт	-10.3871
▁захирагчийн	-10.3872
▁тогтворгүй	-10.3872
▁бээжин	-10.3874
▁хэвтэж	-10.3874
▁оухм	-10.3875
▁цагдан	-10.3877
▁намыг	-10.3882
▁зөн	-10.3886
▁бүртгэх	-10.3887
▁үндэслэлээр	-10.3893
ом	-10.3893
▁өвчнөөс	-10.3893
▁зуух	-10.3894
26	-10.3899
▁аяны	-10.3901
▁уб	-10.3904
▁бүрдэнэ	-10.3905
чихээд	-10.3906
▁хүйтнээс	-10.3907
▁юмсан	-10.3911
тэл	-10.3916
▁брэнд	-10.3917
re	-10.3923
▁түүгээр	-10.3924
▁зарлиг	-10.3929
▁нааш	-10.3935
▁виз	-10.3935
▁хөлөө	-10.3937
▁хойч	-10.3938
▁нэвтрэх	-10.3939
▁ордыг	-10.394
▁хортой	-10.3942
▁хэлэлцээрийн	-10.3943
▁системд	-10.3949
гүйн	-10.3951
▁бирж	-10.3956
ак	-10.3956
ло	-10.3958
▁удам	-10.3961
▁өгөхөөр	-10.3962
▁тусдаа	-10.3963
▁цом	-10.3964
▁малгай	-10.3964
▁өнгөрүүлэх	-10.3964
▁босгох	-10.3967
▁хамарсан	-10.3967
▁бүхэл	-10.3967
▁учруулсан	-10.3969
▁000	-10.3971
▁элч	-10.3971
▁маягаар	-10.3976
хад	-10.3978
▁шийдвэрийн	-10.3978
▁хадгаламж	-10.3984
▁8.	-10.3985
▁өсөж	-10.3988
▁зэрэгт	-10.3995
▁байхын	-10.3997
▁хөлсний	-10.3998
▁1992	-10.4004
▁хөөрхөн	-10.4004
70	-10.4006
ch	-10.4007
▁бэрх	-10.4012
▁анхдугаар	-10.4016
21	-10.4021
▁хөвсгөлийн	-10.4022
▁нөат	-10.4023
гоос	-10.4024
▁энэтхэгийн	-10.4029
▁мөсөн	-10.4032
▁хурлаас	-10.4034
▁явахдаа	-10.4044
▁ололт	-10.4045
▁туршилт	-10.4045
▁баригдаж	-10.4049
▁тулгуурлан	-10.4051
▁туяа	-10.4054
▁дав	-10.4054
se	-10.4056
▁захидал	-10.4061
▁отрын	-10.4064
▁гүнзгий	-10.4066
.05	-10.4067
▁жирэмсэн	-10.4072
▁бүжгийн	-10.4077
▁камер	-10.4078
▁бүрэлдэхүүнтэй	-10.4078
▁мундаг	-10.408
хий	-10.4085
▁даган	-10.4085
▁олгохоор	-10.4087
чиг	-10.4088
▁өнгөтэй	-10.4093
▁засварын	-10.4093
▁хязгаарлах	-10.4101
▁сурталчилгааны	-10.4101
▁ордын	-10.4103
▁зэрлэг	-10.4105
▁үх	-10.4109
▁шалтгаалан	-10.4117
▁уралдааны	-10.4117
▁олонд	-10.4119
▁зуу	-10.4122
▁нислэг	-10.4124
ем	-10.4124
▁илрэл	-10.4127
▁мэтчилэн	-10.4127
▁ямагт	-10.4135
гай	-10.4136
▁барина	-10.414
▁метрийн	-10.4142
▁ялсан	-10.416
▁амрах	-10.4162
▁хариуд	-10.4166
▁өвөө	-10.4167
▁айдас	-10.4169
▁санах	-10.4174
▁болголоо	-10.4174
дон	-10.4175
▁тн	-10.4175
▁үзлээ	-10.418
▁тогтоолыг	-10.4182
▁хангайн	-10.4183
▁зовж	-10.4185
▁да	-10.4186
▁зургаадугаар	-10.419
▁гайгүй	-10.4192
▁өвөг	-10.4193
▁сэргийлж	-10.4195
▁татгалзсан	-10.4195
▁холбох	-10.4196
▁компанитай	-10.4196
▁хөгжсөн	-10.4197
өөрөө	-10.4198
▁орлоо	-10.4199
▁ойлгосон	-10.4205
▁гишүүдэд	-10.4207
▁сахиулах	-10.4219
▁сөргөөр	-10.4219
-2	-10.4223
▁гишүүдийг	-10.4223
▁14.00	-10.4224
эж	-10.4226
снээс	-10.4229
▁өсгөх	-10.4233
үүр	-10.4238
▁зээлээр	-10.424
▁нойр	-10.4241
мон	-10.4244
гэ	-10.4244
▁өөрсдийнхөө	-10.4245
80	-10.4246
▁начин	-10.4246
▁үүсээд	-10.4254
рийн	-10.4255
▁аан	-10.4257
гээд	-10.426
▁бүрдэх	-10.4265
▁хааяа	-10.4265
▁корпораци	-10.4269
▁хүрчээ	-10.4272
▁үеэрээ	-10.4274
▁сонгогчдын	-10.4277
▁зураач	-10.4277
▁үзүүлнэ	-10.4278
▁зориулалтаар	-10.428
▁тэгтэл	-10.4281
▁дагавар	-10.4283
▁улсынхаа	-10.4287
▁өөрчлөгдөж	-10.4288
▁асуув	-10.4291
иас	-10.4295
▁утгатай	-10.4296
▁гээч	-10.4296
▁нээсэн	-10.4297
▁шалгаруулалт	-10.4299
▁үндэстний	-10.4303
▁барилдаанд	-10.4304
ск	-10.4304
▁тэмдэглэн	-10.4306
чилж	-10.4312
ва	-10.4313
▁тендер	-10.4313
▁дэмждэг	-10.4315
▁жуулчлал	-10.4317
▁ми	-10.432
▁чадварлаг	-10.432
▁53	-10.4321
▁түнш	-10.4322
▁наадмыг	-10.4324
▁экспортлох	-10.4331
▁буцалтгүй	-10.4332
▁төхөөрөмжийг	-10.4334
▁хэрэглэгчийн	-10.4339
бу	-10.4339
▁тушаалтнууд	-10.4346
▁өртөж	-10.4347
▁туршид	-10.4348
▁хэмээсэн	-10.4353
▁зүс	-10.4356
▁уруу	-10.436
▁дотооддоо	-10.4361
▁доорх	-10.4364
▁канад	-10.437
▁битүү	-10.4372
▁тараах	-10.4373
▁шаардагдах	-10.4374
▁худаг	-10.4377
▁унтраах	-10.4379
▁австрали	-10.438
▁урьдчилгаа	-10.4381
▁тоглоомын	-10.4385
▁мэргэжлээр	-10.4388
▁зогссон	-10.4389
▁тусгагдсан	-10.439
▁асуулга	-10.4391
▁шүүхээр	-10.4391
ул	-10.4392
▁дүнгийн	-10.4398
▁хэлмээр	-10.4398
▁тулгуур	-10.4399
▁утгаар	-10.4399
▁нэгдэн	-10.4411
▁зүтгэлтэн	-10.4416
▁гэхээсээ	-10.4416
▁аймгаас	-10.4417
▁тивийн	-10.442
▁хүмүүсээс	-10.4422
▁ажилчдын	-10.4423
▁хайгуулын	-10.4424
▁тэг	-10.4425
▁ин	-10.4425
▁ойлгодог	-10.4433
▁ороход	-10.4436
▁нүх	-10.4436
▁мөрөн	-10.4447
▁улстөрч	-10.4451
ганбат	-10.4454
▁13-18	-10.4455
▁09.00	-10.4457
рэх	-10.4466
▁төстэй	-10.447
▁чармайлт	-10.4471
▁тэднээс	-10.4471
▁бүрдүүлсэн	-10.4477
▁заслын	-10.4478
▁уялдаа	-10.4478
бол	-10.448
▁парк	-10.4482
▁оруулагчид	-10.4485
▁талх	-10.4488
▁тогтоогдсон	-10.4488
▁больсон	-10.4489
▁тогтоомжийн	-10.4491
▁үдээс	-10.4491
▁материалыг	-10.4494
▁эмх	-10.4494
▁хэнтэйн	-10.4503
▁эдэлж	-10.4507
▁шийтгэх	-10.4508
▁орчинг	-10.4509
алсан	-10.4513
▁сөх	-10.4513
▁бохирдлын	-10.4515
төр	-10.4517
▁өршөөлийн	-10.4518
▁цайны	-10.4518
▁санагдана	-10.4519
▁тархины	-10.452
▁украины	-10.4521
ия	-10.4523
▁мандал	-10.4524
▁байгуулалттай	-10.4525
▁шийдвэрээ	-10.4527
▁доторх	-10.4534
▁багаар	-10.4537
▁манан	-10.4538
бар	-10.4542
▁оруулна	-10.4542
▁дэлгэр	-10.4547
▁гоол	-10.4548
▁хутга	-10.4551
▁тойргийн	-10.4552
▁илэрхийлээд	-10.4552
▁жи	-10.4555
цаг	-10.4557
▁47	-10.4559
▁9-14	-10.4562
▁захирамж	-10.4563
▁путин	-10.4563
▁уулзвар	-10.4564
▁газруудад	-10.4565
▁монголдоо	-10.4567
өх	-10.4568
▁мөрдөж	-10.4568
▁томуу	-10.4569
▁удирдан	-10.457
▁багануур	-10.457
▁тарих	-10.4572
▁үүлэрхэг	-10.4576
▁тарааж	-10.4579
▁санг	-10.4579
ра	-10.4582
▁төслүүдийн	-10.4587
луулсан	-10.4588
▁зарчмаар	-10.4589
▁босго	-10.4596
▁статистик	-10.4605
▁хэрэглэгчид	-10.4606
▁тэнгэрт	-10.4608
▁оролцогчид	-10.4616
▁ургамлын	-10.4616
▁iii	-10.4619
▁стратеги	-10.4621
▁өгүүлсэн	-10.4626
▁гэ	-10.4626
▁хэлэлцүүлгийн	-10.4629
ед	-10.463
▁таних	-10.4633
рав	-10.4635
▁хэдийн	-10.4635
▁хайрлаж	-10.4637
ож	-10.4648
▁гишүүнийг	-10.465
оргил	-10.4653
лүүлж	-10.4653
▁зөндөө	-10.4654
шир	-10.4656
▁онцлов	-10.4657
▁тэтгэмж	-10.4667
▁тэжээлийн	-10.467
▁түрүүлсэн	-10.4675
▁учраа	-10.4675
▁засагч	-10.4678
▁эрхэлдэг	-10.4678
▁мэдэгдэх	-10.4681
снийг	-10.4692
▁g	-10.4692
▁хүндийг	-10.4696
▁бэлтгэлээ	-10.4698
лага	-10.4703
▁дурсамж	-10.4706
▁бүтээгдэхүүнээ	-10.4709
▁чингисийн	-10.4715
co	-10.4718
▁тохиолдуулан	-10.472
▁бүрээр	-10.4721
▁сураг	-10.4724
дав	-10.4726
▁хөрсний	-10.4729
аан	-10.4731
▁оршиж	-10.4735
▁зүтгэл	-10.4737
▁алаг	-10.4739
▁бэлчир	-10.4744
▁бүрдэж	-10.4748
▁сирийн	-10.4751
▁олдсон	-10.4757
▁цаасны	-10.4758
▁чинээ	-10.4765
▁үлдээсэн	-10.4768
▁зүүд	-10.4772
▁тоглолтыг	-10.4774
батзандан	-10.4776
▁9.	-10.4785
▁сагсан	-10.4789
▁эзэмшдэг	-10.479
us	-10.4793
▁хийгдэх	-10.4797
▁хаалганы	-10.4797
▁хувьдаа	-10.4798
ард	-10.48
▁танилцсан	-10.4801
▁эмчийн	-10.4806
▁тусалж	-10.4807
гэж	-10.4807
▁шүүгчийн	-10.481
▁эрүү	-10.4819
▁дайсан	-10.482
▁олимп	-10.482
цог	-10.4822
▁гадагш	-10.4825
▁иргэдтэй	-10.4827
▁оржээ	-10.4829
▁хүр	-10.483
▁усаар	-10.4831
▁төрлөөр	-10.4837
арч	-10.4841
▁байгуулагдах	-10.4842
▁мэддэггүй	-10.4842
▁баталлаа	-10.4846
▁авгай	-10.4847
хаан	-10.4848
илж	-10.4849
▁гэрээгээр	-10.4852
▁нээлтээ	-10.4852
▁хашиж	-10.4855
▁700	-10.4857
▁мэдлийг	-10.4857
▁амарч	-10.4861
▁шагналт	-10.4867
▁томилсон	-10.4868
рай	-10.4868
▁өнцөг	-10.4869
▁арилжаа	-10.4869
▁хай	-10.4873
▁сүнс	-10.4881
▁ханшийн	-10.4882
шиг	-10.4883
▁мэдлээ	-10.4886
▁хийлгэж	-10.4889
▁чадвараа	-10.4889
▁дүрд	-10.489
▁өгье	-10.4895
▁харлаа	-10.4896
▁тавина	-10.4896
▁хураах	-10.4897
▁хийв	-10.49
▁ажиллаад	-10.4901
▁хариуг	-10.4902
▁баримтлал	-10.4904
▁саруул	-10.4907
▁зорьсон	-10.4907
хийн	-10.4909
▁жаргана	-10.4911
▁хүсэн	-10.4921
▁нэрлэдэг	-10.4935
▁асуусан	-10.4935
▁ойлгохгүй	-10.4945
улс	-10.4947
тээ	-10.4956
▁таарч	-10.4959
▁үйлдвэрт	-10.4967
▁хувааж	-10.4975
▁са	-10.4976
▁хэлэлцүүлэх	-10.4979
▁мягмар	-10.498
болор	-10.498
▁ааш	-10.4982
▁хайгуул	-10.4983
▁дараагаар	-10.4984
▁хийд	-10.4984
бямбацогт	-10.4985
▁хэрэгцээг	-10.4986
▁хонгор	-10.4988
▁тамга	-10.4992
▁амаргүй	-10.4994
▁бүсгүйн	-10.4996
▁шинжээчид	-10.4997
▁өвдөх	-10.4997
▁дагуул	-10.4999
▁алдалгүй	-10.5001
▁амжаагүй	-10.5003
▁дундговь	-10.5006
▁тат	-10.5007
▁барил	-10.5009
▁компаний	-10.5013
▁байшингийн	-10.5014
▁уугуул	-10.5015
28	-10.5018
▁сэтгүүлчид	-10.5018
▁амны	-10.5023
▁бичгээр	-10.5023
▁ялгаагүй	-10.5023
▁зөрүү	-10.5027
▁оруулаад	-10.5031
▁тогтворжуулах	-10.5035
гэрэл	-10.5037
▁механизм	-10.5037
▁замбараагүй	-10.5037
▁хурим	-10.5039
▁үер	-10.504
лэл	-10.5041
▁тооцсон	-10.5041
нуудыг	-10.5043
▁одогсод	-10.5044
ддаг	-10.5045
▁цээж	-10.5046
▁эхэн	-10.5053
▁компаниудад	-10.5055
▁барилдааны	-10.5056
▁хангахад	-10.5057
▁түмнийхээ	-10.5061
▁шинэхэн	-10.5061
▁өрийг	-10.5062
▁боломжийн	-10.5063
▁агаад	-10.5063
▁зорилтот	-10.5064
▁даан	-10.5065
▁хээр	-10.5068
▁оронч	-10.5073
▁тодорхойлсон	-10.5074
▁гардуулах	-10.5075
▁гараар	-10.5077
▁63	-10.5078
дэлхийн	-10.5081
▁бэлэглээрэй	-10.5083
▁өөх	-10.5083
▁барихаар	-10.5084
▁хуулинд	-10.5089
▁санаачилсан	-10.5092
▁гарвал	-10.5093
лэ	-10.5095
ныхаа	-10.5099
▁нараас	-10.5101
дээд	-10.5103
▁үнэлгээний	-10.5105
▁тодруулж	-10.5106
▁иргэддээ	-10.5108
▁менежмент	-10.5109
▁охиныг	-10.5113
▁мэдээлэх	-10.5114
▁нойтон	-10.5114
▁мансууруулах	-10.5119
вар	-10.512
▁статистикийн	-10.512
ням	-10.5123
▁гэрч	-10.5123
▁бүтээлээ	-10.5126
▁үзх	-10.5127
▁for	-10.5127
▁11.00	-10.5132
▁гэдэс	-10.5133
▁хараахан	-10.5133
▁ханган	-10.5136
▁эмчлэх	-10.5137
▁илэрхийлье	-10.514
▁төлөвлөжээ	-10.5146
лоод	-10.5151
▁ши	-10.5151
▁дурлал	-10.5152
долларыг	-10.5153
▁музей	-10.5153
▁төлбөрөө	-10.5163
▁уурын	-10.5167
▁яваар	-10.5168
▁эмгэг	-10.5169
▁бүхэлд	-10.5177
▁унд	-10.5178
▁хятадад	-10.5182
▁этгээдийн	-10.5184
▁дүнгээ	-10.5187
▁багаж	-10.519
▁завсар	-10.519
▁тусгажээ	-10.5193
▁цаад	-10.5194
▁ажилтны	-10.5197
▁үүсдэг	-10.5197
▁армийн	-10.5199
▁дарс	-10.5203
оосоо	-10.5209
▁хамар	-10.521
▁охиноо	-10.5211
▁46	-10.5212
▁сонгуулийг	-10.5219
▁шилжүүлж	-10.5221
▁хэрэгжүүлэгч	-10.5223
ио	-10.5224
▁k	-10.5227
лэв	-10.5227
▁тэргүүнд	-10.523
▁чиглэлийг	-10.5231
▁ялж	-10.5232
▁нэгдмэл	-10.5237
▁сувилагч	-10.5239
▁өдий	-10.5242
▁ахиц	-10.5242
▁нийцүүлэн	-10.5243
▁ажиллахад	-10.5245
▁ди	-10.525
▁хэрлэнбаян	-10.5256
сийн	-10.5257
▁дэвшүүлэх	-10.5257
▁цорын	-10.5259
▁тэртээ	-10.5261
хгүй	-10.5267
▁тогтнол	-10.5269
▁кар	-10.5269
▁юутай	-10.527
▁нэмрээ	-10.5271
▁үнэлэх	-10.5271
▁оруулахаар	-10.5272
лд	-10.5274
▁20-25	-10.528
рио	-10.5282
▁марк	-10.5285
▁орхиж	-10.5286
▁ширээний	-10.5289
▁төлөөлж	-10.529
хүн	-10.5295
▁бодисын	-10.5295
▁шүүмжилж	-10.5301
▁04	-10.5302
▁жиргэх	-10.5302
▁заалдах	-10.5304
▁нэгдэх	-10.5305
▁байн	-10.5305
▁шаардах	-10.5309
▁хүндэтгэлийн	-10.5315
▁95	-10.5318
▁нялх	-10.5325
▁аймшигтай	-10.5326
▁эртнээс	-10.5326
▁найм	-10.5328
▁тоос	-10.533
▁босч	-10.5333
▁оролдлого	-10.5337
▁эзэмшсэн	-10.5337
рын	-10.5338
▁боловсруулан	-10.534
▁дайрч	-10.5345
шударга	-10.5348
уулаад	-10.5349
▁эцэс	-10.535
el	-10.5352
▁тээвэрлэх	-10.5354
▁этгээдийг	-10.5354
▁тайланг	-10.5355
▁юунаас	-10.5357
▁амьдралдаа	-10.5358
▁гуйж	-10.5367
▁зорилтыг	-10.5371
сайхан	-10.5371
▁буух	-10.5371
▁хэлэлцээрийг	-10.5374
▁2003	-10.5375
▁садан	-10.5376
▁үүргийн	-10.538
▁харилцаатай	-10.5382
▁инээд	-10.5383
▁татгалзаж	-10.5386
▁хүмүүнлэгийн	-10.5388
ханд	-10.539
▁уян	-10.5392
▁холбоог	-10.5393
▁төлөвлөгөөтэй	-10.5395
▁илгээсэн	-10.5396
▁суудалтай	-10.5396
▁тэмээ	-10.5404
▁цолтой	-10.5404
▁сургамж	-10.5416
▁нягтлан	-10.5416
сүхбаатар	-10.5418
▁оролцдог	-10.5419
▁жагсаалтыг	-10.5421
уулдаг	-10.5427
es	-10.5435
▁толгойд	-10.544
дад	-10.5442
▁тар	-10.5445
▁mongolia	-10.5449
▁дорой	-10.5451
▁тог	-10.5461
▁гаргахаар	-10.5467
▁чуулганд	-10.5475
▁байгуулжээ	-10.5476
до	-10.5476
чихдаг	-10.5477
▁стандартыг	-10.5481
▁нэрлэсэн	-10.5495
▁ярьжээ	-10.5499
▁хуультай	-10.55
▁төхк	-10.5501
▁станцын	-10.5505
иар	-10.5506
▁сонс	-10.5507
▁зардлын	-10.5507
▁гомдлыг	-10.5507
▁түмэндээ	-10.5507
▁56	-10.5507
▁сүүл	-10.551
▁2002	-10.551
▁гэрчилгээ	-10.5511
▁японд	-10.5515
▁долоодугаар	-10.552
▁маркийн	-10.552
▁зул	-10.5522
▁монголоос	-10.5525
са	-10.553
▁оролцохоор	-10.5532
▁мэдээлжээ	-10.5534
▁бааз	-10.5536
▁эзэлдэг	-10.5542
▁борооны	-10.5545
▁евро	-10.5548
▁уулзалтаар	-10.555
ви	-10.5552
▁ширээ	-10.5556
▁холбож	-10.5556
▁олдохгүй	-10.5563
▁захиалга	-10.5564
▁нэрлэж	-10.5564
▁барилдаж	-10.5566
▁зохицуулж	-10.5567
▁улсаа	-10.5569
▁хэвшил	-10.5575
▁72	-10.5575
▁03	-10.5577
▁үйлс	-10.5579
▁цег	-10.5579
чихсон	-10.5581
▁барууны	-10.5583
▁гаргахгүй	-10.5587
▁илрүүлэх	-10.5589
▁бул	-10.5597
▁салаа	-10.5599
▁компаниас	-10.5605
▁алхаж	-10.5608
▁индекс	-10.5608
▁зохицуулалтын	-10.5614
алгүй	-10.5617
www	-10.5619
уудаас	-10.5619
▁тиймдээ	-10.5619
▁салж	-10.5626
▁ялыг	-10.5627
75	-10.563
▁харри	-10.5634
рал	-10.5635
▁аавын	-10.5636
▁интернэт	-10.5636
▁материалын	-10.5639
▁тарьж	-10.5639
нийслэлийн	-10.5642
▁дон	-10.5642
▁сургуулиуд	-10.5642
▁барилдлага	-10.5643
▁шаарддаг	-10.5643
▁ко	-10.5645
▁болгохын	-10.5646
▁эрдмийн	-10.5648
▁монголыг	-10.5648
▁бөмбөгийн	-10.5654
▁тэрбумын	-10.5656
▁54	-10.5656
▁хураамж	-10.5657
▁өөрчлөгдсөн	-10.5659
▁байртай	-10.566
▁хбнгу	-10.5669
▁мэдээг	-10.5675
▁байгууллагатай	-10.568
▁дай	-10.5682
▁үүсвэрийг	-10.5682
▁энхийг	-10.5683
▁харьцах	-10.5693
▁дүгнэлтээ	-10.5695
▁үерийн	-10.5702
▁зур	-10.5702
▁гараараа	-10.5704
▁шалгарч	-10.5707
▁85	-10.5718
▁өмсөх	-10.5722
▁болтугай	-10.5739
▁төвлөрсөн	-10.5741
▁national	-10.5745
▁говиор	-10.5749
▁зөвлөлтийн	-10.575
▁гариг	-10.5756
▁явагдах	-10.5756
▁сургуулиа	-10.5757
▁тогтоомж	-10.5757
▁авчрах	-10.5758
▁элс	-10.5759
▁хавдрын	-10.5766
▁is	-10.5768
▁болсны	-10.5771
▁мэдрэх	-10.5772
▁цуглуулж	-10.578
▁жилийг	-10.578
undesten	-10.5784
▁е	-10.5792
сөөр	-10.5793
▁саарал	-10.5796
жил	-10.5803
▁нэгтгэн	-10.5808
ийнх	-10.5809
▁айраг	-10.5813
▁сэтгэлээсээ	-10.5813
▁хандуулах	-10.5814
үн	-10.5816
▁аюулаас	-10.5818
▁төлдөг	-10.5821
▁жигд	-10.5824
▁ууланд	-10.5829
баярцогт	-10.5829
▁жүдо	-10.5829
инг	-10.5831
▁хэрэгжүүлнэ	-10.5832
▁буцах	-10.5839
▁бүлэглэлийн	-10.5845
▁ойд	-10.5846
▁тодрууллаа	-10.5848
▁мар	-10.5848
▁амийг	-10.5848
▁болгохоор	-10.5848
▁биедээ	-10.5849
ээгүй	-10.5852
▁ирэхгүй	-10.5865
th	-10.5866
▁үүд	-10.5868
ль	-10.5868
▁барааны	-10.5873
▁үеийг	-10.5873
▁t	-10.5875
▁ачаар	-10.5881
▁нүүрээ	-10.5883
▁программ	-10.5887
▁1998	-10.5887
▁эрхзүйн	-10.5887
▁дутагдалтай	-10.5892
▁66	-10.5894
▁зөвшөөрөх	-10.5895
▁сонинд	-10.5896
▁хүсэх	-10.5896
▁дэв	-10.5896
▁байсны	-10.5898
▁эрхлэгчдийн	-10.5899
▁зөрчилтэй	-10.5899
▁туулж	-10.59
▁хүчирхийлэл	-10.5906
▁амжилтад	-10.591
▁58	-10.5922
▁үлдэгдэл	-10.5924
йл	-10.5927
дийг	-10.5927
.06	-10.5928
▁11-16	-10.5931
▁гэдгээрээ	-10.5931
▁хөршийн	-10.5934
▁парламентад	-10.5934
▁явцыг	-10.5935
▁өөрөөсөө	-10.5946
▁иш	-10.5948
▁шийд	-10.5949
▁дам	-10.5951
▁хуруу	-10.5951
▁тохижилт	-10.5952
гантөмөр	-10.5953
▁фракц	-10.5953
лагч	-10.5959
▁дуулах	-10.5964
▁гэрэлт	-10.5966
▁хэлтэст	-10.5966
▁тогтолцооны	-10.5971
▁машиныг	-10.5972
▁ээлж	-10.5972
▁хүсэхгүй	-10.5976
▁нефтийн	-10.5978
раад	-10.5978
▁дал	-10.5982
▁цуг	-10.5982
▁гэгддэг	-10.5986
▁буд	-10.5986
▁үйлчилдэг	-10.5986
▁хянамгай	-10.5986
▁чөлөөний	-10.5987
члэн	-10.5989
▁үнс	-10.5991
▁сонирхсон	-10.5991
▁ядан	-10.5993
▁тулаан	-10.5996
▁хайрлах	-10.5996
ахад	-10.6
▁нөгөөтэйгүүр	-10.6
▁оруулагчдын	-10.6001
▁тулж	-10.6002
▁дайнд	-10.6006
▁хүрдэг	-10.601
▁тавь	-10.6012
үндэсний	-10.6015
▁суваг	-10.6015
▁агуулсан	-10.6016
лл	-10.6018
▁зарлан	-10.6018
▁давхарт	-10.6028
▁биеийг	-10.603
▁ташаа	-10.6033
▁хулгайч	-10.6033
▁цонх	-10.6033
▁хөөр	-10.6034
▁барилдах	-10.6035
▁нэгдлийн	-10.6036
▁бурханы	-10.6038
▁үй	-10.6042
▁дэмжинэ	-10.6044
▁хэлцэл	-10.6044
▁үйлдэж	-10.6045
▁дансанд	-10.6046
ша	-10.6047
▁яриаг	-10.6056
гантулга	-10.6057
▁тодотгол	-10.6061
▁байлдааны	-10.6067
▁10.00	-10.607
▁зэргээс	-10.6074
▁оролдож	-10.6081
▁авир	-10.6084
▁зарлага	-10.6085
55	-10.6088
▁эрхэнд	-10.6089
▁хориглох	-10.609
▁кофе	-10.609
▁бүхнээ	-10.6092
▁вакцин	-10.6096
▁гүрний	-10.6097
▁байгуул	-10.6098
it	-10.6103
▁дугаарын	-10.6104
▁учруулж	-10.6105
▁түймрийн	-10.6107
▁be	-10.6112
le	-10.6114
▁зориулалттай	-10.6114
▁ян	-10.6116
▁нэгэнд	-10.6117
▁байгуулаад	-10.6118
▁хүүхдүүдээ	-10.6123
▁хариуцлагагүй	-10.6126
▁голдуу	-10.613
▁товчоо	-10.6134
▁харьцаа	-10.6135
▁нийтэлсэн	-10.6135
▁шилжсэн	-10.6138
▁гэмтсэн	-10.6141
дэд	-10.6141
▁олныг	-10.6142
▁багадаа	-10.6144
▁харь	-10.6145
▁нэгтгэж	-10.6147
▁хэрэглэгчдийн	-10.6153
лгүй	-10.6158
▁хөдөлж	-10.6159
▁ёсыг	-10.6164
▁http	-10.6165
▁сайжирч	-10.6165
▁шилжиж	-10.6173
лог	-10.6175
▁ашиггүй	-10.6176
▁идэвхитэй	-10.618
▁хүчит	-10.6181
энхтүвшин	-10.6182
▁эмийг	-10.6184
▁экс	-10.6185
▁ахмадууд	-10.6186
▁айлд	-10.6188
▁болгожээ	-10.6189
▁нийгэмлэг	-10.6189
▁итали	-10.6191
▁бэлчээрийн	-10.6192
одоо	-10.6192
эт	-10.6193
▁хэвлэлд	-10.6197
▁үгүйсгэхгүй	-10.6201
▁дуусч	-10.6202
▁нүцгэн	-10.6203
▁цаашаа	-10.6205
▁байгууллагаар	-10.6208
▁амаа	-10.6214
▁хөнөөсөн	-10.6217
▁тайлах	-10.6219
▁олз	-10.622
▁уялдуулан	-10.622
▁ноос	-10.622
▁торгууль	-10.6225
дсэн	-10.6227
▁аялах	-10.6228
▁ре	-10.6229
▁хоёрхон	-10.6233
▁намынхан	-10.6241
45	-10.6241
▁хөөж	-10.6248
▁дуулиан	-10.6249
▁шалгалтыг	-10.625
▁сэргээгдэх	-10.6251
▁завсарлага	-10.6252
▁явахгүй	-10.6256
▁залуусыг	-10.6259
▁алдагдсан	-10.6263
▁байгуулалтыг	-10.6274
лож	-10.6275
▁шахалт	-10.6277
▁менежментийн	-10.6278
▁баримтална	-10.628
ol	-10.6282
▁завгүй	-10.6288
▁хошууч	-10.6291
саа	-10.6293
▁хүүхдийнхээ	-10.6293
31	-10.6296
▁угааж	-10.6297
▁биет	-10.6299
▁сү	-10.63
▁даанч	-10.6303
▁агаарт	-10.6305
▁автомат	-10.6307
▁нийлүүлж	-10.6309
▁хөтөлбөрөө	-10.6316
▁амт	-10.6316
▁оролцов	-10.6316
▁өвдөг	-10.6317
▁хураан	-10.6318
▁захирамжаар	-10.6319
▁хүчинд	-10.6322
▁дутагдал	-10.6324
чдийн	-10.6325
▁сал	-10.633
or	-10.6331
жилт	-10.6331
▁бүртгүүлсэн	-10.6331
▁санагдсан	-10.6331
▁зэрэглэлийн	-10.6332
▁багийг	-10.6333
▁шилжилт	-10.6335
▁британи	-10.6338
▁эгэл	-10.6338
▁про	-10.6341
▁авахын	-10.6341
▁гайхаж	-10.6346
▁хятадууд	-10.6348
▁сургуулиудын	-10.6349
▁олдог	-10.635
▁санаагаа	-10.6351
▁төрүүлэх	-10.6351
▁таамаг	-10.6351
▁хайрын	-10.6352
▁эцэслэн	-10.6355
▁18-23	-10.6365
▁бүртгүүлэх	-10.6368
рт	-10.6373
▁нөхдүүд	-10.6374
▁өндөг	-10.6375
▁музейн	-10.6377
▁хаалгыг	-10.6381
▁нөхөх	-10.6381
▁зурж	-10.6383
▁харилцаагаа	-10.6387
нээ	-10.6388
▁хамгаалалтад	-10.6389
▁учирсан	-10.639
▁дэр	-10.6391
эрүүл	-10.64
▁нүдээр	-10.6408
▁64	-10.6415
су	-10.6415
▁туг	-10.6419
▁үзүүлэлттэй	-10.6419
▁тойрсон	-10.6421
▁мөчид	-10.6421
ач	-10.6423
▁эргэх	-10.6424
▁цуглаан	-10.6428
▁уламжлалтай	-10.6429
▁нийтлэл	-10.6434
▁хэмээжээ	-10.6444
▁зардлаа	-10.6448
▁нийтээр	-10.6456
▁шимтгэл	-10.6459
▁засгаас	-10.6461
▁бо	-10.6463
▁эрэгтэйчүүдийн	-10.6464
▁төгрөгт	-10.6472
оюунхорол	-10.6472
▁импорт	-10.6473
▁дуулсан	-10.6475
▁тамирчдын	-10.6477
лүүлэх	-10.6478
▁68	-10.6478
▁байцаалт	-10.6478
▁тоглолтоо	-10.6482
андаа	-10.6491
▁барьцаа	-10.6496
.07	-10.6496
▁ахин	-10.6499
▁гардан	-10.6501
▁онон	-10.6505
▁хахууль	-10.6509
▁14-19	-10.6511
рээ	-10.6512
▁киног	-10.6513
▁самбар	-10.6514
▁хүрээг	-10.6518
▁сольж	-10.6523
цэрэн	-10.6523
▁хэмнэх	-10.6523
▁онош	-10.6524
▁татдаг	-10.6525
▁гарав	-10.6525
▁үгэнд	-10.653
дох	-10.6531
▁арми	-10.6532
▁халдлага	-10.6536
▁дансны	-10.6538
▁лекц	-10.6538
▁арын	-10.654
▁үдэш	-10.654
▁заавар	-10.6544
▁чөлөөлж	-10.6546
▁талийгаач	-10.6548
the	-10.6548
лүүлсэн	-10.6549
үгүй	-10.6554
▁үнээ	-10.6559
▁шатандаа	-10.656
▁уяач	-10.6561
▁үйлдвэрүүд	-10.6562
▁үзэгчид	-10.6562
▁түмнээ	-10.6567
▁там	-10.6567
▁тараасан	-10.6572
▁өгвөл	-10.6575
▁эко	-10.6576
▁төрүүлсэн	-10.6576
▁хуваалцах	-10.6579
тэмүүжин	-10.6579
▁тодорхойлолт	-10.658
▁банкуудын	-10.6582
▁дэл	-10.6584
99	-10.6585
▁хурдтай	-10.6585
▁гр	-10.6589
▁дуусгах	-10.6591
▁оролцуулах	-10.6592
▁гайхамшигтай	-10.6592
▁шагналын	-10.6601
▁соёлыг	-10.6605
▁макро	-10.6606
▁түвшинг	-10.6607
▁3000	-10.6609
▁байраар	-10.6609
▁үзэгч	-10.6609
▁нэгнийг	-10.661
▁шийдвэрээр	-10.6613
▁санагдах	-10.6615
▁тэмдэглэсэн	-10.6616
▁илэрч	-10.6619
▁малаа	-10.6619
▁брэндийн	-10.662
▁хээл	-10.662
▁по	-10.6621
даваасүрэн	-10.6621
▁лиценз	-10.6625
▁гашуун	-10.6627
▁"...	-10.663
лана	-10.663
▁мартаж	-10.6633
ганболд	-10.6635
32	-10.6636
▁тай	-10.664
▁ороогүй	-10.6641
▁өлгий	-10.6644
▁хөрөнгөө	-10.6644
уд	-10.6645
▁согтуу	-10.6645
▁австралийн	-10.6646
▁хамаатан	-10.6651
▁дааж	-10.6655
▁төрөлхтний	-10.6655
▁шив	-10.6658
▁хувиас	-10.6659
▁өтгөн	-10.6672
33	-10.6674
▁холын	-10.6683
▁нэмсэн	-10.6685
▁засаж	-10.6687
ван	-10.6687
▁сүүлээр	-10.6689
▁алдагдлыг	-10.6692
▁ханиад	-10.6693
▁со	-10.6693
▁эргэлтэд	-10.6697
▁жинтэй	-10.6699
▁чадалгүй	-10.6701
▁витамин	-10.6705
▁нүүдэл	-10.6706
дал	-10.6708
▁хүлээлгэх	-10.6708
▁бодлоор	-10.6709
▁байгууламжийг	-10.6709
▁осолд	-10.671
▁чуулганыг	-10.6713
▁амраг	-10.6716
▁гарга	-10.6716
▁гуйх	-10.6719
▁шахаж	-10.6724
▁бүлд	-10.6726
▁найдвар	-10.6736
▁эрээн	-10.6737
гууд	-10.674
▁дэвшсэн	-10.6742
▁гадагшаа	-10.6743
▁босгож	-10.6748
▁харан	-10.6752
▁шалгалтаар	-10.6752
ук	-10.6753
▁сор	-10.6755
▁язгуур	-10.6761
▁ерөнхийлөгчөөр	-10.6762
▁mnb	-10.6765
▁албадан	-10.6769
▁өвчнийг	-10.6769
уулна	-10.6769
▁асуудлаас	-10.677
▁гамшгаас	-10.6772
▁эргүүлж	-10.6774
▁татвараа	-10.6776
юу	-10.6781
▁хогийн	-10.6781
▁чөлөөг	-10.6784
▁барин	-10.6784
▁ирснийг	-10.6787
▁дурдахад	-10.6787
▁эвлэлийн	-10.6789
▁ку	-10.6791
▁өгөхөд	-10.6794
▁сэтгүүлчдэд	-10.6798
▁h	-10.6799
ок	-10.68
уудаа	-10.6804
▁алсын	-10.6805
тор	-10.6806
▁хагалгаа	-10.6806
▁боомт	-10.6808
▁зайтай	-10.6809
▁хүсээгүй	-10.6811
▁ки	-10.6811
▁оросууд	-10.6813
▁өнөөдрөөс	-10.6813
▁хуулбар	-10.6813
▁оч	-10.6815
▁сүлжээг	-10.6816
▁өөдөөс	-10.682
▁хамгаалалттай	-10.6821
▁алдагдалтай	-10.6821
06	-10.6824
▁учирч	-10.6828
▁март	-10.6829
▁анхааралтай	-10.6829
▁суулгаж	-10.683
▁ээлжийн	-10.6836
орон	-10.6836
▁үзүүр	-10.6836
наа	-10.6839
▁тэмдэглэл	-10.6841
▁хийсний	-10.6841
▁тэдэнтэй	-10.6841
▁зөвшөөрөлгүй	-10.6842
.04	-10.6845
▁тасалбар	-10.6846
▁өдрөөр	-10.6846
34	-10.685
оно	-10.685
▁шийднэ	-10.685
▁не	-10.685
at	-10.6853
▁тайлбарлах	-10.6854
▁акт	-10.6857
▁байхаас	-10.6858
▁ноёд	-10.6858
▁барьдаг	-10.6859
▁нэвтрүүлж	-10.686
▁гудамжны	-10.6863
▁хүргэнэ	-10.6867
▁5000	-10.6869
▁гоц	-10.6869
▁аван	-10.6872
▁хараал	-10.6874
▁магад	-10.6878
тойгоо	-10.6889
▁тусгайлан	-10.6893
дуу	-10.6893
▁нарийвчлан	-10.6895
▁хуваарийн	-10.6896
▁хөвгүүд	-10.6897
▁судасны	-10.6899
▁хамгаалсан	-10.6901
лов	-10.6906
▁хамааран	-10.6907
▁хүргэн	-10.6907
▁зас	-10.6907
▁мон	-10.6908
▁дорвитой	-10.6909
▁зочин	-10.691
▁өрөөний	-10.6914
▁хүрлээ	-10.6918
▁баталгаажуулах	-10.692
▁дэвшилтэт	-10.692
▁мэдээлэлд	-10.6924
▁хэмээв	-10.6925
▁ярина	-10.6928
▁гарагийн	-10.693
▁нараа	-10.6932
▁эдлэх	-10.6933
эндээ	-10.6933
▁дундын	-10.6936
▁уруул	-10.6936
▁биенээ	-10.6938
рон	-10.694
▁дангаараа	-10.6947
▁харц	-10.6947
▁хачирхалтай	-10.6949
▁дахинд	-10.6949
тийм	-10.6951
▁хэмжээнээс	-10.6951
▁эхлэхэд	-10.6951
▁буриад	-10.6956
▁69	-10.6961
▁сумдын	-10.6962
▁аманд	-10.6963
▁16-18	-10.6966
▁тоглодог	-10.6968
уянга	-10.6973
▁мэх	-10.6974
▁сошиал	-10.698
▁хөлийн	-10.698
▁байрладаг	-10.6991
▁хангамжийн	-10.6993
▁таслах	-10.6995
▁захиа	-10.6995
▁амьтад	-10.6998
▁мисс	-10.6998
▁борлуулалтын	-10.6999
ум	-10.7
▁хуралдааныг	-10.7001
▁тэн	-10.7001
▁сууцанд	-10.7004
жүүлэх	-10.7005
▁баригдах	-10.7005
▁хайрхан	-10.7006
▁эсрэгээрээ	-10.7009
▁өдрүүд	-10.7012
▁зузаан	-10.7013
▁галзуу	-10.7017
▁халбага	-10.702
▁илтгэлийг	-10.7027
▁стандартад	-10.7028
▁олборлох	-10.7032
▁ширээн	-10.7032
▁домог	-10.7032
▁унтах	-10.7034
▁эргүүл	-10.7036
▁цалинтай	-10.704
те	-10.7041
▁болчихлоо	-10.7045
▁хязгаарлалт	-10.7046
▁хүргэдэг	-10.7049
▁уншсан	-10.7049
▁сам	-10.705
▁байлгаж	-10.7051
▁дэвсгэрийн	-10.7054
ic	-10.7056
▁дуугаа	-10.7058
ly	-10.7067
▁нэвтэрч	-10.707
▁суу	-10.707
▁бүрээс	-10.7071
▁салбарынхан	-10.7072
▁сансрын	-10.7074
▁тушаалыг	-10.7075
▁нийлээд	-10.7083
▁ухаж	-10.7086
90	-10.7086
▁үзэсгэлэнд	-10.7087
▁тодруулахад	-10.7088
▁явуулна	-10.7089
▁тэргүүлэгчдийн	-10.7089
▁шүтэн	-10.7092
▁нэгтгэх	-10.7092
▁зогсоосон	-10.7092
▁мэдрэлийн	-10.7094
из	-10.7096
▁бүхнээс	-10.7102
▁нилээд	-10.7103
▁тив	-10.7111
пи	-10.7111
▁тохиролцсон	-10.7113
▁эдлэл	-10.7117
▁томилгоо	-10.7118
эгч	-10.7119
▁шав	-10.7124
▁баримтлалыг	-10.713
▁үүрэгт	-10.7133
▁нурууны	-10.7133
▁далан	-10.7134
▁заншил	-10.7134
▁гарсаар	-10.7139
▁нисдэг	-10.7141
36	-10.7143
▁төмрийн	-10.7147
▁дуугаар	-10.7147
▁унадаг	-10.7148
▁үүсгэсэн	-10.715
▁өргөтгөл	-10.7151
▁мөс	-10.7151
▁зүйлээс	-10.7156
▁гэлтгүй	-10.7156
▁шахуу	-10.7163
▁орлогоо	-10.717
▁180	-10.7172
▁хандлагыг	-10.7174
▁дэвшигчид	-10.7175
▁судлал	-10.7177
et	-10.7177
▁хүзүү	-10.7178
▁нийгэмлэгийн	-10.7178
▁казахстан	-10.7179
▁сурвалжийн	-10.7181
▁зааг	-10.7181
▁ху	-10.7182
▁зарцуулдаг	-10.7183
▁луйвар	-10.7186
хний	-10.7188
▁аялгуу	-10.7189
аб	-10.7191
▁төхөөрөмжийн	-10.7195
▁зорилгоо	-10.7196
▁арал	-10.7199
▁сон	-10.7203
▁хир	-10.7203
04	-10.7205
▁бэлдэж	-10.7206
▁эзэлсэн	-10.7213
▁ээжийн	-10.7214
▁батлуулах	-10.7214
▁12-17	-10.7219
▁хийдийн	-10.7221
▁бнасау	-10.7222
лагдсан	-10.7222
▁огтхон	-10.7224
▁гүний	-10.7227
▁хаагчийн	-10.7232
▁удаатай	-10.7234
▁гуайн	-10.7236
▁хажуу	-10.7243
▁түгжрэл	-10.7246
ац	-10.7249
▁болтлоо	-10.725
▁орноос	-10.7255
цогтбаатар	-10.7259
▁угтан	-10.7265
▁хямралын	-10.7271
▁мөрний	-10.7275
▁зүтгэх	-10.7275
▁1996	-10.7282
▁олоод	-10.7285
▁үзэсгэлэнгийн	-10.7285
▁арвин	-10.7286
нийхээ	-10.7286
лэдэг	-10.7289
оны	-10.729
▁солонгост	-10.7296
лал	-10.7298
▁чадваргүй	-10.7306
▁фото	-10.7309
▁лаборатори	-10.7311
▁зогсоо	-10.7314
▁багтдаг	-10.7315
▁сураггүй	-10.7317
▁настан	-10.7318
te	-10.7318
▁сэргээж	-10.7319
▁шинэлэг	-10.732
▁супер	-10.732
:30	-10.7325
▁оруулалтаар	-10.7328
▁өршөөл	-10.7328
▁хуурч	-10.7333
▁туссан	-10.7335
▁тэвчээр	-10.7335
▁хичээ	-10.7337
▁ресурс	-10.7338
▁дархлаа	-10.7339
▁дөө	-10.7339
▁үүл	-10.7345
▁дээдэс	-10.7346
▁хэлбэрийн	-10.7347
▁хун	-10.7347
▁процесс	-10.7348
▁гишүүдээс	-10.7349
▁өөрчлөн	-10.7349
▁дүрийг	-10.7351
бер	-10.7358
▁уйлж	-10.736
▁хэ	-10.736
дай	-10.7361
▁гаднын	-10.7362
▁ингэхэд	-10.7366
▁ачааны	-10.7367
▁бэлчээр	-10.7368
▁гаргахыг	-10.7369
▁сургаж	-10.7369
▁хийвэл	-10.7369
▁тэлж	-10.737
▁тэтгэлэг	-10.7373
▁италийн	-10.7373
▁ногдох	-10.7378
нээсээ	-10.7379
▁итгэдэг	-10.7382
▁бүрд	-10.7384
▁11:00	-10.7385
▁зориуд	-10.7387
▁видео	-10.7388
▁2001	-10.739
▁эрхлэлтийг	-10.7392
▁бурхны	-10.7393
▁өөдрөг	-10.7401
▁спортоор	-10.7401
▁сүүний	-10.7401
▁нүүрсийг	-10.7402
▁тайлбарласан	-10.7402
члан	-10.7403
▁лигийн	-10.7403
▁тунгалаг	-10.7403
▁оруулдаг	-10.7405
▁тогтоожээ	-10.7405
отгонбаяр	-10.7408
▁африкийн	-10.7413
▁гэргий	-10.7415
хныг	-10.7417
▁шуудан	-10.7418
▁нэгжүүдийн	-10.7419
▁хэтэрсэн	-10.7419
▁оролцоотой	-10.7419
▁дугуйн	-10.7419
▁хэрэглэгчдэд	-10.7426
▁гэрийнхэн	-10.7428
▁хүлээлгэж	-10.7432
▁хөлд	-10.7435
▁61	-10.7438
▁улаанбаатарын	-10.744
▁яаран	-10.744
▁хорио	-10.7441
▁малтмал	-10.7442
▁цэвэрлэж	-10.7443
▁харцага	-10.7443
цэцэг	-10.7444
ma	-10.7447
▁1999	-10.745
▁хариулах	-10.745
▁километр	-10.7451
▁давтан	-10.7458
▁нэвтрүүлгийн	-10.746
▁арьсны	-10.7461
▁тавигдах	-10.7465
▁кон	-10.7467
▁литр	-10.747
▁мэдлэгтэй	-10.7475
▁золиос	-10.7478
▁оноогоор	-10.7485
▁гэдэсний	-10.7485
▁одоохондоо	-10.7486
▁түмнийг	-10.7491
▁62	-10.7494
▁broadcaster	-10.7495
бэл	-10.7495
▁халж	-10.7497
▁тааруу	-10.7497
▁7012705	-10.7497
▁ялагдсан	-10.7501
▁заал	-10.7502
▁тур	-10.7503
▁байрлал	-10.7503
▁тархалт	-10.7507
▁хилэнц	-10.7508
▁будаг	-10.7512
▁хүнээр	-10.7514
95	-10.7515
▁зэвсгийн	-10.7516
▁самар	-10.7516
▁нуух	-10.7517
▁рио	-10.7524
▁зөвлөлд	-10.7525
▁тээвэрлэлт	-10.7526
▁шүдний	-10.7527
шгүй	-10.7527
▁энхрийлүүштэй	-10.7528
▁паспорт	-10.7528
▁бууруулахад	-10.7533
▁авахдаа	-10.7534
▁тэтгэвэрт	-10.7534
▁18-20	-10.7538
▁өвчнөөр	-10.7546
гор	-10.7546
▁шалгагдаж	-10.7551
▁гүйцэтгэл	-10.7552
▁хүргүүлж	-10.7558
▁үзэгчдийн	-10.7564
▁талбар	-10.7565
изм	-10.7565
▁ачааллыг	-10.7565
▁бусадтай	-10.7569
▁тинто	-10.757
▁оролдсон	-10.7571
▁овог	-10.7582
▁130	-10.7588
▁буусан	-10.7591
▁үзээрэй	-10.7591
▁онуудад	-10.7593
▁болгонд	-10.7596
алтанхуягийн	-10.7597
▁мэдээгүй	-10.7598
▁үеэ	-10.76
жуулж	-10.76
▁2.5	-10.7601
▁замдаа	-10.7603
▁гамшиг	-10.7603
▁маяг	-10.7603
үл	-10.7605
37	-10.7609
▁хүлэг	-10.761
▁хорхой	-10.7614
▁бичдэг	-10.7615
▁холбосон	-10.7615
▁ходоод	-10.7616
44	-10.7618
▁тэнгисийн	-10.7619
▁цамц	-10.762
▁нартаа	-10.7622
▁хэлэлцэнэ	-10.7625
со	-10.7625
▁өсөн	-10.7629
▁чанаргүй	-10.7637
▁хоолоо	-10.7638
▁үетэй	-10.7641
▁жүжгийн	-10.7643
▁шаттай	-10.7643
▁босоо	-10.7644
▁клубын	-10.7646
▁алдан	-10.7654
▁хороололд	-10.7656
▁хуримтлал	-10.7657
▁сүхбаатарын	-10.7657
▁цусан	-10.7657
▁гэгээ	-10.7658
▁дэвшигчийн	-10.7659
▁w	-10.766
▁дугаарт	-10.7661
05	-10.7663
▁байгуулалтад	-10.7664
▁шуа	-10.7666
▁намаа	-10.7667
▁харна	-10.767
▁хайрцаг	-10.767
▁аман	-10.7676
st	-10.7677
▁хадгаламжийн	-10.7678
▁дадал	-10.7681
гүйгээс	-10.7681
▁торгох	-10.7681
▁бүдүүн	-10.7682
▁бичлэгийг	-10.7683
▁шийддэг	-10.7688
бор	-10.7693
▁гуниг	-10.7694
▁манж	-10.7695
▁өсгөж	-10.7697
▁хохирлыг	-10.7697
▁сэдвийн	-10.77
500	-10.7703
▁ажилтнуудын	-10.7705
▁цэнэтэй	-10.771
.10.	-10.7719
▁16-21	-10.7727
▁багийнхан	-10.773
▁явагдсан	-10.7731
▁заах	-10.7732
▁амласан	-10.7733
▁бичигдсэн	-10.7738
▁далайд	-10.7746
▁идсэн	-10.7748
▁програм	-10.7751
▁шонхор	-10.7754
▁ялгаж	-10.7755
▁мо	-10.7759
▁ахлуулсан	-10.7759
▁цэврийн	-10.7759
▁угаасаа	-10.7759
▁тэгэхдээ	-10.7762
▁хамтаар	-10.7763
▁нефть	-10.7764
▁салхинд	-10.7768
чуудын	-10.7768
▁түлхүүр	-10.7769
ек	-10.7772
▁манлай	-10.7777
дэл	-10.7778
49	-10.7778
ийм	-10.7782
▁бүтээлүүд	-10.7782
▁ажлаасаа	-10.7783
▁нийтээрээ	-10.7784
▁350	-10.7784
▁багууд	-10.7785
▁сех	-10.7785
39	-10.7785
▁амьсгаа	-10.7786
▁p	-10.7787
▁мэлхий	-10.7788
▁голд	-10.7797
▁хамаатай	-10.7803
▁өмссөн	-10.7808
▁уриа	-10.7808
ter	-10.7814
▁судлаачдын	-10.7816
▁гуравдугаарт	-10.7816
ээрэй	-10.7817
▁илрүүлж	-10.782
▁босгосон	-10.7821
▁шүүс	-10.7826
▁сургуулилт	-10.7826
▁чигээрээ	-10.7827
▁байршил	-10.7833
▁дайчин	-10.7833
▁нийтийг	-10.7834
▁төгсөөд	-10.7837
▁гүрэн	-10.7839
өндөр	-10.784
▁эся	-10.7846
▁юманд	-10.7846
▁өргөсөн	-10.7848
▁ma	-10.785
▁үсээ	-10.785
▁хүртээмжтэй	-10.7852
▁160	-10.7854
▁тасгийн	-10.7859
▁тусламжтайгаар	-10.786
▁шог	-10.7861
▁хүдэр	-10.7861
▁тэмдэглэв	-10.7863
▁янзын	-10.7864
▁олонхийн	-10.7865
ээж	-10.7867
▁буруутгаж	-10.7869
▁маягийн	-10.7872
▁бэл	-10.7873
▁аймшигт	-10.7874
▁эргэлзээтэй	-10.7877
огийн	-10.7877
▁хаягдлын	-10.7877
▁ялалтын	-10.7878
мер	-10.7879
батхүү	-10.7881
зоригт	-10.7881
▁ухаанд	-10.7886
▁хүндээ	-10.7886
▁de	-10.7887
▁сонсгол	-10.7889
▁давах	-10.7889
чийн	-10.789
▁бөөр	-10.7891
▁ортой	-10.7892
▁17-22	-10.7892
96	-10.7893
ей	-10.7896
▁хөндөж	-10.7897
ийж	-10.79
▁суудалд	-10.7901
▁валют	-10.7901
▁тан	-10.7903
▁үргэлжлүүлж	-10.7909
▁эз	-10.7915
▁шинжилгээнд	-10.7917
▁оруулан	-10.7925
▁орц	-10.793
▁хамруулж	-10.7934
▁хараагүй	-10.7934
▁хаях	-10.7938
▁пост	-10.7939
гансүх	-10.7941
ро	-10.7942
▁3-4	-10.7942
▁май	-10.7944
▁талаархи	-10.7945
▁үйлдвэрчний	-10.7946
үүн	-10.7946
48	-10.7949
▁үйлчлүүлэгч	-10.7953
▁авагч	-10.7957
даш	-10.796
an	-10.7961
▁нэгжид	-10.7963
▁мужид	-10.7964
баян	-10.7966
▁үйлдвэрлэдэг	-10.7967
▁гишүүнтэй	-10.7967
▁зуунд	-10.7968
▁бичээд	-10.797
▁гавьяа	-10.797
жавхлан	-10.7971
рам	-10.7974
▁баярыг	-10.7976
▁цуглуулах	-10.7978
▁хэрэгжилтийн	-10.7978
65	-10.7981
▁олгогч	-10.7981
▁бүртгэлд	-10.7983
▁гүнж	-10.7985
▁төрөө	-10.7985
▁хяналтыг	-10.7988
▁ивээн	-10.7994
▁офицер	-10.7997
эрх	-10.7997
▁обег	-10.8
▁хүчирхийллийн	-10.8006
вөл	-10.8012
▁сартай	-10.8013
▁нотолгоо	-10.8014
▁хүлээ	-10.8017
▁төвтэй	-10.8018
▁өндөрт	-10.8019
▁сэжиг	-10.8025
▁харав	-10.8026
шээ	-10.8033
▁илрүүлсэн	-10.8035
▁авав	-10.8037
▁ихэр	-10.8037
элж	-10.8038
▁машинд	-10.804
▁нөөцтэй	-10.8042
▁санамсаргүй	-10.8042
▁зөвшөөрлийн	-10.8043
▁тохирох	-10.8049
▁дахиж	-10.8049
лөх	-10.805
..."	-10.8051
▁иддэг	-10.8053
▁бидэнтэй	-10.8053
▁шийдвэрт	-10.8054
▁миеэгомбын	-10.8058
▁цагтаа	-10.8064
▁жингийн	-10.8066
▁удаагүй	-10.8067
▁ирэхийг	-10.8067
▁59	-10.8067
▁уулсаар	-10.8074
▁иран	-10.8079
▁ямаа	-10.8081
▁унт	-10.8081
долларт	-10.8083
▁нийлүүлэлт	-10.8086
▁гуравдагч	-10.809
07	-10.809
▁олно	-10.8091
▁үгийн	-10.8092
▁хүйтний	-10.8093
▁1997	-10.8096
▁захирлаар	-10.8097
▁үзэсгэлэнт	-10.8102
▁ондоо	-10.8102
▁тарьсан	-10.8103
▁маргааныг	-10.8105
▁замаа	-10.8105
▁86	-10.8108
88	-10.8111
гыг	-10.8112
▁төсөөлж	-10.8114
оз	-10.8115
▁ганцаар	-10.8116
батсуурь	-10.8117
▁хохирсон	-10.8118
▁хийхээс	-10.8119
▁хуудсыг	-10.812
рх	-10.812
лээгүй	-10.8121
▁цүнх	-10.8123
өнд	-10.8124
тол	-10.8124
▁ялагч	-10.8126
▁сонгогдох	-10.8128
▁дүгнэх	-10.813
▁сэм	-10.8131
▁хөө	-10.8134
▁боол	-10.8144
▁сайтад	-10.8145
кин	-10.8147
▁махан	-10.8149
даваа	-10.8154
ur	-10.8155
▁шинжээч	-10.8155
мин	-10.8156
▁шалтгаалж	-10.8163
▁санхүүжилтээр	-10.8163
наасаа	-10.8165
зан	-10.8166
▁суртахууныг	-10.8168
чдыг	-10.8169
▁төгсгөл	-10.8169
▁танихгүй	-10.8171
▁барагдуулах	-10.8171
▁шаттайгаар	-10.8176
ру	-10.8176
▁сэв	-10.8183
▁хосууд	-10.8183
▁төлөвлөөд	-10.8185
▁шилжин	-10.8186
▁орхиод	-10.8189
▁сэтгэцийн	-10.8189
▁ойлголтыг	-10.8193
▁байцаалтын	-10.8193
▁төлнө	-10.8194
▁амьдралынхаа	-10.8197
▁үйлсэд	-10.82
▁даашинз	-10.8207
▁ка	-10.8208
▁билэг	-10.8209
▁стресс	-10.8211
▁сайхныг	-10.8221
лэгч	-10.8221
▁зүйлүүд	-10.8221
▁74	-10.8222
▁нандин	-10.8225
▁хаясан	-10.8228
▁хүртээл	-10.8229
▁байцаах	-10.823
▁хаалгаа	-10.8232
▁зөвлөлөөс	-10.8233
▁ногооны	-10.8236
▁машинаа	-10.8237
▁бэх	-10.8242
▁ирвэл	-10.8244
▁мин	-10.8248
▁сонгогч	-10.8249
▁бүртгэж	-10.8249
▁хэрэгцээнд	-10.8251
▁соёрхон	-10.8252
ут	-10.8254
▁оролцогчдын	-10.8255
▁мэдээд	-10.8255
▁театрт	-10.826
▁буудай	-10.8261
▁зөвлөгөөн	-10.8264
▁аяныг	-10.8264
▁төрдөг	-10.8266
▁мэтийн	-10.8268
путин	-10.8268
сын	-10.8272
▁сэргэж	-10.8278
▁2030	-10.8279
▁архаг	-10.8283
▁орхи	-10.8284
la	-10.8285
болдбаатар	-10.8289
▁тэдгээрийг	-10.8291
▁боловсролыг	-10.8292
▁баяжуулах	-10.8297
▁буцаад	-10.8298
ши	-10.8298
▁явбал	-10.8301
▁өрнүүлж	-10.8301
▁шалган	-10.8305
▁пуужин	-10.8308
▁тогтнолын	-10.8309
▁үүсгэдэг	-10.831
▁бөө	-10.8311
▁амжилтын	-10.8311
▁то	-10.8313
▁өлсгөлөн	-10.8314
▁худалдааг	-10.8315
▁хэрэгтээ	-10.8316
▁эрдэмтдийн	-10.8318
▁өртөх	-10.8319
▁шинэчлэлийг	-10.8319
▁дэлгүүрийн	-10.8321
▁ажиглаж	-10.8322
хууль	-10.8323
▁мэдэгдэв	-10.8323
▁хувцасны	-10.8327
▁халах	-10.833
▁хязгааргүй	-10.8333
▁хэлэлцээрт	-10.8334
▁хямралаас	-10.8336
▁таарах	-10.8336
▁насаараа	-10.8337
▁шаардлагад	-10.8337
▁хаалт	-10.8342
өл	-10.8343
▁машинаар	-10.8346
▁тэгэх	-10.8349
▁хийснээр	-10.835
▁таашаал	-10.8354
▁дүрмийг	-10.8359
чихаж	-10.8359
йг	-10.836
▁хариуцлагаа	-10.836
▁коммунист	-10.8361
▁журамд	-10.8364
▁нисэхийн	-10.8368
▁сонсч	-10.837
ci	-10.8372
▁хаасан	-10.8372
▁n	-10.8372
▁пи	-10.8376
лаагүй	-10.8379
▁салгаж	-10.8383
▁тооцвол	-10.8384
оюутолгой	-10.8384
▁хамтрагч	-10.839
энхболдын	-10.84
-12	-10.84
бурмаа	-10.8402
▁мөнхийн	-10.8402
▁оу	-10.8404
▁хэвлэлүүд	-10.8405
▁уучлал	-10.8405
ro	-10.8406
▁on	-10.8409
▁тогоо	-10.8409
▁зүү	-10.8409
▁арабын	-10.8411
ку	-10.8412
▁110	-10.8413
▁анхдагч	-10.8414
▁алхах	-10.8419
▁баттай	-10.842
▁дороо	-10.8424
▁96	-10.8425
▁тооцдог	-10.8427
▁үйлдвэрлэгчид	-10.8429
▁сингапур	-10.8429
▁үргээлгэх	-10.8432
▁болсноос	-10.8433
▁харагдсан	-10.8436
▁билүү	-10.8438
чихоод	-10.8438
сарангэрэл	-10.8441
▁өргөдлийн	-10.8444
▁зовох	-10.8447
▁хэвлэлээр	-10.8447
лөн	-10.8448
▁туршилтын	-10.845
оч	-10.8451
өлзий	-10.8451
▁зөвшөөрөгдсөн	-10.8453
▁сэтгэлгээ	-10.8457
▁одоогоос	-10.8458
▁баймаар	-10.8458
наран	-10.846
▁хүмүүсээ	-10.8461
▁юань	-10.8461
▁ухамсар	-10.8461
▁таамаглаж	-10.8466
▁мухар	-10.8468
▁төслөө	-10.8473
лэнэ	-10.8473
▁явахыг	-10.8474
▁хариуцаж	-10.8478
▁дагасан	-10.848
▁секс	-10.848
▁буцаах	-10.8481
▁үзүүлбэр	-10.8482
▁борлуулж	-10.8486
▁бүлгээс	-10.8492
▁булш	-10.8492
▁амжилтанд	-10.8493
амаржаргал	-10.8496
▁хуулиуд	-10.8497
▁харъяа	-10.8499
▁айх	-10.8501
▁вьетнам	-10.8502
▁ти	-10.8512
▁хаягдлыг	-10.8514
!”	-10.8517
▁сэрүүн	-10.852
▁гарыг	-10.852
▁академийн	-10.8522
уих	-10.8523
▁өмчлөх	-10.8525
сар	-10.8528
эрдэнэчимэг	-10.853
▁гэрээсээ	-10.853
өм	-10.8538
▁тэрийг	-10.8539
▁польш	-10.855
▁тушаалаа	-10.855
▁үзэхээр	-10.8551
▁байгаадаа	-10.8552
▁дурджээ	-10.8552
▁оврын	-10.8553
▁утсаа	-10.8558
▁онцгойлон	-10.8559
▁хэрэгсэхгүй	-10.8561
▁залгамж	-10.8567
▁бразил	-10.8567
▁сонгогчид	-10.857
▁хурдны	-10.8571
нер	-10.8571
▁аюулгүйн	-10.8574
▁ядарсан	-10.8575
un	-10.8576
лэгдсэн	-10.8577
хор	-10.8578
мо	-10.8581
▁амыг	-10.8581
▁солилцож	-10.8582
▁хотхон	-10.8582
батзориг	-10.8585
▁цац	-10.8586
ап	-10.8593
▁бодлоготой	-10.8597
▁хуучны	-10.8597
▁хэлэхгүй	-10.8598
▁нөлөөлнө	-10.8605
▁учиргүй	-10.8606
▁эрийн	-10.8608
▁үзье	-10.8609
▁нэвт	-10.8611
▁газруудын	-10.8612
/:	-10.8618
▁хэрэгжүүлдэг	-10.8621
▁дэвшигчдийн	-10.8623
▁владимир	-10.8623
▁ялах	-10.8624
▁ахмадын	-10.8626
▁өөрчилсөн	-10.8631
үүлээд	-10.8631
▁залууст	-10.8635
▁73	-10.8636
▁сэргэлэн	-10.8637
▁тосгоны	-10.8638
зориг	-10.864
▁институт	-10.8641
▁ас	-10.8642
▁навч	-10.8649
ийх	-10.8651
▁нутгаа	-10.8651
▁бүхэндээ	-10.8652
▁болохын	-10.8656
▁атал	-10.8658
▁төлөлт	-10.8661
▁бур	-10.8661
47	-10.8666
сэлэнгэ	-10.8666
▁дэмб	-10.8668
▁баталгаатай	-10.8675
▁дональд	-10.8675
▁хэлбэртэй	-10.8676
▁биетэй	-10.8685
туул	-10.8685
▁барихад	-10.8685
▁багаас	-10.8686
▁сүрэг	-10.869
▁хоршоо	-10.8695
▁зурвас	-10.8697
▁рашаан	-10.8699
ков	-10.87
78	-10.87
85	-10.8704
▁канадын	-10.8707
ял	-10.8708
▁цэнэ	-10.8711
▁шударгаар	-10.8713
▁үрийн	-10.8717
▁эзэнт	-10.8718
▁торгон	-10.8719
▁малыг	-10.8721
▁топ	-10.8722
▁хавтгай	-10.8723
кг	-10.8724
▁илүүдэл	-10.8725
▁нэм	-10.8728
▁хямралыг	-10.8728
▁шунал	-10.873
▁өмсөгч	-10.8731
мар	-10.8735
▁үлэмж	-10.8737
▁хичээллэж	-10.8738
▁байг	-10.8739
▁нээлтэд	-10.8741
▁хус	-10.8743
▁тайлж	-10.8747
энхсайхан	-10.8751
▁тавигдсан	-10.8752
▁y	-10.8753
▁олноороо	-10.8757
me	-10.8759
гол	-10.876
төмөр	-10.8765
▁захиалгаар	-10.8765
▁оролцохыг	-10.8769
▁явдалд	-10.8772
▁шингэсэн	-10.8774
хоёр	-10.8778
▁болгохыг	-10.8784
▁нухацтай	-10.8789
▁төлбөрт	-10.8793
хүүхдийн	-10.8797
▁o	-10.8797
төв	-10.8799
▁хулгайн	-10.88
▁ашгаа	-10.88
▁очдог	-10.8801
▁худ	-10.8802
▁илэрхийлэл	-10.8804
▁олохгүй	-10.8805
▁азтай	-10.8811
▁болго	-10.8812
▁танаас	-10.8813
▁тэргүүлсэн	-10.8813
▁сурын	-10.8814
▁гэгчээр	-10.8816
▁хоолойг	-10.8816
▁байя	-10.8819
▁тохиолдсон	-10.8819
▁инфляц	-10.882
▁бүхэлдээ	-10.8821
▁сургаал	-10.8822
▁ра	-10.8825
▁шүтээн	-10.8826
▁өсөлтийн	-10.8828
?"	-10.8828
▁өртөө	-10.8829
овоо	-10.883
▁бараан	-10.883
▁өгүүлэх	-10.8838
▁өдөрлөг	-10.8838
▁гэхчлэн	-10.8839
▁хумх	-10.8839
▁ойлгуулах	-10.8841
ндаа	-10.8848
рийг	-10.885
▁хүнийхээ	-10.8851
▁уулзлаа	-10.8851
▁содон	-10.8853
38	-10.8858
▁араб	-10.8861
▁татаад	-10.8862
▁багтай	-10.8862
▁баривчлах	-10.8864
▁нислэгийн	-10.8868
▁хөдөөгийн	-10.8875
▁тэнцүү	-10.8876
▁оршино	-10.888
▁шинэчилж	-10.8883
▁сүүн	-10.8884
▁эмэгтэйн	-10.8887
▁өгөөж	-10.8891
▁88	-10.8893
▁бардам	-10.8893
▁дуудах	-10.8894
▁түрээс	-10.8894
▁тааламжтай	-10.8901
▁цуваа	-10.8903
▁140	-10.8905
▁хомс	-10.8912
▁зөвлөмжийг	-10.8912
▁тэрэгний	-10.8917
-20	-10.8917
▁сүүдэр	-10.8918
▁амттай	-10.8918
▁зайлуулах	-10.8919
▁пак	-10.892
▁мор	-10.8921
▁хууч	-10.8922
▁ста	-10.8925
алдар	-10.8926
▁эг	-10.8928
▁амнаас	-10.8929
▁өртэй	-10.8929
▁гор	-10.8929
▁хувцастай	-10.8929
▁буянт	-10.8932
▁үүдэнд	-10.8939
▁хариуцах	-10.8942
▁ги	-10.8945
▁хувьчлах	-10.8949
▁хул	-10.895
▁болсноо	-10.8952
▁67	-10.8953
▁хорьж	-10.8954
▁аяллын	-10.8955
▁зорилтын	-10.8957
▁энерги	-10.8957
▁дэмжихгүй	-10.8958
▁аудит	-10.8958
▁нэмэгдүүлэхэд	-10.8959
▁асуулаа	-10.896
▁томилж	-10.896
▁хов	-10.8961
▁тагнуул	-10.8961
69	-10.8967
▁төвүүд	-10.8971
▁оныг	-10.8971
▁таньж	-10.8973
▁бодитоор	-10.8974
▁мэдүүлэх	-10.8975
▁шалгалтад	-10.8977
▁орхих	-10.8978
▁баялгийг	-10.8979
▁чөтгөр	-10.8979
▁97	-10.898
▁суга	-10.8981
▁гүйлгээ	-10.8983
▁захирлын	-10.8985
▁чам	-10.8985
▁тогтоомжийг	-10.8986
▁өвчтөн	-10.8991
цолмон	-10.8991
▁оронтой	-10.8992
▁даргатай	-10.8993
▁дэмжигч	-10.8993
▁23-28	-10.8996
▁өмнөхөн	-10.8996
▁удаж	-10.8996
▁код	-10.8997
▁хэргүүд	-10.8998
▁барж	-10.8999
▁санаачлагчийн	-10.9001
▁байгаасай	-10.9004
▁эхнээс	-10.9007
▁дагах	-10.9011
яа	-10.9012
▁холбон	-10.9019
▁сүүлчээр	-10.9024
▁халдсан	-10.9025
▁биологийн	-10.9027
▁больж	-10.9028
▁эхнээсээ	-10.9029
▁тиймээ	-10.903
▁кор	-10.9032
▁жим	-10.9033
▁кан	-10.9035
▁танин	-10.9036
▁алх	-10.9038
▁ажиллалаа	-10.904
▁хором	-10.904
▁сонголтоо	-10.904
▁хүлээдэг	-10.9041
▁өмсөж	-10.9041
▁урсгалыг	-10.9044
▁ивээл	-10.9045
▁нэмээд	-10.9045
▁түц	-10.9047
▁1995	-10.9048
▁испани	-10.9052
▁хохирч	-10.9059
▁хуваарилалт	-10.9059
en	-10.906
▁тодруулсан	-10.9061
▁байгуулахыг	-10.9064
▁унага	-10.9065
▁ажлынхаа	-10.9066
▁ажиллажээ	-10.9068
▁болзол	-10.9068
▁нүгэл	-10.907
▁эмгэн	-10.9073
▁анхнаасаа	-10.9077
▁13.	-10.9078
жид	-10.9079
▁адууны	-10.9084
▁тайлбарыг	-10.909
▁хангахгүй	-10.909
▁унаа	-10.9093
▁дугаартай	-10.9096
▁түншлэл	-10.9096
▁бэлтгэн	-10.9099
▁хувцсаа	-10.9101
:10	-10.9104
▁уусан	-10.9107
▁хуваарь	-10.9112
▁экологийн	-10.9112
шл	-10.9113
▁энхболд	-10.9114
▁згхэг	-10.9115
▁as	-10.912
▁21-26	-10.9121
▁1.2	-10.9124
▁холбоонд	-10.913
▁удирдлагуудад	-10.913
▁хөвгүүн	-10.9131
▁азтан	-10.9137
vii	-10.9139
▁бодохоор	-10.9139
▁эхэлснээс	-10.9141
▁хаяа	-10.9141
▁буурал	-10.9144
▁хурдацтай	-10.9145
▁боов	-10.9146
ью	-10.9147
▁ундааны	-10.9148
▁зорилгодоо	-10.915
▁эмчид	-10.9151
▁обама	-10.9155
▁тух	-10.9155
▁үйлдлийн	-10.9162
▁цав	-10.9163
▁бензин	-10.9169
▁санаачлага	-10.917
▁авснаар	-10.9171
▁бизнесийг	-10.9174
▁нийлүүлсэн	-10.9177
▁шүүгчид	-10.9177
▁ирэхдээ	-10.9177
▁чадварын	-10.918
▁баригчдын	-10.9181
▁жолоо	-10.9183
▁угтаа	-10.9183
▁ерөөл	-10.9185
▁асуу	-10.9185
хэл	-10.9192
54	-10.9193
▁роман	-10.9198
▁дуусаагүй	-10.9198
таван	-10.92
▁зорчиж	-10.92
чихсөн	-10.9203
▁таньд	-10.9204
▁при	-10.9204
рүү	-10.9204
том	-10.9207
▁ашиглалт	-10.921
▁зөгийн	-10.9215
mo	-10.922
▁зантай	-10.9223
▁автозам	-10.9224
▁хамаарна	-10.9225
ху	-10.9226
нууруудын	-10.9227
▁тэнгис	-10.9227
▁дүүргүүдийн	-10.9229
as	-10.9229
▁хариулсан	-10.9232
▁залуугийн	-10.9233
▁суугчид	-10.9235
▁төрч	-10.9244
ле	-10.9244
▁аажмаар	-10.9247
▁гаж	-10.9248
▁асуулгын	-10.9253
▁хичээдэг	-10.9255
▁тавихад	-10.9255
▁охидын	-10.9258
▁хаагчдыг	-10.926
▁салхины	-10.9261
▁саудын	-10.9261
▁тантай	-10.9262
▁зүйлгүй	-10.9263
ri	-10.9267
▁өвөлжилтийн	-10.9267
▁цэгт	-10.9271
▁баталгаажуулсан	-10.9271
▁төртэй	-10.9272
▁дулаанаас	-10.9276
▁аргаа	-10.9276
▁мак	-10.9278
▁хүсэлтээр	-10.9278
▁бэлдмэл	-10.9284
▁усаа	-10.9289
▁чамгүй	-10.929
▁үзэсгэлэнг	-10.9291
▁дагуулан	-10.9292
▁муур	-10.9295
▁үгс	-10.9295
▁илэрхий	-10.9295
үүдээс	-10.9297
▁дэвтэр	-10.9298
▁яармаг	-10.9299
▁гаригийн	-10.9299
▁эрдэнэтийн	-10.93
▁шалтгааны	-10.9306
▁гарсны	-10.9306
▁унаад	-10.9308
▁гарал	-10.931
▁хэлэлцэхээр	-10.931
▁чимэг	-10.9311
▁шөл	-10.9312
▁бүсгүйг	-10.9313
▁1500	-10.9316
муу	-10.9319
▁нууж	-10.9323
▁чадлыг	-10.9323
▁боажя	-10.9324
ип	-10.9325
▁дарсан	-10.9325
▁орсноор	-10.9326
лдаг	-10.9328
▁махыг	-10.9329
▁өгөхдөө	-10.9329
▁зардалд	-10.933
▁ухааныг	-10.9332
▁төвлөрүүлэх	-10.9333
▁тооцогддог	-10.9334
пер	-10.9335
өж	-10.9335
аав	-10.9338
гу	-10.934
▁эмчлүүлж	-10.934
арсан	-10.9341
иш	-10.9341
▁уй	-10.9345
▁чадавхийг	-10.9345
08	-10.9347
▁хардлага	-10.9348
▁байрлаж	-10.9348
▁дурсгалын	-10.935
руулах	-10.9353
▁тэзү	-10.9353
amp	-10.9355
▁штабын	-10.9358
▁хариулж	-10.9358
▁жуулчдын	-10.9359
тэд	-10.9359
▁чихрийн	-10.936
▁нүдэн	-10.9362
▁авиа	-10.9363
▁урилгаар	-10.9363
▁алдаад	-10.9364
▁америкт	-10.9366
▁амьжиргааны	-10.9367
▁социалист	-10.9371
▁эргэлзээ	-10.9373
▁хаант	-10.9374
ынх	-10.9374
▁бололцоог	-10.9379
▁сөүл	-10.9381
▁ебс	-10.9381
▁авахаас	-10.9384
▁этгээдүүд	-10.9385
▁19-24	-10.9386
▁нэгд	-10.9387
▁өвдөж	-10.9388
▁ноолуур	-10.939
▁тэ	-10.939
▁аавынхаа	-10.9397
▁ханшийг	-10.94
лахад	-10.9401
аасай	-10.9405
▁байгаагаараа	-10.9407
▁ярихдаа	-10.9408
▁телевизээр	-10.9409
▁уралдааныг	-10.9412
▁дорнодын	-10.9412
▁нөлөөлөл	-10.9417
▁зөвшөөрөхгүй	-10.9417
▁дөхөж	-10.9418
▁гүйцэтгэдэг	-10.9419
▁эмчилгээнд	-10.9423
▁байраа	-10.9423
▁шалгасан	-10.9426
баттулгын	-10.9429
▁дэлхийг	-10.9429
нь	-10.9429
уудтай	-10.9432
▁номоо	-10.9436
▁аугаа	-10.9441
вер	-10.9441
▁хороодын	-10.9443
▁өсөлттэй	-10.9446
▁зорих	-10.9448
43	-10.9449
▁барахгүй	-10.9449
▁цагдаагийнхан	-10.945
тнууд	-10.945
▁болбол	-10.9453
▁халаа	-10.9453
▁мэдэн	-10.9454
▁худагт	-10.9454
800	-10.9454
▁1-2	-10.9456
▁тавьжээ	-10.946
.11.	-10.946
▁инфляци	-10.9466
▁илгээж	-10.9467
▁санаачилгыг	-10.9469
єє	-10.947
▁цалингаа	-10.9476
хийг	-10.9476
▁үйлчилгээтэй	-10.9477
▁болчих	-10.9477
na	-10.9478
чинзориг	-10.948
▁бодлогод	-10.9481
▁хийлгэсэн	-10.9481
алдаг	-10.9483
▁нөхөрлөл	-10.9487
▁урлагт	-10.9488
▁тэлэх	-10.9488
▁хорь	-10.9494
▁шалтаг	-10.9498
▁уйл	-10.9501
▁дүүс	-10.9502
▁цуцлах	-10.9507
▁үлдлээ	-10.9508
▁гучин	-10.9508
▁хичээх	-10.9509
▁салбартаа	-10.9512
▁миат	-10.9513
▁биднээс	-10.9515
▁ягаан	-10.9516
▁шийдвэрлэхэд	-10.9518
▁гарснаас	-10.9522
▁сайжруулахад	-10.9522
▁амины	-10.9527
▁ойлго	-10.9527
▁цэнэг	-10.9528
▁нэгтгэсэн	-10.9532
▁төсөлтэй	-10.9534
▁боль	-10.954
▁жинлүүр	-10.9541
▁me	-10.9542
▁шутис	-10.9543
чны	-10.9544
▁өрсөлдсөн	-10.9545
76	-10.9546
цаа	-10.9548
▁байршилд	-10.9548
ану	-10.9551
▁захад	-10.9551
▁угтаж	-10.9557
▁холбогдоорой	-10.9557
▁магистр	-10.9558
▁хэмнэлт	-10.9564
длаа	-10.9568
▁бусын	-10.9569
▁үхэл	-10.9569
▁ёслолд	-10.9569
▁шатрын	-10.9571
▁уураг	-10.9572
▁урагшаа	-10.9574
to	-10.9575
▁багахан	-10.9576
▁шаргал	-10.9576
хыг	-10.9576
▁дэлгэрүүлэх	-10.9577
эхэд	-10.9579
▁төлөвлөгөөнд	-10.9579
▁дурлалын	-10.9579
▁асран	-10.9586
▁хангадаг	-10.9589
▁давалгаа	-10.9589
▁хүлээгээд	-10.9592
▁шоо	-10.9593
▁улсуудын	-10.9594
рыг	-10.9594
▁3-5	-10.9595
▁цааз	-10.9596
▁хэрэгжилтэд	-10.9601
▁эе	-10.9601
▁ярианы	-10.9602
▁тэрнээс	-10.9605
▁хамгаалал	-10.9606
▁тэсвэр	-10.9608
46	-10.9612
▁үнэлгээг	-10.9612
▁эдгээрийн	-10.9614
▁гэдгээр	-10.9616
▁унгар	-10.9619
▁булаг	-10.9619
▁25-30	-10.962
▁бололцоотой	-10.9621
▁дах	-10.9623
▁амжсан	-10.9626
▁уулс	-10.9626
▁баривчилсан	-10.9628
0.0	-10.9628
▁бахархал	-10.9628
▁хөтлөгч	-10.963
li	-10.9634
чүүд	-10.9637
▁чан	-10.9638
өнөөдөр	-10.9638
энхбаярын	-10.9641
батсайхан	-10.9645
шинэчилсэн	-10.9653
▁бзд	-10.9656
▁авчихсан	-10.9658
▁баяжмал	-10.9659
говь	-10.9659
▁сунгах	-10.9661
ation	-10.9663
▁үзэг	-10.9668
ент	-10.9671
66	-10.9672
▁шалга	-10.9674
▁ирээдүйг	-10.9674
▁бнмау	-10.9675
▁гэрээс	-10.9678
▁орчихсон	-10.9678
ез	-10.9682
▁өнгөөр	-10.9683
▁эрж	-10.9683
оу	-10.9684
▁насныхан	-10.9689
▁орохоор	-10.969
▁улстөрчдийн	-10.9691
▁хуудсанд	-10.9693
▁залууг	-10.9694
▁туйл	-10.9694
▁хайрт	-10.9696
ажил	-10.9697
▁ажиллахаа	-10.9698
▁цэнгэл	-10.9699
▁агсны	-10.97
▁твиттер	-10.9701
▁санаачилж	-10.9701
▁баримтууд	-10.9701
▁сараар	-10.9701
▁уудам	-10.9704
▁алдаатай	-10.9706
▁үзэгдэх	-10.9706
▁сурвалжлах	-10.9707
оп	-10.9708
жаргалсайхан	-10.971
амарсайхан	-10.9714
▁дээж	-10.9714
пүрэв	-10.9717
▁1990-	-10.9717
▁гайхамшигт	-10.9721
▁бүрдүүлдэг	-10.9723
▁тайзнаа	-10.9725
▁унагах	-10.9726
▁тойронд	-10.9726
▁ээжийнхээ	-10.9727
чихэж	-10.9727
▁түшмэл	-10.9728
▁олимпын	-10.9731
▁1994	-10.9738
▁төлөгч	-10.9739
▁архины	-10.9742
▁гаран	-10.9744
▁голлох	-10.9744
нуудын	-10.9745
▁мэдээлэлтэй	-10.9745
▁удирдлагад	-10.9748
▁бүлээн	-10.9749
▁энергийн	-10.9749
▁мэдэгдээд	-10.9749
▁арьсыг	-10.975
▁1.3	-10.9751
▁ундны	-10.9753
иль	-10.9753
▁сайнаар	-10.9754
▁хангаагүй	-10.9758
▁консулын	-10.976
▁ламын	-10.9761
▁мэдлэгийг	-10.9761
▁хүүхнүүд	-10.9761
сандуй	-10.9762
▁явчих	-10.9763
▁ту	-10.9764
▁вирусын	-10.9764
▁тойрч	-10.9765
▁нэхэмжлэл	-10.9766
▁байрлуулах	-10.9766
▁зохиосон	-10.9766
▁91	-10.977
мс	-10.9772
▁өөрчлөгдөх	-10.9775
▁байршуулах	-10.9777
▁нүүлгэн	-10.9778
▁хэрэглээнд	-10.9778
▁бил	-10.9779
чихлээ	-10.9782
▁онлайн	-10.9783
ногоон	-10.9783
▁мөнөөх	-10.9783
▁хөдлөл	-10.9783
▁ис	-10.9783
▁гурилын	-10.9789
▁өртөгтэй	-10.9791
▁сүлжээгээр	-10.9791
ухаа	-10.9793
▁нөхдийн	-10.9797
98	-10.9798
▁2016-2020	-10.9804
нам	-10.9805
▁хутагт	-10.9806
▁этгээдэд	-10.9806
▁тооцоолж	-10.9808
▁нөлөөгөөр	-10.9808
▁зохиож	-10.9815
▁бүтээгч	-10.9817
▁одоог	-10.9818
▁шавар	-10.982
▁хариуцан	-10.9822
▁сууцыг	-10.9823
луулан	-10.9826
▁хотуудын	-10.9827
▁ертөнцийг	-10.9828
▁нүүрний	-10.983
зи	-10.9831
84	-10.9833
▁суулга	-10.9834
▁учрах	-10.9834
▁зөвшөөрөлтэй	-10.9836
il	-10.9837
▁тодорсон	-10.9837
▁цэвэрлэгээ	-10.9837
▁хэвтэн	-10.9838
▁өчигдрийн	-10.9839
▁явуулахаар	-10.984
снээ	-10.984
▁утгагүй	-10.9842
▁олголт	-10.9843
▁хамгаал	-10.9853
▁хөдлөлтийн	-10.9853
чихвал	-10.9854
▁нздтг	-10.9857
▁жам	-10.9858
▁нэгтэй	-10.9862
ra	-10.9862
▁зээлээс	-10.9865
ань	-10.9866
ре	-10.9866
▁унаган	-10.9867
▁байгуулагчид	-10.9867
▁дэслэгч	-10.987
▁дурсгал	-10.9872
▁товчхондоо	-10.9872
ямар	-10.9873
аач	-10.9876
лна	-10.9878
▁жолоочийн	-10.9879
▁орчноо	-10.9879
төгс	-10.9881
▁тогтоон	-10.9885
▁босоод	-10.9887
▁зайг	-10.989
▁данстай	-10.9891
▁до	-10.9892
▁ёсондоо	-10.9893
▁хичээллэх	-10.9893
▁сири	-10.9899
▁урьдын	-10.9901
▁мэндчилгээ	-10.9902
▁судалсан	-10.9903
▁дурьдсан	-10.9903
▁механик	-10.9904
өөсөө	-10.9904
үүлдэг	-10.9907
▁ажилчин	-10.9909
▁нэгээр	-10.9909
▁эрин	-10.991
▁зээ	-10.9912
▁даах	-10.9914
▁оролцон	-10.9916
▁хэлээгүй	-10.9916
таны	-10.9918
▁гэсээр	-10.9918
▁учруулах	-10.9922
дээс	-10.9926
▁ру	-10.9928
тны	-10.9928
▁гуравны	-10.9932
▁нэмэгдэл	-10.9932
▁болгов	-10.9932
▁сацуу	-10.9934
▁холимог	-10.9934
▁шаардлагын	-10.9934
▁сонгино	-10.9935
▁4-5	-10.9938
▁тасаг	-10.994
▁сэрүүсч	-10.9943
▁эрчүүдийн	-10.9943
▁төлөвлөгөөгөө	-10.9943
▁гаргаагүй	-10.9945
▁эмчилгээг	-10.9945
▁санаачлагч	-10.9946
ii	-10.9948
▁тэнцэж	-10.9949
▁ядуурал	-10.995
▁ярихгүй	-10.9951
▁аваачиж	-10.9952
▁алах	-10.9953
ту	-10.9959
▁хэсэгтээ	-10.9959
▁шалгаруулалтад	-10.996
▁коридор	-10.9961
▁мэдээгээр	-10.9961
гаараа	-10.9965
▁оров	-10.9967
▁хуралдсан	-10.9967
▁хумс	-10.9969
▁эмэгтэйг	-10.9972
тойгоор	-10.9972
ич	-10.9972
▁алдааг	-10.9975
▁элсэх	-10.9979
▁түүндээ	-10.9983
▁жаал	-10.9984
нг	-10.9988
▁цогцоор	-10.9997
▁ангилал	-10.9998
▁па	-11.0001
▁бсшуся	-11.0001
▁өс	-11.0002
▁хөндлөнгийн	-11.0002
▁нөхрөө	-11.0003
кон	-11.0003
▁улз	-11.0004
▁мэр	-11.0006
▁явчихсан	-11.0006
64	-11.0015
▁сайжруулсан	-11.0016
▁жишигт	-11.0016
▁дайр	-11.0016
de	-11.0017
элт	-11.0019
▁байхаа	-11.0019
▁шүлхий	-11.0019
▁багтах	-11.0025
▁харш	-11.0026
фа	-11.0026
хэд	-11.0027
▁ярилцлагадаа	-11.0032
▁iv	-11.0032
▁үлджээ	-11.0032
йорк	-11.0033
▁зогсч	-11.0034
▁хоригийг	-11.0037
▁1991	-11.0037
▁цув	-11.0042
▁амлаж	-11.0042
▁хуваарилах	-11.0045
еп	-11.005
▁корпорацийн	-11.0051
▁мөргөж	-11.0052
▁буурна	-11.0052
▁тэрбумаар	-11.0056
▁78	-11.0057
▁сонирхох	-11.0059
▁нисгэгч	-11.006
лу	-11.0066
▁сайгүй	-11.0068
▁ярь	-11.007
▁төгрөгөөс	-11.0071
дор	-11.0072
пүрэвсүрэн	-11.0074
▁нүүрсээ	-11.0077
▁хүрэхэд	-11.0078
▁сахих	-11.0081
▁ёстойг	-11.0082
▁эвдрэл	-11.0084
▁судлан	-11.0084
▁зоос	-11.0086
▁нэмэгдүүлсэн	-11.0086
▁нутгийнхаа	-11.0097
▁хэлбэрт	-11.01
оюу	-11.01
▁салбараа	-11.0103
▁дайран	-11.0103
id	-11.0103
▁сантай	-11.0105
▁98	-11.0109
▁соёлтой	-11.011
▁бэрхшээлийг	-11.0114
▁дэмжлээ	-11.0114
▁хон	-11.0114
▁торгуулийн	-11.0116
▁нийслэлээс	-11.0116
▁тогтож	-11.0121
цогт	-11.0123
▁санасан	-11.0126
um	-11.0129
▁зуд	-11.0129
▁зүйлээр	-11.0133
▁хооллох	-11.014
-11	-11.0142
▁хүргүүлнэ	-11.0145
▁оюутнуудын	-11.0145
хо	-11.0147
▁тусламжаар	-11.0148
▁арбитрын	-11.0148
▁вашингтон	-11.0148
ge	-11.0149
▁хэтрүүлэн	-11.0151
▁хүйтэрч	-11.0154
▁22-27	-11.0154
▁хүйс	-11.0155
da	-11.0156
▁аятайхан	-11.0158
▁71	-11.0158
▁өнгөрлөө	-11.0159
▁африк	-11.016
▁адал	-11.0162
▁хоригдож	-11.0163
▁нөхөж	-11.0169
▁мэдээллүүд	-11.0169
▁гэснээ	-11.0169
руулж	-11.017
▁зовлонг	-11.017
▁гэрэлтүүлэг	-11.017
▁дуурийн	-11.0172
▁дэмжигчид	-11.018
89	-11.0183
▁хучилттай	-11.0183
▁түлшний	-11.0188
▁нэгнээ	-11.0188
▁хувиараа	-11.019
чиж	-11.019
▁эсэргүүцсэн	-11.0193
▁төлөвлөх	-11.0198
▁муудсан	-11.0198
▁ураг	-11.0199
▁манжийн	-11.02
▁харагдахгүй	-11.0201
▁от	-11.0206
маг	-11.0207
▁хувиа	-11.0208
▁амандаа	-11.0208
▁хийе	-11.021
▁хэрэгтэйг	-11.021
▁хая	-11.0214
▁илэрдэг	-11.0215
▁мессенжерт	-11.0215
▁тогтолцоонд	-11.0222
вэр	-11.0224
▁тайзан	-11.0225
▁доллараар	-11.0231
▁ахиад	-11.0231
▁чанд	-11.0232
▁төрөлхийн	-11.0234
▁хурлаа	-11.0234
▁найрал	-11.0236
▁дэмжлэгийг	-11.024
▁it	-11.024
▁туршлагыг	-11.0242
▁зүтгэсэн	-11.0246
▁хүчирхийлэлд	-11.0246
▁шийдээд	-11.0247
▁мхег	-11.0251
▁81	-11.0252
▁үзүүлэн	-11.0256
▁үйлчлүүлэх	-11.0258
▁баярт	-11.026
▁энийг	-11.026
▁даргаа	-11.0262
үр	-11.0262
▁үлдэнэ	-11.0263
59	-11.0264
▁ойртож	-11.027
▁явагдана	-11.027
ts	-11.027
2-	-11.0272
▁очно	-11.0277
▁нэгэнтээ	-11.0278
▁амьдар	-11.028
амар	-11.0287
▁хорооллыг	-11.0288
▁зээлтэй	-11.0289
▁нэгжүүдэд	-11.0294
▁бодисыг	-11.0294
лэгдэж	-11.0302
▁хордлого	-11.0303
▁яамд	-11.0304
▁өсчээ	-11.0306
▁эдгээрээс	-11.0307
▁mo	-11.0308
▁хадгалагдаж	-11.031
▁явдлууд	-11.0312
фи	-11.0313
чилсан	-11.0315
▁тойм	-11.0316
▁дунджаас	-11.0319
▁оношилгоо	-11.0322
▁хоолойгоор	-11.0324
▁алан	-11.0325
▁дорж	-11.0325
▁нээн	-11.0326
▁1993	-11.0326
▁гэлтэй	-11.0328
мэл	-11.0331
▁явагддаг	-11.0335
уль	-11.0336
▁экспортыг	-11.0337
▁үүрч	-11.0337
му	-11.0338
▁нааштай	-11.0338
цогзолмаа	-11.0343
▁өрнөсөн	-11.0347
▁77	-11.0349
▁төрхийг	-11.0351
▁цемент	-11.0352
-3	-11.0352
▁эцэстээ	-11.0354
▁өмчийг	-11.0355
жүүлж	-11.0361
wikim	-11.0362
▁байгууллагуудыг	-11.0363
▁үндэслэлгүй	-11.0364
▁чөлөөлсөн	-11.0366
▁нэрлэх	-11.0366
тэрбишдагва	-11.0368
▁үймээн	-11.037
▁шинэчлэлт	-11.0371
▁хоёроос	-11.0371
▁зөөж	-11.0371
▁төлөөд	-11.0374
агдаж	-11.0378
▁шан	-11.0379
▁бүсийг	-11.0382
▁дайралт	-11.0382
▁хэрэгтэн	-11.0383
▁өмс	-11.0386
▁үрэвсэл	-11.0387
▁тэмцээнээс	-11.0389
▁гүнд	-11.039
mminfo	-11.0393
▁амьдралтай	-11.0393
дуулсан	-11.0394
▁times	-11.0395
▁бүдүүлэг	-11.0396
▁хөдөлгөх	-11.0397
▁гун	-11.0397
▁эрдэнэс	-11.0398
▁ихэнхдээ	-11.04
ён	-11.0401
▁тоолох	-11.0403
▁харамсаж	-11.0403
▁мэдэрсэн	-11.0404
сүхбат	-11.0404
▁10:00	-11.0404
▁нөгөөх	-11.0406
дер	-11.0406
▁буур	-11.0412
хүрэлсүхийн	-11.0414
▁такси	-11.0414
▁халхын	-11.0415
ион	-11.0418
▁цог	-11.0423
ахгүй	-11.0427
дуулж	-11.0427
сноос	-11.0428
▁жуулчид	-11.0428
дэггүй	-11.0433
▁цолыг	-11.0434
▁at	-11.0438
▁секунд	-11.0438
гүүд	-11.0443
сах	-11.0444
▁цогцос	-11.0445
▁хямралд	-11.0446
.08	-11.0446
▁өчнөөн	-11.0446
▁гэмтэж	-11.0446
▁дэмжээд	-11.0447
▁маск	-11.0451
▁грамм	-11.0451
▁засаглалыг	-11.0453
▁даргаас	-11.0456
▁хийц	-11.0458
▁хассан	-11.0458
▁зурхай	-11.0459
▁хөв	-11.046
▁төвөгтэй	-11.0466
▁маргаантай	-11.0466
▁сумдад	-11.0466
▁нур	-11.0468
▁сорилт	-11.0468
тар	-11.0469
▁бүүр	-11.047
раг	-11.0471
▁зал	-11.0472
▁оруулахгүй	-11.0474
▁удмын	-11.0474
▁дуусгавар	-11.0475
▁бодно	-11.048
▁заалтууд	-11.048
▁бүтэхгүй	-11.0482
▁шугамаар	-11.0484
▁тавилаа	-11.0485
▁засагчид	-11.0485
52	-11.0485
▁омог	-11.0486
▁эрдэнийн	-11.0487
▁академи	-11.0488
86	-11.049
▁сэргээлт	-11.0491
▁хамгаалдаг	-11.0493
▁бичигдэж	-11.0494
▁ирэн	-11.0494
▁хуй	-11.0497
▁гааль	-11.0498
▁баталгааг	-11.0498
▁хасч	-11.05
▁хураалтын	-11.0501
▁түүхт	-11.0501
▁болсонд	-11.0504
▁оруулжээ	-11.0507
▁заг	-11.0509
-10	-11.0511
▁лидер	-11.0512
▁үүснэ	-11.0513
▁үхлийн	-11.0514
▁эхлүүлээд	-11.0514
гэсэн	-11.0516
▁өргөжин	-11.0516
▁монголчуудад	-11.0517
▁харгис	-11.0518
▁зэрэгтэй	-11.052
▁аяндаа	-11.0522
▁цонхоор	-11.0522
оюунгэрэл	-11.0524
▁vi	-11.0524
▁жишгээр	-11.0525
▁хэлэлцлээ	-11.0525
▁гхя	-11.0526
▁худалдаалах	-11.0526
дөж	-11.0527
▁банктай	-11.0527
тэг	-11.0527
▁тавигдаж	-11.0528
▁хамба	-11.0531
▁устгаж	-11.0532
▁сайтын	-11.0534
▁гараас	-11.0534
▁шигшээд	-11.0534
▁хүртээмжийг	-11.0537
▁металл	-11.0537
билэг	-11.054
57	-11.0547
▁дууссаны	-11.0553
▁хойшлуулах	-11.0553
де	-11.0554
▁наадмаар	-11.0555
▁хошой	-11.0556
ова	-11.0558
хүний	-11.0559
▁мессеж	-11.0562
▁хоолойн	-11.0562
▁co	-11.0565
▁компаниудыг	-11.0569
▁тогтоолд	-11.0569
▁бэлгэ	-11.0569
▁александр	-11.057
▁өснө	-11.0571
▁өргөөнд	-11.0573
▁мугж	-11.0575
▁аминд	-11.0575
▁аваас	-11.0578
▁авт	-11.058
68	-11.058
▁төгсөх	-11.0581
▁дөрвөлжин	-11.0582
▁алдахгүй	-11.0584
▁явцын	-11.0587
▁багассан	-11.0587
▁орнуудтай	-11.0589
▁зуслангийн	-11.059
▁гэрлэх	-11.0591
▁тогооч	-11.0593
▁ух	-11.0593
▁гэснийг	-11.0593
чойжилсүрэн	-11.0594
▁ов	-11.0597
▁батламж	-11.0598
▁жарны	-11.06
ul	-11.0604
▁хадны	-11.0607
▁инээж	-11.0609
▁хүлээнэ	-11.0614
мб	-11.0614
оё	-11.0618
▁зогсоод	-11.0619
▁эсэргүүцэл	-11.062
▁дэлгэц	-11.0623
▁биечлэн	-11.0624
▁тушаалтны	-11.0628
▁боомтын	-11.0628
уз	-11.063
79	-11.0631
▁го	-11.0634
лиг	-11.0636
▁машинтай	-11.0638
дож	-11.0639
53	-11.064
▁оруулалттай	-11.064
▁зөвшилцөх	-11.0641
▁намтар	-11.0643
лагдаж	-11.0644
▁босож	-11.0645
▁цул	-11.0647
▁оруул	-11.0648
▁сүй	-11.0653
▁чаджээ	-11.0653
▁хагарал	-11.0658
дэв	-11.0661
▁харилцагч	-11.0664
▁өгүүлбэр	-11.0667
74	-11.0668
▁багтааж	-11.0669
▁өргөмжлөл	-11.0669
▁дамнасан	-11.0671
▁эгнээнд	-11.0677
▁тодорч	-11.0681
▁өдрөө	-11.0682
ub	-11.0682
▁жо	-11.0685
▁цохиж	-11.0686
▁саванд	-11.0686
▁ихийг	-11.0689
▁бахархаж	-11.0694
▁хольж	-11.0694
▁ла	-11.0695
▁аймгуудад	-11.0695
▁vv	-11.07
сал	-11.0702
▁илэрхийлжээ	-11.0702
▁багаасаа	-11.0703
▁ургах	-11.0705
▁эрэл	-11.0705
▁морио	-11.0706
▁тохиолддог	-11.071
▁олборлож	-11.071
▁ингэх	-11.0711
▁байрандаа	-11.0715
▁өсвөрийн	-11.0716
58	-11.0717
▁гайхан	-11.0718
▁эрсдэлд	-11.0718
▁холбогдуулж	-11.0719
лер	-11.0722
▁тосон	-11.0722
▁өмнөговийн	-11.0726
▁саналтай	-11.0732
▁тендерт	-11.0733
▁цагдаад	-11.0737
▁зөвлөгөөг	-11.0738
▁pro	-11.0739
▁сонслоо	-11.0739
▁но	-11.0743
▁толбо	-11.0743
▁лалын	-11.0744
▁ууган	-11.0744
▁дох	-11.0744
жир	-11.0749
▁даваанд	-11.0752
▁хэрэглэл	-11.0755
кер	-11.0756
лосон	-11.0756
▁удирдагчид	-11.076
▁дээрхи	-11.076
оюунчимэг	-11.0764
▁убтз	-11.0764
лаарай	-11.0765
▁гарцыг	-11.0765
▁хүндрэлийг	-11.077
▁багасгаж	-11.0771
▁импортоор	-11.0773
▁уриалга	-11.0776
▁зохицуулагч	-11.0777
▁ойлголцол	-11.0777
▁төлөөлөгчдийг	-11.0779
▁үзэгчдэд	-11.0781
моор	-11.0781
▁болоо	-11.0783
▁монголчуудыг	-11.0784
▁дурдаж	-11.0784
42	-11.0784
сс	-11.0785
▁цацраг	-11.0786
▁нэвтрүүлсэн	-11.0788
▁хороог	-11.0788
▁мэндэлсэн	-11.0788
▁группийн	-11.0789
▁зайн	-11.0789
▁загварыг	-11.0791
номин	-11.0793
гөө	-11.0793
▁зов	-11.0797
▁өртгийн	-11.08
▁тооцоог	-11.0802
ga	-11.0806
▁эвэр	-11.0808
▁цэргийг	-11.081
▁цаазын	-11.081
▁хориглоно	-11.081
▁сургуулиудад	-11.081
▁аваарай	-11.0812
арга	-11.0813
▁хаагчдад	-11.0814
▁ь	-11.0816
56	-11.0817
▁настайдаа	-11.0819
▁харваа	-11.0823
▁өрөөндөө	-11.0823
▁өргөтгөх	-11.0824
▁хонх	-11.0825
сноор	-11.0828
▁олимпод	-11.0829
▁зөрчин	-11.083
▁хуваах	-11.083
▁хийг	-11.0834
▁лондон	-11.0836
гд	-11.0837
▁нимгэн	-11.0838
▁зарц	-11.0838
▁хүмүүн	-11.0838
▁дэвшигчийг	-11.0839
ланд	-11.0841
is	-11.0841
▁хэсгүүд	-11.0845
▁яадаг	-11.0845
▁зөрчлөөс	-11.0847
▁батлагдсанаар	-11.0848
assa	-11.0849
занданшатар	-11.0852
▁бүгдэд	-11.0855
▁суулгасан	-11.0856
лг	-11.0858
▁тохой	-11.0859
▁швейцарийн	-11.086
элгүй	-11.0862
▁тохиолдож	-11.0862
▁тулааны	-11.0862
▁буурчээ	-11.0865
лалт	-11.0865
▁нэгдлийг	-11.0868
▁ялагдал	-11.087
гуу	-11.0873
▁цэрэгт	-11.0874
▁дараахь	-11.0879
▁сэн	-11.088
▁салбараас	-11.088
▁уналт	-11.088
▁бүртээ	-11.0881
▁номонд	-11.0882
▁эрхлэлтийн	-11.0889
▁байгуулснаар	-11.0889
▁матар	-11.0889
үг	-11.089
▁хэвлэх	-11.0891
▁богдын	-11.0893
im	-11.0894
▁мэнгэ	-11.0894
▁наадмаас	-11.0894
▁яана	-11.0896
▁зөвлөлт	-11.0899
▁автозамын	-11.0899
▁тээж	-11.0899
▁уут	-11.0901
▁эрсдлийг	-11.0901
▁сайдтай	-11.0904
ia	-11.0904
▁холбоод	-11.0905
▁сурвалжууд	-11.0907
▁хөтөлбөрүүдийг	-11.0908
▁булчин	-11.0909
рин	-11.0909
▁сүрхий	-11.0911
▁өнгөрөөх	-11.0913
▁гүр	-11.0916
▁хошин	-11.0916
▁концессын	-11.0919
▁харийн	-11.0922
насан	-11.0924
ta	-11.0931
▁сануулсан	-11.0931
▁хувилбарыг	-11.0934
▁онцолжээ	-11.0936
▁ашиглалтанд	-11.0941
▁үйлчлэгч	-11.0942
▁дээвэр	-11.0943
▁тэнцвэр	-11.0944
▁айлчилж	-11.0946
▁угсаа	-11.0947
▁ангийг	-11.0947
▁вагон	-11.0948
▁шалгаруулж	-11.095
▁гардуулж	-11.0951
▁цэгцлэх	-11.0952
жсэн	-11.0955
▁ялгарах	-11.0956
▁үндэслэлтэй	-11.0957
▁судар	-11.096
▁мөрдөгдөж	-11.096
оль	-11.096
▁хэрэгжсэн	-11.0961
▁бүтээ	-11.0962
ce	-11.0964
▁шатаж	-11.0965
▁хуримын	-11.0972
▁үнэмшил	-11.0973
энхбат	-11.0974
▁нэмэгддэг	-11.0978
▁хэргээ	-11.0978
▁хандивын	-11.0979
▁гэгдэх	-11.098
▁900	-11.098
▁авсны	-11.0983
▁хөрөнгөтэй	-11.0984
сээ	-11.0986
▁нүдийг	-11.0986
не	-11.0987
▁практик	-11.0987
▁микро	-11.0989
▁хамаарал	-11.0989
77	-11.0989
▁онолын	-11.0992
▁байгальд	-11.0992
▁бууруулсан	-11.0993
▁схд	-11.0994
кв	-11.0994
▁угсралтын	-11.0995
ho	-11.0995
▁онгоцыг	-11.0996
100	-11.0998
▁сайжрах	-11.0999
▁нээгдэж	-11.1
▁магнай	-11.1
лсэн	-11.1002
▁гэдэгтэй	-11.1002
▁ираны	-11.1002
▁тушаалаас	-11.1003
▁хязгаарлагдмал	-11.1006
▁батлуулсан	-11.1012
▁ороо	-11.1017
▁гадуурх	-11.1026
▁төлөвшүүлэх	-11.1027
▁халдаж	-11.103
▁эргэлтийн	-11.1031
▁хүрээтэй	-11.1031
▁урилга	-11.1032
▁хамруулсан	-11.1034
▁нүүдлийн	-11.1039
▁тохижилтын	-11.104
▁болгоё	-11.104
▁гуравхан	-11.1041
▁дэлбэрэлт	-11.1043
▁нярай	-11.1044
▁мэдээллээс	-11.1044
▁хүүхэлдэйн	-11.1045
▁агуулгатай	-11.1048
лалын	-11.1048
▁алслагдсан	-11.105
▁тэнцсэн	-11.105
номтойбаяр	-11.1052
▁бөөрний	-11.1053
▁болих	-11.1057
▁анхаарна	-11.1058
▁алдагдаж	-11.106
чулуун	-11.106
▁хамрах	-11.1064
▁харшил	-11.1065
▁сэтгүүлийн	-11.1065
▁эмгэнэл	-11.1066
▁явжээ	-11.1067
▁ри	-11.107
▁цомын	-11.1075
▁тогло	-11.1076
▁хэрэгч	-11.1077
▁маршал	-11.1083
▁өгөөжтэй	-11.1084
▁гарахыг	-11.1085
▁судас	-11.1085
am	-11.109
▁бүлийнхэн	-11.1092
▁сонирхдог	-11.1093
шилдэг	-11.1093
▁хорвоо	-11.1094
▁сургалтанд	-11.1094
▁авлага	-11.1101
▁мэдэгдэхгүй	-11.1102
▁төрчид	-11.1102
▁болсоор	-11.1102
▁гаргахдаа	-11.1103
▁хороод	-11.1104
▁үгүйсгэх	-11.1105
▁норм	-11.1105
▁байрлуулсан	-11.1108
▁mminfo	-11.111
дана	-11.1112
▁нууцаар	-11.1113
▁адилгүй	-11.1113
▁галдан	-11.1113
▁карьер	-11.1118
тулга	-11.1121
▁дуулга	-11.1122
▁цугласан	-11.1123
67	-11.1124
41	-11.1124
▁рок	-11.1126
▁шулуун	-11.1126
ti	-11.1128
▁сэжигтэн	-11.1128
жаа	-11.1129
▁ахуйг	-11.113
ег	-11.1131
▁сонор	-11.1134
▁даш	-11.1134
▁чадавх	-11.1138
▁авбал	-11.1138
▁жив	-11.1141
лхагвасүрэн	-11.1142
хаянхярваа	-11.1143
▁юнеско	-11.1143
▁жуулчин	-11.1144
▁экспортод	-11.1145
энхбаярыг	-11.1145
▁ногдол	-11.1149
▁шагай	-11.115
▁дуусна	-11.1154
▁багачууд	-11.1155
▁with	-11.1157
▁өргөжүүлэн	-11.1157
▁штаб	-11.116
▁айхтар	-11.116
дэмбэрэл	-11.1161
чихдэг	-11.1161
▁бүтээгдэхүүнүүд	-11.1161
▁орнуудаас	-11.1163
▁засварлах	-11.1166
▁хэлийг	-11.1166
▁хичээлээ	-11.1167
▁байшинд	-11.1168
▁багаа	-11.1169
ович	-11.1171
▁хээ	-11.1172
▁түлхэц	-11.1176
▁тоглолтонд	-11.1178
▁дутмаг	-11.118
▁үлдээж	-11.1183
▁өрөнд	-11.1185
отгон	-11.1187
▁замтай	-11.1194
▁мөнгөнөөс	-11.1195
▁тусган	-11.1196
▁яригдсан	-11.1198
▁дээшээ	-11.1201
▁хөндийн	-11.1203
▁ээжийгээ	-11.1204
▁бясалгал	-11.1207
▁ходоодны	-11.1208
▁дундговийн	-11.1209
▁өмд	-11.1209
▁тосгон	-11.1211
▁дэн	-11.1212
▁зардаг	-11.1213
кар	-11.1215
▁хат	-11.1217
▁тохиромжгүй	-11.1217
▁зоог	-11.1218
▁ухаар	-11.122
▁идэвхи	-11.1221
▁зүүж	-11.1222
үд	-11.1224
▁араасаа	-11.1225
▁баримтаа	-11.1226
▁болохоо	-11.1227
▁дэмжлэгтэйгээр	-11.1228
▁буруутгах	-11.1228
тэ	-11.1228
төл	-11.1229
чир	-11.123
▁94	-11.1232
▁тохироо	-11.1232
▁he	-11.1232
▁баталгаажуулж	-11.1233
▁төвшин	-11.1237
▁бизнесээ	-11.1237
▁гэдгээс	-11.1237
72	-11.1237
▁түрүүн	-11.1237
▁хуулиас	-11.1242
▁цагаасаа	-11.1243
▁барааг	-11.1245
▁хальс	-11.1246
▁гаруйн	-11.1246
▁өргөдлөө	-11.1247
▁гэрлийн	-11.1249
▁тариф	-11.1249
▁эхнэрээ	-11.1255
▁(0)	-11.1255
▁лабораторийн	-11.1256
▁морьдын	-11.126
▁одод	-11.126
-4	-11.1264
ду	-11.1265
гэх	-11.1267
▁хашаанд	-11.1267
▁суулаа	-11.1271
▁хүмүүжил	-11.1272
▁бээр	-11.1274
▁байгуулагдсаны	-11.1275
▁се	-11.1278
▁тайж	-11.1279
▁дараахан	-11.1279
уудаар	-11.1281
▁тасагт	-11.1281
айн	-11.1282
далай	-11.1282
▁тулгар	-11.1282
▁мэнгэтэй	-11.1283
▁бүргэд	-11.1283
▁84	-11.1284
▁хэзээнээс	-11.1284
▁мега	-11.1286
▁үд	-11.1288
орхон	-11.129
▁тулгуурласан	-11.1292
▁дээрэм	-11.1293
▁гарьд	-11.1293
▁сумаас	-11.1294
▁сонгогдож	-11.1298
▁тэмдэгт	-11.1301
▁оролцохгүй	-11.1301
▁токио	-11.1301
▁марафон	-11.1302
▁зэрэглэл	-11.1302
▁уучлалт	-11.1303
▁орхин	-11.1303
урт	-11.1305
пе	-11.1309
▁саар	-11.1309
▁онгон	-11.1309
хал	-11.131
▁москвагийн	-11.131
▁цаанаа	-11.131
▁уриалсан	-11.1312
▁барах	-11.1316
▁тахих	-11.1317
▁төрөлх	-11.1317
рос	-11.132
▁туулсан	-11.1322
▁бан	-11.1324
▁бэлдэх	-11.1325
заяа	-11.1325
▁боксын	-11.1326
▁солилцсон	-11.1327
▁тв	-11.1329
▁шуу	-11.1329
▁өгснөөр	-11.1331
▁органик	-11.1332
▁танилцлаа	-11.1334
▁лавлагаа	-11.1334
▁эмээл	-11.1338
дархан	-11.1338
▁инновацийн	-11.1338
▁ви	-11.1339
▁мөргөлдөөн	-11.134
▁аялж	-11.1341
▁хэлхээ	-11.1342
▁дарханы	-11.1342
200	-11.1343
▁айлчлах	-11.1343
▁цаазаар	-11.1345
▁гүйх	-11.1345
▁бэлтгэлийг	-11.1346
мэн	-11.1346
▁үлдээд	-11.1347
өрсөн	-11.1347
▁гардуулан	-11.1349
▁дуудлагын	-11.135
▁эцгийн	-11.1354
▁вант	-11.1356
▁уриан	-11.1356
▁зайлсхий	-11.1359
▁одсон	-11.1359
▁зарсан	-11.136
▁хуулиудыг	-11.1361
▁тэвчээртэй	-11.1361
▁дарь	-11.1362
▁экспо	-11.1363
▁чөлөөлөгдөх	-11.1366
▁террорист	-11.1366
ba	-11.1368
орос	-11.137
чээ	-11.137
нарантуяа	-11.137
▁эрүүлжүүлэх	-11.1374
инээв	-11.1377
▁эзэмшүүлэх	-11.1378
▁оруулахыг	-11.1379
91	-11.138
▁суут	-11.138
лүүлдэг	-11.1382
▁барилдсан	-11.1383
▁хэрэгцээтэй	-11.1383
▁тулгарсан	-11.1385
рол	-11.1386
агдсан	-11.1388
▁цамхаг	-11.1391
▁дуугарч	-11.1391
▁хүчил	-11.1396
▁тооцон	-11.1396
яг	-11.1397
▁драмын	-11.1397
▁засагтай	-11.14
▁ашигласны	-11.1401
оогүй	-11.1401
ll	-11.1402
▁чийг	-11.1402
▁тохиолдох	-11.1406
▁шүүмжлэлтэй	-11.1407
цгаая	-11.141
хам	-11.1421
▁угаал	-11.1422
тг	-11.1423
▁үзүүлэлтийг	-11.1425
▁тодотголтой	-11.1425
▁тусах	-11.1427
▁цэнийг	-11.1431
ци	-11.1432
▁хөдлөлт	-11.1433
▁хүртээмж	-11.1434
▁хариултыг	-11.1436
▁залхуу	-11.1439
▁зүйч	-11.1441
па	-11.1441
ара	-11.1443
▁20-30	-11.1443
▁хашааны	-11.1448
▁ардчиллыг	-11.1449
▁дамжиггүй	-11.1449
▁охинтой	-11.1451
▁мэдэгдэлд	-11.1452
▁өвчилсөн	-11.1453
иф	-11.1455
▁авъя	-11.1456
▁цөл	-11.1456
рөх	-11.1458
▁нуусан	-11.1459
▁хүргүүлэх	-11.1462
▁донор	-11.1462
▁туу	-11.1463
▁удирдлагуудтай	-11.1464
▁зохицуулсан	-11.1466
▁роберт	-11.1466
▁айдаг	-11.1471
▁үеийнхэн	-11.1471
шар	-11.1472
▁таамаглал	-11.1473
▁бүлгүүд	-11.1473
▁ажиглагдаж	-11.1477
▁хүргээд	-11.1477
▁бетон	-11.1478
мын	-11.1478
▁оноог	-11.1479
▁1989	-11.1479
дод	-11.1482
▁тендерийн	-11.149
ино	-11.149
▁92	-11.1493
▁япончууд	-11.1493
▁бүтээмж	-11.1494
уулагч	-11.1497
▁хэвтэх	-11.1501
▁шүүмжлэх	-11.1501
▁дэгийн	-11.1502
▁грек	-11.1505
▁чех	-11.1506
▁хариулав	-11.1508
▁отгон	-11.1511
бүрэн	-11.1514
▁харахгүй	-11.1519
▁хи	-11.1519
▁хүндэтгэх	-11.1524
▁ургийн	-11.1525
▁худалдаалж	-11.1526
овын	-11.1527
▁ирвэс	-11.1527
▁хамтраад	-11.1529
ганзориг	-11.153
▁баримтаар	-11.153
▁олдох	-11.1532
уб	-11.1532
▁эрхлэгчдэд	-11.1534
▁бодон	-11.1536
▁аянд	-11.1538
▁яа	-11.1538
▁уурхайг	-11.1539
▁хаялт	-11.1541
▁оролцоод	-11.1542
▁малайз	-11.1543
▁багахангай	-11.1546
▁парис	-11.1548
элбэгдоржийн	-11.155
▁ярив	-11.1558
ке	-11.1559
▁хэмнэл	-11.1559
тоо	-11.1562
▁бүтээлд	-11.1562
▁модыг	-11.1564
▁хаягаар	-11.1564
▁яр	-11.1567
▁дүнгээс	-11.1567
▁хадаг	-11.1567
87	-11.1569
▁түм	-11.157
▁нүүж	-11.1574
▁аг	-11.1574
мөн	-11.1575
▁сурдаг	-11.1576
ау	-11.1578
▁дуудсан	-11.1581
дэлгэр	-11.1584
▁шу	-11.1588
▁гав	-11.1588
гин	-11.1589
най	-11.159
▁цонхны	-11.1591
man	-11.1591
▁салшгүй	-11.1596
▁хэлэлцүүлж	-11.1599
▁төсвөө	-11.1604
▁агуулах	-11.1604
▁шахсан	-11.1604
▁оруулахад	-11.1605
▁шүүгчдийн	-11.1607
▁зүйлтэй	-11.1608
▁моах	-11.1608
▁тэгэхгүй	-11.1611
▁малчдад	-11.1612
▁намдаа	-11.1615
▁дуулгахад	-11.1616
▁ээжүүд	-11.1618
▁баяраа	-11.1618
▁унагаж	-11.1618
▁украин	-11.1618
▁хэмээгч	-11.162
▁малчны	-11.162
ого	-11.1625
чихна	-11.163
▁санаачилгаар	-11.1631
▁нуруун	-11.1632
▁уулзаад	-11.1636
▁авснаас	-11.1637
▁зайлсхийх	-11.1639
гон	-11.1639
▁залуучуудыг	-11.164
97	-11.164
▁арлын	-11.1644
▁сталин	-11.1644
▁хүндхэн	-11.1644
▁оролдох	-11.165
▁гүүрэн	-11.1653
▁муугаар	-11.1656
▁медалийг	-11.1658
▁зургууд	-11.166
▁тамирын	-11.1662
▁түг	-11.1662
мен	-11.1666
▁зодож	-11.1666
тус	-11.1667
ага	-11.1667
▁нотолж	-11.1668
▁хуралдах	-11.1669
▁даалгаврыг	-11.167
▁хойноо	-11.1672
▁тойрны	-11.1673
▁зг	-11.1673
▁дэлгүүрт	-11.1674
▁утааг	-11.1677
▁орчуулагч	-11.1677
▁ажилгүйдэл	-11.1677
ами	-11.1678
▁сонго	-11.1679
▁нээрээ	-11.1679
▁ядарч	-11.1681
▁ком	-11.1682
▁төгрөгтэй	-11.1682
▁cap	-11.1691
▁by	-11.1694
лээр	-11.1696
▁хожсон	-11.1697
гээрээ	-11.1697
▁хийхийн	-11.1699
▁хэнээс	-11.17
▁тэмдэглэлээ	-11.1708
▁хоолыг	-11.1709
▁онцлоод	-11.171
▁шоуны	-11.171
▁шийдвэрлэнэ	-11.1711
▁дуул	-11.1713
▁цацаж	-11.1713
▁хүчирхийлэлтэй	-11.172
▁автсан	-11.1721
▁бэлдсэн	-11.1724
▁зохиогч	-11.1724
▁үргэлжилсээр	-11.1727
▁хязгаарыг	-11.1727
▁алчуур	-11.1727
батжаргал	-11.1728
▁голлон	-11.1728
▁ерөнхийлөгчийг	-11.1729
▁амьдарсан	-11.173
▁бэлтгэлийн	-11.1731
▁хамаардаг	-11.1734
▁мөрөөр	-11.1735
▁хүчинтэй	-11.1736
▁эзгүй	-11.1737
ант	-11.1738
▁монголынхоо	-11.174
▁уурхайд	-11.1742
▁заяаг	-11.1745
дамба	-11.1746
▁өглөг	-11.1749
▁манлайлагч	-11.175
▁утсыг	-11.1751
lo	-11.1753
хөгжлийн	-11.1754
авч	-11.1755
▁нарынхаа	-11.176
▁орост	-11.1761
▁малтай	-11.1762
▁холбогдон	-11.1762
▁мэдэлтэй	-11.1764
▁тайз	-11.1764
▁хүмүүжүүлэх	-11.1766
▁дүгнэсэн	-11.1767
▁аварч	-11.1768
▁удирдлагыг	-11.1769
▁хүргэ	-11.1769
▁аргачлал	-11.177
▁нарийвчилсан	-11.1773
▁цуу	-11.1773
▁өгчих	-11.1774
▁мэдэхэд	-11.1774
▁арилгаж	-11.1774
▁ойролцоох	-11.1774
▁хоолойгоо	-11.1775
▁дасан	-11.1777
▁хамтрах	-11.1777
▁хяналтад	-11.1779
▁исламын	-11.1779
▁өгөхөөс	-11.178
▁буланд	-11.1781
▁эхчүүдийн	-11.1784
рэг	-11.1785
▁уурхайгаас	-11.1786
▁талбайтай	-11.179
сэр	-11.1792
▁яригдах	-11.1795
▁хурууны	-11.1798
▁элссэн	-11.1798
▁суугч	-11.1799
▁facebook	-11.1802
элсэн	-11.1804
▁эмя	-11.1807
игийн	-11.1811
сг	-11.1811
юр	-11.1813
▁хөндсөн	-11.1816
▁хориотой	-11.1817
▁хичээсэн	-11.1822
тн	-11.1822
▁уснаас	-11.1822
▁буддын	-11.1823
зул	-11.1825
▁87	-11.1828
▁салгах	-11.1829
об	-11.1832
лга	-11.1832
▁даг	-11.1834
▁спортыг	-11.1837
▁цахимаар	-11.1841
▁үзэсгэлэнтэй	-11.1841
▁хүндэрсэн	-11.1842
ers	-11.1843
▁үстэй	-11.1843
▁утааны	-11.1843
▁лу	-11.1849
▁эхлэхээр	-11.1851
ика	-11.1852
▁бичлэгийн	-11.1852
дов	-11.1853
▁сонсдог	-11.1856
▁тег	-11.1858
82	-11.1858
▁эсгий	-11.1859
▁ясны	-11.1861
▁буяны	-11.1861
▁уудаг	-11.1861
агдаагүй	-11.1866
по	-11.1866
▁салбарууд	-11.1868
▁барьц	-11.1871
▁самуун	-11.1874
▁даалгалаа	-11.1874
▁кв	-11.1876
▁гут	-11.1877
▁гуравт	-11.1877
▁суув	-11.1878
▁хүлэмжийн	-11.1879
наранбаатар	-11.1879
▁улсдаа	-11.1881
▁бээжингийн	-11.1881
▁тэмдэглэдэг	-11.1882
▁болгоныг	-11.1884
▁дураар	-11.1885
▁мөргөл	-11.1887
▁уншдаг	-11.1893
▁зарлаад	-11.1894
▁мартсан	-11.1895
▁залги	-11.1896
▁шүүмж	-11.1902
▁тулга	-11.1909
▁био	-11.1909
▁даатгалд	-11.191
▁чихэнд	-11.1911
▁өгдөггүй	-11.1911
▁ухаанаар	-11.1913
▁240	-11.1915
▁жагсаалтын	-11.1915
▁байгууллагынхан	-11.1915
▁чанарт	-11.1917
▁бүтээлчдийн	-11.1918
▁бу	-11.192
▁боломжоо	-11.192
▁музейд	-11.1922
▁цэвэрхэн	-11.1922
▁залуухан	-11.1923
▁төсөөлөл	-11.1925
сүх	-11.1925
▁үлддэг	-11.1926
▁дурдаад	-11.1926
▁тогтох	-11.1926
▁төрөлхтөн	-11.1927
▁илрүүлэн	-11.1929
▁ойлгомжгүй	-11.1931
▁бууны	-11.1932
▁ихсэх	-11.1933
оросын	-11.1933
▁илэрхийлдэг	-11.1938
▁эзэнгүй	-11.1938
▁хөтөлбөртөө	-11.194
81	-11.194
▁дуусгаж	-11.1942
▁хэмээлээ	-11.1943
▁нян	-11.1943
▁u	-11.1943
▁шалгаад	-11.1944
▁цэцэн	-11.1944
▁тэнцэл	-11.1948
▁үнэлэлт	-11.1949
▁шагнаж	-11.1949
▁гэрээгээ	-11.1951
▁нохойн	-11.1957
намайг	-11.1957
▁буцсан	-11.1961
▁хя	-11.1963
▁испанийн	-11.1964
▁алдаагаа	-11.1964
бх	-11.1967
▁багасна	-11.1968
▁дээдлэх	-11.1968
▁өнгийг	-11.1969
▁бүртгэлийг	-11.197
▁ме	-11.1971
▁жор	-11.1973
▁түвд	-11.1974
▁хадгал	-11.1977
▁сергей	-11.1979
ном	-11.1989
▁хөтөлбөрүүд	-11.1989
сүрэнгийн	-11.1991
▁2-7	-11.1992
тавантолгой	-11.1996
▁олгогдсон	-11.1997
▁93	-11.1997
▁хотууд	-11.1998
үүдээ	-11.1998
▁ширээнд	-11.2001
▁тэтгэмжийн	-11.2001
▁үзлэгт	-11.2004
▁ро	-11.2004
▁цочир	-11.2005
▁гоёл	-11.2006
зо	-11.2006
▁халз	-11.2007
▁дагалдан	-11.2008
▁тасарсан	-11.2008
▁үрээ	-11.2009
▁4000	-11.2011
гдсан	-11.2012
▁алдав	-11.2013
▁баланс	-11.2013
▁тавилан	-11.2014
▁автомашиныг	-11.2018
▁мянганы	-11.2019
▁соён	-11.202
▁олоогүй	-11.202
▁захиалагч	-11.2023
▁дундад	-11.2025
▁тэмцлийн	-11.203
▁орноосоо	-11.2035
үйц	-11.2036
▁ногдуулах	-11.2037
▁илчлэг	-11.2042
▁гэнэн	-11.2045
▁түүнийхээ	-11.2046
▁ээждээ	-11.2048
▁нэмэгджээ	-11.2049
▁барьцаанд	-11.2052
▁боломжоор	-11.2057
▁хум	-11.2065
▁ялгах	-11.2066
▁хожиж	-11.2068
▁сугалаа	-11.2073
▁жолоодох	-11.2074
▁170	-11.2075
ice	-11.2076
▁австри	-11.2078
▁үдийн	-11.2078
▁давтамж	-11.2079
▁шин	-11.2079
гөөр	-11.2081
▁чадавхи	-11.2082
лаар	-11.2083
▁сун	-11.2085
▁сургуулиас	-11.2087
▁явуул	-11.2087
▁ирүүлэх	-11.2087
▁мэтгэлцээн	-11.2088
▁сэлбэ	-11.2089
▁үнэлдэг	-11.2089
▁таньдаг	-11.2092
▁82	-11.2093
▁загасны	-11.2093
▁зэрэгцээд	-11.2096
ad	-11.2097
▁хадгалсан	-11.2097
▁хэлбэрийг	-11.2101
▁аймгууд	-11.2102
▁болмоор	-11.2103
▁түшиглэн	-11.2104
▁томилогдох	-11.2105
▁өргөтгөсөн	-11.2105
▁семинар	-11.2109
▁шийдлийг	-11.2111
▁зорин	-11.2112
▁алддаг	-11.2114
▁тархсан	-11.2118
▁судалгаанаас	-11.2119
▁үзүүлэлтээр	-11.212
▁муудаж	-11.2122
▁хормой	-11.2122
▁эрхэс	-11.2123
єг	-11.2124
▁12.00	-11.2124
▁туршиж	-11.2126
▁онооны	-11.2127
▁алж	-11.2128
▁нэгт	-11.2128
▁бөлгөө	-11.2131
▁эелдэг	-11.2133
71	-11.2137
▁балчир	-11.2137
▁зохиолыг	-11.2139
▁хонож	-11.214
▁аваар	-11.2141
буу	-11.2142
▁тайлангаа	-11.2142
бага	-11.2143
чихгүй	-11.2144
▁шүүгдэгч	-11.2144
гү	-11.2144
▁цуц	-11.2148
▁шимийг	-11.2148
вин	-11.2149
ry	-11.2151
сен	-11.2151
тунгалаг	-11.2153
▁24-29	-11.2156
▁газартаа	-11.2158
▁тулсан	-11.2158
▁багтаасан	-11.2162
▁танилцуулгыг	-11.2163
▁зэм	-11.2163
▁хонин	-11.2164
▁төлөөллүүд	-11.2166
гүүр	-11.2168
▁талуудын	-11.2168
▁ресторан	-11.2169
▁гадаадаас	-11.217
▁хуваалцаж	-11.2171
▁өрнүүлэх	-11.2171
▁тавцан	-11.2173
▁үрэгдсэн	-11.2174
гурван	-11.2175
▁тайл	-11.2178
▁тогтоосны	-11.2178
▁үхэж	-11.2178
▁цэгц	-11.2179
▁хаяад	-11.2179
мж	-11.2182
▁жаргалант	-11.2182
▁адгуус	-11.2185
▁өдийг	-11.2185
▁судал	-11.2186
▁нийцэж	-11.2189
▁комиссар	-11.219
▁гэмгүй	-11.219
цгааж	-11.2191
▁замнал	-11.2193
▁угаалгын	-11.2196
▁байхав	-11.22
▁алив	-11.2203
▁насаар	-11.2205
▁нөлөөг	-11.2205
▁гудамжаар	-11.2206
▁хоёул	-11.221
▁хэрэгслүүд	-11.2211
▁мэдэгдлийг	-11.2211
▁аятай	-11.2214
▁цэрэн	-11.2214
▁бодохгүй	-11.2215
go	-11.2218
▁яар	-11.2219
▁тогтоодог	-11.2221
▁жорж	-11.2222
▁биржийн	-11.2223
▁that	-11.2226
▁сүмийн	-11.2227
жа	-11.223
▁дамжиж	-11.2231
51	-11.2232
лам	-11.2234
▁үйлдвэрлэлээ	-11.2234
харин	-11.2236
бү	-11.2237
▁оролцоогүй	-11.2239
▁гарахдаа	-11.224
▁зүйлсийн	-11.2241
▁эрхмүүд	-11.2241
▁өгчихсөн	-11.2242
▁ассамблейн	-11.2242
▁үүрд	-11.2245
▁нэмэгдүүлнэ	-11.2247
▁зориул	-11.2248
▁зо	-11.2248
▁нэхэж	-11.2249
▁социализмын	-11.225
▁үзүүлэлтүүд	-11.2251
▁хөрөг	-11.2253
▁залруулах	-11.2254
▁00	-11.2258
▁илүүд	-11.2259
▁багасч	-11.226
▁урин	-11.226
▁сурагтай	-11.226
лаас	-11.2261
▁түгээн	-11.2263
▁өгүүлэв	-11.2265
▁завшаан	-11.2267
▁дайчид	-11.2269
▁амьдралаас	-11.227
се	-11.2272
тра	-11.2273
▁гишүүнээс	-11.2275
▁ойлголттой	-11.2275
▁тамирчдыг	-11.2275
▁бэлд	-11.2277
▁гаргав	-11.2278
▁архивын	-11.2279
▁эрсдэлээс	-11.228
▁уучлаарай	-11.228
▁суларч	-11.228
▁хоцорсон	-11.2283
▁зарцуул	-11.2285
кийн	-11.2286
▁тавцанд	-11.2287
▁газруудыг	-11.2288
▁график	-11.229
▁танк	-11.229
▁хямралтай	-11.2291
▁хүчнийг	-11.2291
▁хэллэг	-11.2294
▁чен	-11.2296
лөөд	-11.2299
▁зүрхэнд	-11.2299
▁ёо	-11.2308
вч	-11.2311
▁баримтат	-11.2311
▁түшиг	-11.2314
▁элсэлтийн	-11.2314
▁эгшиг	-11.2316
▁хэрэглэхгүй	-11.2316
▁олгохгүй	-11.2319
▁монголбанкнаас	-11.2319
▁иван	-11.232
▁агуулдаг	-11.2321
▁улстөр	-11.2321
63	-11.2321
▁алим	-11.2323
▁хүсээд	-11.2324
▁сэтгэлдээ	-11.2325
▁материаллаг	-11.2326
▁салсан	-11.2327
▁нэмэгдсээр	-11.2332
▁хөөх	-11.2332
▁арваад	-11.2339
уйн	-11.234
▁үсний	-11.2346
▁уурлаж	-11.2348
▁хулгайлсан	-11.2348
▁илрэх	-11.2348
▁өмөзо	-11.235
али	-11.2352
▁мат	-11.2357
▁бог	-11.2357
▁зорилгын	-11.2358
▁баримжаа	-11.2358
▁тосыг	-11.2358
▁хөндлөн	-11.2359
▁1.1	-11.2359
▁дийл	-11.2363
▁үүсгээд	-11.2364
▁цогцолборт	-11.2365
▁бухимдал	-11.2365
▁сайдаас	-11.2366
▁хаалгаар	-11.2368
▁тэндээ	-11.2368
83	-11.2369
▁нуун	-11.2369
▁боломжит	-11.2369
▁латин	-11.237
▁сүсэг	-11.2371
иад	-11.2372
рээд	-11.2373
▁мартах	-11.2374
▁жаргалыг	-11.2376
▁удирдлагуудын	-11.2376
▁шийдлээ	-11.2379
▁дагуулсан	-11.238
▁бурууг	-11.2381
▁системтэй	-11.2382
▁хайрлан	-11.2382
▁суртахуун	-11.2382
▁дуучид	-11.2383
▁дарх	-11.2383
▁энхийн	-11.2384
▁бүртгэгдэж	-11.2388
нэн	-11.2391
ну	-11.2391
▁хүрэхийн	-11.2393
▁боаж	-11.2395
▁урвуулан	-11.2396
▁харьцаатай	-11.2397
▁ангиуд	-11.2397
▁хариуцдаг	-11.2403
▁таваг	-11.2407
▁ждү	-11.241
▁замаас	-11.2411
▁орохыг	-11.2411
▁50-	-11.2414
элэг	-11.2415
хятадын	-11.2416
сэг	-11.2417
пүрэвдорж	-11.2418
▁тусламжийг	-11.2419
▁гарааны	-11.2424
▁үйлдвэрлэлд	-11.2425
▁гайхсан	-11.2427
▁хүндэтгэж	-11.2427
▁ашиглаад	-11.2427
нар	-11.2428
▁заалтуудыг	-11.2431
▁зарлигаар	-11.2432
▁эрсдэлийн	-11.2433
▁суралцсан	-11.2434
▁дээдсийн	-11.2435
▁лувсан	-11.2436
▁тэдэн	-11.2436
▁итгэхгүй	-11.2437
▁хөшиг	-11.2443
:40	-11.2444
▁заажээ	-11.2445
▁алсан	-11.2445
▁менежментийг	-11.245
▁сэргэх	-11.2451
per	-11.2451
еф	-11.2452
▁гайх	-11.2452
▁өнцгөөс	-11.2453
▁ханцуй	-11.2457
сумъяабазар	-11.2457
▁эмэгтэйчүүдийг	-11.2458
▁түү	-11.2458
▁цэцэд	-11.2459
▁хэтийн	-11.2462
▁зарцуулалт	-11.2464
▁айлууд	-11.2465
▁нуугдаж	-11.2469
▁бүрдүүлнэ	-11.247
▁хх	-11.2471
▁хубилай	-11.2471
▁тоглоно	-11.2472
▁төлбөртэй	-11.2474
1.1	-11.2474
▁яамтай	-11.2478
мийн	-11.248
▁нууцыг	-11.2482
▁хангамжийг	-11.2482
▁царайтай	-11.2483
▁зохицох	-11.2485
▁сонирхлоо	-11.2488
▁автотээврийн	-11.2488
▁барак	-11.2491
▁хуяг	-11.2492
хүүхэд	-11.2496
▁үлдээ	-11.2498
▁хэнтэй	-11.2504
▁уулыг	-11.2504
▁сурган	-11.2509
▁дэлгүүрүүд	-11.251
▁реклам	-11.251
▁зүйг	-11.2511
▁вэб	-11.2512
▁үнэлэмж	-11.2513
▁зураглал	-11.2514
▁интернет	-11.2516
▁идэвхжүүлэх	-11.2519
▁пан	-11.2521
▁газ	-11.2523
▁түрэмгий	-11.2523
▁манайхаас	-11.2526
дам	-11.2527
▁эрлийз	-11.253
▁давхардсан	-11.2532
▁гунигтай	-11.2533
▁хүндэрч	-11.2539
▁харахаар	-11.254
▁зогсоно	-11.254
▁сануулах	-11.2541
▁анзаарч	-11.2541
рсан	-11.2543
зоригийн	-11.255
жсан	-11.2551
▁хамгаалахад	-11.2551
бүх	-11.2551
▁тавилга	-11.2551
▁бүлээ	-11.2552
▁болчихдог	-11.2553
▁авалтын	-11.2558
▁баярласан	-11.2559
▁буруугүй	-11.2561
▁79	-11.2561
▁ургасан	-11.2564
▁тэнхээ	-11.2565
▁янзтай	-11.2566
▁соёлоо	-11.2567
1.2	-11.2569
▁төвлөрүүлж	-11.257
ардаг	-11.2571
сайханбилэгийн	-11.2572
▁хичээн	-11.2572
▁изнн	-11.2572
▁татгалз	-11.2572
▁бүтээлтэй	-11.2574
▁хувьцаат	-11.2574
iii	-11.2574
▁нутгийнхан	-11.2577
чимэг	-11.2577
▁бүрдүүлэхэд	-11.2577
▁алджээ	-11.2578
▁мөнгөгүй	-11.2584
▁тийнхүү	-11.2584
▁сонсогдож	-11.2588
▁танигдсан	-11.2589
лүндээжанцан	-11.2592
▁нэмүү	-11.2593
▁дамжсан	-11.2597
мөнхбаяр	-11.2598
▁хомсдол	-11.2599
os	-11.2599
▁гээ	-11.2599
▁үгүйсгэж	-11.26
▁толгойтой	-11.26
▁гэрийнхээ	-11.2603
▁шөвг	-11.2605
▁үнэмлэхүй	-11.2605
62	-11.2609
▁гарахаар	-11.261
▁харьцаагаар	-11.2613
▁хийдэггүй	-11.2614
▁тэтгэлэгт	-11.2614
▁цөөнх	-11.2615
метр	-11.2617
▁эзэгтэй	-11.2619
▁хүүхдүүддээ	-11.2619
▁l	-11.2621
сэ	-11.2623
▁хуримтлагдсан	-11.2626
▁шийдвэрүүд	-11.2628
▁харснаа	-11.2628
▁эхэндээ	-11.2632
зам	-11.2636
▁гаргасныг	-11.2636
▁допинг	-11.2636
хөх	-11.2641
▁олонтаа	-11.2641
▁дугаарыг	-11.2643
fi	-11.2643
▁тогтооно	-11.2643
▁удирдсан	-11.2645
▁зүүсэн	-11.2645
аны	-11.2647
цэдэнбал	-11.2647
▁ярихад	-11.2647
▁зассан	-11.2648
▁хийморь	-11.2651
▁сонирхуулахад	-11.2652
▁тараа	-11.2652
-2018"	-11.2652
▁унш	-11.2652
▁залуучуудад	-11.2654
▁мвт	-11.2654
▁лю	-11.2655
▁хөөс	-11.2657
▁хувцсыг	-11.2658
▁чадамж	-11.2659
▁bo	-11.2661
▁дусал	-11.2662
▁пол	-11.2663
▁мэдэрдэг	-11.2663
дс	-11.2663
дулам	-11.2665
▁хөгж	-11.2668
мент	-11.2668
▁тү	-11.2669
▁шалгуулах	-11.267
▁хуудсаар	-11.2671
▁бялуу	-11.2675
▁шийдэлд	-11.2677
▁хойших	-11.2678
sa	-11.2681
гэнэ	-11.2682
▁байршуулсан	-11.2683
буян	-11.2686
ари	-11.2689
▁царайг	-11.2692
▁бен	-11.2695
▁найргийн	-11.2696
▁шүтлэг	-11.2697
▁чимэглэл	-11.2699
▁чинээлэг	-11.2702
▁эзлэн	-11.2703
▁хөнөөл	-11.2705
золжаргал	-11.2705
▁дараалал	-11.2705
▁очлоо	-11.2705
▁уулз	-11.2708
▁r	-11.2709
тик	-11.2709
▁1.6	-11.271
▁цаадах	-11.271
94	-11.2714
▁олигтой	-11.2716
ины	-11.2717
▁бизнест	-11.2718
▁шийдвэрлэлээ	-11.2719
▁хураасан	-11.2719
▁давхиж	-11.272
▁дүрэмд	-11.2721
▁сана	-11.2721
▁асуултыг	-11.2721
▁125	-11.2724
▁оноотой	-11.2727
▁эдгээрийг	-11.2727
мэд	-11.2729
руулсан	-11.273
▁ташуур	-11.2732
ьд	-11.2733
▁уйлах	-11.2734
▁өдөржин	-11.2735
▁цуглуулсан	-11.2735
▁хуудаснаа	-11.2736
▁хааныг	-11.2736
▁суугчдын	-11.2737
▁болохуйц	-11.2739
▁ялагд	-11.2739
▁ажиллахгүй	-11.2742
▁хэлэхийг	-11.2744
▁хацар	-11.2744
▁тоглолтууд	-11.2746
▁хаанд	-11.2746
▁хөдөлгүүр	-11.2747
▁явдлаас	-11.2747
лагдах	-11.2747
хүүгийн	-11.2751
▁даруйдаа	-11.2753
▁энгэр	-11.2754
▁сумд	-11.2755
▁утсанд	-11.2756
▁машинууд	-11.2762
үүлнэ	-11.2762
билэгт	-11.2764
▁боломгүй	-11.2765
▁босох	-11.2765
▁тулгараад	-11.2767
92	-11.2768
▁ген	-11.2769
ent	-11.2769
▁үзүүл	-11.277
▁цогцолборын	-11.277
агдана	-11.2772
▁дэлгэн	-11.2772
▁шижин	-11.2774
▁хэдийнээ	-11.2776
▁нийцэхгүй	-11.2777
▁өвд	-11.2778
▁зугаа	-11.278
▁явав	-11.278
▁сайжирна	-11.2781
▁гу	-11.2793
▁одонгоор	-11.2795
▁хувьчлал	-11.2795
73	-11.2795
▁хэлээ	-11.2796
▁гарцгүй	-11.2796
▁товчхон	-11.2796
▁аймаар	-11.2797
эрч	-11.2797
▁доошоо	-11.2797
▁жүжигчид	-11.2798
нүүдийг	-11.2798
нийгмийн	-11.2798
▁урьсан	-11.2798
өнгөрсөн	-11.2799
▁эзэмшигчдийн	-11.2799
▁авилга	-11.2799
▁өвдөлт	-11.28
гана	-11.2802
▁сарны	-11.2802
▁туршлагаас	-11.2805
▁үнэний	-11.2807
эрдэнэбатын	-11.2807
▁(19	-11.281
▁гацууртын	-11.281
▁бсшус	-11.281
чихвэл	-11.2811
▁халдах	-11.2814
▁заалттай	-11.2814
▁ухаа	-11.2815
▁төлөөллийг	-11.2815
▁тариалалт	-11.2815
▁солилцоо	-11.2821
▁төрсний	-11.2824
▁нэгтгэл	-11.2827
▁ажиллагсад	-11.2827
иан	-11.2833
▁хүндэд	-11.2833
▁болъё	-11.2833
▁үзэмж	-11.2835
▁дүүргээс	-11.2845
тсан	-11.2846
▁зодоон	-11.2846
екс	-11.2849
тамир	-11.2851
▁азарга	-11.2852
▁эсэхээ	-11.2853
▁оффис	-11.2855
▁хү	-11.2856
үх	-11.2863
илсан	-11.2863
▁огцрох	-11.2864
▁дун	-11.2865
▁st	-11.2865
өлт	-11.2866
▁засуулбал	-11.2867
▁дуулгасан	-11.2868
▁оношлогоо	-11.2868
▁авъяас	-11.2872
▁ариутгал	-11.2872
батцэцэг	-11.2878
дол	-11.2878
▁сарнай	-11.288
▁цээрийн	-11.288
▁хаалтын	-11.2882
уран	-11.2883
▁поп	-11.2889
▁бузар	-11.2891
таж	-11.2894
хангай	-11.2895
▁хаш	-11.2897
▁гүйцээ	-11.2898
▁ажиллахдаа	-11.2901
ддэг	-11.2903
тен	-11.2903
▁москвад	-11.2903
▁форумын	-11.2905
анг	-11.2905
▁хувирсан	-11.2906
▁магтаал	-11.2907
сыг	-11.2909
▁биелүүлсэн	-11.2909
▁гуйсан	-11.291
▁байцаагчийн	-11.2911
▁өвдсөн	-11.2912
▁амьтныг	-11.2913
сийг	-11.2914
▁гараагаа	-11.2916
▁хувьцаагаа	-11.2917
▁зорилгыг	-11.2919
▁уулзан	-11.2919
▁бодов	-11.292
▁хэсгийнхэн	-11.2923
▁орсны	-11.2927
▁объект	-11.2929
1.3	-11.293
ден	-11.2931
▁урлагийг	-11.2932
▁зохиох	-11.2932
ао	-11.2933
▁уншина	-11.2935
▁1,5	-11.2937
▁сууцжуулах	-11.2937
▁хяналтгүй	-11.2938
ча	-11.2938
▁ерөөе	-11.2938
▁)	-11.2943
▁заль	-11.2945
▁организм	-11.2947
son	-11.2948
▁хэрэгжүүлснээр	-11.2952
▁дуусаад	-11.2956
▁гайхах	-11.2958
▁төлөвлөн	-11.2962
▁хэрэглэнэ	-11.2962
▁төслөөр	-11.2963
▁говьсүмбэр	-11.2963
▁инээмсэглэл	-11.2963
▁108	-11.2964
▁5-6	-11.2965
▁тодорхойлдог	-11.2966
▁багтжээ	-11.2966
▁оноосон	-11.2968
▁төрөлт	-11.2968
vi	-11.2969
▁мянгаар	-11.297
ect	-11.2974
▁заалтын	-11.2976
▁зовоож	-11.2978
оюунбаатар	-11.2981
члал	-11.2981
арт	-11.2981
▁төгрөгний	-11.2984
▁нэгээс	-11.2985
▁санагдаад	-11.2986
▁хавч	-11.2986
▁товчооны	-11.2988
▁шхаб	-11.2991
▁трейд	-11.2991
▁солилцлоо	-11.2991
лен	-11.2992
очирбат	-11.2993
▁нөхцөлтэй	-11.2995
▁ний	-11.2997
3-	-11.2997
дугаар	-11.2997
▁лавтай	-11.2997
▁зохиолчдын	-11.2999
эрсэн	-11.3
▁цэцгийн	-11.3
▁гэнэтхэн	-11.3001
▁контент	-11.3007
▁ойлгоод	-11.301
▁байгуулав	-11.3011
▁эрэмбэ	-11.3011
▁нийлбэр	-11.3011
▁баярлах	-11.3011
▁агууламж	-11.3013
▁эзэмшил	-11.3017
дас	-11.3019
▁тогтнолоо	-11.3022
▁суралцагч	-11.3025
▁итгэ	-11.3026
▁мэдээний	-11.3031
▁арьсан	-11.3031
сэл	-11.3032
иуд	-11.3033
лэгдэх	-11.3035
ео	-11.3036
▁чийрэг	-11.3039
гаж	-11.304
▁ни	-11.304
▁заадаг	-11.3041
▁зуслан	-11.3041
▁шалтгаантай	-11.3043
▁сургагч	-11.3046
▁эхлэхээс	-11.3046
▁түгшүүр	-11.3047
▁буулгасан	-11.3047
▁таалал	-11.3048
▁үйлийн	-11.3049
▁өөрийнхөөрөө	-11.305
▁зарлалаа	-11.305
▁жуулчлалыг	-11.3052
▁компьютерийн	-11.3052
▁бүрэлдэхүүнийг	-11.3054
▁хайрла	-11.3055
▁казахстаны	-11.3057
ваас	-11.3057
ариун	-11.3057
▁хоногоос	-11.3059
▁багана	-11.306
▁яамдын	-11.3061
▁хэлсэнчлэн	-11.3062
▁хязгаарлаж	-11.3065
ийл	-11.3065
▁захиран	-11.3067
▁зориулалт	-11.3067
▁трампын	-11.3068
▁ду	-11.3068
▁хэрээ	-11.3068
▁орчлон	-11.3071
93	-11.3071
▁өмчлүүлэх	-11.3073
▁лиг	-11.3073
▁санаатайгаар	-11.3074
▁хэмээж	-11.3076
▁амьтдын	-11.3076
▁мөрөөдлөө	-11.3076
ник	-11.3077
▁шорон	-11.3078
▁орхив	-11.3079
▁танайх	-11.3079
▁an	-11.3085
лөг	-11.3085
▁үрж	-11.3087
▁хэрэм	-11.3088
гэл	-11.3088
▁зочилж	-11.3089
доод	-11.3094
▁зэв	-11.3094
▁шагайн	-11.3095
▁саналуудыг	-11.3096
▁зөрчилд	-11.3099
▁үүнийхээ	-11.31
▁гүм	-11.3101
▁хүслийг	-11.3105
▁зааланд	-11.3105
▁үйлчилнэ	-11.3105
▁группын	-11.3108
▁дүрэмт	-11.3108
▁холбогдлыг	-11.3113
▁авчирна	-11.3116
▁очир	-11.3116
▁казах	-11.3117
▁ангиллын	-11.3117
▁are	-11.3118
үнэн	-11.3119
▁дуурь	-11.312
▁баялгаа	-11.312
▁үргэлжлэн	-11.312
▁1072	-11.3123
▁дэлгэцийн	-11.3124
▁хөвүүн	-11.3124
рс	-11.3125
▁зорилтууд	-11.3125
▁бодлын	-11.3132
▁орвол	-11.3132
▁онгоцонд	-11.3133
▁үнэд	-11.3134
энержи	-11.3134
▁жигүүр	-11.3135
▁тэв	-11.3135
▁хулан	-11.3138
▁сарыг	-11.3138
▁хэрэгжүүлэхийн	-11.314
▁ша	-11.3141
▁хорлох	-11.3143
▁эмчлүүлэх	-11.3145
▁тараг	-11.3148
▁ихэнхи	-11.3151
▁цомог	-11.3153
▁гүйцэтгэгчээр	-11.3153
▁сонголтыг	-11.3153
▁хөндөх	-11.3154
▁нийлэх	-11.3154
▁өвөлжилт	-11.3154
газар	-11.3155
▁эхэлснээр	-11.3156
▁дуунууд	-11.3156
луулдаг	-11.3156
▁бүртгүүлж	-11.3156
▁гуя	-11.3157
▁тархинд	-11.3157
▁майкл	-11.3159
хой	-11.3161
▁температур	-11.3162
▁чиглэж	-11.3164
▁сэлгээ	-11.3164
▁ордод	-11.3166
мор	-11.3169
өөгүй	-11.3173
доржийн	-11.3173
▁сармис	-11.3175
▁харагдаад	-11.3175
▁шийдэгдэх	-11.3175
▁амарна	-11.3176
▁визгүй	-11.3178
▁ажлаар	-11.3179
▁шүүн	-11.3181
▁тэмүжин	-11.3184
▁нэгжийг	-11.3184
▁ажиллагаанаас	-11.3184
▁өгүүлж	-11.3184
▁саран	-11.3185
баярын	-11.3185
▁хатны	-11.3185
▁мүонрт	-11.3186
▁con	-11.3187
▁ямарч	-11.3188
▁хүрэлцээ	-11.3189
ойн	-11.3189
▁командлагч	-11.3194
▁явахаар	-11.3195
▁хоногоор	-11.3196
▁морьд	-11.3196
▁05-	-11.3196
▁шувууд	-11.3198
▁цаанаас	-11.3198
▁сонгуулиас	-11.3198
▁хэрээс	-11.3201
▁жолооны	-11.3202
▁яриагаа	-11.3203
bo	-11.3204
▁тэмдэглээд	-11.3208
▁мэдэхээр	-11.3209
▁бөхчүүдийн	-11.3209
▁хоорондох	-11.3215
▁холгүй	-11.3217
▁бригадын	-11.3218
▁хадлан	-11.322
▁хүрэгчдийн	-11.322
длээ	-11.3221
▁хундага	-11.3222
мөнгөн	-11.3224
▁анхааруулсан	-11.3226
дорлигжав	-11.3226
▁шувууны	-11.3226
вр	-11.3227
▁нөхрийн	-11.3228
▁сурталчилж	-11.3229
▁хөлсийг	-11.3233
▁халзан	-11.3233
▁хөшөөг	-11.3236
▁ажиллагаандаа	-11.3236
▁сүрьеэ	-11.3239
▁эсэргүүцэх	-11.324
▁өрсөлдөгчөө	-11.3241
▁ядах	-11.3242
▁ослоос	-11.3245
▁авдаггүй	-11.3247
▁курс	-11.3247
▁дэвид	-11.3249
▁цогцсыг	-11.3253
▁тушаа	-11.3254
ош	-11.3257
▁докторын	-11.3257
▁эргэлзэж	-11.3257
▁инээмсэглэн	-11.3259
дөн	-11.3261
ld	-11.3262
▁гүйцэд	-11.3263
▁чулууг	-11.3264
▁бах	-11.3265
1.5	-11.3266
▁la	-11.3267
▁баяраар	-11.3269
ерс	-11.327
▁сурталчлан	-11.327
▁ажилла	-11.3271
▁оюутнуудад	-11.3272
трамп	-11.3272
▁хамаа	-11.3274
▁залж	-11.3274
▁буг	-11.3275
лууд	-11.3275
▁ардаа	-11.3277
▁тусална	-11.3277
▁хорвоогийн	-11.3278
▁уулзвараас	-11.3278
▁хятадаас	-11.3278
▁өрхөд	-11.3279
▁байлдан	-11.328
▁өөрчлөлтүүд	-11.328
▁маршрут	-11.3281
дуулах	-11.3284
▁(1	-11.3285
▁сардаа	-11.3286
▁сахиж	-11.3286
▁тогтлоо	-11.3287
▁цэгийн	-11.3288
▁харууллаа	-11.329
▁тэтгэмжийг	-11.3292
▁харвааны	-11.3295
▁фу	-11.3295
лүүлэн	-11.3295
▁эгнээ	-11.3297
▁эсэргүүцэн	-11.3299
▁нээгдсэн	-11.33
▁тусч	-11.3301
▁ямааны	-11.3303
тав	-11.3305
▁хилэн	-11.3305
▁устай	-11.3305
▁эзний	-11.3307
▁банкуудад	-11.3309
▁89	-11.331
бадрал	-11.3313
▁автобусанд	-11.3314
▁эхээс	-11.3314
▁хуванцар	-11.3315
саж	-11.3318
▁дүгнэлтэд	-11.332
▁мян	-11.3321
▁ханхүү	-11.3322
ээсэй	-11.3327
▁дахины	-11.3327
-15	-11.3327
▁тасарч	-11.3329
▁тогтоогоод	-11.3332
▁нэгжтэй	-11.3332
үнэ	-11.3333
▁1.4	-11.3335
▁гайхамшиг	-11.3344
▁өнгөрдөг	-11.3345
ца	-11.3346
▁уя	-11.3346
рэл	-11.3348
▁хэлмэгдүүлэлт	-11.3349
▁өсгөсөн	-11.3349
▁сэтгэлгээний	-11.3349
▁дэлгэж	-11.3352
▁банкаар	-11.3353
▁ирсний	-11.3354
▁тунхаглал	-11.3355
▁шалгаруулалтын	-11.3355
▁эрэгтэйчүүд	-11.3356
▁үйлдвэрлэгчдийн	-11.3357
▁орлох	-11.3357
▁зад	-11.3358
▁ирснээс	-11.3358
тах	-11.3361
▁ялгаварлан	-11.3363
▁тохиролцоонд	-11.3364
▁хүүгийнхээ	-11.3365
▁даавуу	-11.3365
▁өрнөх	-11.3368
▁баримтлан	-11.3369
▁төрөн	-11.337
▁халаалт	-11.337
▁нүүрийг	-11.3371
▁академич	-11.3374
▁вангийн	-11.3374
▁болчихож	-11.3375
po	-11.3377
▁нийлүүлэгч	-11.3379
▁сэтгүүлчийн	-11.3384
ныхоо	-11.3384
▁адаг	-11.3384
▁шөхтг	-11.3386
▁зуураа	-11.3386
▁уртын	-11.3387
▁тогооны	-11.3389
аф	-11.3389
ных	-11.339
▁дотоодод	-11.339
▁хөтөлж	-11.3391
▁нээ	-11.3391
надад	-11.3391
▁бахархах	-11.3392
▁буйд	-11.3394
▁бух	-11.3396
▁төлүүлэх	-11.3397
мягмар	-11.3399
▁татвал	-11.3399
▁нэмнэ	-11.34
▁хүүд	-11.3401
▁12:00	-11.3403
▁хамгаална	-11.3403
лэхэд	-11.3406
▁вер	-11.3407
▁зүйлсээ	-11.3407
▁догшин	-11.3408
▁өөрсдийнх	-11.3408
iv	-11.3408
▁эмэгтэйчүүдэд	-11.3408
▁хөтлөх	-11.3411
▁тээвэрлэлтийн	-11.3411
▁махбод	-11.3412
энхболдод	-11.3414
▁тэнцвэртэй	-11.3414
гээгүй	-11.3415
▁хэмжээнүүд	-11.3415
▁we	-11.3416
▁эрхэмсэг	-11.3417
▁хуулиараа	-11.342
▁тохирч	-11.3422
▁завь	-11.3423
сур	-11.3427
▁шийдвэрлүүлэх	-11.3427
▁тахил	-11.3429
▁биелүүлээгүй	-11.3429
▁эрхээр	-11.3432
▁олноо	-11.3433
ue	-11.3439
▁нисч	-11.3443
▁өндрөөр	-11.3446
үз	-11.3449
61	-11.345
▁you	-11.3451
▁швейцарь	-11.3451
энхжаргал	-11.3453
▁шийджээ	-11.3453
▁нэвтрүүлэгт	-11.3453
▁ум	-11.3455
▁хэрхэх	-11.3455
оху	-11.346
▁томьёо	-11.346
▁буга	-11.3461
▁хойшхи	-11.3462
▁швед	-11.3462
▁хөтөлбөрөөр	-11.3462
▁ядаргаа	-11.3463
тогтох	-11.3465
▁үзэв	-11.3468
▁сурагчдад	-11.3468
▁тойрогтоо	-11.3469
▁төрлийг	-11.3469
▁сер	-11.347
ашгүй	-11.3471
▁суулт	-11.3472
▁барилд	-11.3474
амгаланбаатар	-11.3475
▁баавгай	-11.3475
▁мм	-11.3477
▁хөдөлгөж	-11.3481
▁дээлтэй	-11.3482
▁world	-11.3483
кан	-11.3483
▁коллеж	-11.3488
▁хаанаа	-11.3488
▁le	-11.3489
▁105	-11.3489
▁нүдтэй	-11.3492
▁улсуудад	-11.3493
▁нийлсэн	-11.3493
▁гүйцэтгэлийн	-11.3494
арай	-11.3495
▁гон	-11.3498
▁талийгаачийн	-11.3502
▁хугацаанаас	-11.3503
▁хорвоод	-11.3504
мн	-11.3505
▁халаас	-11.3507
▁эргийн	-11.3508
▁гаргуулах	-11.3512
нх	-11.3513
туяа	-11.3513
аш	-11.3514
▁оруулагчдад	-11.3514
сү	-11.3516
▁ос	-11.3517
▁хичээлийг	-11.3518
▁06-	-11.3519
▁сексийн	-11.3523
▁уулзахад	-11.3523
▁өгүүллэг	-11.3523
▁ухах	-11.3525
▁яллагдагчаар	-11.3532
▁хэрэгцээний	-11.3534
▁ингэ	-11.3534
▁халсан	-11.3534
▁яллах	-11.3535
▁эвлэл	-11.3536
▁кара	-11.3536
лэгддэг	-11.3538
▁чиглүүлэх	-11.3538
▁тууж	-11.3539
▁сонгоно	-11.3543
▁хуралдаанаас	-11.3545
▁хуваар	-11.3545
▁оролцжээ	-11.3549
▁боломжууд	-11.3555
▁барь	-11.3557
▁цогт	-11.3558
єр	-11.356
▁коксжих	-11.356
▁цирк	-11.356
▁тооцно	-11.3565
▁дурсгалт	-11.3566
▁хошууны	-11.3567
▁2012-2016	-11.3569
▁доромжилж	-11.3573
▁үйлчлэл	-11.3574
▁америкчууд	-11.3575
▁суралцдаг	-11.3577
▁зөрчих	-11.3577
▁төгсөж	-11.3578
▁гэмтлийн	-11.3578
▁зориулах	-11.358
▁хуурын	-11.3583
▁дуулдаг	-11.3584
▁аймгийг	-11.3586
▁болгосноор	-11.3586
▁450	-11.3587
▁халдварын	-11.3589
▁хөлбөмбөг	-11.3591
▁сахин	-11.3592
▁толгойлсон	-11.3596
▁уламжлалыг	-11.3597
▁археологийн	-11.3599
▁шугамын	-11.3599
▁түгээж	-11.3601
▁бариул	-11.3602
шу	-11.3605
▁өвийг	-11.3605
▁бичгээ	-11.3606
▁чуулгын	-11.3606
▁занг	-11.3606
...”	-11.3607
иод	-11.3612
▁яамыг	-11.3612
▁ихэссэн	-11.3613
▁нэгнээс	-11.3615
▁орлон	-11.3617
▁боловсруулалт	-11.3619
хурц	-11.362
▁мөрд	-11.3621
▁нөхцөлөөр	-11.3622
▁83	-11.3624
▁эзэнтэй	-11.3625
ынхны	-11.3626
▁зоогийн	-11.3626
▁хайл	-11.363
▁тарган	-11.3633
авто	-11.3637
▁амжилтаа	-11.3639
▁тээвэрлэж	-11.364
▁тэмдэглэжээ	-11.364
▁гарахын	-11.3641
▁урамшууллын	-11.3642
▁адилаар	-11.3642
▁цэргээ	-11.3645
жуулсан	-11.3646
▁батлагдаж	-11.3648
▁явуулаад	-11.365
▁блок	-11.3653
▁шуудай	-11.3654
▁хойт	-11.3654
▁шилж	-11.3655
▁үндсийг	-11.3655
оф	-11.3656
цгээе	-11.3656
▁гацаа	-11.3659
▁тохируулан	-11.3661
▁хотхоны	-11.3662
▁концерт	-11.3664
бидний	-11.3665
-2016"	-11.3666
▁хаус	-11.3666
▁тариаланчид	-11.3667
▁сэдвийг	-11.3667
▁итгэмжлэгдсэн	-11.3667
үндсэн	-11.3667
байгаль	-11.3669
▁залилан	-11.367
▁буурай	-11.3671
▁хэмээгээд	-11.3672
▁ло	-11.3673
▁do	-11.3674
▁системээр	-11.3674
▁бокс	-11.368
▁зөөврийн	-11.368
▁солилцов	-11.368
▁байцаан	-11.3682
▁саша	-11.3683
▁хоолонд	-11.3683
▁хөндлөнгөөс	-11.3685
▁хамааралгүй	-11.3685
▁чамтай	-11.3686
наар	-11.3687
▁зээлжих	-11.3687
▁урлан	-11.3688
бас	-11.3688
▁германд	-11.3689
▁нөхөрсөг	-11.3689
▁тэтгэврийг	-11.3693
▁сэтгэгдлээ	-11.3693
▁наранд	-11.3694
▁бүрэлдэхүүний	-11.3695
▁гарз	-11.3695
▁жишээг	-11.3696
▁бүтцэд	-11.3698
▁явъя	-11.3702
▁настны	-11.3703
▁ургаж	-11.3703
▁олборлолтын	-11.3704
▁бүтээгдэхүүнд	-11.3705
▁станцыг	-11.3709
▁буцаагаад	-11.3711
▁жорлон	-11.3714
▁бүрмөсөн	-11.3715
▁эмнэлгүүд	-11.3716
▁төлөгдөх	-11.372
▁мэдэлгүй	-11.3721
▁ярилц	-11.3722
ерийн	-11.3722
▁вирусийн	-11.3722
▁тарианы	-11.3722
▁санаачлагыг	-11.3724
▁ангийнхан	-11.3725
▁түмнээс	-11.3726
▁хөтөч	-11.3728
төрөөс	-11.3728
▁хулгайлах	-11.3728
pe	-11.373
▁үйлдэлд	-11.373
▁буулган	-11.373
▁тооцооны	-11.3731
ита	-11.3731
▁саяар	-11.3733
▁хэвшлийнхэн	-11.3734
вор	-11.3734
▁нийслэлчүүд	-11.3735
▁өндөрлөг	-11.3738
ъё	-11.3738
▁хүснэ	-11.3744
▁зөвлөхөөр	-11.3744
▁сургуульдаа	-11.3745
▁геологийн	-11.3746
▁эрхлэн	-11.3747
▁хуралдуулах	-11.3752
one	-11.3752
▁домогт	-11.3752
▁эсийн	-11.3752
▁220	-11.3753
▁сонирхогч	-11.3756
▁хүннү	-11.3767
болорчулуун	-11.3768
цэж	-11.3776
▁дурдлаа	-11.3777
▁бэлтгэ	-11.3778
▁тохиролцож	-11.378
▁дамжуулалт	-11.3781
▁үүгээрээ	-11.3787
▁физик	-11.3789
тэж	-11.3789
▁үүсэж	-11.3794
▁түшээд	-11.3797
▁нууцын	-11.3798
▁илүүтэйгээр	-11.3798
▁ачаалалтай	-11.38
▁чадахаа	-11.3801
дүү	-11.3803
▁гарахаас	-11.3803
▁бэлэглэсэн	-11.3805
▁сааруулах	-11.3805
нан	-11.3806
жан	-11.3806
▁olloo	-11.3807
▁ижий	-11.3809
▁математик	-11.3809
▁тэрбумыг	-11.3809
▁ургадаг	-11.381
▁хагалгаанд	-11.3811
▁үдшийн	-11.3811
▁анхаарууллаа	-11.3811
▁сангууд	-11.3813
эгдсэн	-11.3814
no	-11.3814
▁вон	-11.3814
▁1200	-11.3816
▁хороогоор	-11.3816
▁өгөөжийг	-11.3816
▁ахын	-11.3817
▁эмчилж	-11.3821
зу	-11.3824
гарамгайбаатар	-11.3824
▁зовиур	-11.3824
ph	-11.3826
▁олдвор	-11.3826
▁тунхаг	-11.3826
▁тах	-11.3833
иб	-11.3835
▁хүүхэддээ	-11.3836
▁харьцаж	-11.3838
▁оргилд	-11.3839
▁тэмцэлд	-11.384
▁хэрэглэхийг	-11.3841
▁маягтай	-11.3845
▁үргэлжлэл	-11.3845
ори	-11.3846
▁дагалдах	-11.3847
▁буулт	-11.3848
▁сувилал	-11.385
▁тооллого	-11.3853
400	-11.3853
хэр	-11.3858
рей	-11.3858
▁1-3	-11.3859
▁шинжээчдийн	-11.386
▁өнгөрүүлсэн	-11.3861
саг	-11.3863
▁хөөцөлдөж	-11.3864
▁согтуугаар	-11.3864
▁news	-11.3865
▁зон	-11.3865
▁хайрладаг	-11.3866
цан	-11.3867
▁зэхэж	-11.3868
▁тодотгож	-11.3869
▁хуруугаа	-11.387
▁sa	-11.387
▁давхарга	-11.3873
▁дундах	-11.3874
▁транс	-11.3874
▁бэлгэдэл	-11.3877
▁шатар	-11.3879
▁шаардлагатайг	-11.3879
▁саван	-11.388
▁хэвлий	-11.3881
▁хөхний	-11.3882
▁багтаа	-11.3883
▁санхүүжүүлж	-11.3884
▁ак	-11.3884
▁диплом	-11.3885
▁зодог	-11.389
▁татна	-11.3892
▁даян	-11.3892
шсан	-11.3894
май	-11.3894
▁оролцуулж	-11.3898
▁хүдрийн	-11.3899
▁зарлагын	-11.39
▁сэтгүүлд	-11.3902
▁боловсруулжээ	-11.391
▁14:00	-11.3911
арна	-11.3912
▁зохиомол	-11.3912
▁зориулагдсан	-11.3912
толгой	-11.3914
▁оператор	-11.3916
?!	-11.3917
ери	-11.3917
▁эсэн	-11.3918
▁үзүүлэхээр	-11.392
▁өөрчлөлтөд	-11.3922
▁хөөрөг	-11.3922
▁өнчин	-11.3927
▁олоход	-11.393
▁хими	-11.393
▁хангахын	-11.3932
▁суис	-11.3934
▁тусалдаг	-11.3936
▁хөдөлгөөнтэй	-11.3936
▁үйлдлүүд	-11.3936
▁наадах	-11.3937
▁зүүх	-11.3942
▁хэрцгий	-11.3943
▁гоулд	-11.3943
▁ы	-11.3944
2.5	-11.3945
▁хорьсон	-11.3947
▁балет	-11.3949
▁үгнээс	-11.395
1.4	-11.3951
▁гардаггүй	-11.3953
▁хөдөлмөрч	-11.3953
▁аврал	-11.3954
▁зарцуулна	-11.3956
▁масс	-11.3956
▁кампанит	-11.3956
▁хөмсөг	-11.3957
▁аавыгаа	-11.3957
▁утгыг	-11.3961
▁хөдөлсөн	-11.3962
▁ойртох	-11.3962
▁өргөжүүлж	-11.3963
▁ноолуурын	-11.3963
▁ятга	-11.3963
ru	-11.3965
ген	-11.3973
▁бүтэцтэй	-11.3976
луу	-11.3979
▁лус	-11.3982
▁дорно	-11.3983
▁мөрийг	-11.3985
хэ	-11.3988
▁үнэг	-11.3988
▁дурс	-11.3991
▁дайсны	-11.3993
▁хичээлдээ	-11.3996
ig	-11.4002
хайр	-11.4003
▁тэмдэглэгээ	-11.4003
юм	-11.4003
хот	-11.4003
▁байдгаас	-11.4003
▁орууллаа	-11.4009
▁сэргээ	-11.4009
▁харьцуулбал	-11.401
▁хөрсөнд	-11.4011
▁довтлогч	-11.4021
цахим	-11.4022
▁өөрөөс	-11.4023
▁бэлэглэх	-11.4023
гуур	-11.4025
▁даруухан	-11.4026
▁угаасан	-11.4026
▁хяналтаа	-11.4026
▁томилолт	-11.4027
▁сугар	-11.403
▁оршуулгын	-11.4032
▁очин	-11.4038
▁эрхлэгчдийг	-11.4038
▁ирак	-11.4039
▁жа	-11.4042
▁мэдүүлгээ	-11.4046
хийл	-11.4046
▁шийдэмгий	-11.4047
▁боссон	-11.4047
баярхүү	-11.4047
▁иргэншил	-11.4048
▁тушаалтанд	-11.4049
▁дог	-11.4051
▁нийцүүлэх	-11.4053
▁ерөнхийлөгчтэй	-11.4054
▁явуулахыг	-11.4055
ардын	-11.4056
зай	-11.4056
▁бүрддэг	-11.406
▁жингээ	-11.4062
▁гаралт	-11.4067
жавын	-11.4067
▁авахуулаад	-11.4068
▁таалагддаг	-11.4068
▁бүтэлгүй	-11.4069
▁анхаардаг	-11.4069
▁асуугаад	-11.4073
▁тушаалтнуудын	-11.4074
▁зорилтуудыг	-11.4074
▁ойлгоно	-11.4075
лас	-11.4075
▁дүрмээ	-11.4076
▁бэлтгэдэг	-11.4076
▁одооноос	-11.4078
▁бэртэл	-11.4082
▁гаргуулж	-11.4083
▁импортлох	-11.4084
ne	-11.4085
▁хэсэгчилсэн	-11.4085
▁тулгаж	-11.4087
▁жаргалын	-11.4087
▁урсаж	-11.4088
▁олонтой	-11.4089
төмөрбаатар	-11.409
▁олжээ	-11.4091
▁болоосой	-11.4091
▁жуулчны	-11.4092
▁ярилцаад	-11.4093
▁модель	-11.4097
▁удсан	-11.4099
▁ямархуу	-11.4099
▁аргын	-11.4101
▁аваргууд	-11.4102
▁сурвалжлагч	-11.4103
логдсон	-11.4103
гоороо	-11.4103
лүүд	-11.4109
▁чамаас	-11.4109
▁байдгаараа	-11.411
▁казино	-11.4111
▁улаа	-11.4112
▁бүрчлэн	-11.4113
▁хуульчилсан	-11.4113
▁орохоос	-11.4114
ся	-11.4114
олж	-11.4117
▁үүрэн	-11.4117
▁эхэлбэл	-11.412
▁илтгэх	-11.412
▁барилаа	-11.4122
▁явдалтай	-11.4124
▁гэрээт	-11.4126
сугай	-11.4126
▁аялан	-11.4127
▁сувгийн	-11.4127
▁хөрсөн	-11.414
▁юугаа	-11.4141
▁сүйд	-11.4147
▁шинжилгээг	-11.4149
▁цор	-11.4149
▁наснаас	-11.4149
▁захирамжийн	-11.415
▁сонирхон	-11.4151
бэ	-11.4153
дөх	-11.4153
▁хандана	-11.4153
▁гаргасны	-11.4154
▁оролц	-11.4154
▁зөвлөлийг	-11.4154
▁барс	-11.4154
▁илэн	-11.4155
▁ухаанаа	-11.4161
тс	-11.4161
эрхэмбаяр	-11.4163
бямбасүрэн	-11.4163
лээс	-11.4163
▁урамшуулах	-11.4163
▁бүтсэн	-11.4164
-17	-11.4166
▁тохиох	-11.4166
▁хатуухан	-11.4167
▁хашир	-11.4167
▁зуршил	-11.4168
▁аварсан	-11.4171
вай	-11.4171
▁даагч	-11.4172
sh	-11.4172
▁европт	-11.4172
▁баар	-11.4176
▁явцдаа	-11.4176
▁импортыг	-11.4176
▁анзаар	-11.4178
▁төвлөрч	-11.4179
ров	-11.4179
▁урттай	-11.4183
▁гишүүнд	-11.4184
хас	-11.4185
▁баримталдаг	-11.4185
▁анхааралдаа	-11.4187
▁тооц	-11.4187
▁тэргүүлдэг	-11.4187
▁хэрэглээгээ	-11.4189
нэр	-11.419
уйц	-11.419
▁хардаж	-11.419
▁пуужингийн	-11.4193
ынхоо	-11.4194
▁агсан	-11.4194
▁бүрхүүл	-11.4195
▁мотоцикл	-11.4195
▁давхрын	-11.4195
▁дийлэхгүй	-11.4195
▁онгоцоор	-11.4196
▁даалгасан	-11.4198
өс	-11.4198
▁төрлүүд	-11.42
▁үгтэй	-11.42
▁хоттой	-11.42
тө	-11.4202
энхболдыг	-11.4202
/1	-11.4204
▁уугаад	-11.4205
▁морьтой	-11.4208
▁нүүдэлчин	-11.421
жигжид	-11.421
▁ургацын	-11.4211
▁хөгжөөн	-11.4212
▁илд	-11.4212
▁агшин	-11.4212
лаач	-11.4214
▁те	-11.4215
▁дөчин	-11.4215
▁хэлэлцээний	-11.4217
▁ром	-11.4217
луул	-11.4217
▁зурлаа	-11.4218
▁ник	-11.4219
▁орлогоос	-11.422
▁po	-11.422
▁айсан	-11.4221
▁тохилог	-11.4221
эрчим	-11.4224
▁гамшигт	-11.4227
▁эрхлэлт	-11.4227
▁торго	-11.4229
▁онлайнаар	-11.4229
▁рейтинг	-11.4231
▁тайвань	-11.4233
ге	-11.4233
▁фи	-11.4234
▁мандах	-11.4235
тин	-11.4235
амж	-11.4238
▁хүндэтгэлтэй	-11.4238
лагын	-11.4238
▁олго	-11.4239
▁квот	-11.4242
▁хүргэхээр	-11.4244
▁өрнө	-11.4244
▁мэдрэмжийг	-11.4244
▁уншуул	-11.4244
▁түүгээрээ	-11.4245
▁мотор	-11.4245
▁дутагдаж	-11.4246
жийн	-11.4247
▁клип	-11.425
▁хүлээгдэж	-11.425
▁ярилцлагыг	-11.425
:09	-11.4256
▁бодолд	-11.4257
▁нунтаг	-11.4259
▁тарга	-11.4261
▁сэлбэг	-11.4263
▁крым	-11.4263
▁үзвэр	-11.4264
▁ичих	-11.4265
▁оролцохдоо	-11.4268
▁суухад	-11.4271
▁констракшн	-11.4271
▁хэлснийг	-11.4272
▁хийгдээгүй	-11.4273
!!!	-11.4273
хаас	-11.4275
▁даац	-11.4275
▁хоцорч	-11.4276
▁шатаар	-11.4277
▁гоёмсог	-11.4277
▁сахиус	-11.4278
ka	-11.4278
▁математикийн	-11.4279
▁капитал	-11.4283
▁хийморийн	-11.4286
▁ядуурлыг	-11.4286
▁хөгжинө	-11.4287
▁шүдээ	-11.4291
▁дулаахан	-11.4291
▁түрүүлэх	-11.4295
▁зардлаар	-11.4296
чдад	-11.4296
▁нөөцөө	-11.4298
гасан	-11.4298
▁1.8	-11.4299
▁хэлэлцэхийг	-11.43
▁суудлыг	-11.43
▁асуудлаарх	-11.4303
▁6000	-11.4303
▁форумд	-11.4303
▁янзаар	-11.4304
▁солонго	-11.4305
▁товлосон	-11.4305
▁1921	-11.4306
▁технологиор	-11.4307
▁ганган	-11.4311
▁тусгал	-11.4312
хэрэв	-11.4315
▁итгэсэн	-11.4316
▁сэжигтэй	-11.4319
ийнхэн	-11.4323
▁бүсээ	-11.4324
▁элбэгдорж	-11.4324
▁анхааралд	-11.4326
▁устгасан	-11.4326
▁залгаа	-11.4327
▁гүйлтийн	-11.4327
▁мэдүүлгийг	-11.4328
араа	-11.4329
▁бууралт	-11.4329
эгдэж	-11.4331
▁иракийн	-11.4333
эрдэнийн	-11.4333
▁гүйцэтгэнэ	-11.4334
▁тоохгүй	-11.4335
▁хөтөлбөртэй	-11.4335
▁хүрээгээ	-11.4336
▁автаж	-11.4339
▁саа	-11.4339
чив	-11.4341
▁тооцогдох	-11.4347
▁27-32	-11.4347
▁арц	-11.4348
!"	-11.4348
▁саяын	-11.4348
▁эрмэлзэл	-11.4348
хятад	-11.4349
▁мексик	-11.4349
▁яваарай	-11.4349
▁ялтан	-11.4353
▁найраг	-11.4357
є	-11.436
▁баянхонгорын	-11.436
▁сансар	-11.4364
хуу	-11.4365
▁батлагдах	-11.4365
▁үзүүлэхэд	-11.4365
цу	-11.4366
▁сайжирсан	-11.4367
▁ашиглахыг	-11.4369
▁даатга	-11.437
бек	-11.4373
▁жэ	-11.4374
▁совин	-11.4375
▁төлөгчдийн	-11.4375
▁хе	-11.4376
магц	-11.4376
▁зарцуулахаар	-11.4377
ac	-11.4377
▁түүж	-11.4378
▁билл	-11.4381
em	-11.4381
ment	-11.4382
ьт	-11.4382
▁жич	-11.4383
өнө	-11.4383
▁дуусга	-11.4384
▁тугал	-11.4389
▁лууван	-11.4389
яр	-11.4391
-16	-11.4394
▁өч	-11.4397
▁цэгцтэй	-11.4397
▁мубис	-11.4397
▁хөдөлмөрлөж	-11.4399
▁олуулаа	-11.4399
▁хөөрч	-11.4399
▁хүнгүй	-11.4402
▁явцтай	-11.4402
▁болор	-11.4403
иу	-11.4404
чихжээ	-11.4404
▁оймс	-11.4405
▁болгоны	-11.4406
▁чухамдаа	-11.4408
эцгээ	-11.4408
▁суудлаа	-11.4409
▁дут	-11.4412
▁дэмжив	-11.4413
▁бүгдийн	-11.4417
цэн	-11.4421
▁ээлжлэн	-11.4421
▁8-10	-11.4422
▁үсгийн	-11.4426
зөв	-11.4426
▁шилжүүл	-11.4427
▁долларыг	-11.4428
▁лондонгийн	-11.4431
▁булчирхай	-11.4431
▁төлөөгүй	-11.4432
▁уянга	-11.4435
▁буруутан	-11.4435
▁асуултанд	-11.4436
▁цайр	-11.4436
рен	-11.4437
▁тактик	-11.4438
▁даруу	-11.4442
▁элемент	-11.4443
▁яармагийн	-11.4443
хү	-11.4443
▁төсөөл	-11.4444
▁эдний	-11.4446
▁магадлан	-11.4447
▁уншигчид	-11.4451
▁үзүүлээд	-11.4451
▁аб	-11.4454
▁гаднах	-11.4455
▁төрнө	-11.4456
▁алдагдах	-11.4456
▁шээс	-11.4457
▁агуулагддаг	-11.4458
▁сонсголын	-11.4459
▁яривал	-11.446
янь	-11.4462
▁(9/23-10/22)	-11.4463
бул	-11.4464
▁хангана	-11.4465
▁хөлийг	-11.4466
▁заасныг	-11.4468
▁томилогдон	-11.4472
▁дом	-11.4474
▁суралц	-11.4475
сүхбаатарын	-11.4475
▁журамтай	-11.4477
▁шүүмжилсэн	-11.4477
▁тулгардаг	-11.4479
▁маркетингийн	-11.4479
инь	-11.4479
эгүүлэн	-11.448
ie	-11.4484
▁өгүүлрүүн	-11.4486
▁завшсан	-11.4487
▁хямдхан	-11.4487
▁2500	-11.4487
▁муудах	-11.4488
▁лугаа	-11.4488
▁амьдарна	-11.4489
▁will	-11.4491
▁гардуулна	-11.4491
▁өнгөрөөж	-11.4491
▁анхлан	-11.4492
▁болчихвол	-11.4494
юн	-11.4497
▁хийчихсэн	-11.4497
▁сонгогдон	-11.45
▁спортод	-11.4501
▁шах	-11.4501
ag	-11.4503
▁сохор	-11.4503
дуулан	-11.4506
▁шуудангийн	-11.4506
▁хэвт	-11.4506
▁өвийн	-11.4508
эйн	-11.4511
▁өлзийт	-11.4512
▁шалгаруулалтыг	-11.4514
шаа	-11.4516
▁шурга	-11.4516
▁орохдоо	-11.4517
▁арчаагүй	-11.452
▁азид	-11.452
▁бүлээрээ	-11.4521
▁эмнэлэгийн	-11.4522
▁тоолж	-11.4523
азийн	-11.4523
▁дүрийн	-11.4525
ууштай	-11.4527
▁хуу	-11.4528
▁нийцэх	-11.4529
▁уулзахаар	-11.453
▁анагаахын	-11.4531
▁зайсан	-11.4531
уш	-11.4532
▁бэлэглэж	-11.4532
▁робот	-11.4533
▁тэгснээ	-11.4533
▁өвчинд	-11.4534
▁сүн	-11.4534
▁болвол	-11.4534
▁шалан	-11.4534
▁аминдэм	-11.4535
▁эхийг	-11.4535
▁1945	-11.4537
буянт	-11.4541
▁өрхийг	-11.4542
▁шаард	-11.4543
▁уулзана	-11.4547
▁жимсний	-11.4547
▁үзмэр	-11.4549
▁шоколад	-11.4552
▁зугтаж	-11.4552
▁юугаар	-11.4555
▁бичнэ	-11.4556
▁шон	-11.4557
есс	-11.4561
▁саваа	-11.4562
пин	-11.4566
▁зүтгэ	-11.4566
петербург	-11.4568
▁батлаад	-11.4568
▁ажиглагч	-11.4569
вен	-11.4569
▁төст	-11.4571
анх	-11.4572
▁өнгөрчээ	-11.4573
агдах	-11.4575
▁томъёо	-11.4579
▁угаас	-11.4581
▁илтгэж	-11.4586
net	-11.4586
▁дурсан	-11.4587
▁гам	-11.4588
▁шатсан	-11.4588
▁үсгийг	-11.4589
▁хуваан	-11.459
▁хүрэв	-11.4591
▁бүрхэг	-11.4591
хөл	-11.4591
▁буурахгүй	-11.4592
▁шүүж	-11.4593
гончигдорж	-11.4594
▁намхан	-11.4595
▁электрон	-11.4596
▁төслөөс	-11.4597
▁баривчилж	-11.4603
▁ханшаар	-11.4604
▁нато	-11.4604
▁хариуллаа	-11.4605
300	-11.4607
▁хөлгийн	-11.4607
▁нобелийн	-11.4609
▁цолны	-11.4609
▁шарын	-11.4612
▁хаз	-11.4613
▁ялын	-11.4613
▁чадлаараа	-11.4613
ром	-11.4614
▁хардах	-11.4614
▁удирдлагатай	-11.4614
▁тэмүүлэл	-11.4615
▁сити	-11.4616
▁авчихаад	-11.4619
▁худалдсан	-11.462
▁хүүхэлдэй	-11.462
▁дагуулаад	-11.462
▁тарж	-11.462
▁им	-11.4621
▁шалгадаг	-11.4623
▁шалтгаална	-11.4623
▁тулган	-11.4624
шилт	-11.4625
батчимэг	-11.4627
ip	-11.4628
гэхдээ	-11.4629
ааг	-11.4629
▁өгүүлжээ	-11.463
▁хайран	-11.4632
сч	-11.4633
▁рон	-11.4634
▁суурьшлын	-11.4637
▁парисын	-11.4638
▁төхөөрөмжөөр	-11.4638
амба	-11.4639
▁ухаарч	-11.464
▁уршиг	-11.464
гуут	-11.4641
8.2	-11.4642
▁зөвөөр	-11.4643
▁хүндрэлээс	-11.4644
▁мүан	-11.4645
▁эсэргүүцлийн	-11.4647
▁хоногтой	-11.4647
▁даран	-11.465
▁09:00	-11.4652
.12.	-11.4652
▁02-	-11.4654
▁гэнээ	-11.4655
муй	-11.4656
хө	-11.4656
▁бяр	-11.4657
▁хувирч	-11.4657
учрал	-11.466
гүн	-11.4663
▁тоотой	-11.4664
оюундарь	-11.4666
aa	-11.4667
▁ахан	-11.4667
▁хэмнэлтийн	-11.4668
▁удирдлагаар	-11.4669
▁1980	-11.467
аки	-11.4671
▁томчууд	-11.4675
▁шалгуурыг	-11.4677
▁мсүт	-11.4685
▁буугаад	-11.4688
▁гурвын	-11.469
▁эрээ	-11.469
▁боомтоор	-11.4696
▁эргэлзэх	-11.4696
ke	-11.4697
▁2-4	-11.4698
▁хуурамчаар	-11.4701
ариунболд	-11.4701
▁сонгуультай	-11.4703
▁ингэхээр	-11.4703
▁чиглүүлж	-11.4703
▁асуудаг	-11.4704
▁ирүүлж	-11.4705
луулна	-11.4707
▁эсэхэд	-11.4707
▁ачиж	-11.4707
▁үүсгэгч	-11.4708
hi	-11.4709
▁нэлээдгүй	-11.471
маш	-11.471
▁олговор	-11.4711
▁сайншанд	-11.4711
-14	-11.4714
▁ачааг	-11.4716
▁гарчихсан	-11.4718
▁хайрыг	-11.4718
нес	-11.4718
ity	-11.4719
▁нэрс	-11.472
▁зургаар	-11.472
▁дурсах	-11.4721
▁бумба	-11.4721
▁дампуур	-11.4721
▁бөгж	-11.4721
▁хүнсийг	-11.4722
-100	-11.4724
▁амлалтаа	-11.4724
▁хөнгөвчлөх	-11.4725
▁оруулагчдыг	-11.4725
▁балба	-11.4725
▁хожих	-11.4725
▁босгон	-11.4726
▁номин	-11.4726
▁өрсөлдөнө	-11.4727
▁үүсгэ	-11.4727
замын	-11.4728
▁(2/19-3/20)	-11.4733
▁772-0110	-11.4733
▁галыг	-11.4733
кс	-11.4733
▁хархорин	-11.4735
жанжин	-11.4737
▁эхэл	-11.4737
▁түүхээ	-11.4737
▁юн	-11.4738
▁хэмжээнүүдийг	-11.4743
▁үзүүлэхийг	-11.4743
▁маягт	-11.4744
▁осолдсон	-11.4744
▁тусалсан	-11.4745
▁хэмнэлттэй	-11.4745
▁цохон	-11.4745
▁ажиллан	-11.4746
▁ажиллуулдаг	-11.4746
▁илч	-11.4748
гер	-11.4749
▁инноваци	-11.4749
▁урсах	-11.4749
лол	-11.475
▁хавьгүй	-11.475
▁шо	-11.4752
▁байгал	-11.4754
▁харьцааг	-11.4755
1-	-11.4755
▁бэхжүүлж	-11.4756
▁буудаж	-11.4756
▁нор	-11.4757
▁дайчлан	-11.4758
▁өвч	-11.476
түвшин	-11.476
ест	-11.476
▁архив	-11.476
▁хангуулах	-11.4762
▁гул	-11.4763
▁баримтын	-11.4766
▁үйлдвэртэй	-11.4766
▁зохи	-11.4768
▁хотгороор	-11.4771
▁багасах	-11.4773
▁үүрийн	-11.4775
лагчид	-11.4775
-5	-11.4775
дэнзэн	-11.4776
▁кэ	-11.4778
лалаа	-11.478
олт	-11.4781
▁оруулснаар	-11.4781
▁во	-11.4783
▁3.5	-11.4783
▁тува	-11.4785
▁(11/22-12/21)	-11.4786
▁хөр	-11.4786
▁шалгарлаа	-11.4788
▁тэсрэх	-11.4788
▁тогтнох	-11.479
▁зогсонги	-11.4791
▁ихэс	-11.4792
▁хичээллэдэг	-11.4792
руулан	-11.4795
▁цугларсан	-11.4798
gonews	-11.4798
▁тэрбумтан	-11.4799
▁гөлөг	-11.48
▁романтик	-11.48
▁тулаанд	-11.4803
▁дүүгээ	-11.4803
▁онтой	-11.4803
дагвадорж	-11.4803
члах	-11.4805
атор	-11.4805
▁онцлогийг	-11.4805
▁хүл	-11.4806
▁хөвөн	-11.4808
элдэг	-11.4811
ейн	-11.4812
▁геологи	-11.4814
▁онцлогт	-11.4817
▁өнгөт	-11.4818
▁циркийн	-11.4819
▁дүрслэх	-11.4819
▁(6/22-7/22)	-11.482
▁ажиглагчид	-11.4822
▁ат	-11.4822
▁зүйр	-11.4822
▁өнгөрөө	-11.4823
форд	-11.4824
өдрийн	-11.4824
▁гүтгэлэг	-11.4825
▁дүй	-11.4825
▁баталгаажсан	-11.4825
▁өнгөр	-11.4826
▁элгэн	-11.4827
▁үүсвэрээс	-11.4828
▁хүнтэйгээ	-11.4829
луулаад	-11.483
:11	-11.4831
▁1988	-11.4835
▁хооллож	-11.4835
▁импортлогч	-11.4837
▁нөхрийнхөө	-11.484
▁сандарч	-11.484
▁эеш	-11.484
▁захидлыг	-11.4844
▁цайгаа	-11.4844
▁09-	-11.4846
▁хүндээр	-11.4847
▁ch	-11.4848
▁тэсвэртэй	-11.4849
▁өргө	-11.4849
цай	-11.485
▁жу	-11.4851
▁новш	-11.4855
болормаа	-11.4857
▁хэтэрч	-11.4858
▁гэрэлд	-11.486
▁цацсан	-11.486
▁нүдээрээ	-11.486
▁халуу	-11.4862
▁батлуулж	-11.4864
▁худалдагч	-11.4867
▁түүхэндээ	-11.4868
▁шийдвэрлэхээр	-11.487
▁гаргагч	-11.4871
баянсэлэнгэ	-11.4871
▁агуулж	-11.4871
▁хэмжих	-11.4871
ni	-11.4876
▁шү	-11.4876
▁pa	-11.4876
▁филиппин	-11.4877
гр	-11.4877
▁санагдав	-11.4878
▁гүйгээд	-11.4878
▁өмнөө	-11.488
▁куба	-11.4883
▁хөндийд	-11.4885
oo	-11.4886
▁алтанбулаг	-11.4888
одон	-11.489
▁фил	-11.4891
▁уламжилж	-11.4892
▁шаналж	-11.4894
▁наашаа	-11.4894
▁ёр	-11.4894
▁гуй	-11.4894
одонтуяа	-11.4895
▁үнэрт	-11.4897
-18	-11.49
▁хүчнийхэн	-11.4901
▁хөтөл	-11.4901
kh	-11.4902
бан	-11.4903
▁хурга	-11.4905
▁хавийн	-11.4905
▁хорго	-11.4905
▁олгожээ	-11.4907
▁пу	-11.4907
▁зөвлөгөөнд	-11.491
▁авьяаслаг	-11.4911
ir	-11.4912
▁дөрөө	-11.4913
▁тосгонд	-11.4916
:05	-11.4916
▁гектопаскаль	-11.4917
2.1	-11.4917
▁19.	-11.4919
▁чойбалсан	-11.492
▁үзэхгүй	-11.4921
gov	-11.4922
▁(4/20-5/20)	-11.4922
▁цаашилбал	-11.4922
▁агуулгыг	-11.4922
рөө	-11.4925
▁тохиролцоо	-11.4925
▁яваандаа	-11.4925
▁мүбх	-11.4925
▁ахиж	-11.4927
▁хөшөөнд	-11.4928
нээр	-11.4932
▁шүтэж	-11.4932
ant	-11.4935
▁лос	-11.4939
▁торгуул	-11.4942
▁явааг	-11.4944
-13	-11.4944
▁автоматаар	-11.4945
▁ххаахү	-11.4945
▁боловсрох	-11.4945
▁засаглалтай	-11.4946
▁аврагч	-11.4948
▁тэгэлгүй	-11.4949
▁үсийг	-11.4951
▁тохижуулах	-11.4951
▁хамаараад	-11.4952
▁мэдэлтнүүд	-11.4952
▁таргалалт	-11.4954
ийхээ	-11.4954
▁(5/21-6/21)	-11.4956
▁жад	-11.4956
▁зөвшөөр	-11.4958
бл	-11.4958
▁хүйтэнд	-11.496
▁хайсан	-11.4961
▁швейцар	-11.4961
▁аюулын	-11.4966
▁санадаг	-11.4967
▁шилжилтийн	-11.4968
▁зоо	-11.4968
хол	-11.4969
ерөнхий	-11.4971
жуу	-11.4972
▁асуулгад	-11.4975
▁баатрууд	-11.4975
▁ихэсч	-11.4975
▁өгөөрэй	-11.4976
▁гарсныг	-11.4978
▁түшээ	-11.4978
▁so	-11.498
▁танилц	-11.4981
цэвэр	-11.4983
▁үнэртэй	-11.4987
▁хөнд	-11.4988
сныхаа	-11.4989
▁гаа	-11.4989
▁ог	-11.4991
▁гран	-11.4992
▁ажилласны	-11.4993
▁үсгээ	-11.4993
▁хадам	-11.4994
▁монголоор	-11.4994
▁28-33	-11.4996
▁хэлэлцүүлгээр	-11.4997
аци	-11.4997
▁цэвэрлэгээний	-11.4998
▁дата	-11.4999
▁шалгахад	-11.5
▁сануулахад	-11.5
▁тайлагнах	-11.5003
▁дуудлагаар	-11.5005
мах	-11.5005
▁ястай	-11.5006
илт	-11.5007
▁бахархдаг	-11.5008
▁ахуйд	-11.501
▁(12/22-1/19)	-11.501
▁талбайгаас	-11.5011
лгын	-11.5011
▁ромын	-11.5011
▁аллага	-11.5012
▁байгуулагдаад	-11.5012
▁хамрын	-11.5012
▁банкийг	-11.5013
▁ирснээр	-11.5013
▁(8/23-9/22)	-11.5015
▁өмчид	-11.5019
▁сүргийн	-11.5023
▁аюулт	-11.5025
▁шаргуу	-11.5025
лей	-11.5025
▁харьцаанд	-11.5026
▁нэвтэрсэн	-11.5026
▁арч	-11.5028
шн	-11.5028
▁хөсүт	-11.503
зон	-11.5031
▁компаниудтай	-11.5033
сэж	-11.5036
гад	-11.5037
▁хайрласан	-11.5038
рик	-11.5039
▁далавч	-11.5041
▁хуримтлуулсан	-11.5048
ийсэн	-11.5052
▁03-	-11.5054
▁санаагаар	-11.5055
▁амаржих	-11.5058
сай	-11.5058
▁судлаад	-11.5059
▁таарахгүй	-11.5059
▁өлзий	-11.506
рис	-11.5062
елийн	-11.5064
▁ахалж	-11.5066
pa	-11.5066
чуул	-11.5075
▁урган	-11.5078
▁барилгууд	-11.5078
▁хийсээр	-11.508
▁нарийхан	-11.508
▁зугтах	-11.508
news	-11.508
▁гял	-11.508
бямбадорж	-11.5083
▁хохирох	-11.5084
▁шарга	-11.5085
▁алдаршсан	-11.5085
▁төрхтэй	-11.5087
ата	-11.5087
▁зайл	-11.5089
-7	-11.509
▁гомдлын	-11.509
▁бээлий	-11.509
▁хороон	-11.5091
▁бос	-11.5093
▁ажилтантай	-11.5094
▁холбоогүй	-11.5097
▁төслүүдэд	-11.5098
▁либерал	-11.5099
▁аппликейшн	-11.51
▁нэхэх	-11.5101
▁амжиж	-11.5103
▁цэнгүүн	-11.5103
▁монголоо	-11.5104
▁ne	-11.5107
▁үзүүрт	-11.5109
▁тусад	-11.5109
че	-11.511
▁хожуу	-11.5112
▁сайндаа	-11.5114
▁байнаа	-11.5115
▁эхлүүлэхээр	-11.5116
лз	-11.5117
▁эхчүүдэд	-11.5117
▁тойруу	-11.5121
▁хамруулан	-11.5121
▁пал	-11.5124
▁зөвшөөрдөг	-11.5125
▁үрс	-11.5125
▁алдлаа	-11.5126
▁fi	-11.5128
▁тавив	-11.5129
▁кноп	-11.513
тэгвэл	-11.5131
▁удаах	-11.5136
▁тэжээх	-11.5137
▁бууруулна	-11.5137
▁хэлтэй	-11.5138
▁сэтгэлзүйн	-11.514
▁цөлжилт	-11.5144
▁боловсролд	-11.5145
▁доромжилсон	-11.5145
▁уншигчдад	-11.5146
▁мөчлөг	-11.5148
еш	-11.5149
ve	-11.5149
▁анзаарсан	-11.515
▁автомашинтай	-11.515
лай	-11.5154
▁эвтэй	-11.5155
эгдэх	-11.5159
▁тэтгэгч	-11.5159
▁нөлөөнд	-11.516
▁харагдав	-11.5161
батмөнх	-11.5162
▁төлөвшил	-11.5162
цар	-11.5164
▁чой	-11.5166
▁төсөвтэй	-11.5167
▁гэсний	-11.5167
▁үйлчлүүлж	-11.517
▁жилийнхээ	-11.517
ap	-11.5171
▁ххаахүя	-11.5171
▁оролцуулсан	-11.5172
чихав	-11.5174
▁зүйд	-11.5175
▁механизмыг	-11.5176
▁гуч	-11.5177
▁хит	-11.5178
▁хүсэлтийн	-11.518
▁1800	-11.5181
age	-11.5181
▁сууцтай	-11.5182
снөөс	-11.5182
▁халимаг	-11.5182
▁(10/23-11/21)	-11.5185
▁саадгүй	-11.5186
▁анхааран	-11.5186
▁ашт	-11.5187
▁хүчнүүд	-11.5187
▁хийгддэг	-11.519
гчид	-11.5191
▁царцаа	-11.5191
▁гэдэгтээ	-11.5191
амартүвшин	-11.5192
▁хүрэлцэхгүй	-11.5194
▁зарчимд	-11.5194
▁өнгөрүүлж	-11.5196
▁үнэлсэн	-11.5197
▁бэхжүүлэхэд	-11.5198
▁арлууд	-11.5198
ийнхөө	-11.5199
▁гү	-11.5202
▁боломжтойг	-11.5204
▁цуглуулга	-11.5208
▁ойртон	-11.5209
эко	-11.5211
▁материалаа	-11.5212
лхагва	-11.5213
▁гөрөө	-11.5213
▁булааж	-11.5217
▁бер	-11.5217
▁гүйлт	-11.5217
▁булчирхайн	-11.5219
▁болохоороо	-11.5221
чалко	-11.5222
▁тарах	-11.5222
▁үеийнхээс	-11.5222
▁хүргэлээ	-11.5226
▁бразилийн	-11.5227
▁дани	-11.5231
▁сэтгэж	-11.5232
▁мэнддээ	-11.5232
▁үүдийг	-11.5233
▁хөг	-11.5233
▁(7/23-8/22)	-11.5235
▁бохирдолтой	-11.5242
давхар	-11.5244
▁өрөөсгөл	-11.5245
өргөө	-11.5246
▁улаанбурхан	-11.5247
di	-11.5248
▁холоос	-11.5251
▁урагшлах	-11.5252
▁абэ	-11.5253
▁юмгүй	-11.5253
▁эхэд	-11.5258
▁угтах	-11.5259
▁мэндээ	-11.5259
▁international	-11.5262
▁ухаангүй	-11.5263
▁тон	-11.5264
▁гүүрийн	-11.5265
▁(1/20-2/18)	-11.5266
▁дуудлагыг	-11.5266
2.3	-11.5266
▁хаад	-11.5267
▁хөлдөө	-11.5267
▁04-	-11.5268
▁явуулахгүй	-11.5268
▁лорд	-11.5268
▁эхтэй	-11.5269
▁явцуу	-11.5269
▁мунхаг	-11.5271
чинбат	-11.5271
2.2	-11.5272
▁сэдэл	-11.5275
▁шийдвэртэй	-11.5278
▁үзүүллээ	-11.5282
▁морийг	-11.5282
▁зогс	-11.5283
▁нийлүүлдэг	-11.5283
▁аваргад	-11.5284
▁буц	-11.5284
▁сагс	-11.5285
▁дэ	-11.5285
▁боть	-11.5287
олз	-11.5287
▁хуульчдын	-11.5287
▁эргэлзэхгүй	-11.529
mi	-11.5294
▁тасал	-11.5295
▁from	-11.5296
▁сунгаж	-11.5298
▁харцаар	-11.5298
▁бүрнээ	-11.5298
ard	-11.5299
▁карл	-11.5299
▁шийдэхэд	-11.53
▁дэвшигчдийг	-11.5304
▁хүүдээ	-11.5304
чний	-11.5304
өндөө	-11.5305
▁компаниар	-11.5306
▁гэдгийн	-11.5307
▁тааз	-11.5308
▁сайдууд	-11.5308
лая	-11.5308
зүй	-11.5309
яагаад	-11.531
▁нэрийдлээр	-11.5311
▁төрүүлдэг	-11.5314
▁еврогийн	-11.5315
тэс	-11.5315
▁харилцаж	-11.5317
▁нутагтай	-11.5317
▁хотуудад	-11.5319
▁голыг	-11.532
ский	-11.5322
▁мөрөөдөж	-11.5322
▁нямбай	-11.5323
лэлт	-11.5324
агдан	-11.5325
700	-11.5325
▁томилогдож	-11.5327
▁ярилцлагын	-11.5327
▁халагдсан	-11.5328
▁фе	-11.5329
▁улай	-11.533
▁хэрэгжүүлэхийг	-11.5331
▁бичин	-11.5331
▁ажигла	-11.5332
▁гардууллаа	-11.5333
▁бордоо	-11.5334
▁хандаад	-11.5335
▁нэгэнтэй	-11.5336
▁хамгаалан	-11.5336
▁бушуухан	-11.5337
▁дээшлүүлж	-11.5341
▁богинохон	-11.5344
бурхан	-11.5346
▁харьцуулж	-11.5347
шү	-11.535
▁шшгег	-11.5352
▁байцаа	-11.5354
bu	-11.5356
▁буцаа	-11.5356
лодог	-11.5356
▁ойлголцох	-11.5356
▁зовсон	-11.5357
▁15.00	-11.5357
▁хүндэлж	-11.5358
▁5-7	-11.5359
▁хосгүй	-11.5359
▁харьяалал	-11.536
▁цоож	-11.5361
монголчууд	-11.5361
▁гэрлэн	-11.5362
▁прокурорт	-11.5362
▁жагсаж	-11.5363
▁дууслаа	-11.5363
жаст	-11.5365
▁дүүгийн	-11.5365
▁син	-11.5366
▁харваач	-11.5368
▁хориглож	-11.537
▁яриагүй	-11.5372
▁хасар	-11.5372
▁хөгжүүлэхийн	-11.5373
дсон	-11.5375
▁даншиг	-11.5376
▁таалагдах	-11.5376
be	-11.5376
▁амьсгалах	-11.5378
▁бухимдаж	-11.5378
▁хуралдаанаараа	-11.5379
▁уулга	-11.5379
▁индэр	-11.5381
▁дүрээр	-11.5381
▁хананд	-11.5382
:02	-11.5382
▁төлөөлөлтэй	-11.5382
▁берлин	-11.5383
рэв	-11.5383
дэ	-11.5385
▁багуудын	-11.5385
булган	-11.5388
▁ойлгуулж	-11.5388
нүүдийн	-11.5388
▁салан	-11.5388
▁өрсөлдөөний	-11.5388
▁харуулна	-11.5388
лжээ	-11.539
▁сүрьеэгийн	-11.5391
▁илбэ	-11.5392
▁даваад	-11.5392
тур	-11.5392
амарбаясгалан	-11.5393
▁танах	-11.5393
▁болгоомжил	-11.5395
▁баяс	-11.5396
▁хүмүүний	-11.5398
▁хуурмаг	-11.5399
агсад	-11.5399
▁бүлтэй	-11.54
▁хүрд	-11.54
▁мэдрэмжтэй	-11.5401
хнийг	-11.5401
5,000	-11.5402
▁дүнжингарав	-11.5403
▁дүрмээр	-11.5403
архи	-11.5404
▁пар	-11.5406
чилсэн	-11.5408
▁шаардана	-11.5408
▁хийхээ	-11.5411
▁амттан	-11.5411
▁смарт	-11.5411
элтийн	-11.5412
▁дороос	-11.5413
▁хилс	-11.5414
▁дамдин	-11.5414
▁хангагдсан	-11.5417
▁байлга	-11.5418
рүүлж	-11.5418
▁эргэлдэж	-11.5419
▁анна	-11.5419
▁логик	-11.5419
▁ширтэн	-11.5419
▁команд	-11.542
▁нуга	-11.5422
▁ууртай	-11.5422
▁түшмэд	-11.5424
▁лобби	-11.5424
▁зөөл	-11.5426
▁дэвш	-11.5426
▁үүсэн	-11.5427
▁шивээ	-11.5429
▁мүхаүт	-11.5429
▁халаалтын	-11.5429
вей	-11.5429
▁дөхсөн	-11.5429
зүүн	-11.5432
▁чигтээ	-11.5433
▁хажуугийн	-11.5433
ang	-11.5434
▁гарамгай	-11.5435
ля	-11.5436
▁оддын	-11.5437
▁томил	-11.5438
хээр	-11.5438
▁бгд	-11.5438
▁хөдөлмөрлөх	-11.544
үс	-11.5441
эхийн	-11.5443
▁дуугарах	-11.5443
ot	-11.5443
▁сахар	-11.5443
▁банди	-11.5444
▁хөшүүрэг	-11.5444
▁мэл	-11.5445
жүүлэлт	-11.5445
▁дамжих	-11.5446
▁хойшлуулж	-11.5448
▁сэрээ	-11.5448
▁хохирогчийн	-11.545
▁өгүүл	-11.5451
▁мун	-11.5451
▁байснаар	-11.5452
▁сургуулийнхаа	-11.5453
▁огцор	-11.5456
▁байшинг	-11.5463
▁студи	-11.5464
▁машинаас	-11.5464
▁авчир	-11.5464
▁зөвлөгөөний	-11.5465
▁тэвчиж	-11.5466
▁боож	-11.5466
▁тооцоолсон	-11.5466
▁ялаар	-11.5468
▁чигээр	-11.5468
▁no	-11.5469
▁сонирхогчдын	-11.5471
▁кол	-11.5472
км	-11.5473
▁үүдсэн	-11.5474
▁зхжш	-11.5475
цэрэнбат	-11.5476
▁хангаад	-11.5477
▁асга	-11.5478
:1	-11.5478
▁цан	-11.5481
▁хадан	-11.5482
▁агуй	-11.5483
▁хүсэв	-11.5484
ие	-11.5485
▁сүртэй	-11.5486
▁өөрчлөлттэй	-11.5486
бүс	-11.5486
ком	-11.5487
▁төлөөлөгчөөр	-11.5489
сумъяа	-11.5489
▁тойр	-11.5492
-2"	-11.5494
гүйг	-11.5497
▁зориудаар	-11.5498
▁багтаамжтай	-11.55
▁маг	-11.5502
хишиг	-11.5502
▁хэтрэхгүй	-11.5504
нис	-11.5504
▁завдсан	-11.5505
▁эрчимжүүлж	-11.5505
▁увайгүй	-11.5507
▁бэлтгэгдсэн	-11.5507
▁өнө	-11.5509
▁эрхэмлэн	-11.551
▁сурталчилгааг	-11.5511
▁гишүүдээ	-11.5511
▁уяа	-11.5511
өгч	-11.5513
єн	-11.5514
▁шингээж	-11.5514
▁сэрэмжтэй	-11.5515
▁гаргахын	-11.5516
▁харуулдаг	-11.5516
▁санаандгүй	-11.5517
март	-11.552
▁al	-11.5521
▁гэгээрүүлэх	-11.5522
▁шөнөгүй	-11.5522
▁илэрхийл	-11.5523
▁төлөхгүй	-11.5524
▁тогтоо	-11.5525
▁сэрэмж	-11.5529
▁мэргэжлээрээ	-11.553
итгэл	-11.5531
логдож	-11.5531
▁зиньпин	-11.5531
▁алийг	-11.5532
▁болгоомжлол	-11.5533
▁гэрийг	-11.5533
▁iphone	-11.5533
▁шийдэгдсэн	-11.5533
▁талбарт	-11.5533
▁нэмэгдээд	-11.5533
гаагүй	-11.5533
▁ширэн	-11.5534
▁бүсээс	-11.5535
▁дангаар	-11.5535
▁хориод	-11.5537
▁оныхоос	-11.5537
үүлэв	-11.5539
▁амжилтаар	-11.554
▁буулга	-11.554
▁маркетинг	-11.5541
▁байцаагчид	-11.5545
▁хойшоо	-11.5545
цийн	-11.5547
бямба	-11.5548
▁кур	-11.555
▁биелэлт	-11.5552
▁ажиллагсдын	-11.5553
▁асуултын	-11.5553
▁кабинет	-11.5553
лц	-11.5554
▁ta	-11.5554
▁бүхэнтэй	-11.5555
▁бүсгүйчүүдийн	-11.5556
▁хэрэгжсэнээр	-11.5558
▁дурсгалыг	-11.556
▁эерэгээр	-11.5562
▁ханамж	-11.5567
▁хэвлэн	-11.5569
▁сурлага	-11.557
▁тодруулга	-11.5575
▁хөөн	-11.5575
сэргэлэн	-11.5578
▁1984	-11.5579
▁жигтэйхэн	-11.558
▁агентлагууд	-11.5581
туу	-11.5582
▁бхя	-11.5584
▁түдгэлзүүлэх	-11.5586
▁мандат	-11.5587
тлаа	-11.5593
вээс	-11.5595
▁арьсанд	-11.5596
▁дус	-11.5596
▁хураа	-11.5596
▁идээд	-11.5598
▁авчих	-11.5598
▁хэмжүүр	-11.56
▁сонсогдох	-11.5601
vo	-11.5602
1.6	-11.5602
▁оролцоотойгоор	-11.5603
▁зөвшөөрлөө	-11.5603
▁майхан	-11.5604
түмэн	-11.5605
▁ялгарч	-11.5606
▁хүрээлэнгээс	-11.5609
▁уулзахдаа	-11.5614
▁өгүүлэл	-11.5614
снийхээ	-11.5615
ундармаа	-11.5616
ёо	-11.5618
▁заалтад	-11.5618
▁хэвтсэн	-11.5619
▁массаж	-11.5619
▁төрөлжсөн	-11.5621
▁салхин	-11.5623
▁гутлын	-11.5623
▁цэл	-11.5625
▁талаа	-11.5625
▁авьяастай	-11.5625
▁бүтэх	-11.5627
▁цаасыг	-11.5628
▁тээг	-11.5629
8.3	-11.563
▁2.1	-11.5633
▁үзлийг	-11.5634
иц	-11.5636
▁сэлт	-11.5636
▁өвчлөх	-11.5637
▁чанадад	-11.5638
танай	-11.564
▁хдхв	-11.5642
▁эвдэж	-11.5643
▁хийл	-11.5643
▁7000	-11.5643
▁уялдуулах	-11.565
▁орнуудыг	-11.565
▁баянхошуу	-11.5651
▁сүх	-11.5653
▁хөдөлмөрийг	-11.5653
▁зурагтай	-11.5654
▁дэлгэсэн	-11.5655
аши	-11.5655
▁саруудад	-11.5655
▁баглаа	-11.5656
▁тэргүүнээр	-11.5656
▁хүүхдэдээ	-11.5657
▁квт	-11.5657
▁хэрэглэхэд	-11.5657
▁ангиар	-11.5658
▁гэл	-11.5661
луур	-11.5662
▁4-6	-11.5664
▁петр	-11.5667
▁сэ	-11.5668
▁шархадсан	-11.5669
▁хохироосон	-11.567
▁бодогч	-11.5671
▁хүснэгт	-11.5671
еб	-11.5674
▁тэмцэгч	-11.5675
▁залах	-11.5676
▁хуралдуулж	-11.5676
▁бээжинд	-11.5679
▁захирлууд	-11.568
▁ашиглана	-11.568
▁461	-11.5681
▁өлөн	-11.5682
гийнх	-11.5683
▁нартайгаа	-11.5684
▁томилдог	-11.5687
▁ханын	-11.5688
ыхаа	-11.5689
содбаатар	-11.5689
▁хийсвэр	-11.569
сугар	-11.569
ber	-11.5691
▁бү	-11.5691
▁үйлсийн	-11.5693
хамгийн	-11.5695
▁жижүүр	-11.5698
▁ялагдаж	-11.57
▁07-	-11.5701
▁статус	-11.5701
▁дуусгасан	-11.5705
▁th	-11.5707
▁se	-11.571
▁түлээ	-11.5712
дсаар	-11.5714
▁дуут	-11.5714
9.5	-11.5715
хулан	-11.5717
▁бариа	-11.5717
▁антибиотик	-11.5722
▁продюсер	-11.5722
▁морьт	-11.5722
хаг	-11.5723
▁чадварт	-11.5723
▁тоноглол	-11.5723
▁шведийн	-11.5724
▁бүлгийг	-11.5724
▁шалгуулж	-11.5726
▁дэвжээнд	-11.5728
▁горхи	-11.5729
▁зөвлөсөн	-11.573
▁хөгжингүй	-11.573
▁буйн	-11.573
▁хадгалан	-11.5731
хаж	-11.5732
▁гэгчийг	-11.5732
▁цацагдсан	-11.5733
▁хаагчийг	-11.5733
▁тохиолдлууд	-11.5734
▁горим	-11.5735
▁голчлон	-11.5735
▁конвенцид	-11.5736
▁цусанд	-11.5737
▁хандуул	-11.5738
▁агуулгаар	-11.5739
гджээ	-11.5741
▁эмнэлгээс	-11.5741
бэр	-11.5743
▁газрынхаа	-11.5744
▁яваагүй	-11.5744
▁базар	-11.5745
▁халдвартай	-11.5745
▁төлөөлөх	-11.5747
▁задлан	-11.5747
▁sp	-11.5748
бадам	-11.5749
▁өшөө	-11.5749
▁хөөрөө	-11.5752
▁ханиа	-11.5755
бр	-11.5756
▁103	-11.5758
▁хэрэгцээт	-11.5759
▁унтлагын	-11.5759
▁сэхээ	-11.576
▁аяс	-11.576
▁шийдлийн	-11.576
▁тогтолцоотой	-11.5761
▁олондоо	-11.5762
▁шагналаа	-11.5764
▁шинжилгээгээр	-11.5764
▁дизель	-11.5764
▁1986	-11.5764
▁алдана	-11.5765
▁хавсарга	-11.5766
▁дэмжигчдийн	-11.5766
▁ангараг	-11.5768
▁найруулсан	-11.5768
▁гэрээтэй	-11.577
▁өдөөн	-11.577
▁уяачдын	-11.5771
▁иен	-11.5772
▁инфляцийн	-11.5772
тун	-11.5773
▁дуугар	-11.5774
▁гахайн	-11.5779
▁эрчимжсэн	-11.5779
▁шүүгчээр	-11.5779
▁сумыг	-11.578
▁бэртсэн	-11.578
▁жилүүдийн	-11.5782
▁хооллолт	-11.5783
▁мэргэд	-11.5784
▁ле	-11.5784
ллаа	-11.5784
▁сугалааны	-11.5787
ha	-11.5787
уулахгүй	-11.5788
▁сүүгээр	-11.5788
▁сөнөөгч	-11.5789
▁нүсэр	-11.5791
▁шүүгээ	-11.5791
▁өрөөнөөс	-11.5792
▁төлбөрөөс	-11.5793
▁бүтцээ	-11.5794
▁гавъяа	-11.5794
tra	-11.5794
▁өвгөний	-11.5795
▁цуглаж	-11.5798
▁цайвар	-11.5798
▁баримтуудыг	-11.58
▁ээлжээр	-11.5805
▁оролд	-11.5805
▁булхай	-11.5808
▁шалтгаалах	-11.5808
раагүй	-11.5808
▁дэвшин	-11.581
▁мэдрэл	-11.581
▁ялимгүй	-11.5812
▁чад	-11.5814
рэй	-11.5814
сер	-11.5814
▁хянадаг	-11.5815
лүүлнэ	-11.5817
▁балар	-11.5819
▁мил	-11.582
▁15-17	-11.5822
▁авга	-11.5824
батцэрэг	-11.5825
▁суларсан	-11.5825
▁инженерүүд	-11.5828
▁сэцэн	-11.5829
▁лидерүүд	-11.5829
жамц	-11.5829
ноён	-11.5833
▁найрамдлын	-11.5834
ази	-11.5834
▁өдөрлөгийн	-11.5838
▁эхнийх	-11.5838
▁нэмрийг	-11.5839
▁26-31	-11.584
▁зөрчилдөөн	-11.5841
▁намаасаа	-11.5841
▁эхлэлийг	-11.5843
▁хонконг	-11.5844
▁тогтоогджээ	-11.5845
ень	-11.5846
дэм	-11.585
▁тогтоомжид	-11.585
▁үүсэл	-11.5856
▁тэглээ	-11.5856
▁шүүлт	-11.5859
илдаг	-11.5864
▁азаар	-11.5864
▁учрал	-11.5864
про	-11.5864
▁парад	-11.5866
▁тарвага	-11.5869
алд	-11.5869
▁уна	-11.5869
▁боловсруулахад	-11.587
▁медиа	-11.587
▁дизайн	-11.5871
цэнд	-11.5872
▁тандалт	-11.5872
▁марга	-11.5874
▁дайрах	-11.5875
▁тоглогчид	-11.5879
▁сэлэнгийн	-11.5879
▁ажилгүйдлийн	-11.588
▁хашгирч	-11.5882
▁зангилаа	-11.5882
▁др	-11.5883
▁шугамыг	-11.5884
баа	-11.5885
ваа	-11.5885
▁ахих	-11.5885
▁яалт	-11.5885
▁өргөл	-11.5887
хэрэг	-11.5887
▁түймрийг	-11.5887
яв	-11.5888
▁үйлдлээ	-11.5892
ондоо	-11.5893
▁шам	-11.5893
дгийн	-11.5895
рой	-11.5896
▁жүдоч	-11.5896
айж	-11.5897
ых	-11.5898
үүдтэй	-11.5898
▁жолоодсон	-11.5898
▁гоцлол	-11.5899
▁дурдах	-11.59
▁явчихдаг	-11.59
▁монголбанкинд	-11.5901
▁жинг	-11.5906
600	-11.5906
▁хэрэгжүүлэн	-11.5907
▁ослоор	-11.5909
▁зочлох	-11.5909
▁цех	-11.5909
ели	-11.5909
▁баясгалан	-11.591
▁настнууд	-11.591
ss	-11.5911
▁жилүүд	-11.5912
▁тэргүүлэгчид	-11.5917
tt	-11.5917
▁компаниа	-11.5918
▁ирээдүйгээ	-11.5918
▁хойшлуулсан	-11.5921
▁яав	-11.5921
ена	-11.5925
▁гэгдэж	-11.5926
▁дэвжээ	-11.5927
▁1,2	-11.5927
▁эрхтний	-11.593
▁хорвоог	-11.5932
▁бүтээлүүдийг	-11.5932
цгаасан	-11.5932
▁биржид	-11.5932
▁хүнлэг	-11.5932
▁төржээ	-11.5933
▁ялаа	-11.5933
зууны	-11.5933
▁юанийн	-11.5934
▁нэрсийг	-11.5936
▁өмсөөд	-11.5937
▁шийдвэрлэжээ	-11.5937
▁буудайн	-11.5937
▁яарч	-11.5937
хурд	-11.5938
▁тоож	-11.5941
▁түншүүд	-11.5942
▁ахиу	-11.5943
▁хүмүүстээ	-11.5946
▁өгөөмөр	-11.5946
▁аялалд	-11.5947
▁эргэлтийг	-11.5948
▁магтан	-11.5949
▁халдашгүй	-11.5952
▁босгыг	-11.5953
▁фунт	-11.5953
▁2.2	-11.5954
▁зэр	-11.5957
ной	-11.5957
▁пер	-11.5958
▁зарлана	-11.5959
▁шүүмжилдэг	-11.5959
▁биеэрээ	-11.5961
эз	-11.5962
▁жирэмсний	-11.5966
▁гуу	-11.5966
▁хөдөл	-11.5967
▁нийлүүлэлтийн	-11.5968
▁тогтвор	-11.5969
тогтвортой	-11.597
▁мөчир	-11.5971
▁08-	-11.5972
▁зээр	-11.5972
▁салбартай	-11.5975
▁тэмдэглэлт	-11.5976
▁нэмэргүй	-11.5976
gt	-11.5981
▁алинд	-11.5981
офф	-11.5986
▁коллежийн	-11.5986
▁дол	-11.5986
во	-11.5988
▁дээшлүүлэхэд	-11.599
▁нууцлал	-11.5992
▁дотогш	-11.5993
▁соёо	-11.5994
▁солилцооны	-11.5994
▁гаргаснаар	-11.5995
▁нэ	-11.5996
хийтэл	-11.5996
▁ажиг	-11.5996
▁хавь	-11.5996
▁байлгахын	-11.5996
▁борлуулсан	-11.5996
сүү	-11.5997
▁бодоогүй	-11.6
▁ажлуудын	-11.6
икс	-11.6
▁кинонууд	-11.6002
▁холдинг	-11.6003
▁чанад	-11.6004
▁гэсэндээ	-11.6004
▁бууз	-11.6005
▁квадрат	-11.6007
▁this	-11.6007
▁хувилгаан	-11.6007
▁цацагдаж	-11.6008
▁дагуулах	-11.601
▁уашт	-11.6012
▁дарамтыг	-11.6016
▁давт	-11.602
▁кай	-11.6021
▁лүү	-11.6024
▁баталдаг	-11.6025
▁гавъяат	-11.6026
▁авахуулах	-11.6026
атга	-11.6026
▁ирчихсэн	-11.6027
▁ирсэнд	-11.6029
тэх	-11.6031
▁дэвшүүлэн	-11.6032
▁өдийд	-11.6033
▁арилж	-11.6036
▁тэвэрч	-11.6037
▁найрамдал	-11.6039
▁нүүрэн	-11.6039
▁өргөнөөр	-11.6041
▁же	-11.6044
агддаг	-11.6047
▁тушаалтнуудад	-11.6049
▁жиньпин	-11.6051
▁ом	-11.6053
▁эрэгт	-11.6054
▁нөхдөө	-11.6055
▁авран	-11.6056
▁бэртэж	-11.6056
▁дүндээ	-11.6058
▁атга	-11.6059
▁чанараа	-11.606
3.1	-11.6061
▁автах	-11.6063
▁дуулгалаа	-11.6065
▁зогсоолын	-11.6065
▁харъяат	-11.6067
▁ён	-11.6067
▁ерөөс	-11.6068
▁шошго	-11.6068
▁горимын	-11.6068
хаар	-11.6069
▁баталжээ	-11.607
▁обьект	-11.607
▁нөлөөллийг	-11.6072
цгаа	-11.6075
▁яригддаг	-11.6075
▁болсонтой	-11.6076
▁төг	-11.6076
илл	-11.6077
▁нис	-11.6078
▁дэвшүүлье	-11.6078
уулсаар	-11.6079
▁шургуу	-11.6079
▁ca	-11.608
▁ямартаа	-11.608
▁эрэлд	-11.6081
гөл	-11.6082
▁эхлээгүй	-11.6085
▁ст	-11.6089
▁жагсаалд	-11.6089
алтайн	-11.6089
ca	-11.609
▁нус	-11.609
▁нөмөр	-11.609
▁тэмээний	-11.6092
▁дорнын	-11.6093
9.2	-11.6097
▁араншин	-11.6099
▁об	-11.61
▁буудлаас	-11.61
▁шоунд	-11.6102
▁бүрдүүлэлт	-11.6103
▁ерөнхийлөгчөөс	-11.6103
▁тайлбарлав	-11.6106
▁барилдана	-11.6106
мөнхбаатар	-11.6108
▁инээ	-11.611
▁биелэх	-11.6111
аюурсайхан	-11.6111
▁хуушуур	-11.6111
▁пакистан	-11.6111
▁халаагуур	-11.6111
▁дутахгүй	-11.6113
▁заагаад	-11.6113
▁нийлүүлэн	-11.6113
цсэн	-11.6115
▁шүүр	-11.6117
▁төлөөллийн	-11.6117
▁баримал	-11.6117
▁тоглоод	-11.612
▁тавтай	-11.6121
▁нэгээхэн	-11.6123
▁https	-11.6123
▁цам	-11.6123
▁мэргэжлийг	-11.6128
▁ялгар	-11.6128
▁үеийнхний	-11.6129
▁хөршүүд	-11.6129
▁цайз	-11.613
▁тооцоолол	-11.613
▁цагаач	-11.6132
ална	-11.6134
▁бэлтгэлтэй	-11.6137
ури	-11.6139
▁польшийн	-11.614
▁сонирхолд	-11.614
хнаас	-11.6141
▁1987	-11.6143
▁шоронгийн	-11.6143
▁гэмтээсэн	-11.6144
▁мэдүүлж	-11.6145
▁бөгөөс	-11.6145
онг	-11.6145
▁үсрэн	-11.6149
▁халдлагын	-11.615
▁түүчээ	-11.615
lt	-11.615
▁хэрэгсэлд	-11.615
▁төвөг	-11.6151
▁хуулиудын	-11.6151
▁өд	-11.6152
▁зэргэлдээ	-11.6152
▁тусгаарлах	-11.6154
▁зурагчин	-11.6154
▁ямарваа	-11.6158
стер	-11.616
▁орноор	-11.616
▁дов	-11.6161
дсөн	-11.6161
▁аргентин	-11.6161
арлаа	-11.6163
▁уушгины	-11.6164
▁эвдэрсэн	-11.6167
олгүй	-11.6168
▁хамаарахгүй	-11.617
гөөд	-11.6171
▁тэжээ	-11.6172
▁сараа	-11.6174
▁190	-11.6176
▁нуруутай	-11.6176
▁арчилгаа	-11.6177
▁10-12	-11.6179
▁асуудлуудын	-11.6179
▁айлтга	-11.618
▁грекийн	-11.6181
▁унагасан	-11.6182
▁төсөөлөх	-11.6182
▁буудлыг	-11.6183
▁хуц	-11.6184
▁өрхүүд	-11.6186
цгоо	-11.6186
▁алхмууд	-11.6189
▁гиш	-11.6191
▁багшийг	-11.6191
▁дүгнэлтээр	-11.6195
баруун	-11.6199
▁дээдэлж	-11.6199
▁шүүлтүүр	-11.62
ве	-11.6201
▁нэгжүүдийг	-11.6205
үйл	-11.6206
▁гардуулсан	-11.6206
▁тээвэрлэгч	-11.6208
▁тулгарах	-11.6208
▁эхийнхээ	-11.621
▁дархлаажуулалт	-11.621
▁өргөдлийг	-11.6211
түвдэндорж	-11.6212
хэж	-11.6212
▁үрийг	-11.6212
▁кал	-11.6214
▁заяаны	-11.6215
▁тахилга	-11.6215
▁санагдлаа	-11.6218
▁3.2	-11.6222
▁удирдаач	-11.6222
▁өвчтөний	-11.6223
▁дурдав	-11.6225
▁тодрох	-11.6229
▁шийтгэнэ	-11.6229
▁лигт	-11.623
▁али	-11.623
▁баатрын	-11.623
▁эсрэгээр	-11.6232
ото	-11.6233
▁эсэргүү	-11.6233
▁хянуур	-11.6233
эгдэн	-11.6233
▁таавар	-11.6233
▁сурвалжилж	-11.6238
▁удирддаг	-11.6238
▁хэрэгцээгээ	-11.6239
лэвэл	-11.6239
▁зорчдог	-11.6239
бин	-11.624
▁дарамталж	-11.6241
▁дөхөм	-11.6244
▁төвлөрлийг	-11.6244
▁ядахдаа	-11.6245
▁албад	-11.6246
▁цусаа	-11.6248
▁тээврийг	-11.6249
ддог	-11.6252
▁зорчигчдын	-11.6252
▁дагуух	-11.6253
▁хийгдэнэ	-11.6256
do	-11.6256
▁нэмэгдүүлэн	-11.6256
гадаад	-11.6257
ai	-11.6257
▁баярлан	-11.626
▁үзүүлжээ	-11.626
▁сунгаа	-11.6261
▁төвүүдэд	-11.6264
▁хэвлэж	-11.6266
▁сэжигтнээр	-11.6267
▁түвшнээс	-11.6269
▁ширүүсч	-11.6269
зар	-11.627
▁доог	-11.6271
▁тархийг	-11.6271
▁гишүүнчлэл	-11.6272
▁цохих	-11.6272
▁шалтгаалсан	-11.6273
сайханбилэгийг	-11.6273
▁заа	-11.6273
▁тойргоос	-11.6274
▁шун	-11.6276
▁тодруулан	-11.6277
▁ганцаарчилсан	-11.6278
▁эхэлчихсэн	-11.6278
▁гэрчилгээг	-11.6278
▁охиныхоо	-11.6279
▁сольсон	-11.628
▁туслан	-11.628
▁дөл	-11.6282
дна	-11.6284
▁бизнесмэн	-11.6286
▁төлөвлө	-11.6286
ахаар	-11.6287
▁хийчих	-11.6288
▁тарифын	-11.6288
▁мадрид	-11.6289
▁хонгил	-11.6289
ала	-11.6289
ist	-11.629
▁эвдэрч	-11.6292
▁маа	-11.6293
▁хүргүүлжээ	-11.6293
▁үнэмш	-11.6293
▁нэвтрүүлгийг	-11.6295
▁хүндэлдэг	-11.6295
▁эргүүлэх	-11.6296
▁уралдах	-11.6297
▁дэмжихэд	-11.6298
▁шүр	-11.6299
▁занал	-11.63
▁өмчлөлийн	-11.6301
▁нэмэгдүүлэхээр	-11.6305
▁хуан	-11.6305
▁1960	-11.6305
▁үйлдлээс	-11.6305
▁цоохор	-11.6307
ноосоо	-11.6308
баттөмөр	-11.6308
дүүлсэн	-11.6311
▁хичээгээрэй	-11.6312
▁102	-11.6312
▁харих	-11.6312
▁үүрэх	-11.6318
▁сод	-11.6318
▁зорчигчид	-11.6319
▁зүйлүүдийг	-11.6319
▁байрлуулж	-11.6322
▁сорви	-11.6322
▁бүрдэл	-11.6324
▁эзэмшигчид	-11.6325
агүй	-11.6326
ive	-11.6326
▁конвенц	-11.6327
▁хонжоо	-11.6328
▁аргууд	-11.633
▁сад	-11.633
▁гадаргуу	-11.6333
лүүлээд	-11.6333
▁золиг	-11.6333
▁онгод	-11.6339
mb	-11.634
▁барьцааны	-11.6341
▁гер	-11.6341
▁1985	-11.6342
▁дэнс	-11.6346
▁ашигла	-11.6346
▁бүтээхэд	-11.6347
▁нэгтээ	-11.6349
▁цөс	-11.6349
▁экспортолж	-11.6352
лэе	-11.6356
▁дараатай	-11.6356
▁будлиан	-11.6357
▁хохирлын	-11.6357
▁номд	-11.6357
уун	-11.6358
▁гомдолтой	-11.6359
▁загалмай	-11.636
▁хонох	-11.6361
магнай	-11.6365
▁иллэг	-11.6366
▁галд	-11.6366
▁тэмдгийг	-11.6368
▁багшаар	-11.6369
▁замууд	-11.637
▁бослого	-11.6372
▁гаргахаас	-11.6372
▁оноогоо	-11.6372
he	-11.6373
▁муста	-11.6373
▁эдийг	-11.6373
▁тооллогын	-11.6374
▁махаа	-11.6374
▁гялгар	-11.6374
нийтийн	-11.6377
алтанхуягийг	-11.6378
▁жиргээ	-11.6379
▁үйлчилгээгээ	-11.638
▁мэдлэгийн	-11.6382
▁нээгдэх	-11.6383
▁ойлголцож	-11.6385
:2	-11.6388
▁ro	-11.6388
▁нярайн	-11.6389
▁залгаж	-11.6389
-8	-11.639
▁заримыг	-11.6391
▁төсөөллийн	-11.6391
хувь	-11.6391
▁картын	-11.6392
▁хийлгэ	-11.6392
▁батга	-11.6393
хэрвээ	-11.6394
▁уйтгар	-11.6395
sp	-11.6397
▁6-8	-11.6398
▁зээлдэгч	-11.64
▁эмнэлгийг	-11.6402
4-	-11.6403
▁асуудлуудаа	-11.6405
[...]
