<unk>	0
<s>	0
</s>	0
[PAD]	0
[CLS]	0
[SEP]	0
[MASK]	0
.	-2.91881
,	-3.19646
▁нь	-4.4026
-	-4.81592
▁байна	-4.83284
▁	-4.91787
▁"	-4.96043
"	-5.08439
▁юм	-5.21791
▁энэ	-5.24208
ын	-5.25485
▁байгаа	-5.29362
▁ч	-5.37435
▁гэж	-5.48726
д	-5.70938
▁улсын	-5.72095
▁л	-5.72743
▁байсан	-5.88735
ийн	-5.91071
▁монгол	-5.94666
:	-5.95331
▁бол	-5.95465
▁их	-5.95797
▁нэг	-5.995
▁олон	-6.00933
▁болон	-6.01408
▁хүн	-6.23194
▁засгийн	-6.27352
▁сарын	-6.27985
▁оны	-6.28349
ыг	-6.29409
гүй	-6.30034
▁тухай	-6.30514
▁гэсэн	-6.31948
▁байх	-6.37641
ийг	-6.39603
т	-6.39873
▁тэр	-6.41421
?	-6.42672
▁улс	-6.45237
▁мөн	-6.4659
г	-6.46877
▁хоёр	-6.47621
▁газар	-6.47776
▁тус	-6.49271
▁төрийн	-6.49451
▁дарга	-6.5152
ны	-6.53053
тай	-6.53475
▁дээр	-6.53691
р	-6.57458
▁аж	-6.5813
▁болсон	-6.58786
▁газрын	-6.61568
▁би	-6.63663
▁байдаг	-6.63978
▁өмнө	-6.6443
▁болно	-6.65402
▁буй	-6.66689
▁уих	-6.68699
ээ	-6.68712
▁та	-6.68732
▁болж	-6.71553
▁бөгөөд	-6.71948
▁үйл	-6.72113
▁харин	-6.73522
▁хууль	-6.73655
▁талаар	-6.73798
▁б	-6.74932
▁онд	-6.75266
▁болох	-6.75908
▁ямар	-6.77373
аас	-6.7932
н	-6.80098
▁сайд	-6.80513
▁хуулийн	-6.8155
▁цаг	-6.81711
▁эх	-6.8265
▁манай	-6.83365
▁өдөр	-6.84543
▁д	-6.85907
▁эдийн	-6.8597
▁бид	-6.8605
▁эрх	-6.86871
аа	-6.87023
▁гэдэг	-6.87835
▁орон	-6.88822
▁ерөнхий	-6.88876
аар	-6.89296
▁уу	-6.89755
тэй	-6.91492
▁жилийн	-6.92349
▁зохион	-6.92882
▁авч	-6.93039
▁хамгийн	-6.94495
▁албан	-6.95241
▁жил	-6.9606
▁нийслэлийн	-6.98029
▁монголын	-6.9889
▁үед	-6.98961
▁сайн	-6.99184
х	-6.99461
▁хийж	-7.01492
/	-7.01848
▁нар	-7.02396
▁арга	-7.02915
▁ажил	-7.04287
▁санал	-7.04716
▁нэр	-7.0611
нд	-7.07106
▁/	-7.07571
▁сая	-7.07816
▁хувь	-7.0865
▁н	-7.09111
▁дугаар	-7.09423
▁ажлын	-7.09427
▁хүний	-7.09731
▁с	-7.10056
mn	-7.10834
▁хувьд	-7.11631
▁буюу	-7.11854
▁дараа	-7.1218
▁өнөөдөр	-7.12416
▁бий	-7.12778
▁биш	-7.12973
▁хэмээн	-7.13021
▁дээ	-7.13221
"-	-7.14076
▁вэ	-7.14093
▁зэрэг	-7.15088
▁аймгийн	-7.15494
▁үр	-7.15942
▁гишүүн	-7.16039
▁ёстой	-7.16098
▁бусад	-7.16606
▁шинэ	-7.16737
▁ажиллаж	-7.16884
▁мэдээлэл	-7.17626
с	-7.17875
▁засаг	-7.19118
▁гээд	-7.20034
▁билээ	-7.22065
▁-	-7.22552
▁дахь	-7.227
▁зарим	-7.22945
▁гэх	-7.22993
▁хэрэгтэй	-7.23219
▁асуудал	-7.23307
▁уг	-7.23498
▁нийт	-7.23504
▁эрүүл	-7.24946
▁авах	-7.24948
▁10	-7.2543
▁юу	-7.26231
▁хэрэг	-7.26903
▁шиг	-7.27418
▁бүх	-7.27424
▁хөрөнгө	-7.27473
▁1	-7.27569
▁байж	-7.27732
гийн	-7.28695
▁үндэсний	-7.29619
▁2	-7.29699
▁шүү	-7.30129
▁одоо	-7.30358
▁ийм	-7.30629
▁нутгийн	-7.32334
▁өнгөрсөн	-7.32724
▁түүний	-7.33004
▁зүйл	-7.33192
▁төв	-7.33631
▁дэлхийн	-7.33648
▁нэгэн	-7.33674
▁г	-7.34324
▁хийх	-7.35328
▁үг	-7.35731
▁ам	-7.36487
ээр	-7.37228
▁хүмүүс	-7.382
▁бүр	-7.38518
▁гэр	-7.39274
▁0	-7.39708
▁градус	-7.39723
▁дагуу	-7.39774
▁хотын	-7.39986
▁бага	-7.40013
▁х	-7.40227
▁(	-7.41586
ж	-7.41898
▁том	-7.42241
▁хүртэл	-7.42532
▁3	-7.42619
▁байлаа	-7.43432
▁гаруй	-7.43536
▁гол	-7.43674
▁бас	-7.43678
▁ирсэн	-7.43688
▁ард	-7.43783
▁маш	-7.43804
▁гэдгийг	-7.44517
▁ц	-7.44877
▁бус	-7.45153
ад	-7.45393
▁зам	-7.47429
▁өндөр	-7.47912
▁удаа	-7.48011
ний	-7.48619
▁асуудлыг	-7.49044
▁энэхүү	-7.49287
▁холбоотой	-7.49851
▁хөгжлийн	-7.49944
▁м	-7.5029
▁гэхдээ	-7.50387
▁өөрийн	-7.50467
▁авсан	-7.50854
▁өөр	-7.51078
а	-7.52717
▁нутгаар	-7.5273
)	-7.52975
▁дахин	-7.53065
▁улаанбаатар	-7.53392
▁тэрбум	-7.53454
▁улсад	-7.53866
▁гурван	-7.53937
▁үндсэн	-7.54429
▁үү	-7.54577
▁танд	-7.55333
▁хугацаанд	-7.55585
▁гарч	-7.55871
▁хүрээнд	-7.56083
▁хийсэн	-7.56127
▁байдал	-7.56478
▁ажиллагаа	-7.5672
ээс	-7.57618
▁дүүргийн	-7.57656
▁илүү	-7.57824
ч	-7.58275
▁ерөнхийлөгч	-7.58363
▁тиймээс	-7.58601
▁мэдээ	-7.58989
▁иргэд	-7.5903
▁мянган	-7.59161
▁хүүхэд	-7.5936
▁орж	-7.59398
▁ба	-7.59865
▁тул	-7.60003
▁хурлын	-7.60033
▁хамтран	-7.60855
▁учир	-7.61112
▁бүхий	-7.61375
▁хэдэн	-7.61527
▁баруун	-7.61588
▁хорооны	-7.61606
▁сайхан	-7.61771
▁тухайн	-7.61884
▁нийгмийн	-7.62549
▁бүрэн	-7.63419
▁хэн	-7.63578
▁миний	-7.63777
▁зүйн	-7.63809
▁дунд	-7.63987
▁хүлээн	-7.64149
▁тодорхой	-7.64503
▁бие	-7.64527
▁тийм	-7.64833
▁төсөл	-7.65581
▁хүнд	-7.65598
▁намын	-7.65971
▁хэм	-7.66083
▁төр	-7.66528
▁замын	-7.66591
▁цагт	-7.6667
▁учраас	-7.66729
▁байв	-7.67189
▁чинь	-7.67322
▁байр	-7.6764
▁4	-7.6784
▁“	-7.68177
▁2016	-7.68439
▁ирэх	-7.69092
▁минутын	-7.696
▁үеэр	-7.69614
▁ахуйн	-7.69783
▁гадаад	-7.70279
▁дэд	-7.71125
▁5	-7.71205
▁дээд	-7.7133
▁тэд	-7.71354
▁а	-7.71945
▁сурвалж	-7.72096
▁ажиллах	-7.7241
▁хойш	-7.72577
▁өдрийн	-7.72613
▁ман	-7.72807
▁иргэдийн	-7.73063
▁хувийн	-7.73552
▁руу	-7.73948
▁өдөртөө	-7.74126
▁байгааг	-7.74627
даа	-7.74913
▁байнгын	-7.74996
▁чухал	-7.7531
▁ж	-7.75372
▁тулд	-7.75655
▁гэтэл	-7.75863
▁хар	-7.76117
▁хэмжээ	-7.7628
▁өргөн	-7.76413
▁өгсөн	-7.76437
▁төлөө	-7.76707
▁11	-7.76983
▁тээврийн	-7.77102
▁мөнгө	-7.77343
▁байхгүй	-7.77792
▁гаргасан	-7.78311
▁түүнийг	-7.78555
▁2017	-7.78614
▁хэмжээний	-7.78883
▁20	-7.78914
▁т	-7.79385
▁мэт	-7.79529
▁ан	-7.79955
▁нутаг	-7.80344
▁зах	-7.80453
▁ажлыг	-7.81386
▁гарсан	-7.8144
▁боломжтой	-7.81786
▁сэтгэл	-7.8206
▁байдлаар	-7.8207
▁хэсэг	-7.8239
▁сүүлийн	-7.8271
▁12	-7.82731
▁төсвийн	-7.83205
▁гадна	-7.83252
▁маань	-7.83415
▁зүүн	-7.83449
▁шөнөдөө	-7.83548
▁нийтийн	-7.83933
▁орны	-7.84071
▁минь	-7.8414
▁хүүхдийн	-7.84232
▁аль	-7.84321
▁өөрчлөлт	-7.84363
▁байгуулах	-7.8499
▁гаргаж	-7.85887
▁төгрөг	-7.86067
”	-7.86088
▁байгууллага	-7.8622
▁цагдаагийн	-7.86839
▁сард	-7.87176
▁хамт	-7.87214
л	-7.87542
▁үнэ	-7.88396
v	-7.88626
▁гэнэ	-7.88647
▁сэтгэгдэл	-7.88768
▁иргэн	-7.88798
!	-7.88917
ы	-7.89031
▁зөв	-7.89383
▁оруулах	-7.89912
▁хуульд	-7.90114
▁2018	-7.90182
▁байвал	-7.91126
▁үүрэг	-7.915
сан	-7.91644
▁хэмжээг	-7.91734
▁6	-7.92078
▁хот	-7.9245
▁хамгаалах	-7.9254
▁метр	-7.9312
▁тал	-7.93274
▁ану	-7.93656
▁газраас	-7.93891
▁дүгээр	-7.94056
▁2015	-7.94306
▁нэгдсэн	-7.94413
ий	-7.94873
▁7	-7.9551
▁нам	-7.95775
▁tweet	-7.95818
▁мэргэжлийн	-7.95974
▁тэрбээр	-7.96176
▁мэндийн	-7.96182
▁бодлого	-7.96319
▁хамтын	-7.96486
той	-7.96524
▁шийдвэр	-7.96535
▁нарын	-7.96542
▁даргын	-7.96554
▁аюулгүй	-7.96561
▁хэмжээнд	-7.96581
▁уран	-7.9668
▁сонгуулийн	-7.97006
▁боломж	-7.97604
▁болоод	-7.97614
▁холбогдох	-7.9797
▁хэлж	-7.98018
▁явж	-7.98032
▁шаардлагатай	-7.99073
▁таны	-7.99347
▁гэмт	-7.99467
▁ёс	-7.99618
▁эхний	-7.99695
▁сумын	-7.99783
▁зөвхөн	-8.00024
▁бэ	-8.00045
▁байхад	-8.00162
▁компани	-8.00439
▁багш	-8.00815
▁сургуулийн	-8.01226
▁нөхцөл	-8.01439
▁даа	-8.01676
эд	-8.01714
▁үүнийг	-8.01985
▁байдлын	-8.02026
▁үе	-8.02115
▁орчим	-8.02281
▁дээрх	-8.02933
▁ажиллагааны	-8.03251
▁гар	-8.03403
▁болжээ	-8.03606
▁–	-8.03764
▁тэрээр	-8.03991
▁үеийн	-8.04155
▁байгууллагын	-8.04242
▁хариуцлага	-8.05032
▁хороо	-8.05158
▁боллоо	-8.05177
▁хэрхэн	-8.05462
▁зээл	-8.05502
▁хэргийн	-8.05873
▁2014	-8.06268
▁үзэж	-8.06348
▁тэгвэл	-8.06685
▁8	-8.06706
▁таван	-8.06719
▁төгрөгийн	-8.06762
ан	-8.07089
▁байдлыг	-8.07266
▁байгуулж	-8.07521
▁гэхэд	-8.07521
▁анх	-8.07532
в	-8.07539
▁тэдний	-8.07591
▁болгох	-8.07705
▁уул	-8.07905
▁нас	-8.07924
▁болов	-8.0803
▁ажиллагааг	-8.08132
▁зээлийн	-8.08661
▁тоо	-8.08688
▁онцгой	-8.08808
▁ирж	-8.09273
▁төслийг	-8.09299
▁мэдээллийн	-8.09332
▁15	-8.09676
▁залуу	-8.09776
▁өөрөө	-8.09973
▁бидний	-8.10019
▁гэвч	-8.10026
дээ	-8.10917
▁анхны	-8.11118
▁дотор	-8.11297
▁эхэлсэн	-8.11322
▁өгөх	-8.11351
▁сар	-8.11674
▁э	-8.11726
▁сургууль	-8.1188
▁өгч	-8.11936
▁дөрвөн	-8.12202
▁дулаан	-8.12837
▁яг	-8.12858
▁муу	-8.12976
▁like	-8.13405
▁цагаан	-8.13524
▁9	-8.13799
▁хүчний	-8.13933
▁болохоор	-8.14328
▁цэргийн	-8.14442
▁орчин	-8.14787
▁эсвэл	-8.14979
▁тусгай	-8.15402
▁30	-8.15934
▁ер	-8.16003
▁салбарын	-8.16351
▁ххк	-8.16542
▁оху	-8.17354
▁болохгүй	-8.17356
▁газарт	-8.17398
▁сонин	-8.17799
▁дуу	-8.17801
▁долоо	-8.17902
▁компанийн	-8.18166
▁өмнөх	-8.18215
▁хүү	-8.18593
▁хэлсэн	-8.18658
▁бүс	-8.19083
▁секундэд	-8.19143
▁төслийн	-8.19411
▁хүчин	-8.19654
▁санхүүгийн	-8.197
▁хэвлэл	-8.19735
▁салхи	-8.19897
▁байжээ	-8.20038
▁14	-8.20271
▁хурал	-8.20712
▁чи	-8.20724
▁үгүй	-8.20784
▁нарийн	-8.20795
даг	-8.20909
▁100	-8.20975
▁сангийн	-8.21116
▁ус	-8.21224
▁чадахгүй	-8.21457
м	-8.21508
▁харж	-8.21822
▁санаа	-8.22047
ууд	-8.22154
▁баярлалаа	-8.22999
▁минут	-8.23054
▁эд	-8.23101
▁агаарын	-8.23356
▁ээ	-8.23404
▁з	-8.23679
▁ерөнхийлөгчийн	-8.23735
▁хэрэгжүүлэх	-8.23813
▁тэгээд	-8.2413
▁гаргах	-8.243
▁баяр	-8.24349
▁о	-8.24437
▁аварга	-8.24575
▁түүнчлэн	-8.24704
▁яагаад	-8.24723
оо	-8.24727
▁гишүүд	-8.2475
▁байгуулсан	-8.24975
▁болгон	-8.24989
▁мал	-8.25034
▁оролцож	-8.25511
▁цагийн	-8.25772
▁эсрэг	-8.25814
▁эдгээр	-8.25819
▁байгаад	-8.26204
▁настай	-8.27008
▁хүрч	-8.27155
▁он	-8.27318
▁13	-8.27324
▁цаашид	-8.27484
▁шууд	-8.27518
▁үүний	-8.277
s	-8.27792
▁албаны	-8.27992
▁эмэгтэй	-8.28161
▁боловч	-8.28191
;	-8.2826
▁хэл	-8.28406
▁16	-8.28678
▁болгож	-8.29172
▁мэдээллийг	-8.29178
на	-8.29527
▁хүч	-8.29698
▁эрчим	-8.29793
▁үүнээс	-8.29928
▁нэмэлт	-8.30445
▁явдал	-8.30578
▁хоногийн	-8.30626
▁энд	-8.30691
▁у	-8.30695
▁ярьж	-8.31161
▁насны	-8.3129
▁ш	-8.31466
▁захирал	-8.31621
▁хэд	-8.31743
▁хооронд	-8.31857
▁намайг	-8.31876
▁оруулж	-8.31919
▁төрлийн	-8.32342
▁ашиг	-8.32636
▁хотод	-8.32683
монгол	-8.32686
▁нийгэм	-8.32687
▁хувийг	-8.327
▁барьж	-8.32816
▁шаардлага	-8.33068
▁баримт	-8.33215
▁орсон	-8.33263
▁салбарт	-8.33289
▁төвийн	-8.33291
▁төмөр	-8.3343
▁гэрээ	-8.33451
▁эмч	-8.33529
▁шинээр	-8.33693
▁холбооны	-8.33963
▁бүгд	-8.33971
▁тухайлбал	-8.34491
▁хувиар	-8.34548
▁цахим	-8.34835
▁жилд	-8.34871
▁ганц	-8.35011
▁оноос	-8.3506
▁хугацаа	-8.35122
▁байгаль	-8.35156
оос	-8.35201
▁чиглэлээр	-8.35324
▁п	-8.35541
▁биз	-8.35761
▁нөгөө	-8.35795
▁олж	-8.35981
▁баг	-8.36048
▁хүйтэн	-8.3608
▁www	-8.36125
▁салбар	-8.36506
▁бодож	-8.36551
▁гарах	-8.36635
▁ингэж	-8.36806
▁хангах	-8.36907
▁үл	-8.37
▁хяналт	-8.3711
▁алба	-8.37176
▁гал	-8.37224
оор	-8.37368
▁хойд	-8.37598
▁ардчилсан	-8.37604
▁холбоо	-8.37611
▁17	-8.37621
▁мэдээллээ	-8.37875
▁авто	-8.37956
▁ил	-8.38005
▁худалдан	-8.3806
ш	-8.38298
ц	-8.38334
▁сайдын	-8.38356
▁үзсэн	-8.38439
▁бодлогын	-8.38524
▁аймаг	-8.39038
▁зураг	-8.39041
▁банкны	-8.39087
и	-8.39117
▁тавьж	-8.39152
▁томоохон	-8.39465
▁банк	-8.39478
▁шүүх	-8.39579
▁удаагийн	-8.39581
▁зорилгоор	-8.39848
▁сан	-8.39925
▁ажээ	-8.40066
▁түр	-8.40771
▁18	-8.4087
▁хаан	-8.40912
▁явсан	-8.41115
▁яаж	-8.41316
▁хүнийг	-8.41371
▁дэмжих	-8.41456
▁бичсэн	-8.41516
▁хөтөлбөр	-8.42017
▁болдог	-8.42065
▁хүлээж	-8.42256
з	-8.42551
▁бнхау	-8.42762
▁50	-8.42851
▁таалагдаж	-8.42932
▁хөдөө	-8.42989
▁бичиг	-8.43006
▁үйлдвэрийн	-8.43391
▁урьдчилан	-8.43449
▁ингээд	-8.44239
▁үнэн	-8.44321
▁хяналтын	-8.44371
▁нийтэлсэн	-8.44501
▁явах	-8.44516
...	-8.44618
▁барих	-8.44652
уул	-8.44833
▁надад	-8.44913
▁эцэг	-8.45003
▁дэх	-8.45052
▁соёл	-8.45102
▁толгой	-8.45515
▁яам	-8.45594
▁цахилгаан	-8.45898
наас	-8.46168
▁дүн	-8.46188
▁р	-8.46342
▁асуудлаар	-8.46404
▁явуулж	-8.46538
▁тэргүүн	-8.46556
▁өглөө	-8.46597
▁хэсгээр	-8.46725
▁шилдэг	-8.46878
▁ийнхүү	-8.46899
▁үйлчилгээний	-8.47103
▁үйлчилгээ	-8.47104
▁амь	-8.47662
▁хүмүүсийн	-8.47668
▁дор	-8.48012
▁хэлэлцэх	-8.48102
▁харилцаа	-8.48271
хан	-8.48295
аад	-8.48362
▁боловсролын	-8.48714
▁ач	-8.48816
▁алга	-8.48824
▁гэлээ	-8.4888
▁бичгийн	-8.48977
▁өчигдөр	-8.49201
хаа	-8.49208
▁аймгуудын	-8.49293
▁рүү	-8.49445
▁монголд	-8.49476
бат	-8.49532
▁өөрийгөө	-8.49692
▁эр	-8.49897
▁иргэний	-8.50316
▁улам	-8.50323
▁хэлбэл	-8.50507
▁эхлээд	-8.50661
▁хятадын	-8.51257
▁гэв	-8.51425
▁тэгэхээр	-8.51554
▁тогтвортой	-8.51641
▁үйлдвэр	-8.51775
▁хөгжүүлэх	-8.51877
▁буруу	-8.51958
▁сэргийлэх	-8.52056
▁цагаас	-8.52282
▁аваад	-8.52304
ид	-8.52355
▁бүрийн	-8.52877
▁гэвэл	-8.53323
▁өөрөөр	-8.53414
▁олгох	-8.53515
▁оронд	-8.53596
би	-8.53827
▁голын	-8.53972
▁25	-8.54173
▁оролцсон	-8.54274
▁хоол	-8.54316
б	-8.54428
▁гарын	-8.54774
▁хуулийг	-8.5507
▁үзэл	-8.55108
▁багийн	-8.55275
▁шинжлэх	-8.55339
▁кг	-8.55454
▁цас	-8.55715
▁шүүхийн	-8.55734
▁амжилттай	-8.55738
▁иргэдэд	-8.55806
▁хэрэгжүүлж	-8.55853
эрдэнэ	-8.55958
о	-8.55976
▁тохиолдолд	-8.56092
▁барилга	-8.56454
▁зүгээс	-8.5665
▁худалдаа	-8.56673
▁орох	-8.56712
▁уурхайн	-8.56755
▁хуралдаанаар	-8.5694
▁өдрүүдэд	-8.57047
▁үнэхээр	-8.57507
▁бэлэн	-8.57523
▁барилгын	-8.57566
▁улмаас	-8.57674
▁өнөөдрийн	-8.57714
▁түүнээс	-8.57829
▁хэсгийн	-8.58051
▁боловсрол	-8.58061
▁дэлхий	-8.58238
▁монголчууд	-8.58404
▁нэмэгдүүлэх	-8.58437
▁нутагт	-8.58616
▁эрүүгийн	-8.58773
▁гүйцэтгэх	-8.58909
сэн	-8.58937
▁21	-8.58954
▁хэзээ	-8.58957
▁төгрөгөөр	-8.5902
▁бууруулах	-8.59274
▁сонгуульд	-8.59324
▁урт	-8.59331
▁авна	-8.59342
▁зүй	-8.5938
▁кино	-8.59559
▁хуралдаан	-8.59645
▁улаан	-8.59692
▁нэгж	-8.59697
▁хэрэв	-8.59824
гүйгээр	-8.59907
▁ардын	-8.5996
▁аялал	-8.60014
▁хан	-8.60045
▁бүтээгдэхүүн	-8.60219
▁бүхэн	-8.60635
▁ихэнх	-8.60694
▁ухааны	-8.60698
▁байгууллагууд	-8.60843
▁эзэн	-8.61007
▁тун	-8.61031
▁охин	-8.61046
▁хөдөлмөрийн	-8.61243
▁спортын	-8.61313
▁шатны	-8.61324
▁өмнөд	-8.61325
▁дээрээ	-8.61331
од	-8.61362
▁үзүүлэх	-8.61474
▁ажлаа	-8.61548
▁бизнес	-8.61632
▁ээж	-8.62211
▁эрхийг	-8.62375
▁нэгдүгээр	-8.62534
▁магадгүй	-8.62645
лан	-8.62713
▁татварын	-8.62862
▁бидэнд	-8.63011
▁хэргийг	-8.63683
▁жижиг	-8.63712
▁эхлэн	-8.64684
▁холбогдуулан	-8.65011
▁тавьсан	-8.65012
▁худалдааны	-8.6503
▁зүйлийг	-8.65343
▁чуулганы	-8.65418
үүд	-8.65825
▁хятад	-8.6583
▁сум	-8.66254
▁аав	-8.66424
▁бараг	-8.66508
▁түмэн	-8.66531
▁гэдгээ	-8.66593
▁хүнсний	-8.66758
▁оролцох	-8.66837
▁азийн	-8.6695
▁амжилт	-8.6715
▁талын	-8.6716
▁түүнд	-8.67189
▁судалгаа	-8.67204
лаа	-8.67315
▁татвар	-8.67721
▁тонн	-8.67898
▁зөвлөлийн	-8.67933
▁нийслэл	-8.68002
▁тэмцэх	-8.68007
▁үүнд	-8.68029
▁бололтой	-8.68038
▁40	-8.68408
▁24	-8.68517
▁тавих	-8.68917
▁км	-8.68986
▁бөхийн	-8.69112
▁яамны	-8.69188
▁зөрчсөн	-8.69373
▁ажилласан	-8.69383
▁бүлгийн	-8.69486
▁ухаан	-8.69562
▁эмнэлгийн	-8.69583
▁хийгээрэй	-8.69686
▁заасан	-8.69896
▁жишээ	-8.70115
▁тамгын	-8.70391
гаа	-8.7078
▁хөгжил	-8.70936
▁хэмээх	-8.7106
▁ял	-8.71345
▁эрхтэй	-8.71393
▁ногоон	-8.71705
▁амьдрал	-8.71867
▁болохыг	-8.71883
▁дэмжиж	-8.71937
▁харилцах	-8.71939
▁the	-8.72008
▁ном	-8.7216
vv	-8.72319
▁боломжгүй	-8.72344
▁зургаан	-8.72608
▁мэнд	-8.72931
▁улмаар	-8.73205
▁байхыг	-8.73263
▁шар	-8.73292
▁хэрэгт	-8.73588
▁япон	-8.73618
▁ёсны	-8.73845
▁сайжруулах	-8.7394
▁илгээх	-8.74028
▁хүрсэн	-8.74204
▁бодит	-8.7423
▁мөнгөн	-8.743
▁ах	-8.74339
▁19	-8.74409
▁усны	-8.7448
▁дотоод	-8.74494
▁бороо	-8.7452
▁төрсөн	-8.74881
▁одоогийн	-8.74911
▁ажиллагаанд	-8.7497
▁хийгээд	-8.7509
▁байгаагаа	-8.75131
энхболд	-8.7516
▁уулзалт	-8.75238
▁ахуй	-8.75418
▁алтан	-8.75732
▁шалтгаан	-8.75983
▁суурь	-8.75996
▁хийдэг	-8.76152
▁яах	-8.7617
▁адил	-8.762
▁ээлжит	-8.7622
жээ	-8.76287
▁машин	-8.76518
▁хөл	-8.76675
▁аливаа	-8.7671
▁замаар	-8.76773
▁аргагүй	-8.76789
▁удирдах	-8.76795
▁дэмжлэг	-8.76802
▁гадаадын	-8.76924
▁хоног	-8.76997
▁өмнөөс	-8.77262
▁хэт	-8.77352
▁яваа	-8.77422
▁1-	-8.77432
▁ангийн	-8.77557
▁газрыг	-8.77998
▁хэр	-8.78088
▁мэдэх	-8.78099
чин	-8.78185
▁бүтээн	-8.78227
▁гэрэл	-8.78328
▁байдалд	-8.78413
эн	-8.78439
▁60	-8.78452
▁эм	-8.78611
▁хоёрдугаар	-8.7863
▁хүчтэй	-8.78631
▁яриа	-8.78665
▁нээлттэй	-8.78736
▁нийтэд	-8.78739
▁амьдарч	-8.78918
▁соёлын	-8.79015
▁найз	-8.79057
▁мэдээж	-8.79116
▁өвчин	-8.79267
▁бүлэг	-8.79451
▁ирээд	-8.79497
▁мянга	-8.79585
▁уур	-8.79653
▁хүргэж	-8.79766
▁баян	-8.79784
▁тодруулбал	-8.79829
▁сөрөг	-8.79958
▁тусламж	-8.80163
▁орохгүй	-8.80251
▁шударга	-8.80308
▁тамирчин	-8.80363
▁сууж	-8.80448
▁хүүхдүүд	-8.80575
▁танхимд	-8.80752
▁бэлтгэл	-8.80785
▁оросын	-8.80828
▁орлого	-8.80832
▁орно	-8.80898
▁талаас	-8.80996
▁төвд	-8.81072
өө	-8.81166
▁хөдөлмөр	-8.81206
й	-8.81334
▁хүртэлх	-8.81345
▁ёсоор	-8.81447
▁в	-8.81623
▁очиж	-8.81661
▁сайт	-8.81967
▁захиргааны	-8.82317
▁наадмын	-8.82536
▁айл	-8.8262
▁үлдсэн	-8.82876
▁саналыг	-8.83047
▁элчин	-8.83049
▁байгуулалтын	-8.83138
▁түмний	-8.83315
▁дээш	-8.83506
▁даатгалын	-8.83518
▁бүлийн	-8.83561
▁сургалт	-8.83574
▁оруулалт	-8.8358
▁аа	-8.83679
▁авдаг	-8.83716
▁одоогоор	-8.84196
гаар	-8.84301
▁хийнэ	-8.84489
▁эргэн	-8.84651
▁сүхбаатар	-8.8504
▁үсэг	-8.85098
▁газраар	-8.85178
▁гурав	-8.85313
▁ашиглах	-8.85327
▁хатуу	-8.85445
▁тэнд	-8.85546
▁дүнд	-8.85604
▁2013	-8.85914
▁түүх	-8.85917
▁шалгаж	-8.86123
▁хэдий	-8.86152
▁хэсэгт	-8.86182
▁ажилд	-8.86509
▁эсэх	-8.8659
▁харилцан	-8.86646
▁журмын	-8.86841
▁га	-8.86851
▁хэлэх	-8.86892
▁цэвэр	-8.87335
▁шийдвэрлэх	-8.87363
▁мах	-8.87466
1	-8.87537
▁бараа	-8.87652
▁огт	-8.8768
▁нарыг	-8.87723
өөр	-8.87995
▁турш	-8.88136
▁чөлөөт	-8.88141
▁ажилладаг	-8.88175
долларын	-8.88576
▁2012	-8.8864
▁хандаж	-8.88652
энэ	-8.88652
▁дүүрэг	-8.88681
▁хэрвээ	-8.88688
▁мэдүүлсэн	-8.88697
▁хоногт	-8.88748
ах	-8.8877
▁хол	-8.88798
▁бай	-8.88899
▁батлан	-8.88949
▁асан	-8.89028
▁мэдэхгүй	-8.8908
уудыг	-8.89112
▁ойр	-8.89124
▁аймагт	-8.89159
▁тод	-8.89346
▁талбайд	-8.89724
▁урлагийн	-8.898
▁ар	-8.90078
▁болгосон	-8.90194
▁хөрөнгийн	-8.90206
▁шуурхай	-8.90234
▁тэмцээнд	-8.90286
2	-8.90315
▁гишүүдийн	-8.90368
▁бүтээл	-8.90414
▁ой	-8.90432
▁байсныг	-8.90666
▁боловсруулах	-8.91066
▁зүйлийн	-8.91343
▁давхар	-8.91392
▁нүб	-8.91556
▁чиг	-8.91588
▁гомдол	-8.91597
▁арван	-8.91685
▁эрхийн	-8.91845
▁японы	-8.91861
▁зорилго	-8.91895
▁гэдэгт	-8.91908
▁22	-8.92163
▁дүгнэлт	-8.92239
ав	-8.92362
▁халуун	-8.92404
▁утас	-8.92408
▁боломжийг	-8.92516
их	-8.92533
▁нийттэй	-8.9261
▁70	-8.92842
▁хайр	-8.92854
▁тогтоолын	-8.92865
▁нэлээд	-8.92906
▁хүлээхгүй	-8.92952
▁хөтөлбөрийн	-8.92954
▁технологийн	-8.9301
://	-8.9314
▁сонирхолтой	-8.93177
▁долоон	-8.93298
▁тэмцээн	-8.9342
▁эрхэм	-8.93444
▁хариу	-8.93473
▁байгалийн	-8.93475
▁нууц	-8.93526
▁анхаарал	-8.93572
▁дараагийн	-8.93596
э	-8.93718
▁ингэснээр	-8.93802
▁гуравдугаар	-8.9389
▁баталсан	-8.94084
лах	-8.9425
▁сургалтын	-8.9454
▁заавал	-8.94727
▁хоорондын	-8.94727
▁зан	-8.9474
▁талаарх	-8.94747
▁явуулах	-8.95302
▁эцсийн	-8.9533
▁хэцүү	-8.95454
▁жүжигчин	-8.95471
ин	-8.95472
▁байнга	-8.95606
▁олны	-8.95682
▁чанар	-8.95791
▁оруулсан	-8.95826
▁дараах	-8.95837
▁дотоодын	-8.95959
▁хэллээ	-8.95992
▁:	-8.96017
▁цалин	-8.96155
▁нөөц	-8.96165
▁амьдралын	-8.96638
▁бичихдээ	-8.9672
▁хурдан	-8.96834
▁ялангуяа	-8.96923
▁сууцны	-8.97113
ь	-8.97244
▁явдаг	-8.97322
▁алдсан	-8.97373
▁өөртөө	-8.97389
▁27	-8.97424
▁ноён	-8.97466
▁талд	-8.97478
▁зүгээр	-8.97554
▁хэвлэлийн	-8.97675
▁биеийн	-8.97697
▁түгээх	-8.9774
▁амьдрах	-8.97752
▁бүү	-8.97789
▁бөх	-8.97819
▁утсаар	-8.97865
хэн	-8.97902
▁байхдаа	-8.98064
▁болзошгүй	-8.98231
▁ур	-8.98442
▁махн	-8.98507
▁батлах	-8.98542
▁төрөл	-8.98545
▁түвшинд	-8.98619
▁харилцааны	-8.98636
▁нарт	-8.98704
▁сэтгэгдэлд	-8.98822
▁зүйтэй	-8.98871
▁хүссэн	-8.98873
▁мод	-8.98953
▁v	-8.99177
▁бүл	-8.99209
дэг	-8.99327
▁спорт	-8.99407
▁өөрийнхөө	-8.99548
▁хангалттай	-8.99756
▁бүсгүй	-8.99785
▁техник	-8.99842
▁хур	-9.00006
▁шинж	-9.00069
▁оршин	-9.00099
▁европын	-9.00222
сон	-9.00297
▁сургуульд	-9.00313
▁нүүр	-9.0033
▁эхлэх	-9.0037
▁зориулсан	-9.00389
доллар	-9.00442
▁байгууллагад	-9.00555
▁баянзүрх	-9.00681
▁маргааш	-9.00685
▁хааны	-9.00712
▁хуудас	-9.00787
▁23	-9.00829
▁орчны	-9.00962
▁оруулалтын	-9.00991
▁хүнс	-9.00997
▁орос	-9.01088
▁найман	-9.01093
5	-9.01167
▁тань	-9.01171
▁дархан	-9.01197
▁ажилтан	-9.01458
▁тоглолт	-9.01831
▁хэлэлцэж	-9.01913
▁үзэх	-9.0193
▁зээлд	-9.01977
▁дуртай	-9.01989
я	-9.02031
d	-9.02034
▁медаль	-9.02061
▁үедээ	-9.02225
▁төдийгүй	-9.02237
хээ	-9.02472
▁судалгааны	-9.02581
▁тогтоох	-9.02664
▁ойн	-9.02786
▁хэлтсийн	-9.02891
эх	-9.02952
▁амиа	-9.02989
▁хэрэггүй	-9.03165
▁эрэгтэй	-9.03208
▁удаан	-9.03375
гээр	-9.03446
▁байгаагүй	-9.03512
▁наадам	-9.03571
▁итгэл	-9.03834
▁тэднийг	-9.03889
▁хэрэгсэл	-9.03962
нээс	-9.03985
▁аз	-9.03995
▁үйлчилгээг	-9.04071
▁хугацааны	-9.04717
▁өр	-9.05031
▁хотноо	-9.05237
▁агентлаг	-9.0525
▁чадвар	-9.05304
▁төлөөлөгч	-9.05364
▁зөрчил	-9.05373
▁гудамж	-9.05439
▁хуулиар	-9.0554
▁тав	-9.05631
▁бүтэн	-9.05665
▁үнэтэй	-9.05692
0	-9.05696
▁цэрэг	-9.05708
▁өөрсдийн	-9.05926
▁өгнө	-9.05927
▁хөх	-9.05976
▁шалгалт	-9.06102
он	-9.06109
▁байранд	-9.06226
▁уулзалтын	-9.06277
▁хөтөлбөрийг	-9.06303
▁дүү	-9.06348
▁чадсан	-9.06362
▁сав	-9.06422
▁оюутан	-9.0643
▁уншигчдын	-9.06488
▁чадах	-9.06497
▁хорих	-9.0653
▁хэлэлцүүлэг	-9.06597
▁мэдэж	-9.06618
▁нэн	-9.06858
3	-9.06913
▁дамжуулан	-9.06954
▁залуучуудын	-9.0702
ал	-9.07117
▁ашигтай	-9.07179
▁төсөв	-9.0723
▁чингис	-9.07281
вал	-9.0729
▁өнөөгийн	-9.07323
▁үзүүлж	-9.07325
▁иймд	-9.07408
▁http	-9.07503
▁хаана	-9.07515
▁хор	-9.07544
▁устгах	-9.07628
▁дүр	-9.07654
▁хагас	-9.07849
▁чиглэлийн	-9.0789
өөс	-9.07913
▁бүтээгдэхүүний	-9.07945
▁үнэт	-9.07998
▁цэцэрлэг	-9.08546
▁хил	-9.08585
▁хариуцсан	-9.0869
▁мөнгийг	-9.0911
▁хувцас	-9.09187
▁харах	-9.09246
▁тохиолдол	-9.09249
▁удирдлагын	-9.09272
гээ	-9.09382
▁нөлөө	-9.09399
▁эл	-9.09506
▁иргэдийг	-9.09788
▁жолооч	-9.09803
▁дуучин	-9.10045
▁гэжээ	-9.10096
доо	-9.10299
▁эргэж	-9.10368
▁төлбөр	-9.10476
▁уулзаж	-9.10484
▁бүхнийг	-9.1052
▁ашиглаж	-9.10542
▁хийлээ	-9.10543
▁зуун	-9.10567
▁өөрсдөө	-9.10661
▁шийдвэрийг	-9.10742
ар	-9.10765
аараа	-9.10831
▁за	-9.10843
▁дэлгэрэнгүй	-9.10922
▁үйлдэл	-9.10937
▁номын	-9.1098
▁атг	-9.11041
та	-9.11212
▁мөнгөний	-9.11235
▁эв	-9.11371
▁амын	-9.11444
▁сонгууль	-9.11468
▁олимпийн	-9.11479
▁шинжилгээний	-9.1151
▁таныг	-9.1156
▁улсаас	-9.11605
▁алт	-9.11672
▁өссөн	-9.11696
▁саналаа	-9.11862
▁асуудалд	-9.11884
▁ойлгож	-9.11899
▁барьсан	-9.12186
▁нөхөн	-9.1219
▁хүмүүсийг	-9.12331
▁тос	-9.12535
▁энгийн	-9.12554
▁бат	-9.12773
▁бусдын	-9.12887
▁эхэлж	-9.13052
▁өнгө	-9.13056
▁гэхээр	-9.13222
▁хуучин	-9.13233
▁суух	-9.13308
▁хөвсгөл	-9.13367
▁зочид	-9.13389
▁хуралд	-9.13694
▁хамтарсан	-9.13732
▁хүмүүст	-9.1386
▁ихээхэн	-9.14031
▁хүрэл	-9.1404
▁бнсу	-9.14265
▁дэлхийд	-9.14306
▁эхэллээ	-9.14314
▁морь	-9.14406
▁урд	-9.14447
▁of	-9.14557
www	-9.14714
▁шигшээ	-9.14758
▁жинхэнэ	-9.14988
▁жуулчлалын	-9.1501
▁нэмэгдэж	-9.15205
▁учиртай	-9.15222
▁солонгосын	-9.15233
▁хорооллын	-9.15241
▁татаж	-9.15326
▁мэдлэг	-9.15346
▁хүсэл	-9.15417
▁цагдаа	-9.15444
▁үйлдвэрлэл	-9.15455
▁бизнесийн	-9.15503
е	-9.15558
к	-9.15607
▁хэлтсээс	-9.15712
▁ажиллана	-9.15713
▁ярих	-9.15824
▁орлогч	-9.15931
▁харамсалтай	-9.15938
▁орой	-9.16032
▁шагнал	-9.16395
▁янз	-9.16508
▁26	-9.16533
▁28	-9.16583
▁хий	-9.16583
▁анги	-9.16729
▁залуус	-9.16751
▁зохицуулах	-9.16765
▁эмнэлэг	-9.16786
▁80	-9.16788
нэ	-9.16808
▁эцэст	-9.16822
▁бичих	-9.16833
▁хойноос	-9.16866
▁мэднэ	-9.16899
▁даваа	-9.17188
▁гарагт	-9.17207
▁талбай	-9.17243
com	-9.17393
▁тоног	-9.17443
▁тавдугаар	-9.17499
▁говийн	-9.17642
▁нэмж	-9.17658
▁ахмад	-9.17672
▁үздэг	-9.17748
▁бүрт	-9.17832
▁чадна	-9.18
▁нүүрс	-9.1811
▁нэртэй	-9.1814
▁эс	-9.18165
▁явна	-9.18223
▁и	-9.18295
гаас	-9.18305
▁удирдлагууд	-9.18517
▁биеэ	-9.18523
ил	-9.1859
▁зөвлөх	-9.18615
▁200	-9.18782
▁саяхан	-9.18984
▁гараад	-9.19126
▁төсөвт	-9.19132
▁шалгаруулах	-9.19291
▁бодол	-9.19301
▁хороонд	-9.19303
▁даргаар	-9.19349
▁ази	-9.19436
▁журам	-9.19505
▁эрдэм	-9.19522
▁хэрэглэх	-9.19537
▁татах	-9.19641
▁элдэв	-9.19732
▁малын	-9.19835
▁бүсийн	-9.19863
▁5-10	-9.20161
▁асар	-9.20174
▁нүүрсний	-9.20177
▁төсөлд	-9.20366
▁суугаа	-9.20415
▁арай	-9.20445
▁тайван	-9.20467
▁байхаар	-9.20569
▁09	-9.20702
▁зөвлөл	-9.20818
▁хэлэхэд	-9.20942
▁хараад	-9.20972
лэн	-9.21289
▁хийхэд	-9.2132
▁зорилготой	-9.21349
▁хөдөлгөөний	-9.21405
▁замыг	-9.21433
▁удирдлага	-9.21441
▁өгдөг	-9.21503
▁ашгийг	-9.21565
▁таатай	-9.21588
▁харахад	-9.21591
▁анхаарч	-9.21599
▁хуралдаанд	-9.21882
▁туслах	-9.22127
▁компаниуд	-9.2226
▁ширхэг	-9.22336
▁мөрдөн	-9.22414
▁хангаж	-9.22486
▁тэмдэг	-9.22557
▁давуу	-9.22679
▁нөхөр	-9.22834
чид	-9.22866
▁өдрийг	-9.22999
▁үүднээс	-9.2306
▁хилийн	-9.23083
▁мэдэгдсэн	-9.23336
▁орчинд	-9.23434
▁төлөөлөл	-9.23446
▁боддог	-9.23467
▁асуулт	-9.23546
▁сууц	-9.23609
ээд	-9.23717
▁хүсч	-9.23793
▁эерэг	-9.23825
чих	-9.23825
▁бэлтгэх	-9.23969
▁ханш	-9.24121
лж	-9.24185
▁тэмцээний	-9.2444
▁хүрэх	-9.24475
▁говь	-9.24624
▁орнуудын	-9.24651
▁эрс	-9.24701
▁тусгаар	-9.24765
▁богино	-9.24942
▁эхнэр	-9.24946
▁баярын	-9.25009
монголын	-9.2518
▁өдрөөс	-9.25181
▁хог	-9.25265
▁архи	-9.25296
▁шуурга	-9.25314
▁дөрөвдүгээр	-9.25537
▁шөнө	-9.25664
▁байгуулагдсан	-9.25675
▁төлөвлөж	-9.2588
▁жилүүдэд	-9.25923
▁яваад	-9.25983
▁эмэгтэйчүүдийн	-9.26
▁зардал	-9.26041
▁бурхан	-9.26049
▁үргэлж	-9.26098
▁хэлээд	-9.26205
▁амьд	-9.26244
▁нүд	-9.2631
▁хамтарч	-9.26362
▁админ	-9.26524
▁бүрдүүлэх	-9.26525
▁түүхий	-9.26534
▁тогтоосон	-9.26559
▁гэртээ	-9.26589
▁суманд	-9.26608
▁нохой	-9.26678
▁жиргэх	-9.26685
▁баялаг	-9.26703
▁сул	-9.26811
▁байгууллагаас	-9.2689
▁10-	-9.27057
▁ахлах	-9.27063
▁гавьяат	-9.2715
▁чадаагүй	-9.2727
▁гардаг	-9.2734
▁удахгүй	-9.27438
▁ашиглалтад	-9.27517
▁урьдчилсан	-9.27648
▁технологи	-9.27651
уудын	-9.27655
▁бүтэц	-9.27774
баттулга	-9.27972
▁чиглэл	-9.28062
лаад	-9.28157
▁нэрийг	-9.28179
ган	-9.28188
▁нисэх	-9.28205
▁хэвээр	-9.28331
▁ирлээ	-9.2852
▁хаа	-9.28527
▁зөвшөөрөл	-9.28543
▁зүрх	-9.28552
▁өнөө	-9.28598
▁валютын	-9.28701
▁алдаа	-9.28719
▁анхааруулга	-9.28769
▁хөтөлбөрт	-9.28819
▁бэрхшээлтэй	-9.28985
▁дэвшигч	-9.29002
▁ярьсан	-9.29002
▁шийдэх	-9.29266
▁ороод	-9.29357
▁зургийг	-9.29373
▁тайлбар	-9.29439
▁хүүхдийг	-9.29503
▁хичээл	-9.29674
▁байгуулалт	-9.29814
▁сонгон	-9.2984
▁6-11	-9.2995
▁өрхийн	-9.30015
▁гүн	-9.3005
▁хүргэх	-9.30118
тайгаа	-9.30199
▁идэвхтэй	-9.30255
▁парламентын	-9.30257
▁америкийн	-9.30391
▁итх	-9.30508
▁туршлага	-9.30588
▁бусаар	-9.30722
▁уулархаг	-9.30759
▁90	-9.30773
▁холбогдолтой	-9.30876
▁төлөх	-9.30916
▁осол	-9.31213
но	-9.31546
▁ө	-9.31612
▁нийгэмд	-9.31635
▁эрхлэх	-9.31767
▁өмчийн	-9.3179
▁солонгос	-9.31807
▁далайн	-9.31851
e	-9.32029
▁түүхэн	-9.32097
▁байгууллагуудын	-9.3212
▁олгож	-9.32135
▁онцлог	-9.3215
05	-9.32228
▁уулын	-9.32551
▁оноо	-9.32641
▁суртахууны	-9.3267
▁ор	-9.32706
▁дуудлага	-9.32791
▁лам	-9.32918
▁чиглэлд	-9.3297
▁яаралтай	-9.32978
a	-9.3309
▁алхам	-9.33098
▁уурхай	-9.3311
▁шүүхэд	-9.33111
▁500	-9.33118
▁амьдралд	-9.33153
▁хэсгийг	-9.3324
▁тушаал	-9.33375
▁агаар	-9.33489
▁техникийн	-9.33785
▁сэтгэлийн	-9.33796
▁усан	-9.33943
▁чанартай	-9.3398
▁онц	-9.34031
▁хэрэглэж	-9.34047
▁сурталчилгаа	-9.34052
▁дүнг	-9.34124
чи	-9.34348
▁1.	-9.34405
▁есдүгээр	-9.3441
үүл	-9.34526
▁дүүрэгт	-9.34546
саар	-9.34547
▁гоо	-9.34598
▁ойрын	-9.3475
▁үс	-9.34781
▁хэвийн	-9.34986
▁хэрэгжиж	-9.3507
▁зэрэгцээ	-9.35134
▁тэдэнд	-9.3525
▁гарган	-9.35326
▁байрны	-9.35347
▁дүнтэй	-9.35581
▁шат	-9.35653
▁шалгах	-9.3568
▁ажиллагаагаа	-9.35718
лэх	-9.35728
▁хийхээр	-9.35809
▁төрөөс	-9.35903
▁бэлэг	-9.35933
o	-9.35935
▁амьтан	-9.36046
▁даяар	-9.36052
▁найрамдах	-9.36103
▁ашигт	-9.36155
▁танай	-9.36179
▁олсон	-9.36195
▁здтг	-9.36286
▁ирнэ	-9.36335
▁facebook	-9.36418
▁өдөрт	-9.36421
▁орчмоор	-9.36465
▁оюун	-9.36495
▁урлаг	-9.36536
▁нөхцөлд	-9.36585
▁эсэхийг	-9.36739
▁худалдаж	-9.36774
▁хэмжээгээр	-9.36788
000	-9.36997
▁захирагч	-9.37145
▁чаддаг	-9.37179
09	-9.37203
▁загвар	-9.3724
▁сэлэнгэ	-9.37248
▁хүүхдээ	-9.37274
▁орлогын	-9.37292
▁тэгш	-9.373
▁мэргэжилтнүүд	-9.37317
▁жилдээ	-9.37347
▁зэргийг	-9.3744
▁заалт	-9.37471
▁тусгасан	-9.37492
▁айлын	-9.37495
▁үгийг	-9.37501
▁төгрөгийг	-9.37506
▁үзэсгэлэн	-9.37678
▁ихтэй	-9.37784
▁өвчний	-9.37795
▁хайртай	-9.37811
▁зэвсэгт	-9.37831
▁хөнгөн	-9.37963
▁зөвлөгөө	-9.38035
▁байдалтай	-9.381
▁анхаарах	-9.38179
▁амар	-9.38211
▁ярьдаг	-9.38249
▁бар	-9.38311
▁к	-9.38321
▁үүлшинэ	-9.38334
▁хөгжмийн	-9.38753
ээрээ	-9.38844
▁хатан	-9.38889
аасаа	-9.38918
▁утга	-9.38968
▁2-	-9.39104
у	-9.39274
▁засагт	-9.39372
▁систем	-9.39392
лээ	-9.39415
▁ганцхан	-9.39444
▁бичиж	-9.39567
▁1000	-9.39693
▁цэцэрлэгийн	-9.39707
▁явцад	-9.39724
▁гэнэт	-9.39746
▁a	-9.39783
▁нэмэгдсэн	-9.39807
засгийн	-9.39817
▁илэрхийлж	-9.39818
▁баянгол	-9.40011
▁үүссэн	-9.40054
▁хөдөлгөөн	-9.40087
▁зуур	-9.40088
анд	-9.40207
▁наймдугаар	-9.40465
▁олох	-9.40467
▁сараас	-9.40481
п	-9.40658
▁хэв	-9.40661
▁хэдийгээр	-9.40772
▁харсан	-9.40838
▁амралтын	-9.40879
▁тогтмол	-9.40909
▁хаагч	-9.40911
▁увс	-9.4096
▁мэддэг	-9.4099
▁тогтоол	-9.41128
▁есөн	-9.41157
▁биднийг	-9.41169
▁дүүрэн	-9.41314
▁эрт	-9.41329
▁мөрийн	-9.41454
▁дээрээс	-9.41493
▁төхөөрөмж	-9.41622
▁20-	-9.41651
▁тухайд	-9.41863
▁холбоотойгоор	-9.42159
▁mongolian	-9.42187
▁хувьтай	-9.42398
▁жаахан	-9.42415
▁15-	-9.42512
▁зайлшгүй	-9.42679
▁үнийн	-9.42686
▁35	-9.4275
энх	-9.4276
▁сэтгүүлч	-9.42817
▁насанд	-9.4284
▁хэвлэх	-9.4289
▁явуулдаг	-9.42939
эл	-9.4305
▁ихээр	-9.43067
▁чуулган	-9.4312
▁хариулт	-9.43316
▁нээж	-9.43341
▁төлөвлөгөө	-9.43401
▁нитх	-9.43489
▁байрлах	-9.43611
▁мэргэжилтэн	-9.43627
▁шугам	-9.43633
▁хүсэлт	-9.43639
▁давж	-9.43642
▁анхан	-9.43664
▁сонгох	-9.43731
▁олгосон	-9.43762
▁бодлогыг	-9.43788
▁төрд	-9.43804
▁2.	-9.43841
▁үнэлгээ	-9.43919
▁хүндэтгэнэ	-9.43939
▁эмнэлэгт	-9.43952
▁боловсруулж	-9.43958
▁өсөлт	-9.43966
▁сүлжээ	-9.44077
▁зэргийн	-9.44354
▁баатар	-9.44377
▁тунадас	-9.44392
▁харагдаж	-9.44409
ер	-9.44455
6	-9.44466
баяр	-9.4447
▁цол	-9.44489
эр	-9.44652
▁батлагдсан	-9.44715
▁тамирчид	-9.44728
жин	-9.44772
▁зохиолч	-9.44791
▁туул	-9.44792
▁шадар	-9.44901
▁хэлбэрээр	-9.44984
▁үүлтэй	-9.45027
▁ангид	-9.45031
▁засвар	-9.45086
▁шинжилгээ	-9.45088
▁аргаар	-9.45092
▁өрх	-9.451
▁явган	-9.45123
ноос	-9.45125
▁share	-9.45173
▁урьд	-9.45263
үүдийг	-9.45322
▁аврах	-9.45485
▁29	-9.45521
▁орхон	-9.45612
▁өрөө	-9.45621
сны	-9.45677
▁үргэлжилж	-9.45681
▁минутад	-9.45713
▁дэвсгэрт	-9.4572
▁я	-9.45776
▁гэрийн	-9.45975
▁сэтгэгдэлтэй	-9.46105
▁наадамд	-9.46129
▁ойлголт	-9.46204
▁үүнтэй	-9.46287
аг	-9.46294
▁сонгогдсон	-9.46306
▁өдгөө	-9.4631
▁хэлтэс	-9.46331
▁хохирол	-9.46338
▁амьдардаг	-9.4636
▁тамхи	-9.46456
▁автомашин	-9.46506
▁өвлийн	-9.46523
▁зохисгүй	-9.46547
▁дэргэд	-9.4659
▁ирдэг	-9.46696
4	-9.46825
▁замд	-9.46921
▁зууны	-9.47005
▁хуваалцах	-9.47011
▁300	-9.47166
▁ид	-9.47331
▁нийтлэсэн	-9.4748
тэйгээ	-9.47605
▁хязгаарласан	-9.4768
▁ашиглан	-9.47685
эрдэнэт	-9.47731
▁хэрэгслийн	-9.47784
дог	-9.47881
▁эрч	-9.47883
▁гишүүний	-9.4791
▁ав	-9.4798
▁дахиад	-9.48004
▁32	-9.4811
▁явуулсан	-9.48137
▁чингэлтэй	-9.48234
▁3-	-9.48287
▁од	-9.48299
▁наяд	-9.48356
▁сонгинохайрхан	-9.48367
8	-9.4837
▁тэгж	-9.48457
▁дорнод	-9.48468
▁доод	-9.48494
▁бүтцийн	-9.48507
▁өөрчлөх	-9.48596
▁зэргээр	-9.48618
даж	-9.48624
▁төлөөлөгчид	-9.48629
▁нэгэнт	-9.48654
▁45	-9.48674
▁бусдад	-9.48687
▁төлбөрийн	-9.48772
▁хаврын	-9.48807
▁өв	-9.48833
▁тооцоо	-9.48934
▁49	-9.49037
▁2011	-9.49069
▁бор	-9.49117
ас	-9.49122
▁хүрээлэн	-9.49196
▁үнэндээ	-9.49217
аж	-9.49245
▁илэрхийлсэн	-9.49321
▁иймээс	-9.49418
▁усанд	-9.49422
▁цааш	-9.49423
эрдэнэбат	-9.49428
ам	-9.49473
▁аюултай	-9.49549
▁түргэн	-9.49598
▁орнууд	-9.49654
▁буурсан	-9.49784
▁ховд	-9.49823
▁бүгдийг	-9.4986
▁итгэлтэй	-9.49863
▁3.	-9.49874
▁08	-9.49977
▁нэмэр	-9.5
▁хараа	-9.50029
7	-9.5007
▁орондоо	-9.50084
▁хамаагүй	-9.50101
▁хичээлийн	-9.50109
▁үүргээ	-9.50132
▁хэлэлцээр	-9.50225
▁үүргийг	-9.50288
▁урсгал	-9.5029
▁дүрэм	-9.50318
▁34	-9.50418
▁яриад	-9.5058
▁хөрөнгийг	-9.50655
▁манайд	-9.50921
▁ордонд	-9.51055
▁хонь	-9.51267
▁хаагчид	-9.51371
▁дотроо	-9.51476
ынхан	-9.5168
▁тоог	-9.5173
▁гараг	-9.51739
▁уншсан	-9.51815
▁киноны	-9.51815
▁гарна	-9.52059
▁чин	-9.52073
▁ердөө	-9.52087
▁доктор	-9.52122
▁цус	-9.52182
▁дундаа	-9.52437
▁эмэгтэйчүүд	-9.52459
▁улсыг	-9.5254
▁ижил	-9.52549
n	-9.52683
▁татан	-9.52701
▁үзвэл	-9.52734
▁үйлдвэрлэлийн	-9.52741
▁хөгжиж	-9.52818
▁national	-9.52826
▁хандах	-9.52947
▁and	-9.52993
▁хангай	-9.53106
▁цагаар	-9.53175
▁өрсөлдөх	-9.53285
▁мэтээр	-9.53298
b	-9.5332
▁шалгалтын	-9.53415
▁үзүүлэлт	-9.53417
▁...	-9.53452
▁хэлэв	-9.53455
улаанбаатар	-9.53461
▁иржээ	-9.53465
▁тэнгэр	-9.53486
x	-9.5368
▁дур	-9.53696
▁баяртай	-9.53708
▁эрдэмтэн	-9.53767
▁айлчлал	-9.53787
▁гарчээ	-9.53813
чихсан	-9.53967
▁монголчуудын	-9.54041
▁мэдэгдэл	-9.54305
тан	-9.54424
▁буудал	-9.54436
▁яруу	-9.54459
▁хэлний	-9.54478
дан	-9.54487
▁долдугаар	-9.54553
▁арилжааны	-9.54606
▁байдаггүй	-9.54615
▁уламжлалт	-9.54896
▁шинэчлэл	-9.54901
▁гэрээний	-9.54929
▁сурах	-9.5494
сээр	-9.54961
▁далд	-9.55001
▁бүртгэлийн	-9.55061
▁санхүү	-9.55106
за	-9.55135
▁хүнтэй	-9.55146
▁улиралд	-9.55216
▁санхүүжилт	-9.55304
▁доллар	-9.55331
▁to	-9.55337
▁зуны	-9.5546
▁зохистой	-9.55477
▁судалж	-9.55606
өд	-9.55659
▁хувьцаа	-9.55803
▁хорт	-9.55852
▁цэцэг	-9.55918
▁үхэр	-9.55931
тал	-9.55951
▁ноцтой	-9.55961
▁этгээд	-9.56001
▁мэргэжил	-9.5605
▁хандлага	-9.56062
▁төгссөн	-9.56119
▁үеэс	-9.5618
▁зорилт	-9.56276
▁харьцуулахад	-9.56469
▁хэллэгийг	-9.56596
▁зүйлд	-9.56649
▁дасгалжуулагч	-9.56677
▁ариун	-9.56681
дөө	-9.56701
▁гадны	-9.56933
▁алдаж	-9.57162
▁үндэс	-9.57218
▁хуралдааны	-9.57231
алтай	-9.57254
▁зөөлөн	-9.57269
▁гэрээг	-9.573
▁цай	-9.57352
▁мэс	-9.57374
▁чөлөө	-9.57389
▁хариуцлагатай	-9.5752
лаж	-9.5762
▁31	-9.57631
▁төлөв	-9.57635
▁дундаж	-9.57689
▁шатанд	-9.57698
▁гараа	-9.57726
▁ххзх	-9.57747
▁очсон	-9.57762
▁сүүлд	-9.57773
▁гаргаад	-9.57824
▁төслүүд	-9.57834
▁тооцох	-9.5786
ай	-9.57915
▁суурин	-9.57924
▁бүхэнд	-9.57954
▁хоорондоо	-9.5799
▁хамтдаа	-9.5806
▁нэмэх	-9.58395
▁шинэчилсэн	-9.58415
▁бодлоо	-9.58483
▁сууриа	-9.58546
▁авлаа	-9.58581
▁бодох	-9.58666
болд	-9.58945
▁хоёрын	-9.58964
▁чиглэсэн	-9.5901
▁сайдаар	-9.59042
▁тосны	-9.59078
батболд	-9.5908
▁2010	-9.59089
▁хугацааг	-9.59094
▁дарж	-9.59135
▁цэцэрлэгт	-9.59185
дах	-9.59194
▁стандарт	-9.59197
▁үүрэгтэй	-9.59205
▁битгий	-9.59242
▁хурандаа	-9.59361
▁дагаж	-9.59363
▁автобус	-9.59384
мөнх	-9.59399
▁англи	-9.59463
▁чиний	-9.59503
▁тоглож	-9.59533
▁магадлалтай	-9.59537
▁хүчээр	-9.59551
▁хүлээсэн	-9.59662
▁тэс	-9.59683
▁хугацаагаар	-9.59701
▁зүйлс	-9.59768
▁байгуулахаар	-9.59776
▁ир	-9.5979
▁харилцааг	-9.59803
▁үүсгэн	-9.59829
▁сайдад	-9.59829
▁дүгнэлтийг	-9.59862
▁ухаалаг	-9.59918
▁33	-9.59954
▁судлалын	-9.60099
эв	-9.60135
▁хүртсэн	-9.60279
▁өвөр	-9.60415
▁эмчилгээ	-9.60423
ка	-9.60427
▁хамгааллын	-9.60494
▁малчин	-9.60513
▁хөдлөх	-9.6058
▁шуурна	-9.60638
▁хэлэхдээ	-9.60664
▁онгоц	-9.60698
▁шүүгч	-9.6071
▁зээлийг	-9.6076
элбэгдорж	-9.60819
▁бүтээлч	-9.60878
▁үлгэр	-9.60937
▁завхан	-9.60946
▁бүхний	-9.6097
▁цөөн	-9.61042
▁албанд	-9.61131
▁шаардлагыг	-9.61155
▁саад	-9.61256
▁прокурорын	-9.61265
▁мөнгөө	-9.6127
▁засгийг	-9.61283
▁гайхалтай	-9.61314
▁уралдаан	-9.61346
▁танилцуулж	-9.61394
▁хангасан	-9.61481
▁07	-9.61544
▁эхэлнэ	-9.61569
▁бодис	-9.61588
▁эхэнд	-9.61662
лийн	-9.61721
▁хүүхдэд	-9.61737
▁гоё	-9.61858
▁далай	-9.61895
20	-9.61934
▁жин	-9.61942
ит	-9.61985
хон	-9.62021
▁цасан	-9.62061
▁бүсэд	-9.62125
▁унаж	-9.62128
энхбаяр	-9.62215
▁2000	-9.62359
▁асуудлын	-9.62419
▁хэдхэн	-9.62437
▁нэрэмжит	-9.62492
▁маргаан	-9.62505
▁зардлыг	-9.62559
▁гаалийн	-9.62574
▁хурлаар	-9.62642
t	-9.62664
▁тэргүүтэй	-9.62675
▁төлөөлөгчдийн	-9.62716
▁шилжүүлэх	-9.62727
▁ирүүлсэн	-9.62812
g	-9.62814
▁мөр	-9.62836
▁санд	-9.62839
00	-9.62856
▁уулзалтад	-9.62873
▁гаргадаг	-9.62958
▁gogo	-9.62992
▁тооны	-9.6306
▁in	-9.63105
▁үндэслэн	-9.6312
▁огцруулах	-9.63181
▁дөнгөж	-9.63186
▁царай	-9.63211
▁галт	-9.63252
▁төлөвлөсөн	-9.63265
▁times	-9.63273
▁хүндрэл	-9.63288
▁алдарт	-9.63302
▁булган	-9.63311
▁арслан	-9.63351
▁цөмийн	-9.63374
▁хөдөлгөөнд	-9.63408
▁тээвэр	-9.63427
▁материал	-9.63475
▁эргээд	-9.63527
▁дэмжсэн	-9.63582
9	-9.63604
ман	-9.63738
улаан	-9.63838
▁итгэж	-9.63991
▁дашт	-9.64011
▁сонголт	-9.6403
c	-9.64057
▁халдварт	-9.64077
ов	-9.64161
ө	-9.64206
▁гэгч	-9.64236
▁тооллын	-9.64362
ийнхээ	-9.64364
▁ярилцлаа	-9.64372
),	-9.64441
ран	-9.64586
ор	-9.64645
▁дээшлүүлэх	-9.64659
▁эмийн	-9.6474
▁11-	-9.64812
▁чулуу	-9.64849
▁эрсдэл	-9.6487
нууд	-9.649
▁зориг	-9.64907
▁хийн	-9.65066
▁5-	-9.6507
▁чөлөөлөх	-9.65176
▁зохицуулалт	-9.65184
▁яахав	-9.65263
▁ордны	-9.65324
▁намрын	-9.65329
▁хямд	-9.65333
▁мастер	-9.65403
▁чадвартай	-9.65427
▁зарласан	-9.65516
▁уламжлал	-9.65557
▁цаана	-9.65571
▁бүртгэл	-9.65603
▁чамайг	-9.65636
▁малчид	-9.65654
▁36	-9.65689
▁зориулж	-9.65849
▁ширүүснэ	-9.65977
▁дөрөв	-9.65978
▁барсан	-9.65983
▁богд	-9.66011
▁12-	-9.6625
▁орчныг	-9.6627
▁аравдугаар	-9.66434
▁төгөлдөр	-9.66539
▁доо	-9.66563
▁өмч	-9.66634
▁гомдлыг	-9.66647
▁хамрагдах	-9.66649
▁зарцуулах	-9.6695
▁арьс	-9.66957
▁эрдэнэт	-9.67094
▁газраа	-9.67208
хар	-9.67268
▁автомашины	-9.67375
▁гарц	-9.67443
▁ажиллахыг	-9.67447
m	-9.67522
▁хэлэлцүүлэгт	-9.67547
▁нэрийн	-9.67742
▁зорчигч	-9.67819
▁санамж	-9.67879
▁үзнэ	-9.67976
▁наран	-9.68013
▁байгууллаа	-9.68018
▁мэдээлж	-9.68046
▁харьяа	-9.68119
▁түүнтэй	-9.68172
▁4-	-9.68176
▁нийслэлд	-9.68215
▁асууж	-9.68504
▁тэтгэврийн	-9.68587
▁станц	-9.68662
▁очоод	-9.68674
▁байтал	-9.68783
▁s	-9.68832
▁удирдагч	-9.689
▁06	-9.68939
▁авахаар	-9.68943
▁зохих	-9.68968
▁хүүг	-9.6897
▁лээ	-9.69065
▁явц	-9.69067
сөн	-9.69088
▁сүү	-9.69112
хоо	-9.69146
30	-9.69167
энд	-9.69205
▁эхэлжээ	-9.69361
▁төгс	-9.69424
▁өрөөнд	-9.6951
▁хоолны	-9.69542
гоо	-9.6973
▁машины	-9.69763
уудад	-9.69837
▁зогсоох	-9.69852
▁хориг	-9.69886
▁америк	-9.69925
▁харуулж	-9.69961
▁байгууламж	-9.70014
▁бодсон	-9.70054
▁зорчих	-9.70058
▁нөлөөлж	-9.70066
▁эртний	-9.70125
ис	-9.70141
▁ажиллагаатай	-9.70141
▁тогтоож	-9.70152
▁орноо	-9.70226
▁бүтээсэн	-9.70231
▁ван	-9.70234
▁чанга	-9.70246
▁байгуулна	-9.7032
▁ховор	-9.7034
▁хатагтай	-9.70421
▁судлаач	-9.70538
ing	-9.70616
▁баримтлах	-9.70631
▁дипломат	-9.70714
▁хэнтий	-9.70826
▁ахлагч	-9.70834
▁түрүүнд	-9.70855
▁төслүүдийг	-9.70884
▁шинэчлэн	-9.70977
▁нээлтийн	-9.70999
▁нэвтрүүлэх	-9.71039
▁үйлдсэн	-9.71157
▁7-12	-9.71218
▁сайтар	-9.71241
▁цаашдаа	-9.7125
▁гүйцэтгэж	-9.71336
▁чухам	-9.71355
▁судлаачид	-9.71649
▁сэргээх	-9.7169
▁харьцангуй	-9.71845
▁баасан	-9.71875
▁2009	-9.71906
▁сурч	-9.71927
▁орныхоо	-9.72042
▁тогтолцоо	-9.7207
▁долларын	-9.72162
▁цэг	-9.72179
▁эндээс	-9.72229
▁дарамт	-9.72351
▁цэвэрлэх	-9.72357
▁алтайн	-9.72518
▁тодорхойгүй	-9.72554
ли	-9.72664
▁шороон	-9.72675
▁тоот	-9.7272
ed	-9.72745
гээс	-9.7279
▁сайхны	-9.72803
ээсээ	-9.72849
▁өгөөд	-9.72904
▁компанид	-9.72926
▁гуай	-9.72974
▁үлдээх	-9.73025
▁зургадугаар	-9.73205
▁хаалга	-9.73209
▁хамгаалж	-9.73246
▁гаргажээ	-9.73255
▁герман	-9.7326
▁дайны	-9.73283
га	-9.73297
/;	-9.73301
▁хороолол	-9.73344
▁багагүй	-9.7338
үүдийн	-9.73391
▁эхээр	-9.73407
▁ярилцаж	-9.73499
хүү	-9.73502
▁шийдэж	-9.73508
▁жирийн	-9.73587
▁хүчингүй	-9.73653
▁ялалт	-9.73654
10	-9.73693
i	-9.73708
▁цогцолбор	-9.73713
▁бүрдүүлж	-9.73776
▁түүхтэй	-9.73809
▁зааж	-9.73816
▁онгоцны	-9.73823
▁зориулан	-9.73865
▁30-	-9.73937
▁төлж	-9.73963
▁талбайн	-9.73998
▁албанаас	-9.74016
ла	-9.74021
▁түвшин	-9.74067
▁ордог	-9.7415
▁өрийн	-9.74211
снаар	-9.74237
▁цэцийн	-9.7425
гийг	-9.74281
▁санаж	-9.74293
▁зар	-9.74305
▁эхийн	-9.74314
▁морин	-9.74334
▁хийгдэж	-9.74378
06	-9.7442
▁тооцож	-9.74443
▁чуулганаар	-9.7455
04	-9.7455
▁залуучууд	-9.74579
алтан	-9.74593
▁нөлөөтэй	-9.746
▁хэлэлцүүлгийг	-9.74624
▁луу	-9.74634
▁нөхөд	-9.74769
▁хэлдэг	-9.74782
▁аюул	-9.74794
▁явагдаж	-9.74824
▁удаад	-9.74834
▁хадгалах	-9.74859
▁сонирхол	-9.74896
▁авахыг	-9.74897
▁ёслол	-9.75064
▁үнийг	-9.75091
▁тогтоолоор	-9.75092
▁хүлээх	-9.75198
▁дутуу	-9.75261
▁чуулга	-9.75272
▁хотгор	-9.75536
уулж	-9.75539
▁бүтээгдэхүүнийг	-9.75577
▁дулааны	-9.75591
▁энх	-9.75593
▁2008	-9.75604
▁налайх	-9.75621
▁18-	-9.75687
▁араас	-9.75775
▁сангаас	-9.75782
▁дамжин	-9.75955
▁хк	-9.76017
▁танил	-9.76023
▁орд	-9.76122
▁i	-9.76141
▁51	-9.76171
▁онцлох	-9.76176
▁тбб	-9.7633
▁эгч	-9.76341
▁хамгаалалтын	-9.7638
▁25-	-9.76419
▁бяцхан	-9.76486
▁телевизийн	-9.76554
▁өмнөговь	-9.76642
▁тэдгээр	-9.76692
▁хэлбэр	-9.76693
▁)	-9.76735
▁хүүтэй	-9.76739
хөө	-9.76785
▁шинжтэй	-9.76802
▁ингэхдээ	-9.76922
▁ойлгох	-9.76956
▁танилцуулах	-9.76994
▁дайн	-9.77052
▁баталж	-9.77125
▁бичигт	-9.77167
эм	-9.77175
▁хянан	-9.77179
▁авчээ	-9.7718
▁яамнаас	-9.77204
▁үзээд	-9.7721
▁германы	-9.77276
▁хүүхдүүдийн	-9.77297
▁гэрт	-9.77306
▁адилхан	-9.7731
▁зүг	-9.77311
▁талтай	-9.77382
шин	-9.77391
▁эрхлэгч	-9.7743
▁парламент	-9.77477
▁гаралтай	-9.77516
▁шийдвэрлэсэн	-9.77603
▁засах	-9.77665
▁ёслолын	-9.77673
▁01	-9.77703
▁хаяг	-9.77733
▁гаригт	-9.77747
▁заалтыг	-9.77835
▁ногоо	-9.77859
▁6-	-9.77861
▁холбогдсон	-9.77877
▁дурдсан	-9.77905
▁хүрэлцэн	-9.7792
▁тогтолцоог	-9.7794
▁очих	-9.77948
▁нэрээр	-9.77955
▁тоглоом	-9.77973
▁авлигатай	-9.78061
▁шинэчлэлийн	-9.78204
▁ярилцлага	-9.78226
▁оувс	-9.78247
▁хөрш	-9.78275
11	-9.78283
▁ийн	-9.78316
лав	-9.7833
▁хэрэгжилтийг	-9.78347
маар	-9.78391
▁оюутны	-9.78439
▁ажилдаа	-9.7845
▁тэтгэвэр	-9.78482
▁даасан	-9.78493
▁чамд	-9.78619
ү	-9.78674
▁нуур	-9.78686
лэг	-9.78739
▁өсч	-9.78775
▁франц	-9.78843
▁боловсруулсан	-9.78848
▁боловсон	-9.78902
▁стратегийн	-9.78982
▁хуралдаж	-9.79042
▁зарчим	-9.7909
эрдэнэс	-9.79183
▁ундаа	-9.7924
маа	-9.79272
▁нөөцийн	-9.79362
▁нийтдээ	-9.79407
▁хүрээ	-9.79561
▁хүсэлтэй	-9.79588
хүрэлсүх	-9.79728
аагүй	-9.79739
▁анхааруулж	-9.79859
▁бэхжүүлэх	-9.79879
бид	-9.7993
сайханбилэг	-9.80052
▁хүрэн	-9.80053
▁сурагч	-9.80075
▁үзүүлсэн	-9.80098
▁чанарын	-9.80104
▁хугацаатай	-9.80114
▁мужийн	-9.80115
▁үргэлжлүүлэн	-9.80139
▁түүхийн	-9.80351
▁сонссон	-9.80389
▁48	-9.80428
▁шийдсэн	-9.80493
▁комиссын	-9.80514
▁зургаа	-9.80594
07	-9.80609
ко	-9.80611
▁буу	-9.80625
▁хүсэлтийг	-9.80693
▁өгчээ	-9.80706
▁байцаагч	-9.80729
▁болохоос	-9.80736
▁сэтгэгдлийг	-9.8088
▁болоход	-9.80921
▁болсныг	-9.80929
▁халдвар	-9.81031
▁шалгарсан	-9.81078
▁аян	-9.81092
▁арав	-9.81128
▁хүүгийн	-9.81148
ынхаа	-9.81156
▁суусан	-9.81182
▁ихэд	-9.81268
▁сэдэвт	-9.81383
▁хөгжлийг	-9.81384
▁оюуны	-9.81488
▁халх	-9.81599
▁танилцуулсан	-9.81638
▁16-	-9.81639
▁асуудлууд	-9.81657
▁авахад	-9.81676
-10	-9.81806
▁баригчид	-9.81812
▁дасгал	-9.81856
алтанхуяг	-9.81897
▁үзэгдэл	-9.81925
▁хамаг	-9.81932
▁өөрт	-9.81979
▁02	-9.81999
info	-9.82036
▁суурийг	-9.82095
▁төдий	-9.82097
ат	-9.82105
▁тоглолтын	-9.82113
▁муухай	-9.82226
▁сэдвээр	-9.82334
▁мэдээлэв	-9.82369
p	-9.82524
▁шөнийн	-9.82564
йн	-9.82573
▁томилох	-9.82661
▁хоолой	-9.82695
▁амьсгалын	-9.82715
▁бөмбөг	-9.82888
▁38	-9.82897
▁ган	-9.82902
▁дууссан	-9.82908
▁байгаагаас	-9.82916
▁онцолж	-9.82932
▁хөгжилд	-9.82951
▁тас	-9.82975
▁гадаадад	-9.82989
▁зорьж	-9.82993
▁ипотекийн	-9.8301
▁болоогүй	-9.83123
▁удаагаа	-9.83132
▁home	-9.83133
▁хэрэглээний	-9.83151
▁баталгаа	-9.83156
▁суудал	-9.8318
▁ирээдүйн	-9.83189
▁мэдээлсэн	-9.83217
▁55	-9.83332
▁зав	-9.83419
▁таалагдсан	-9.83459
▁түүхэнд	-9.83481
▁талархал	-9.8352
03	-9.83555
ье	-9.83613
▁шашны	-9.83662
▁үнээр	-9.83678
▁буудлын	-9.83682
▁хурд	-9.83726
▁си	-9.8386
▁татсан	-9.83968
▁буйг	-9.8398
▁болчихсон	-9.84105
▁тавантолгой	-9.84194
гэр	-9.84198
▁шинийн	-9.84243
▁эзэлж	-9.84389
▁ослын	-9.84556
▁дунджаар	-9.84673
▁чадварыг	-9.84676
▁унасан	-9.84677
▁ая	-9.84711
▁орчимд	-9.84784
▁нөлөөлөх	-9.84787
▁37	-9.84826
▁зогсохгүй	-9.84892
▁загварын	-9.84908
▁алтай	-9.84938
▁тойрогт	-9.85
▁гамшгийн	-9.85088
▁хөгжилтэй	-9.85114
▁бохирдлыг	-9.85259
▁хөнгөлөлттэй	-9.85367
▁компаниудын	-9.85381
ир	-9.85402
▁загас	-9.85436
▁орших	-9.85489
▁асуудлаа	-9.85491
▁400	-9.85497
монцамэ	-9.85555
очир	-9.85599
▁хөрөнгөөр	-9.85807
▁мэдэгдэж	-9.85841
▁талууд	-9.85859
▁42	-9.85926
▁14-	-9.8594
▁орнуудад	-9.85979
▁суралцах	-9.85987
▁хэрэглээ	-9.85989
▁наад	-9.85995
вэл	-9.8601
▁үзэхэд	-9.86101
чууд	-9.86243
▁хэлэлцэн	-9.86375
▁танхим	-9.86399
▁бич	-9.86401
▁утгаараа	-9.86422
▁өгөхгүй	-9.86478
▁байлгах	-9.86522
▁худал	-9.86599
▁архангай	-9.86602
▁тариа	-9.86636
▁хоосон	-9.86666
▁танилцууллаа	-9.86705
▁монголбанкны	-9.86795
▁эрдэмтэд	-9.86818
▁хорооноос	-9.86917
▁манайх	-9.86968
▁нээлт	-9.87075
▁үргэлжлэх	-9.87097
▁хэрэглэдэг	-9.87106
▁05	-9.87142
▁эрхээ	-9.87176
▁өвгөн	-9.87226
▁тутмын	-9.87226
▁орчмын	-9.87264
▁чөлөөтэй	-9.87293
▁shuud	-9.87323
▁алдар	-9.87325
▁тийш	-9.87372
▁эзэмших	-9.87374
▁ойлгомжтой	-9.87386
15	-9.87407
▁19-	-9.87432
▁4.	-9.87437
▁үүсч	-9.87441
▁групп	-9.87491
▁жаргал	-9.87503
▁зай	-9.87714
тын	-9.87786
▁жилтнээ	-9.878
▁захиргаа	-9.87854
лээд	-9.87879
▁зогсож	-9.87944
▁хандсан	-9.87973
▁юуны	-9.8804
▁бэлтгэсэн	-9.88058
▁нартай	-9.88073
лын	-9.88092
▁тодорхойлох	-9.88153
▁7-	-9.88168
▁ажилтнууд	-9.88294
▁22-	-9.88352
▁түүнийгээ	-9.88358
u	-9.88455
▁ядуу	-9.88529
гар	-9.8857
▁ургамал	-9.88576
▁ирэхэд	-9.88633
▁харагдах	-9.88642
▁буурч	-9.88644
▁гэм	-9.88661
▁холбогдол	-9.88662
▁алдартай	-9.88791
▁уншиж	-9.88802
▁өртөг	-9.88871
▁бэлгийн	-9.88902
▁генерал	-9.88917
40	-9.88921
▁ачаалал	-9.88939
▁цөөнгүй	-9.88947
▁үзлэг	-9.89082
дийн	-9.89104
▁идэр	-9.89186
▁бохир	-9.89246
▁дугуй	-9.89268
▁нэмэгдэх	-9.8942
▁хамгаалахын	-9.89468
▁салбарыг	-9.89497
ус	-9.89623
▁чадвал	-9.89629
▁нарны	-9.89639
12	-9.89735
▁бичлэг	-9.89744
▁хавар	-9.89746
▁олгодог	-9.89767
тэр	-9.89781
▁бичгийг	-9.89796
лаг	-9.89809
▁францын	-9.89822
▁зөрчлийн	-9.89841
▁секундын	-9.8987
w	-9.89876
▁үзэн	-9.89881
▁оролцоо	-9.89913
▁уулзах	-9.89938
▁багшийн	-9.90083
▁байшин	-9.90104
▁150	-9.90162
▁жаргалтай	-9.90174
▁тойрог	-9.90186
▁хийгдсэн	-9.90196
▁бодоод	-9.90219
▁зохиол	-9.90243
▁хурц	-9.90284
▁буйгаа	-9.90307
нямдорж	-9.9031
▁даргад	-9.9037
▁инженер	-9.90393
▁дэлгүүр	-9.90403
▁төрөлд	-9.90405
▁тайлан	-9.90442
50	-9.90524
▁65	-9.90639
▁тэрхүү	-9.90662
▁суралцаж	-9.90738
▁амархан	-9.90742
▁ким	-9.90908
▁эхлэл	-9.90911
▁сур	-9.90941
▁13-	-9.90974
▁хураалт	-9.90974
▁шаардлагагүй	-9.90985
тон	-9.91036
▁оролцлоо	-9.91087
▁гүйцэтгэгч	-9.9114
▁жилээс	-9.91207
▁дундуур	-9.91353
▁сэргээн	-9.9155
▁клуб	-9.91557
▁яригдаж	-9.91623
▁болтол	-9.91642
▁даван	-9.9176
▁хүргэе	-9.91783
▁хөгжим	-9.91833
▁дээгүүр	-9.91845
чихаад	-9.91857
▁улирлын	-9.91869
▁байгаагийн	-9.92068
▁өөрчилж	-9.92078
▁авлигын	-9.92091
▁бодитой	-9.92094
▁гэрээнд	-9.92096
▁зургийн	-9.92104
▁8-	-9.9211
▁буян	-9.92223
▁хэрэгжүүлсэн	-9.92229
▁профессор	-9.92239
лэж	-9.92267
жиж	-9.92285
▁даргыг	-9.92313
▁дэргэдэх	-9.9234
дсан	-9.92516
▁тэнцэх	-9.92577
сний	-9.92708
▁тэжээл	-9.92811
▁хос	-9.92817
▁санааг	-9.92835
баатар	-9.92902
▁хаагчдын	-9.92906
▁үлдэх	-9.92956
▁тасралтгүй	-9.92974
▁түрүүлж	-9.92989
▁найруулагч	-9.93009
▁сонсож	-9.93015
▁малтмалын	-9.93027
▁санхүүжилтийн	-9.93038
▁түвшний	-9.9307
▁нэгжийн	-9.93125
▁сонгодог	-9.93136
▁тулгамдсан	-9.93143
▁тов	-9.93216
▁цаашлаад	-9.93227
▁хүүхэдтэй	-9.93285
▁эхчүүд	-9.93365
▁албаныхан	-9.93448
▁туршлагатай	-9.93449
▁магадлал	-9.93471
19	-9.93492
▁хурлыг	-9.93493
▁зовлон	-9.93533
▁ачаа	-9.93557
▁намууд	-9.93573
▁яв	-9.93586
▁байрыг	-9.93608
миний	-9.93622
▁бал	-9.93629
▁байдлаас	-9.93728
▁илтгэл	-9.93786
▁ордон	-9.93793
▁хандан	-9.9382
чдын	-9.93874
▁даруй	-9.93933
▁барилдаан	-9.9394
▁ядаж	-9.93954
▁багатай	-9.93961
ана	-9.9403
▁турк	-9.94046
уулах	-9.94111
▁амьдралыг	-9.94115
тайгаар	-9.9414
▁гарлаа	-9.94156
▁мөнгөөр	-9.94186
▁тэргүүний	-9.94222
ол	-9.94281
▁сонсох	-9.94282
▁телевиз	-9.94287
▁суурьтай	-9.9435
▁явдлыг	-9.94395
▁тоглох	-9.9444
▁тахиа	-9.9446
▁авлига	-9.94464
▁үнэр	-9.94537
▁75	-9.94562
▁гэмтэл	-9.94563
ласан	-9.94658
▁39	-9.94732
▁9-	-9.94792
▁асуултад	-9.94865
▁өг	-9.94884
▁даралт	-9.94933
▁мэдэгдлээ	-9.94981
▁ажлаас	-9.94995
▁тусламжийн	-9.95032
▁бүрэлдэхүүн	-9.95125
▁судалгаагаар	-9.95222
25	-9.9523
▁амин	-9.95274
▁байгуулагдаж	-9.95275
▁фэйсбүүк	-9.95291
ф	-9.95339
▁бүтээх	-9.9536
▁хуурамч	-9.9548
▁урагш	-9.95572
▁чанарыг	-9.95609
02	-9.95703
▁амгалан	-9.95731
▁сонгосон	-9.95797
▁байгуулан	-9.95814
▁хоёрдугаарт	-9.9582
▁21-	-9.9592
▁шинэчлэх	-9.95924
▁болгоно	-9.96024
уулсан	-9.96031
лон	-9.96058
▁өргөдөл	-9.96069
▁сонгож	-9.96126
▁ii	-9.96288
▁зэвсэг	-9.96289
▁эмчилгээний	-9.9629
▁санаачлан	-9.96337
▁дашрамд	-9.96377
▁хэвшлийн	-9.96385
▁28-	-9.96418
▁тавиад	-9.96422
▁нөхцөлийг	-9.96445
▁ардчилал	-9.96447
▁өвөл	-9.96484
ни	-9.96499
▁12-14	-9.96554
▁хайх	-9.96561
уй	-9.96571
▁гүүр	-9.96602
▁хойно	-9.96636
▁хэрэгцээ	-9.96646
▁цогц	-9.96668
▁үүсвэр	-9.96672
▁гаргалаа	-9.96675
▁бусдыг	-9.96678
▁баянхонгор	-9.96728
▁2020	-9.96742
▁эрдэнэ	-9.96747
▁зун	-9.96768
▁нийцсэн	-9.96822
▁монголбанк	-9.96888
▁мэргэн	-9.96896
▁үндэслэл	-9.96899
▁судлах	-9.96901
▁нэмэгдүүлж	-9.96907
▁амьтны	-9.9692
▁үнэлж	-9.96928
▁чаддаггүй	-9.96948
ос	-9.97079
▁байгаатай	-9.97139
▁асуудлуудыг	-9.97179
▁оффшор	-9.97227
▁жагсаал	-9.9723
▁сайдыг	-9.97238
▁бохирдол	-9.97244
▁өвөрхангай	-9.97317
▁оновчтой	-9.97337
си	-9.9735
▁хүргэсэн	-9.97364
▁эхлүүлсэн	-9.97465
▁c	-9.97514
рч	-9.97526
▁таслан	-9.97542
▁төрөх	-9.97575
▁охид	-9.97594
y	-9.97672
▁банкнаас	-9.97698
▁хэрэглэсэн	-9.97729
▁дорноговь	-9.97738
▁29-	-9.97751
▁гадаа	-9.97756
▁мэдээллээр	-9.97811
▁түймэр	-9.9784
▁төрж	-9.9785
сныг	-9.97861
▁насыг	-9.97866
▁муис	-9.97871
▁хэрэгжих	-9.97875
▁өмчит	-9.97907
▁эрсдэлтэй	-9.98006
▁жон	-9.98084
▁арилгах	-9.98113
▁хөндийгөөр	-9.98194
▁намаас	-9.98277
▁зарлаж	-9.98281
▁хүрэхгүй	-9.9833
үү	-9.98334
▁эрэн	-9.98343
▁анхаарлаа	-9.98365
▁оролцогч	-9.98389
▁үйлийг	-9.98397
▁мөнх	-9.98431
▁тусам	-9.9851
▁ганцаараа	-9.98511
▁багц	-9.98537
▁идэж	-9.9855
▁хүндэтгэл	-9.98662
▁хоёрыг	-9.98665
тэн	-9.98666
▁үзүүлдэг	-9.98708
▁бууж	-9.98751
▁04	-9.98759
▁үйлчлэх	-9.98832
▁эрхгүй	-9.98838
▁бэрхшээл	-9.98897
▁ажилтай	-9.98913
▁идэх	-9.98922
▁байтугай	-9.98927
▁тавин	-9.98955
▁хандив	-9.98973
▁хөлс	-9.98989
төрийн	-9.99028
ныг	-9.99227
▁2019	-9.99228
▁түүн	-9.99244
аль	-9.99253
▁багт	-9.99318
▁могой	-9.99339
▁аваргын	-9.99349
▁17-	-9.99414
гч	-9.99438
▁уух	-9.99451
▁журмыг	-9.99464
▁хүлээлгэн	-9.99467
▁дэндүү	-9.99523
▁онцлон	-9.99586
▁хүндэт	-9.99611
▁байгуулдаг	-9.99636
▁жимс	-9.99673
▁нуурын	-9.99697
▁муутай	-9.99709
▁бэлтгэж	-9.99748
▁энэтхэг	-9.99798
▁анхаарлыг	-9.99807
▁хараат	-9.99823
▁асем	-9.9984
▁сонирхлын	-9.9989
in	-9.99912
▁үгээр	-9.99972
▁24-	-9.9999
жаргал	-9.99991
▁сэтгэлд	-10.001
▁өнөөдрийг	-10.0012
▁оруулалтыг	-10.0013
▁хамтлаг	-10.0023
▁хүрээд	-10.0044
▁утаа	-10.0047
▁шилжүүлэн	-10.0057
▁му	-10.0061
▁ай	-10.0066
өлгий	-10.0068
▁26-	-10.0069
▁цаас	-10.0072
▁согтууруулах	-10.0077
▁мэдрэмж	-10.0078
▁follow	-10.008
уу	-10.0083
лыг	-10.0088
▁43	-10.0092
▁хүрээлэнгийн	-10.0097
▁санааны	-10.0098
болор	-10.0099
▁52	-10.0103
▁дургүй	-10.0105
▁радио	-10.012
▁хямрал	-10.0128
▁намар	-10.0132
▁ойг	-10.0137
▁дан	-10.0141
▁шийдэл	-10.0144
▁төвөөс	-10.0146
▁дэвших	-10.0159
▁хүчирхэг	-10.0164
▁өвс	-10.0171
иа	-10.0181
▁иргэдээс	-10.0183
▁үз	-10.019
▁бэлэглээрэй	-10.0192
▁иймэрхүү	-10.0195
/-	-10.0203
▁прокурор	-10.0205
▁сүм	-10.0207
▁холбооноос	-10.0216
-12	-10.0222
08	-10.0224
лсан	-10.023
▁тэрэг	-10.023
▁биед	-10.023
нэг	-10.0231
▁оргил	-10.0233
▁ажлууд	-10.0238
▁чадалтай	-10.0242
▁оролцоно	-10.0244
▁аяга	-10.0244
▁өглөөний	-10.0245
▁үйлд	-10.0253
▁амьсгал	-10.0258
▁урам	-10.0262
▁бямба	-10.0263
▁зориулалтын	-10.0265
▁хийжээ	-10.0274
▁хувьсгалын	-10.0276
▁халамж	-10.0276
▁шир	-10.028
▁1990	-10.0287
▁ойрхон	-10.0287
▁өнгөрөгч	-10.0287
▁сайтай	-10.029
▁төсвөөс	-10.0292
▁экспортын	-10.0292
▁овоо	-10.0293
▁хүндэтгэн	-10.0302
▁дийлэнх	-10.0302
▁сэтгэлийг	-10.0303
▁зөвлөмж	-10.0304
▁тагнуулын	-10.0304
▁де	-10.031
▁таагүй	-10.0318
▁эрхт	-10.0319
▁лав	-10.032
▁бүтээлийн	-10.0329
▁газартай	-10.0332
▁бариад	-10.0343
▁данс	-10.0346
▁хүндрэлтэй	-10.0351
▁зурсан	-10.0352
▁айлчлалын	-10.0353
лох	-10.0355
шинэ	-10.0368
▁23-	-10.0373
манай	-10.0373
▁44	-10.0376
▁байрт	-10.038
▁гахай	-10.0387
▁алдах	-10.0396
▁оюутнууд	-10.0398
▁өнөөх	-10.0401
▁57	-10.0402
▁й	-10.0403
иг	-10.0406
▁хамрагдсан	-10.0409
▁илэрсэн	-10.0409
▁хийлгэх	-10.0415
▁авахгүй	-10.0418
▁нийтлэг	-10.0421
▁экспорт	-10.0426
▁гарт	-10.0429
улсын	-10.0429
▁41	-10.0429
ганбаатар	-10.043
▁мөрөө	-10.0431
▁03	-10.0431
▁асуудалтай	-10.0432
▁хотыг	-10.0436
▁үүсэх	-10.0436
▁огцом	-10.0437
▁мэдсэн	-10.0437
▁мэдэл	-10.0443
▁дандаа	-10.0443
29	-10.0444
▁бүрдсэн	-10.045
▁буцаан	-10.0465
▁тансаг	-10.0465
▁ажлуудыг	-10.0467
▁ирэв	-10.0472
▁сонгуулиар	-10.0475
▁төлөвлөлт	-10.0478
▁шүүхээс	-10.0483
▁худлаа	-10.0487
▁шоу	-10.0488
▁байснаа	-10.0488
▁хэрэгжүүлэхээр	-10.0494
▁хичнээн	-10.0498
▁уулзсан	-10.0502
▁элэг	-10.0507
▁заримдаа	-10.0523
▁шашин	-10.0526
▁тохиолдуулан	-10.0529
▁нийтлэл	-10.0529
▁тоогоор	-10.0536
▁хөлбөмбөгийн	-10.0536
▁хуур	-10.0541
▁сэдэв	-10.0541
мал	-10.0543
▁шаардаж	-10.0545
▁бүртгэлтэй	-10.0549
▁хүнээс	-10.0551
▁тогтсон	-10.0561
▁фото	-10.0564
ст	-10.0565
▁газрууд	-10.0569
▁дагаад	-10.0576
да	-10.0576
▁томилогдсон	-10.0576
▁дүрс	-10.0584
▁сургалтад	-10.0587
er	-10.0589
▁чимээ	-10.0589
ен	-10.0592
▁27-	-10.0592
▁b	-10.0595
▁хал	-10.0603
▁хадгалж	-10.0604
▁зөрчиж	-10.0607
▁бүртгэгдсэн	-10.0611
ив	-10.0612
▁доош	-10.0612
▁улаанбаатарт	-10.0616
▁бод	-10.0619
▁номхон	-10.0626
▁хэрээр	-10.0631
▁ю	-10.0638
оюун	-10.0641
▁махны	-10.0644
▁тушаалын	-10.0646
▁өмгөөлөгч	-10.0654
▁хэрэглэгч	-10.0655
▁туулай	-10.066
▁тохиож	-10.0664
▁зүйлээ	-10.0667
▁аудитын	-10.0667
–	-10.067
▁ням	-10.0675
▁захирагчийн	-10.0679
▁болой	-10.0681
▁итгэх	-10.0682
▁m	-10.0689
ог	-10.0689
▁төлөвлөлтийн	-10.069
▁эрчимтэй	-10.0692
▁цагаа	-10.0692
▁нэгдүгээрт	-10.0695
▁захирамж	-10.0698
▁ли	-10.0699
▁химийн	-10.0703
ъя	-10.0704
▁бондын	-10.0711
ю	-10.0712
▁толгойн	-10.0715
▁тавантолгойн	-10.0716
▁үйлдвэрлэх	-10.0719
▁үнэгүй	-10.072
▁ү	-10.0723
▁хуурай	-10.0724
▁хүргүүлсэн	-10.0724
▁саналын	-10.0732
▁тэмдэглэж	-10.0735
инд	-10.0749
▁хүндтэй	-10.0758
▁нэгдэж	-10.0761
▁гаргана	-10.0767
▁см	-10.0774
▁ал	-10.078
▁хэтэрхий	-10.0782
▁чих	-10.0786
▁хэрүүл	-10.0789
▁дохио	-10.0789
▁99	-10.079
▁тэмцэл	-10.0792
▁өргөж	-10.0794
чил	-10.0794
▁цэнхэр	-10.0807
▁авалт	-10.0808
▁түүхийг	-10.0812
▁сэтгүүл	-10.0814
▁харвал	-10.0817
батбаяр	-10.0822
▁ажиллахаар	-10.0826
▁сургуулийг	-10.0827
▁танилцаж	-10.0832
чихсэн	-10.0832
▁эмзэг	-10.0834
▁судалгааг	-10.0835
▁удалгүй	-10.0835
▁шалтгаанаар	-10.0837
17	-10.0846
▁шалгуур	-10.0848
▁ирээдүй	-10.085
гоор	-10.0854
▁өөд	-10.0857
мөнхбат	-10.0858
▁харуулсан	-10.0865
▁цэц	-10.087
▁заяа	-10.087
▁өвөрмөц	-10.0876
▁эн	-10.0882
▁шил	-10.0891
▁ээлжинд	-10.0895
-19	-10.0895
▁зааснаар	-10.0897
13	-10.09
▁товч	-10.091
▁тохирсон	-10.0914
▁хамгаалагч	-10.0919
▁120	-10.092
ур	-10.0923
▁хүүхдүүдэд	-10.0924
▁шатахууны	-10.0926
▁даалгавар	-10.0934
f	-10.0934
▁орлоготой	-10.0944
▁илүүтэй	-10.0945
▁хаанаас	-10.095
▁яс	-10.0958
▁тамир	-10.0963
▁жинд	-10.0965
▁хөндий	-10.0968
▁билгийн	-10.0975
▁талаараа	-10.0976
▁харагдана	-10.0979
▁хулгай	-10.0982
▁хэрэгжүүлэхэд	-10.0996
▁талыг	-10.0998
▁хэнд	-10.1
▁медалийн	-10.1003
▁европ	-10.1008
▁хасах	-10.1009
▁шийдвэрлэж	-10.1009
▁хөдөлгөөнийг	-10.101
▁алтны	-10.1012
ри	-10.1018
▁танилцуулна	-10.1021
▁утасны	-10.1025
▁цаашдын	-10.1039
▁байгаагаар	-10.1043
снаас	-10.1043
▁эзэмшлийн	-10.1043
им	-10.1044
▁хашаа	-10.1047
▁ихэвчлэн	-10.1048
▁оролцоог	-10.1049
рах	-10.1052
▁иргэнийг	-10.1056
▁түмэнд	-10.1059
▁на	-10.1059
▁эрэлт	-10.1064
:00	-10.1076
▁төлөвтэй	-10.1079
▁байсаар	-10.1083
▁илэрхийллээ	-10.1087
▁үйлчилгээнд	-10.1087
▁хүсвэл	-10.1091
▁хавдар	-10.1094
▁мэндэд	-10.1096
▁хааж	-10.1103
▁хээрийн	-10.1103
▁хүмүүстэй	-10.1108
▁боловсронгуй	-10.1109
▁2007	-10.111
▁багтсан	-10.112
▁цалинг	-10.1121
h	-10.1123
▁шилжих	-10.1123
▁иж	-10.1133
▁улирал	-10.1139
▁төлбөрийг	-10.1141
▁уулзлаа	-10.1142
▁өгөхийг	-10.1143
)-	-10.1152
▁зүтгэж	-10.1156
▁уралдаанд	-10.116
▁тэнгэрийн	-10.116
▁хад	-10.1167
▁өргөө	-10.1168
▁гаднаас	-10.1171
▁хялбар	-10.1172
▁болгодог	-10.1174
▁хэлэлцсэн	-10.118
▁бүгдээрээ	-10.1182
▁шилэн	-10.1191
▁хүүхэн	-10.1194
▁мөрдөх	-10.1195
▁тэдгээрийн	-10.1195
▁эрчүүд	-10.1207
чингис	-10.1208
▁хөлөг	-10.1211
▁онцлогтой	-10.1212
▁гэгээн	-10.1214
▁насаа	-10.1219
▁d	-10.1235
дөг	-10.124
▁гараагүй	-10.124
▁амралт	-10.1244
▁стандартын	-10.1245
▁алдагдал	-10.1253
▁шим	-10.1256
▁багавтар	-10.1256
al	-10.1263
▁трамп	-10.1266
▁цагийг	-10.1267
баярсайхан	-10.1269
▁руугаа	-10.1272
▁байгууллагуудад	-10.1272
аз	-10.1276
▁суугаад	-10.1282
▁ерөө	-10.1283
▁кинонд	-10.1285
▁хүртэж	-10.1287
▁x	-10.1287
▁олонх	-10.129
▁эрхэлсэн	-10.1291
▁арваннэгдүгээр	-10.1291
▁уулзалтыг	-10.1299
▁ажилчид	-10.1299
▁нэвтрүүлэг	-10.1302
▁системийн	-10.1302
▁агуу	-10.1307
▁шагналыг	-10.1308
▁сурагчид	-10.1312
▁тушаалд	-10.1322
баасанхүү	-10.133
▁нийлүүлэх	-10.133
▁хүсэж	-10.133
▁зарчмын	-10.1333
▁арванхоёрдугаар	-10.1336
гал	-10.1339
▁өрсөлдөж	-10.134
▁системийг	-10.135
▁тэнэг	-10.1353
ель	-10.1353
▁тушаалтан	-10.1353
▁хэрнээ	-10.1354
▁мэдэгджээ	-10.1356
▁идээ	-10.1357
▁ирээдүйд	-10.1358
▁дархадын	-10.1359
▁засал	-10.1364
гэн	-10.1366
▁суулгах	-10.1371
▁хажууд	-10.1375
▁хошуу	-10.1382
▁хариуцлагыг	-10.1383
луулж	-10.1384
▁улстай	-10.1389
▁төрх	-10.1389
▁улстөрийн	-10.1394
▁ертөнц	-10.1396
▁талдаа	-10.1398
▁ул	-10.1398
▁цэнгэлдэх	-10.14
▁үүнийгээ	-10.1402
▁нэгдэл	-10.1403
▁унах	-10.1404
▁хотоос	-10.1404
▁ф	-10.1408
▁ээлтэй	-10.1409
▁чулуун	-10.1419
▁шал	-10.142
▁тэгсэн	-10.1424
▁заан	-10.1424
▁тулгамдаж	-10.1429
▁илэрхийлэх	-10.1431
▁ертөнцөд	-10.1431
▁буцаж	-10.1434
хай	-10.1437
▁медальт	-10.1445
▁бүтээж	-10.1446
▁нью	-10.1451
ми	-10.1452
▁буудалд	-10.1454
▁татварыг	-10.1454
14	-10.1455
▁31-	-10.1457
▁төл	-10.1458
▁47	-10.146
▁шүлэг	-10.1462
▁01-	-10.147
өв	-10.147
▁хийхгүй	-10.1478
▁өсвөр	-10.1483
▁зэс	-10.1488
▁нэрт	-10.1496
▁бодолтой	-10.1499
өөд	-10.15
▁өнгөрч	-10.1501
▁найрагч	-10.1507
r	-10.1509
▁карт	-10.1513
▁дэвшүүлсэн	-10.1518
▁эрчимжүүлэх	-10.1521
▁мэдээний	-10.1521
лоо	-10.1523
▁эрхэлж	-10.1523
▁солигдмол	-10.1524
руу	-10.1524
▁аваагүй	-10.1524
▁банкууд	-10.1525
▁холбогдож	-10.1526
▁эхлэв	-10.1534
▁жанжин	-10.1538
▁умард	-10.1541
▁зүгийн	-10.1541
▁нээлтээ	-10.1542
▁хориглосон	-10.1543
▁театрын	-10.1547
▁агентлагийн	-10.155
▁зогсоож	-10.1551
assa	-10.1552
▁хүчээ	-10.1555
▁наймаа	-10.1555
▁дууны	-10.1556
▁цусны	-10.1558
▁цуврал	-10.1563
▁шатахуун	-10.1563
▁залуусын	-10.1568
▁төлбөргүй	-10.1569
▁найдаж	-10.1575
▁53	-10.1576
▁онцолсон	-10.1586
сүрэн	-10.159
▁дэг	-10.1591
▁эмээ	-10.1592
цагаан	-10.1599
60	-10.16
▁над	-10.1601
▁үнэнч	-10.1605
▁хайж	-10.1607
▁5.	-10.1608
▁дотно	-10.161
▁2006	-10.161
▁жишиг	-10.1611
▁орлогыг	-10.1623
▁хэлжээ	-10.1623
сайн	-10.1625
▁e	-10.1626
▁танхимын	-10.1634
▁төлөөх	-10.1637
▁хачин	-10.1637
▁хамтлагийн	-10.1637
ох	-10.1637
▁тайлбарлаж	-10.1643
▁зайд	-10.1647
▁хэчнээн	-10.1648
▁url	-10.1649
23	-10.1652
үүлж	-10.1652
▁харьяат	-10.1654
▁менежер	-10.166
▁дүнгээр	-10.166
▁модон	-10.1666
▁тулгарч	-10.1674
▁нийгмийг	-10.1674
▁засгаа	-10.1674
▁хулгана	-10.1676
ба	-10.1677
▁ажиллуулах	-10.1685
▁зохиолын	-10.1687
▁ашиглалтын	-10.1689
▁3-8	-10.1693
дыг	-10.1696
▁харгалзан	-10.1698
амгалан	-10.1699
▁нэгжүүд	-10.1701
▁хугацаандаа	-10.1702
▁зөвлөлдөх	-10.1702
▁заасны	-10.1703
▁буруутай	-10.1706
▁илт	-10.171
▁зүйлсийг	-10.1711
▁дамжуулах	-10.1716
▁найруулгын	-10.1718
▁байгууламжийн	-10.1721
▁юун	-10.1725
ик	-10.1726
▁банкинд	-10.1729
▁мэд	-10.1731
▁дэмжин	-10.1731
▁нүдний	-10.1736
▁сурагчдын	-10.1738
▁шилжүүлсэн	-10.1743
▁эрсдэлийг	-10.1744
▁хувилбар	-10.1745
эй	-10.1745
▁шавь	-10.1746
ун	-10.1749
▁тэрэлж	-10.1749
▁пүрэв	-10.175
▁москва	-10.1756
16	-10.176
▁угаах	-10.1763
▁тодорхойлж	-10.1763
▁хүүгээ	-10.1767
▁нүдээ	-10.1776
▁тор	-10.1777
▁албыг	-10.1778
▁дээл	-10.1781
▁тэргүүлэх	-10.1787
▁усыг	-10.1802
▁үдээс	-10.1806
▁өөрийнх	-10.1807
▁юмуу	-10.1807
▁саналаар	-10.1808
▁үүсгэж	-10.1813
▁урамшуулал	-10.1814
▁иргэнд	-10.1816
▁эзэмшиж	-10.1821
▁өртсөн	-10.1823
▁хэргээр	-10.1824
лт	-10.1825
▁хэргээс	-10.183
▁хийхийг	-10.184
▁эрэг	-10.1845
▁комисс	-10.1846
▁удирдаж	-10.185
▁охины	-10.185
▁үлдэж	-10.1851
▁анхаар	-10.1855
▁тамхины	-10.1856
-20	-10.1859
▁сүлжээний	-10.1861
▁байдлаа	-10.1869
▁хана	-10.187
▁46	-10.1878
▁харилцаанд	-10.1879
▁сүр	-10.1883
▁эвслийн	-10.1888
▁хэдийнэ	-10.1893
▁сургалтыг	-10.1903
▁өөрчлөлтийг	-10.1903
▁дав	-10.1906
▁тушаалаар	-10.1911
▁зөвлөж	-10.1914
▁зарж	-10.1915
▁хагаст	-10.1923
ес	-10.1925
▁ардчиллын	-10.1927
▁ямартай	-10.1932
▁байдгийг	-10.1933
▁суудлын	-10.1937
▁сурталчлах	-10.1937
01	-10.1938
▁суурилсан	-10.1939
▁өө	-10.1942
▁шуугиан	-10.1945
▁ууж	-10.1947
▁оухм	-10.1953
▁дуусах	-10.1958
▁нэмсэн	-10.196
▁хамрагдаж	-10.196
▁мэндийг	-10.1964
▁анхдугаар	-10.1968
▁оюутолгойн	-10.1972
аарай	-10.1973
▁хүсье	-10.1976
▁дэвсгэр	-10.1978
▁зарцуулсан	-10.198
нөөс	-10.1982
▁төлсөн	-10.1991
▁зургаадугаар	-10.1992
▁сүүлчийн	-10.1992
▁хамааралтай	-10.1993
дэж	-10.1995
ма	-10.2003
▁хангамж	-10.2006
▁тавьдаг	-10.2006
▁дар	-10.2008
▁харанхуй	-10.2009
▁вий	-10.201
28	-10.2016
▁баригдсан	-10.2022
▁лхагва	-10.2024
▁доор	-10.2024
▁театр	-10.2025
▁найдвартай	-10.2029
▁хэрэгслээр	-10.203
▁хуулиа	-10.2033
▁өнгөрөх	-10.2033
▁хажуугаар	-10.2038
▁төлөвлөгөөний	-10.2046
оороо	-10.2049
▁хүүхдүүдийг	-10.2049
▁төсвийг	-10.2058
▁яасан	-10.2059
▁тоглосон	-10.206
▁хүрээлэнд	-10.2062
▁гарахгүй	-10.2072
▁бүрийг	-10.2079
▁яаманд	-10.2082
▁мань	-10.2083
▁хүрээгүй	-10.2087
▁урьж	-10.2094
▁худалдах	-10.21
▁оруулагч	-10.21
▁унших	-10.21
▁дүгнэж	-10.2103
▁задгай	-10.2109
▁мэдүүлэг	-10.2111
▁дундаас	-10.2114
▁үүр	-10.2116
▁даатгал	-10.212
▁су	-10.2122
сайхан	-10.2125
▁мэдээлснээр	-10.2126
гэрэл	-10.2127
ом	-10.2128
▁компанийг	-10.2132
▁ё	-10.2132
▁эсэргүүцэж	-10.2134
▁солилцох	-10.2135
▁нээх	-10.2137
▁бүтээлчид	-10.2147
▁явахад	-10.2149
▁тутамд	-10.2155
го	-10.2156
мон	-10.2157
▁цөөхөн	-10.2158
▁элбэг	-10.2159
хны	-10.2162
▁талбайг	-10.2168
▁хянах	-10.2168
▁бүрэлдэхүүнд	-10.2173
▁ёсгүй	-10.2174
▁туслалцаа	-10.2174
▁багтаж	-10.2175
▁хэлэлцээ	-10.2178
дорж	-10.2185
▁хожим	-10.2187
▁засварын	-10.2187
рэн	-10.2188
ё	-10.2189
▁гишүүнээр	-10.2191
▁эрхтэн	-10.2192
▁тэргүүлэгч	-10.2202
▁broadcast	-10.2203
▁инженерийн	-10.2207
▁эхлүүлэх	-10.2213
35	-10.2214
▁ашигладаг	-10.2215
l	-10.2219
▁дэм	-10.2228
▁дараалан	-10.2229
▁санаатай	-10.2231
▁харагддаг	-10.2232
бал	-10.2232
▁гэнэтийн	-10.2232
▁цахилгааны	-10.2233
▁тууштай	-10.2239
▁төлөвлөгөөг	-10.224
▁үйлдлийг	-10.224
▁10-15	-10.224
▁хүчийг	-10.2244
ья	-10.2246
▁оо	-10.2249
▁төвийг	-10.2249
▁муж	-10.2258
▁солих	-10.2258
жих	-10.2262
эс	-10.2263
▁юмаа	-10.2265
▁тохиромжтой	-10.2267
▁найр	-10.2267
▁ойролцоо	-10.227
▁баталлаа	-10.2271
таа	-10.2272
▁чингисийн	-10.2274
▁хамруулах	-10.2279
бо	-10.229
ян	-10.2293
▁ерөнхийлөгчид	-10.2299
▁зүрхний	-10.2305
▁тоон	-10.2306
▁британийн	-10.2309
▁манайхан	-10.2311
▁үндэстэн	-10.2315
▁шоронд	-10.2321
▁бонд	-10.2334
▁сахилга	-10.2337
▁09.00	-10.2341
▁өвчлөл	-10.2341
▁нэгийг	-10.2343
▁тоглогч	-10.2343
▁өрнөж	-10.2344
▁news	-10.2345
▁бүтцийг	-10.235
▁багтаан	-10.2351
▁гүйцэтгэсэн	-10.2357
▁хэсгээс	-10.2362
22	-10.2367
▁цэргүүд	-10.2367
▁гаргавал	-10.2369
▁нягт	-10.2383
▁жилээр	-10.2384
▁захын	-10.2389
▁доогуур	-10.2389
▁төрийг	-10.2396
▁бүтээлийг	-10.2397
27	-10.2398
▁болголоо	-10.24
туул	-10.2402
▁сагсан	-10.2405
ев	-10.2406
▁насандаа	-10.241
▁нүдэнд	-10.2412
▁хөгжүүлж	-10.2413
▁шингэн	-10.2418
▁хязгаар	-10.2419
▁тариалангийн	-10.242
21	-10.242
▁жагсаалтад	-10.242
▁наадмыг	-10.242
лийг	-10.2421
▁давсан	-10.2427
▁хохирогч	-10.243
▁хүсдэг	-10.2431
▁төгсгөлд	-10.2431
▁байснаас	-10.2431
агч	-10.2435
алж	-10.2436
▁мэдэрч	-10.2441
▁тэмдэглэх	-10.2442
мн	-10.2443
▁голомт	-10.2443
▁76	-10.2451
▁2-3	-10.2454
▁анагаах	-10.2455
▁ун	-10.2461
▁дууг	-10.2463
▁амьдралаа	-10.2465
▁борлуулалт	-10.2466
▁хаяж	-10.2474
▁биелүүлж	-10.2475
▁ашгийн	-10.2477
▁хэлье	-10.2477
▁өвчтэй	-10.2486
▁эвгүй	-10.2489
▁56	-10.2492
▁шахам	-10.2495
▁байгуулагч	-10.2496
▁сэтгэгдэлийг	-10.2497
▁автобусны	-10.2498
▁цоо	-10.2498
нө	-10.2499
▁таниулах	-10.2502
▁үүдэн	-10.2504
▁бууруулж	-10.251
18	-10.2511
▁чадал	-10.2513
▁хувьцааны	-10.2521
▁днб	-10.2536
▁одон	-10.2537
▁дадлага	-10.2538
джээ	-10.2542
▁нулимс	-10.2543
▁58	-10.2544
▁жижигхэн	-10.2544
▁дуустал	-10.2549
▁хүртлээ	-10.2549
▁элэгний	-10.2555
▁өргөжүүлэх	-10.2568
▁өсөх	-10.257
▁уриалж	-10.2573
▁өргөх	-10.2575
▁зүтгэлтэн	-10.2577
▁явлаа	-10.258
жав	-10.2581
▁явсаар	-10.2583
-08	-10.2585
▁0-5	-10.2592
▁технологийг	-10.2606
▁болгоод	-10.2609
▁гадуур	-10.261
▁зөвшөөрлийг	-10.2611
жиг	-10.2617
даггүй	-10.2617
▁юунд	-10.262
▁зөвшөөрсөн	-10.2621
▁800	-10.2623
▁онцоллоо	-10.2625
▁тэмцээнийг	-10.2641
▁хийгээгүй	-10.265
▁гудамжинд	-10.2651
▁үйлдвэрийг	-10.2652
mongolia	-10.2652
ак	-10.2654
▁тухтай	-10.2656
▁14.00	-10.2659
▁сонсоод	-10.2662
▁бодвол	-10.2662
▁суудаг	-10.2663
▁байсангүй	-10.2664
▁өөрчлөлтийн	-10.2679
үй	-10.2685
▁хэлэлцээд	-10.2686
хи	-10.269
▁үгэндээ	-10.2693
▁хэрэгслийг	-10.2693
▁тэргүүлж	-10.2695
▁хэрэглэгчид	-10.2696
доллараар	-10.2696
▁аргын	-10.2698
▁тоглолтод	-10.27
▁хариуцлагын	-10.271
▁хангалуун	-10.2711
▁4-9	-10.2711
▁оройн	-10.2714
▁найруулга	-10.2714
▁шигээ	-10.2721
▁үйлдвэрлэлийг	-10.2731
▁баригч	-10.2733
▁нөлөөлдөг	-10.2737
▁эвсэл	-10.2741
▁000	-10.2745
▁54	-10.2747
▁хүрнэ	-10.2753
▁английн	-10.2757
тийн	-10.2758
▁бүжгийн	-10.2762
нийг	-10.2767
▁санагддаг	-10.2771
▁сонины	-10.2775
▁ашигласан	-10.2781
▁төлөөлөн	-10.2785
▁тариалан	-10.2785
▁компьютер	-10.2787
▁унтраах	-10.2791
▁үүсгэх	-10.2792
▁хас	-10.2794
▁таг	-10.2797
шиж	-10.2797
▁санаачилга	-10.2798
▁тусмаа	-10.2799
▁сүлд	-10.2799
▁багасгах	-10.28
▁надаас	-10.2802
ки	-10.2806
▁хорин	-10.2808
шил	-10.2808
▁шороо	-10.2811
▁захирамжаар	-10.2812
▁шүүмжлэл	-10.2826
▁ха	-10.2835
өн	-10.284
▁өнгийн	-10.2847
▁үйлдвэрлэж	-10.286
▁халамжийн	-10.287
оргил	-10.2872
▁өөрсдийгөө	-10.2873
▁өгөв	-10.2874
ma	-10.2876
▁бээжин	-10.2881
▁тэмдэглэн	-10.2886
▁морины	-10.2887
▁зүгт	-10.2891
▁бирж	-10.2891
▁эргэлт	-10.2893
уур	-10.2894
▁нөлөөлсөн	-10.2894
▁элсэн	-10.2896
▁шувуу	-10.2905
▁цахилгаантай	-10.2908
▁танилцах	-10.2909
▁огноо	-10.2911
▁хүрээний	-10.2913
▁аяны	-10.2913
▁зөрчлийг	-10.2917
▁хөнгөлөлт	-10.2923
▁рүүгээ	-10.2928
▁туркийн	-10.2934
▁үхрийн	-10.2935
▁шийтгэл	-10.2937
гуй	-10.2938
▁on	-10.2941
үүдэд	-10.2942
▁бүртгэх	-10.2946
гаад	-10.2952
▁зарлах	-10.2958
▁эзлэх	-10.2966
▁сэр	-10.2969
▁хүсэлтээ	-10.297
▁төхк	-10.2971
▁ярилцсан	-10.2973
▁сүлжээнд	-10.2974
▁буулгаж	-10.2974
-06	-10.2975
олон	-10.2977
▁хэнтийн	-10.298
▁эрдэс	-10.298
▁6.	-10.2982
▁баярлаж	-10.2982
тэйгээр	-10.2985
▁үйлдэх	-10.2988
▁дүрмийн	-10.2989
▁байлгүй	-10.2989
мээр	-10.2995
▁итгэлийг	-10.2995
96	-10.2997
▁бусдаас	-10.2999
▁цом	-10.3007
▁галын	-10.3008
▁авчирч	-10.3009
▁сэтгүүлчдийн	-10.3016
дэн	-10.3018
▁хувьсгал	-10.3026
снаа	-10.3034
▁цохилт	-10.3047
▁өсөлтийг	-10.3048
▁дарна	-10.3048
▁нөат	-10.305
▁эхэлдэг	-10.3052
▁хандлагатай	-10.3054
▁нутагтаа	-10.3055
▁өрсөлдөөн	-10.3056
▁механизм	-10.3057
▁барилгыг	-10.3065
▁үйлдвэрлэгч	-10.3068
▁сургах	-10.3071
▁хилээр	-10.3072
▁гурил	-10.3078
▁өөрийг	-10.3078
▁танилцуулга	-10.3085
▁хөшөө	-10.3086
▁хэрэглээг	-10.309
▁үргэлжилнэ	-10.3092
▁хэлнэ	-10.3092
▁цагдан	-10.3098
▁бодлыг	-10.31
▁томуу	-10.3101
▁агуулга	-10.3104
▁шагналт	-10.3108
▁баримтыг	-10.3112
26	-10.3113
жи	-10.3114
▁600	-10.3116
▁хэмжээтэй	-10.3118
ист	-10.3127
▁өнгөрүүлэх	-10.3129
▁үнэмлэх	-10.3129
ди	-10.3131
▁дурын	-10.3137
▁ажиллуулж	-10.3146
▁шалтгааныг	-10.3149
▁тухайгаа	-10.3151
дэлхийн	-10.3155
▁сонирхлыг	-10.3156
▁чимээгүй	-10.3159
▁эзэмшигч	-10.316
▁нэрээ	-10.3163
▁хань	-10.3164
31	-10.3164
▁хэрлэн	-10.3165
▁орныг	-10.3166
▁бичил	-10.3166
▁хурааж	-10.3166
▁цөм	-10.3166
снээр	-10.3169
▁төмс	-10.3178
▁сууна	-10.3179
▁ургац	-10.3183
▁талт	-10.3184
▁багануур	-10.3185
рийн	-10.3186
▁дундговь	-10.3187
▁зуу	-10.3187
▁хэрэгжилт	-10.3189
ти	-10.3192
уянга	-10.3192
▁бичжээ	-10.3192
уулан	-10.3197
▁эрхлэгчид	-10.3211
▁эргүүлэн	-10.3212
▁хонины	-10.3213
▁дэмий	-10.3215
▁давс	-10.3218
▁уб	-10.3218
▁уншигч	-10.3221
▁зөвшөөрч	-10.3224
▁төлөөлөгчийн	-10.323
▁байгуулагдах	-10.3231
▁намд	-10.3231
нүүд	-10.3235
▁идэвх	-10.3235
▁шарх	-10.3238
▁ердийн	-10.324
▁айж	-10.3244
▁модны	-10.3245
▁хиймэл	-10.3248
▁жүдо	-10.3254
▁түншлэлийн	-10.3258
▁нэвтрэх	-10.326
▁бүсгүйчүүд	-10.3262
▁буйгаар	-10.3264
▁харуулах	-10.3266
▁нөөцийг	-10.3268
▁борлуулах	-10.327
хүрэлбаатар	-10.3275
▁оюутолгой	-10.3277
▁зху	-10.328
▁толгойгоо	-10.3282
▁ма	-10.3285
тер	-10.3289
▁хишиг	-10.329
▁ирц	-10.3291
▁биеэр	-10.3293
▁хоёулаа	-10.3295
▁импортын	-10.3295
▁юуг	-10.3298
▁видео	-10.33
раа	-10.3304
▁mongolia	-10.3312
▁ерөөсөө	-10.3312
▁тангараг	-10.3314
▁нотлох	-10.3315
▁улстөрчид	-10.3319
▁виз	-10.3319
▁худалдаанд	-10.3319
▁хүй	-10.3319
▁хуульч	-10.3322
▁гутал	-10.3323
▁туршилт	-10.3323
▁мэдээнд	-10.3328
co	-10.3331
or	-10.3341
үүлэх	-10.3344
▁барилдаанд	-10.3346
▁чоно	-10.3347
▁тивийн	-10.3349
ги	-10.335
ул	-10.3351
▁зөрүүтэй	-10.3354
дэх	-10.3358
▁тогтоомжийн	-10.3359
эдийн	-10.336
▁дэвшил	-10.3362
▁хүлээлт	-10.3365
▁баахан	-10.3367
▁хөгжүүлэхэд	-10.3375
▁тэмцэж	-10.3379
▁мөч	-10.338
▁нэгний	-10.3383
▁1.5	-10.3386
▁хаалттай	-10.3391
▁95	-10.3395
▁нутгаас	-10.3395
▁мэдэлд	-10.3401
▁хөгжих	-10.3405
▁зориулалтаар	-10.3409
▁төслүүдийн	-10.3409
24	-10.341
то	-10.3413
▁ханддаг	-10.3415
▁энэтхэгийн	-10.3415
▁судалгаанд	-10.3418
▁анхаарлын	-10.3419
▁mnb	-10.3419
▁эдүгээ	-10.3421
▁уралдааны	-10.3423
▁хам	-10.3427
▁хөгшин	-10.3432
▁хүндэтгэлийн	-10.3434
▁брэнд	-10.3436
▁ангилалд	-10.3436
▁малчдын	-10.3437
▁тн	-10.3437
▁ертөнцийн	-10.3441
▁анд	-10.3447
▁үер	-10.3449
▁гардуулах	-10.3449
▁сануулж	-10.3455
▁өрсөлдөгч	-10.3458
▁бөмбөгийн	-10.3462
▁дэвшүүлж	-10.3462
эг	-10.3463
▁туулах	-10.3467
▁баримталж	-10.3467
▁гагцхүү	-10.3469
▁хөрс	-10.3472
▁дугаарын	-10.3474
▁63	-10.3477
▁ярилцах	-10.3479
▁илэрхийлэв	-10.3483
?”	-10.3485
▁хөөрхий	-10.3487
▁f	-10.349
▁мэргэшсэн	-10.3492
▁ярилаа	-10.3493
▁болсноор	-10.3503
▁байгууллагыг	-10.3504
▁иргэдээ	-10.3504
▁ерөнхийдөө	-10.3507
▁явдлын	-10.3507
wikimon	-10.3508
▁хаалганы	-10.3514
▁хийд	-10.3515
▁санагдаж	-10.3519
▁аюулаас	-10.3523
▁статистикийн	-10.3534
▁2005	-10.3547
▁гаргахад	-10.3549
ха	-10.355
▁нөхцлийг	-10.3552
▁өндөртэй	-10.3553
▁олонхи	-10.3554
▁хангалтгүй	-10.3557
▁үзжээ	-10.3565
▁тулгуур	-10.3565
▁тайланд	-10.3568
▁адуу	-10.3572
▁мягмар	-10.3573
▁зогсоол	-10.3575
▁iii	-10.3575
гай	-10.3576
80	-10.3576
▁хэлэлцээрийн	-10.358
▁олгохоор	-10.3586
▁тодруулах	-10.3587
▁ад	-10.3587
▁булан	-10.3589
▁сонирхож	-10.3595
▁засаглал	-10.36
▁болдоггүй	-10.3604
▁журмаар	-10.3605
▁туйлын	-10.3607
▁өнөөг	-10.3618
▁хянаж	-10.3618
▁баялгийн	-10.3618
ина	-10.3621
▁дэвшиж	-10.3623
▁олгоно	-10.3626
▁өгөөч	-10.3627
▁очиход	-10.3627
вол	-10.3627
▁болгоомжтой	-10.3628
▁төрүүлж	-10.363
▁хичээж	-10.3632
▁сурталчилгааны	-10.3633
▁ирээгүй	-10.3637
▁тустай	-10.3637
▁хүслээ	-10.3638
▁буцааж	-10.364
▁зэсийн	-10.3643
▁татвараас	-10.365
▁ажилтны	-10.3651
▁сандал	-10.3662
▁надтай	-10.3664
▁өвчнөөс	-10.3664
▁байгуулахад	-10.3665
▁re	-10.3665
▁иргэдийнхээ	-10.3667
▁мөнгөтэй	-10.3678
▁мандал	-10.3678
indaa	-10.3681
алт	-10.3681
▁мөсөн	-10.3686
▁зуурын	-10.3687
илж	-10.3691
▁парк	-10.3694
эж	-10.3697
▁шийдвэрийн	-10.37
бямбацогт	-10.37
▁шүд	-10.3701
▁санхүүжүүлэх	-10.3702
▁харуул	-10.3705
▁алд	-10.3707
шир	-10.371
жуулах	-10.371
▁ми	-10.3711
▁болчихоод	-10.3714
▁тушаалтнууд	-10.3715
▁зогссон	-10.3716
▁broadcaster	-10.3719
луулах	-10.372
▁үйлчилж	-10.3721
70	-10.3721
▁хязгаарлах	-10.3725
▁эхлүүлж	-10.3726
▁найрсаг	-10.3727
▁ялгаатай	-10.3728
▁хамгаалалт	-10.373
▁бүрдэх	-10.3731
▁бололцоо	-10.3737
▁учруулсан	-10.374
▁жагсаалт	-10.374
▁зогсох	-10.3742
▁буулгах	-10.3744
▁жишээлбэл	-10.3746
▁ол	-10.375
▁(0)	-10.3754
45	-10.3756
▁дуулж	-10.3756
▁2004	-10.3757
▁ажилгүй	-10.3758
лэсэн	-10.3758
▁хэрэглэгчийн	-10.3762
▁шалтгаалан	-10.3767
▁хаах	-10.3768
▁худаг	-10.3778
▁дагуулж	-10.3781
▁санаанд	-10.3782
▁амжилтыг	-10.3783
▁гоол	-10.3784
▁цар	-10.3785
хөн	-10.3786
иж	-10.3787
нийслэлийн	-10.3787
▁түймрийн	-10.3788
▁сэргийлж	-10.3789
▁захидал	-10.3789
▁туз	-10.379
▁номыг	-10.38
▁метрийн	-10.3802
▁ко	-10.3802
▁тутам	-10.3802
ра	-10.3803
▁намынхаа	-10.3804
онд	-10.3805
▁өгөөгүй	-10.3808
▁цаасны	-10.3816
▁хаягдал	-10.3821
▁бүрэлдэхүүнтэй	-10.3823
▁үхэх	-10.3824
▁жи	-10.3827
▁хэвээрээ	-10.3827
▁зүс	-10.3831
бай	-10.3832
▁хүнээ	-10.3833
▁санхүүжилтийг	-10.3833
k	-10.3835
хийн	-10.3835
▁үзээгүй	-10.3839
▁явуулахад	-10.3841
▁бөөн	-10.3844
▁төвшинд	-10.3847
▁эзэд	-10.3848
▁зурах	-10.3859
▁үнэнийг	-10.386
▁шимтгэл	-10.3861
▁дотуур	-10.3867
▁оюу	-10.3868
▁тойргийн	-10.3869
▁нуруу	-10.3873
▁хадгаламж	-10.3874
▁барилдлага	-10.3877
▁дүнгийн	-10.3877
ганхуяг	-10.3879
-04	-10.3881
▁хав	-10.3884
▁начин	-10.389
▁үндсэндээ	-10.3893
▁путин	-10.3894
▁сахиулах	-10.3895
▁түрээсийн	-10.3905
▁зарчмыг	-10.3913
▁хурлаас	-10.3916
▁1-6	-10.3917
▁бут	-10.392
▁үеэрээ	-10.392
▁татгалзах	-10.3928
▁хэлснээр	-10.3928
▁тархи	-10.3946
▁салах	-10.3948
▁олборлолт	-10.3948
▁засаглалын	-10.3949
▁бүлэглэл	-10.3949
▁бүжиг	-10.395
▁аргыг	-10.3953
▁зүүд	-10.3962
▁гарахад	-10.3962
▁зурагт	-10.3962
▁үргэлжлүүлэх	-10.3965
▁танилцуулав	-10.3972
▁хамарсан	-10.3976
▁газруудад	-10.3978
▁зарлиг	-10.398
▁камер	-10.3981
▁цег	-10.3984
▁чихэр	-10.3984
▁биелүүлэх	-10.3985
▁түгээмэл	-10.3988
▁тогтоолыг	-10.3989
▁мэдээлжээ	-10.3995
▁украины	-10.3995
бол	-10.3995
▁хийв	-10.3996
▁эсхүл	-10.3997
▁канад	-10.3998
▁системд	-10.3999
▁хамаарч	-10.4001
до	-10.4002
иас	-10.4003
▁үйлдвэрлэсэн	-10.4013
▁буцалтгүй	-10.4014
▁бүлэгт	-10.4017
▁боловсролтой	-10.402
▁сэтгэлээ	-10.4028
▁цалингийн	-10.4034
▁бодоход	-10.4036
▁жүжиг	-10.4039
▁мөрөөдөл	-10.4043
батзандан	-10.4044
▁өгөхөөр	-10.4048
▁тусгах	-10.4049
▁арилжаа	-10.4061
▁тойрон	-10.4062
▁түрүү	-10.4064
▁хамаарах	-10.4065
▁хувьцааг	-10.4068
▁аппарат	-10.4071
▁бөхчүүд	-10.4077
▁хэнийг	-10.4079
▁онол	-10.408
▁бэр	-10.4084
▁бохирдлын	-10.4089
▁нутгийг	-10.4092
▁эрдмийн	-10.4093
▁олонд	-10.4094
▁үнэлэх	-10.4096
▁зэрэгцэн	-10.4103
▁тэгэхэд	-10.4104
чиг	-10.4107
▁олимп	-10.4107
дгийг	-10.4112
▁бодлогоор	-10.4115
ет	-10.4129
▁дэглэм	-10.413
▁дамжуулж	-10.4131
ард	-10.4132
цаг	-10.4134
▁одтой	-10.4141
▁250	-10.4142
▁иргэдтэй	-10.4143
▁амрах	-10.4144
▁ойд	-10.4144
үндэсний	-10.4145
▁буурах	-10.4147
▁ес	-10.4147
▁мэргэжилтэй	-10.4148
▁ин	-10.4149
▁авьяас	-10.4151
▁найм	-10.4157
▁чадсангүй	-10.4161
▁шалгаруулалт	-10.4161
▁олноор	-10.4169
▁уулзвар	-10.4169
ладаг	-10.4174
(	-10.4175
▁үүгээр	-10.418
▁хоёрт	-10.4187
▁аан	-10.4189
▁мөрөн	-10.419
▁хандуулж	-10.4192
▁түлш	-10.4192
▁ди	-10.4194
▁сурсан	-10.4197
▁нойр	-10.4197
▁15-20	-10.42
▁хэлээр	-10.4207
▁үндэслэлээр	-10.4208
▁хардаг	-10.4211
▁шаардагдах	-10.4213
▁мэдээлэх	-10.4213
▁өнөөдрөөс	-10.422
▁тэргүүлэгчдийн	-10.4221
▁бидэнтэй	-10.4222
ая	-10.4223
дар	-10.4223
ва	-10.4224
цог	-10.4225
▁зуух	-10.4228
агийн	-10.4229
▁намуудын	-10.4233
▁хэрэгжүүлэгч	-10.4234
▁хүрчээ	-10.4235
▁марк	-10.4237
▁төрлөөр	-10.4239
ия	-10.4244
▁сайжруулж	-10.4245
▁төхөөрөмжийг	-10.4249
▁хэмээсэн	-10.425
▁доорх	-10.425
▁чадлаа	-10.4252
▁корпораци	-10.4252
ar	-10.4253
▁маркийн	-10.4253
▁асуулга	-10.4256
▁суртал	-10.4257
▁8-13	-10.4262
▁хийхдээ	-10.4262
▁зэрэгт	-10.4271
▁зарах	-10.4273
▁жагсаалтыг	-10.4274
тэл	-10.4277
▁баригдаж	-10.4277
▁гишүүдийг	-10.4279
▁музей	-10.4279
▁дуугүй	-10.4279
▁материалыг	-10.428
▁талархаж	-10.428
-2	-10.428
▁сөх	-10.4285
▁хэлэлцүүлэх	-10.4287
▁нум	-10.4288
▁дэлгэр	-10.4291
▁амтай	-10.4291
▁гишүүдэд	-10.4293
▁зураач	-10.4294
▁болгоход	-10.4296
▁юү	-10.4305
▁зөн	-10.431
▁зэрлэг	-10.4311
▁барилдааны	-10.4315
▁оршдог	-10.4316
▁байгуулжээ	-10.4324
▁чадаж	-10.4328
ск	-10.4328
▁ханган	-10.4329
▁түлхүү	-10.4334
▁учрыг	-10.4334
▁59	-10.4344
▁толь	-10.4352
▁оролцохоор	-10.4352
▁шид	-10.4352
▁зүтгэл	-10.4357
▁уурын	-10.4358
▁хангайн	-10.4361
▁насан	-10.4364
▁заслын	-10.4366
▁хураах	-10.4369
соор	-10.4371
▁хаашаа	-10.4373
▁будаа	-10.4376
▁орлоо	-10.4379
.10.	-10.4381
▁сэтгүүлчдэд	-10.4381
▁элч	-10.4383
гий	-10.4385
▁австрали	-10.4386
▁гарцаагүй	-10.4388
▁шаардсан	-10.4389
▁аймгаас	-10.439
▁жирэмсэн	-10.439
▁жан	-10.4393
батсайхан	-10.4394
▁хойч	-10.4398
▁хүртэх	-10.4398
▁үндэстний	-10.4399
▁хэлтэст	-10.44
▁засагч	-10.4401
▁үүлэрхэг	-10.4402
▁найзууд	-10.4403
▁нэгдэн	-10.4406
уудаас	-10.4411
▁үүсээд	-10.4412
▁хөлсний	-10.4413
▁эрүү	-10.4415
рио	-10.4417
▁үргэлжилсэн	-10.4418
▁холбох	-10.4418
▁компанитай	-10.442
▁долоодугаар	-10.4421
▁үерийн	-10.4431
▁цаасан	-10.4435
ших	-10.4437
▁үүдэлтэй	-10.4438
▁гүйж	-10.4438
▁доошгүй	-10.4438
шударга	-10.4439
▁зохицуулалтыг	-10.4446
уг	-10.4448
▁үхсэн	-10.4448
▁зохицуулалтын	-10.4448
▁хийгдэх	-10.4455
▁асуухад	-10.4457
▁хөвсгөлийн	-10.446
▁мэдэгдэх	-10.4462
өөрөө	-10.4462
▁14-16	-10.4468
▁хо	-10.4471
▁өртөж	-10.4473
▁нүх	-10.4473
▁тоонд	-10.4475
▁ирэхээр	-10.4479
▁засч	-10.4485
▁тарих	-10.4486
▁гай	-10.4493
▁үзлээ	-10.45
▁66	-10.4501
▁өчүүхэн	-10.4505
гэ	-10.4509
▁ордыг	-10.4518
▁гэхээс	-10.452
▁гамшгаас	-10.4523
▁мон	-10.4524
▁явахдаа	-10.4524
▁буцах	-10.4525
гоос	-10.453
▁улсууд	-10.4535
▁заалдах	-10.4536
▁татгалзсан	-10.4538
▁гэмээр	-10.454
чилж	-10.4542
▁10.00	-10.4543
сүхбаатар	-10.4543
бу	-10.4544
▁мэдлийн	-10.4548
▁төдийлөн	-10.455
▁таарсан	-10.4551
▁амарч	-10.4554
▁хөлөө	-10.456
даад	-10.4561
▁толгойг	-10.4562
үүлсэн	-10.457
▁түнш	-10.4577
”-	-10.4579
▁тоглолтыг	-10.4582
▁11.00	-10.4585
on	-10.4586
▁өсөж	-10.4592
ганбат	-10.4595
▁дураараа	-10.46
▁таньд	-10.4601
▁удирдан	-10.4602
-11	-10.4604
▁малгай	-10.4605
▁гишүүнийг	-10.4609
▁сирийн	-10.4613
ем	-10.4617
▁төлөвлөжээ	-10.462
▁унтаж	-10.4621
▁нэмэгдэнэ	-10.4622
ням	-10.4623
▁са	-10.4624
▁жуулчлал	-10.4624
▁шуудан	-10.4628
рал	-10.4633
-07	-10.4636
▁орхисон	-10.4639
▁сонгогчдын	-10.4639
▁жишээтэй	-10.4643
▁нислэг	-10.4647
▁цолтой	-10.4657
re	-10.4658
▁үүн	-10.4665
▁суваг	-10.4666
▁ширүүн	-10.4666
лэв	-10.4674
▁гартаа	-10.4675
▁үгээ	-10.4676
▁ялсан	-10.4687
▁зээлээ	-10.4687
▁атлаа	-10.4694
▁бүрдэнэ	-10.4696
75	-10.4699
өлзий	-10.4699
▁тэжээлийн	-10.47
▁статистик	-10.47
▁нийлж	-10.4701
▁ордын	-10.4703
▁шийтгэх	-10.4704
▁тулгуурлан	-10.4704
▁160	-10.4706
▁сөргөөр	-10.4707
эрдэнэчимэг	-10.4709
▁оролцогчид	-10.4711
▁мэдлээ	-10.4711
▁хөнөөсөн	-10.4713
▁ололт	-10.4714
▁ухаантай	-10.4715
▁алс	-10.472
▁сэтгэлтэй	-10.4728
▁тэндээс	-10.4729
▁үзүүлнэ	-10.4729
▁хөөрхөн	-10.4733
▁амлалт	-10.4733
▁бэлтгэлээ	-10.4735
▁дотны	-10.4736
▁хэний	-10.4736
▁72	-10.4738
▁тусгаж	-10.4743
ел	-10.4752
▁ширээний	-10.4755
▁өршөөлийн	-10.4756
▁чадварлаг	-10.4757
▁нойтон	-10.4757
▁зоригтой	-10.4758
▁да	-10.4762
▁ойролцоогоор	-10.4765
▁хбнгу	-10.4765
▁нааш	-10.4766
▁сэтгэлээр	-10.4769
▁хайгуулын	-10.4771
▁этгээдийн	-10.4784
от	-10.4786
▁тендер	-10.4786
▁уламжлалтай	-10.4788
эрүүл	-10.4788
▁шүүгчийн	-10.479
▁ханд	-10.4794
!--	-10.4797
▁гэрээгээр	-10.4802
▁тоглоомын	-10.4802
▁хө	-10.4806
рай	-10.4807
▁эрэгтэйчүүдийн	-10.4808
▁эдэлж	-10.4819
▁стратеги	-10.4828
▁уншаад	-10.4828
▁шинэхэн	-10.483
▁өнгөтэй	-10.4835
▁гайхамшигтай	-10.4836
шиг	-10.484
▁томилсон	-10.484
▁нийтээр	-10.4842
▁ажилчдын	-10.4842
▁for	-10.4842
▁үзх	-10.4842
дээд	-10.4843
▁дотроос	-10.485
▁гадагш	-10.4852
өх	-10.4852
▁дотооддоо	-10.4855
▁мэтчилэн	-10.486
тээ	-10.486
ей	-10.4862
▁обег	-10.4862
▁захиалга	-10.4863
▁уялдаа	-10.4864
▁хариуг	-10.4865
.11.	-10.4866
▁тоглолтоо	-10.4866
гээд	-10.4867
▁экспортлох	-10.4868
▁намыг	-10.4872
▁мөртлөө	-10.4874
гантөмөр	-10.488
лөө	-10.4881
▁шүүхээр	-10.4885
▁хэвтэж	-10.4887
▁асуух	-10.4892
▁тогтоогдсон	-10.4897
лүүлэх	-10.4901
рав	-10.4905
▁этгээдийг	-10.4908
▁уугуул	-10.4909
▁хүсэн	-10.4912
▁үх	-10.4912
ой	-10.4917
▁өгөөж	-10.4917
▁авчирсан	-10.4918
▁удам	-10.4922
▁зарцуулж	-10.4922
▁таарна	-10.4923
▁тогтворгүй	-10.4925
▁хөрсний	-10.4925
▁шийдвэрээ	-10.4926
▁түрүүлсэн	-10.4929
энхтүвшин	-10.4937
▁1992	-10.4942
▁тийшээ	-10.4942
▁түүгээр	-10.4946
▁эрхэлдэг	-10.4947
▁мансууруулах	-10.4949
▁үйлдвэрт	-10.4956
▁тараах	-10.4957
▁нэлээн	-10.4959
▁оржээ	-10.4966
▁цээж	-10.4968
▁туяа	-10.4968
▁гариг	-10.4968
▁дарах	-10.4973
▁хэнтэйн	-10.4979
▁ямагт	-10.498
▁туршид	-10.4982
▁цайны	-10.4984
▁босго	-10.4987
▁хүмүүнлэгийн	-10.4988
▁бодлогоо	-10.4988
▁байгуулалттай	-10.4988
▁босгох	-10.499
▁е	-10.4993
▁орчинг	-10.4993
▁тамирчдын	-10.4993
аан	-10.4999
хий	-10.5
▁компаний	-10.5001
▁ургамлын	-10.5001
34	-10.501
▁ялгаа	-10.5015
▁урьдчилгаа	-10.5019
▁улсынхаа	-10.5023
▁бүхэл	-10.5025
▁зээлээр	-10.5029
▁лигийн	-10.5032
лин	-10.5034
▁хүйтнээс	-10.5035
▁шалгалтыг	-10.5035
▁хэлэлцүүлгийн	-10.5038
▁g	-10.5044
▁үнэлгээний	-10.5045
▁мөрдөж	-10.5046
▁мин	-10.5049
гантулга	-10.5051
лүүлж	-10.506
гүйн	-10.5064
▁дуудаж	-10.5064
▁нээсэн	-10.5071
▁дүрд	-10.5078
▁компаниудад	-10.5079
▁85	-10.5079
▁таних	-10.5083
▁бэрх	-10.5087
хүн	-10.5089
▁мэргэжлээр	-10.5092
▁илэрхийлээд	-10.5097
▁шав	-10.5104
уд	-10.5106
▁өсгөх	-10.5108
үүлэн	-10.5114
▁санг	-10.5116
▁гэрчилгээ	-10.5122
▁байгаарай	-10.5123
чихээд	-10.5125
▁форум	-10.5126
▁талаасаа	-10.5127
▁тайланг	-10.5129
▁өөрчлөгдөж	-10.5131
▁дараарай	-10.5132
▁байхын	-10.5133
▁тодорхойлолт	-10.5135
▁барихаар	-10.5141
▁бүрдэж	-10.5143
▁хааяа	-10.5146
▁хортой	-10.5147
▁чинээ	-10.5151
ед	-10.5153
bloombergtv	-10.5154
▁урилгаар	-10.5154
▁нийцүүлэн	-10.5156
▁хуваарийн	-10.5161
▁чадвараа	-10.5166
▁давхарт	-10.5171
▁чуулганд	-10.5173
чихлаа	-10.5178
▁доторх	-10.5178
▁учраа	-10.5183
▁700	-10.5183
▁битүү	-10.5184
хаан	-10.5187
▁оруулна	-10.5188
▁тарааж	-10.5188
▁дурсамж	-10.5189
the	-10.5192
▁тусдаа	-10.5201
▁шалгарч	-10.5206
▁илрэл	-10.5209
▁мандан	-10.5216
▁отрын	-10.5216
▁барилдаж	-10.5221
▁авгай	-10.5221
-03	-10.5221
▁хамар	-10.5222
▁тодрууллаа	-10.5224
▁мундаг	-10.5228
▁маягаар	-10.523
▁тусгажээ	-10.5231
▁69	-10.5232
▁баруунаас	-10.5233
▁март	-10.5235
▁дагавар	-10.5235
дав	-10.5236
55	-10.5238
▁13-18	-10.5239
▁хураамж	-10.5239
раад	-10.524
▁нийгэмлэг	-10.524
▁амны	-10.5242
▁тархины	-10.5242
▁хариуд	-10.5246
▁айдас	-10.5247
▁алаг	-10.5248
алсан	-10.5248
▁хязгаарлалт	-10.5253
▁бичгээр	-10.5253
▁өвөг	-10.5254
▁багаж	-10.5261
▁тэтгэмж	-10.5261
▁тээвэрлэх	-10.5267
▁ши	-10.5269
▁шилжүүлж	-10.5273
▁гэмтсэн	-10.5276
▁хөгжсөн	-10.5278
▁юмсан	-10.528
▁сувилагч	-10.5281
▁даган	-10.5282
▁эмх	-10.5286
луулсан	-10.529
▁нягтлан	-10.529
▁сүүлдээ	-10.5291
уулаад	-10.5294
▁гүнзгий	-10.5295
▁төстэй	-10.5297
▁?	-10.5297
▁станцын	-10.5298
▁гээч	-10.5299
▁бүсгүйн	-10.5303
▁барина	-10.5303
ch	-10.5306
▁гэдэс	-10.5309
:30	-10.531
▁хонгор	-10.5311
▁нараас	-10.5313
▁өвөө	-10.5314
▁уруу	-10.5319
▁иргэддээ	-10.532
▁өөрсдийнхөө	-10.5325
▁олдсон	-10.5327
▁бүрдүүлсэн	-10.5327
▁зарлан	-10.5329
▁гаргахаар	-10.5333
▁юмыг	-10.5334
▁чиглэлийг	-10.5337
▁эмгэг	-10.5342
▁хүчит	-10.5345
▁боломжийн	-10.5357
арч	-10.536
▁боловсруулан	-10.536
▁тусгагдсан	-10.5361
▁мисс	-10.5362
баярцогт	-10.5364
лэл	-10.5365
наран	-10.5373
▁монголдоо	-10.5374
▁унтах	-10.5375
өг	-10.5379
▁хэлэлцээрийг	-10.5379
▁багаар	-10.5379
▁хай	-10.538
▁даан	-10.5384
үүн	-10.539
▁тэнгэрт	-10.539
▁нэмрээ	-10.5392
▁кар	-10.5396
▁тамга	-10.5396
дон	-10.5399
▁зорьсон	-10.5402
36	-10.5403
▁охиныг	-10.5403
▁оруулахаар	-10.5406
▁хүндийг	-10.5407
▁гр	-10.5408
▁хашиж	-10.5413
▁сонс	-10.5414
▁санаачилсан	-10.5414
▁бүрээр	-10.5416
▁евро	-10.5417
▁хүмүүсээс	-10.542
▁эрхлэгчдийн	-10.5421
▁бүтээлээ	-10.5424
▁утгатай	-10.5424
▁хээр	-10.5425
▁өдрүүд	-10.5429
▁эмчлэх	-10.543
оюунхорол	-10.5433
рэх	-10.5434
лага	-10.5435
▁бэлчир	-10.5438
▁зарчмаар	-10.5439
▁танилцсан	-10.544
▁be	-10.5443
▁оруулагчид	-10.5444
▁санах	-10.5445
▁тэг	-10.5447
▁хутга	-10.5449
mminfo	-10.5449
▁дүнгээ	-10.5451
▁үүрэгт	-10.5452
▁төлөөлж	-10.5453
▁энхийг	-10.5456
▁зорилтот	-10.5457
▁талх	-10.5459
amp	-10.5461
ныхаа	-10.5468
▁эхэн	-10.5474
▁товчоо	-10.5483
▁нэгтгэн	-10.5484
▁таалагдвал	-10.5487
▁сэтгүүлчид	-10.5488
▁бүтээгдэхүүнээ	-10.5488
▁мэдрэх	-10.5489
▁гоц	-10.549
▁хэдийн	-10.5493
ээгүй	-10.5494
снийг	-10.5495
▁хэлэлцлээ	-10.5495
▁64	-10.5499
▁сонгуулийг	-10.5503
ло	-10.5507
хад	-10.551
▁9-14	-10.551
▁боомт	-10.5515
▁зовж	-10.5516
▁хэлмээр	-10.5522
▁хорио	-10.5522
▁тэн	-10.5523
▁тэгтэл	-10.5524
▁алдалгүй	-10.5526
▁тэнцвэртэй	-10.5527
▁менежмент	-10.5528
▁хэрэгцээг	-10.5528
▁тогтоомж	-10.553
▁усаар	-10.5534
▁тогтнол	-10.5534
▁самбар	-10.5536
▁ханшийн	-10.5542
▁вакцин	-10.5543
▁дуулиан	-10.5546
▁таарч	-10.5547
оод	-10.5551
▁хайрлаж	-10.5552
▁улсаа	-10.5553
ван	-10.5553
▁борооны	-10.5555
▁оролцов	-10.5562
▁t	-10.5562
▁is	-10.5564
il	-10.5566
▁дэвшүүлэх	-10.5567
▁эзэмшдэг	-10.5567
▁түмэндээ	-10.5567
▁мэдээг	-10.5568
th	-10.557
▁улстөрч	-10.5571
▁зорилтыг	-10.5572
▁тэднээс	-10.5574
снээс	-10.5579
▁чуулганыг	-10.5583
▁гайгүй	-10.559
▁больсон	-10.5592
▁эмчийн	-10.5594
▁дүгнэлтээ	-10.5596
су	-10.5597
сийн	-10.5599
▁материалын	-10.56
өр	-10.5601
▁eagle	-10.5604
▁манан	-10.5608
▁дэмждэг	-10.5608
▁утгаар	-10.561
▁вирус	-10.5617
▁өөрчлөгдсөн	-10.5617
▁ойлгодог	-10.5618
▁баримтлал	-10.5618
▁68	-10.5619
▁өнцөг	-10.5621
▁оршиж	-10.5626
▁баярыг	-10.5628
▁өгүүлсэн	-10.5631
даваасүрэн	-10.5632
са	-10.5635
▁чөлөөний	-10.5636
▁шинжээчид	-10.564
▁тар	-10.564
▁холбоог	-10.564
цогтбаатар	-10.5644
▁эвлэлийн	-10.5645
▁эдгээрийн	-10.5645
▁хурим	-10.5646
▁өдөрлөг	-10.5646
▁сургуулиуд	-10.5649
▁үйлс	-10.5652
▁төлбөрөө	-10.5652
▁сураггүй	-10.5655
▁бааз	-10.5665
лож	-10.567
▁гэхээсээ	-10.5674
▁саруул	-10.5676
▁ороход	-10.5677
▁экс	-10.5678
▁дараагаар	-10.5678
▁хятадад	-10.5678
▁хангахад	-10.568
зууны	-10.5692
иар	-10.5692
дийг	-10.5694
▁тавина	-10.5701
▁уулзалтаар	-10.5701
▁онцлов	-10.5704
▁хувьдаа	-10.5712
▁тулаан	-10.5713
▁гарагийн	-10.5714
▁ойлгосон	-10.5722
▁хайрлах	-10.5722
▁дагуул	-10.573
▁w	-10.5737
▁авчрах	-10.5741
▁угтан	-10.5742
▁суудалтай	-10.5749
▁асуув	-10.575
уулдаг	-10.575
▁өвдөх	-10.5752
дсэн	-10.5753
▁үүргийн	-10.5759
▁салаа	-10.576
нээ	-10.5765
▁зэрэглэлийн	-10.5766
▁61	-10.5771
▁ажиллаад	-10.5772
un	-10.5774
▁илрүүлэх	-10.5777
▁шалгалтаар	-10.5779
нуудыг	-10.578
▁дай	-10.5784
▁2003	-10.5786
▁сураг	-10.5786
▁бодисын	-10.5786
▁7.	-10.5787
▁үлдээсэн	-10.5788
500	-10.5791
▁тооцсон	-10.5791
▁эцэс	-10.5794
кг	-10.5796
▁интернэт	-10.5799
▁дайрч	-10.5799
▁австралийн	-10.5803
▁хийлгэж	-10.5804
▁амжаагүй	-10.5809
▁ааш	-10.5811
▁зөвшөөрөх	-10.5811
▁түмнийхээ	-10.5813
▁буд	-10.5814
▁хошууч	-10.5817
▁итали	-10.582
▁байгууллагатай	-10.5822
▁өрийг	-10.5826
▁компаниас	-10.5828
▁хайгуул	-10.583
▁сүнс	-10.5833
▁зөвшөөрөлгүй	-10.5836
▁ээлжийн	-10.5841
▁тарьж	-10.5847
▁хуралдааныг	-10.5847
ок	-10.5848
вар	-10.5858
инг	-10.5859
▁оронч	-10.5862
▁стандартыг	-10.5865
▁ялж	-10.5865
дад	-10.5866
▁ялыг	-10.5867
▁ажиллахад	-10.5868
▁тогтворжуулах	-10.5869
▁армийн	-10.5872
төр	-10.5872
▁бүлэглэлийн	-10.5877
▁тодорхойлсон	-10.5878
▁хүр	-10.588
▁зул	-10.5882
▁нэгдэх	-10.5882
▁мэдлийг	-10.5885
▁рио	-10.5886
▁санагдана	-10.5887
▁бүхэлд	-10.589
▁тохижилт	-10.5895
цэцэг	-10.5901
90	-10.5902
▁болтугай	-10.5902
▁илгээсэн	-10.5904
▁охиноо	-10.5906
▁хуулинд	-10.591
▁нэрлэдэг	-10.5911
▁сургуулиудын	-10.5913
▁бнасау	-10.5915
рээ	-10.5916
▁хүйтний	-10.5919
es	-10.592
▁үзэсгэлэнгийн	-10.5921
▁тусалж	-10.5923
чдийн	-10.5923
гэж	-10.5924
▁тэртээ	-10.5925
▁барил	-10.5925
▁харлаа	-10.5927
▁байшингийн	-10.5929
▁шилжилт	-10.593
лэ	-10.5931
долларыг	-10.5933
▁замбараагүй	-10.5934
▁амийг	-10.5945
undesten	-10.5946
ганболд	-10.5948
үн	-10.5948
▁ярьжээ	-10.5958
▁хир	-10.5962
▁байгуулагдсаны	-10.5963
▁туг	-10.5963
▁зөвлөгөөн	-10.5966
▁11:00	-10.5969
▁татгалзаж	-10.5971
an	-10.5971
▁2002	-10.5972
▁гарсаар	-10.5972
▁үзэгч	-10.5976
▁сонинд	-10.5978
▁сал	-10.5978
▁цонх	-10.5985
▁төлөвлөгөөтэй	-10.5989
▁британи	-10.5993
▁үйлдэж	-10.5997
▁машиныг	-10.6
▁сайтад	-10.6001
лог	-10.6003
▁илэрхийлье	-10.6004
▁хориглох	-10.6007
▁сумдын	-10.6012
▁жилийг	-10.6012
▁дансны	-10.602
▁үлдэгдэл	-10.6021
▁дайсан	-10.6022
▁төвлөрсөн	-10.6023
▁сам	-10.6027
▁20-25	-10.6029
▁сонирхсон	-10.6038
▁тоос	-10.604
▁хайрхан	-10.6048
it	-10.6049
▁албадан	-10.6049
▁завсар	-10.6049
▁хараахан	-10.6053
▁уян	-10.6059
▁асуусан	-10.6059
▁ахлуулсан	-10.6062
▁сүхбаатарын	-10.6064
▁зардлын	-10.6064
▁шагналын	-10.6066
▁үүсдэг	-10.6068
▁эртнээс	-10.6068
▁эцэслэн	-10.6074
▁мэддэггүй	-10.6074
▁хэлэлцэнэ	-10.6075
▁явагдах	-10.6075
улс	-10.6078
▁одогсод	-10.6078
▁оруулаад	-10.608
туяа	-10.6081
▁амаргүй	-10.6084
▁хүчирхийлэл	-10.6088
үүр	-10.6088
▁olloo	-10.6089
▁хураан	-10.6093
▁орхиж	-10.6093
▁үдэш	-10.6095
▁айраг	-10.6096
▁оролцдог	-10.6101
▁тат	-10.6104
▁ахиц	-10.611
▁гараар	-10.6111
▁шаардах	-10.6112
▁хэрэглэгчдийн	-10.6119
▁завсарлага	-10.612
▁тэмээ	-10.6124
▁инээд	-10.6125
андаа	-10.6127
▁оруулагчдын	-10.6127
▁багийг	-10.6128
▁зориулалттай	-10.613
чихдаг	-10.6132
▁италийн	-10.6133
▁болгожээ	-10.6133
▁хянамгай	-10.6146
▁гэрч	-10.6147
▁бүртгүүлэх	-10.6147
▁амьдралдаа	-10.6151
▁зур	-10.6157
▁нэрлэсэн	-10.6159
бар	-10.6162
заяа	-10.6163
▁өгье	-10.6167
▁клубын	-10.6171
▁бүхнээ	-10.6176
▁62	-10.6176
йл	-10.6179
▁байлдааны	-10.6182
▁дарс	-10.6185
▁гэгддэг	-10.6188
▁агаад	-10.6189
▁ойлгохгүй	-10.619
▁аймшигтай	-10.619
▁нэгдлийн	-10.6192
▁олныг	-10.6193
▁брэндийн	-10.6194
жавхлан	-10.6194
▁осолд	-10.6199
95	-10.6206
лагч	-10.6214
▁зөрүү	-10.6215
▁дуусч	-10.6215
▁хавдрын	-10.6219
со	-10.6219
▁яваар	-10.6223
▁биет	-10.623
те	-10.6237
▁программ	-10.624
▁ашиглалт	-10.6241
▁нөхөх	-10.6241
32	-10.6242
▁японд	-10.6244
▁садан	-10.6249
дох	-10.625
▁өргөтгөл	-10.6252
▁болсны	-10.6258
оосоо	-10.626
▁харцага	-10.626
▁буух	-10.6262
ийнх	-10.6267
▁9605-157	-10.6269
▁барааны	-10.627
▁ноос	-10.6272
▁нялх	-10.6275
▁тодруулж	-10.6277
▁хувааж	-10.6279
▁байгуулалтыг	-10.6281
▁барууны	-10.6281
▁болгохоор	-10.6282
ic	-10.6283
▁дам	-10.6287
▁нэрлэж	-10.629
▁ян	-10.6291
▁зөндөө	-10.6291
▁гардан	-10.6291
ож	-10.6292
▁зөрчилтэй	-10.63
▁mo	-10.6303
жилт	-10.6303
▁юутай	-10.6303
тэмүүжин	-10.6306
▁хэвшил	-10.6307
▁монголоос	-10.6307
▁байн	-10.6309
▁эзэмшсэн	-10.6309
▁алхаж	-10.631
▁цуглуулж	-10.6312
▁шив	-10.6316
▁h	-10.6316
жил	-10.6316
▁бүртгүүлсэн	-10.6319
▁хулгайч	-10.6322
▁гэрэлт	-10.6323
▁учруулж	-10.6324
▁шүтэн	-10.6328
▁1998	-10.633
ариунболд	-10.6331
ахад	-10.6334
▁нэвтрүүлж	-10.6339
▁шинжээч	-10.634
▁ууланд	-10.6341
▁халдлага	-10.6346
дэд	-10.6347
▁өлгий	-10.6354
▁оруулалтаар	-10.6355
▁аманд	-10.6356
▁ширээ	-10.6358
▁торгууль	-10.6358
лгүй	-10.6359
-1	-10.6362
цэрэн	-10.6363
▁иш	-10.6371
▁арын	-10.6371
▁гарвал	-10.6376
▁оролдлого	-10.638
▁өөх	-10.6384
▁харри	-10.6386
▁аяныг	-10.6387
▁хайрын	-10.6387
▁цорын	-10.6388
▁96	-10.6393
▁ялгаагүй	-10.6393
▁эргүүл	-10.6395
▁олз	-10.6396
▁унд	-10.6399
ur	-10.6401
лагдсан	-10.6402
▁менежментийн	-10.6402
▁аялах	-10.6402
лд	-10.6406
▁түлхүүр	-10.6409
▁гуйж	-10.6417
алгүй	-10.6419
▁тэргүүнд	-10.6419
▁залуусыг	-10.6423
▁жаргана	-10.6429
33	-10.6429
ум	-10.6435
▁гаргахгүй	-10.6436
саа	-10.6437
▁манлай	-10.6439
▁толгойд	-10.6439
▁дэвсгэрийн	-10.644
▁дурлал	-10.6445
▁хэрэгжилтийн	-10.6446
▁парламентад	-10.645
▁өдрөөр	-10.6456
▁уяач	-10.6459
▁нэгтгэж	-10.646
▁гудамжны	-10.6462
▁чармайлт	-10.6463
▁нэгдмэл	-10.6464
▁үргээлгэх	-10.6466
▁захиа	-10.6469
▁дундын	-10.647
▁сү	-10.6471
▁заавар	-10.6472
▁байртай	-10.6473
▁эзэлдэг	-10.6475
▁элс	-10.6475
▁санамсаргүй	-10.6476
▁тайлах	-10.6481
▁дуулах	-10.6484
▁харьцах	-10.6485
хгүй	-10.6492
▁тодотгол	-10.6501
▁тавь	-10.6502
▁оролцуулах	-10.6502
▁шүүмжилж	-10.6506
▁явцыг	-10.6506
ац	-10.6508
▁уялдуулан	-10.6508
▁дэр	-10.6508
▁супер	-10.6509
▁хэрлэнбаян	-10.651
▁бэл	-10.651
▁74	-10.6519
ханд	-10.652
▁хөршийн	-10.6521
▁дансанд	-10.6524
▁бурханы	-10.6525
▁холбож	-10.6527
номин	-10.653
▁тэрбумын	-10.653
▁ажиллалаа	-10.6532
▁дэвшсэн	-10.6535
▁шийдвэрээр	-10.6535
▁өмсөх	-10.6536
▁лекц	-10.6536
▁8.	-10.6536
▁ташаа	-10.6542
▁түвшинг	-10.6542
▁буриад	-10.6544
▁эрхзүйн	-10.6545
▁тог	-10.6545
▁музейн	-10.6546
▁байгууламжийг	-10.6546
▁гэ	-10.6548
▁нэвтрүүлгийн	-10.6553
▁зохицуулж	-10.6555
▁амт	-10.6557
▁хэлцэл	-10.656
▁киног	-10.6564
▁нефтийн	-10.6565
▁гэдгээрээ	-10.6573
▁үзэгчдийн	-10.6574
▁барилдах	-10.6574
▁завгүй	-10.6576
▁хандуулах	-10.6578
▁үзүүлэлттэй	-10.6581
ce	-10.659
отгонбаяр	-10.6591
даваа	-10.6591
▁саарал	-10.6595
▁сүүл	-10.6601
▁үүсвэрийг	-10.6602
▁эрээн	-10.6604
▁харилцаатай	-10.6612
▁хаалт	-10.6612
юу	-10.6618
▁эко	-10.6618
▁ажилтнуудын	-10.6618
▁гуйх	-10.662
▁идэвхитэй	-10.6622
▁тогтоожээ	-10.6626
▁миеэгомбын	-10.663
▁агуулсан	-10.6632
ук	-10.6634
▁индекс	-10.6635
▁хүсэх	-10.6636
▁эмийг	-10.6637
▁хуультай	-10.6637
▁хангамжийн	-10.6639
▁сайжирч	-10.6643
▁угааж	-10.6643
▁гүрний	-10.6645
▁зочин	-10.6652
▁салж	-10.6663
▁өндөг	-10.6665
99	-10.6668
сөөр	-10.667
▁биедээ	-10.6671
▁байгууллагаар	-10.6676
▁төлдөг	-10.6682
▁ээлж	-10.6683
▁нийгэмлэгийн	-10.6687
орон	-10.6688
болдбаатар	-10.6694
▁тасалбар	-10.6702
▁дэвшилтэт	-10.6704
▁босч	-10.6704
▁үеийг	-10.6709
▁зэргээс	-10.6712
▁үйлчилдэг	-10.6713
▁шалган	-10.6715
▁сошиал	-10.6725
▁энхболд	-10.6725
▁дахинд	-10.6731
▁байршил	-10.6731
▁цаад	-10.6733
▁хүүхдийнхээ	-10.6735
▁хэрэгжүүлнэ	-10.6736
▁зурж	-10.6737
78	-10.6739
▁сургамж	-10.6745
▁үнс	-10.6746
жүүлэх	-10.6746
▁ре	-10.675
▁сэтгэлээсээ	-10.6754
▁хэмээжээ	-10.6756
39	-10.6757
▁ikon	-10.6759
▁аавын	-10.6763
▁сургуулиа	-10.6767
▁баримтлалыг	-10.6768
▁дэвшигчид	-10.6772
▁нүцгэн	-10.6776
▁дэв	-10.6779
▁зөвлөлөөс	-10.6786
▁дугаарт	-10.6788
лоод	-10.6789
▁язгуур	-10.679
▁амжилтад	-10.6794
▁хогийн	-10.6794
▁дэмжинэ	-10.6796
▁хамгаалалтад	-10.6803
▁нийлүүлж	-10.6805
ро	-10.6805
▁бул	-10.6806
▁хаагчийн	-10.6809
▁алдагдсан	-10.6817
▁хамгаалалттай	-10.6819
▁нүүрээ	-10.6822
ra	-10.6828
ддаг	-10.683
▁өдий	-10.6832
▁сор	-10.6833
▁акт	-10.684
▁хөтөлбөрөө	-10.6843
▁тур	-10.6844
▁11-16	-10.6845
оны	-10.6846
▁онош	-10.6848
48	-10.6851
▁пи	-10.6851
эт	-10.6853
▁жигд	-10.6854
▁ку	-10.6856
▁баталгаажуулах	-10.6857
▁дональд	-10.686
▁үйлдвэрчний	-10.6863
лүүлсэн	-10.6866
▁ерөнхийлөгчөөр	-10.6867
▁ачааллыг	-10.6869
из	-10.6877
▁тойрсон	-10.6878
▁айлд	-10.6878
▁эргэх	-10.6884
▁намынхан	-10.689
▁шийд	-10.6896
▁хүүхдүүдээ	-10.69
▁тогтнолын	-10.6902
▁мужид	-10.6904
гансүх	-10.691
▁сэргээгдэх	-10.6914
▁хуваарь	-10.6915
69	-10.6917
▁нисэхийн	-10.6918
▁юунаас	-10.6921
бурмаа	-10.6922
▁төрүүлэх	-10.6927
▁бэлчээрийн	-10.6929
▁соёлыг	-10.6929
▁учирсан	-10.693
▁ханиад	-10.693
▁болгохын	-10.6934
чихсон	-10.6935
▁тогтолцооны	-10.6936
▁мар	-10.6937
▁k	-10.6938
unen	-10.694
▁луйвар	-10.6941
▁тасгийн	-10.6945
▁ялалтын	-10.6945
▁монголыг	-10.6949
▁зөвлөлтийн	-10.6952
▁хүртээл	-10.6959
▁ёсыг	-10.696
▁зүү	-10.6963
88	-10.6963
▁18-23	-10.6965
▁өргөдлийн	-10.6967
▁3000	-10.697
▁гараараа	-10.697
▁явахгүй	-10.6972
ly	-10.6974
▁эргэлтэд	-10.6976
▁дурдахад	-10.6985
▁хайрцаг	-10.6986
▁сэдвийн	-10.6986
▁владимир	-10.6988
▁амраг	-10.6994
▁олдохгүй	-10.6999
▁агаарт	-10.7003
▁хэвлэлд	-10.7003
▁70127055	-10.7005
▁тараасан	-10.7007
▁хятадууд	-10.7009
▁шилжсэн	-10.7009
ач	-10.701
▁хүргүүлж	-10.7011
▁онон	-10.7012
▁төрүүлсэн	-10.7016
:40	-10.7017
▁o	-10.7019
▁хотхон	-10.7021
▁төрөлхтний	-10.7022
▁түмнээ	-10.7024
▁туулж	-10.7024
▁төгрөгт	-10.7028
одоо	-10.7031
▁зарлага	-10.7034
▁дорой	-10.7036
▁сольж	-10.7037
цолмон	-10.7038
батсуурь	-10.7039
▁ачаар	-10.704
▁оноогоор	-10.7043
▁хэмнэх	-10.7045
▁согтуу	-10.7047
▁сүүлээр	-10.7047
▁багадаа	-10.7051
▁ядан	-10.7051
вер	-10.7052
▁дайнд	-10.7055
▁түгжрэл	-10.7058
-15	-10.7061
члэн	-10.7065
▁шуа	-10.7067
▁тайзнаа	-10.7073
▁соёрхон	-10.7074
▁байраар	-10.7074
▁байсны	-10.7075
▁автомат	-10.7075
▁фракц	-10.7077
▁хуруу	-10.7077
▁сансрын	-10.7078
▁үйлдвэрүүд	-10.7081
наа	-10.7087
▁цуглаан	-10.7088
▁оролдож	-10.7092
▁гэргий	-10.7103
▁цамц	-10.7103
▁тай	-10.7106
▁голдуу	-10.7107
▁дутагдал	-10.7107
тор	-10.7109
▁9.	-10.711
▁дутагдалтай	-10.7111
▁тархалт	-10.7111
нээсээ	-10.7112
алтанхуягийн	-10.7113
▁үзэсгэлэнд	-10.7117
▁хөдөлж	-10.7118
▁процесс	-10.7119
▁жинтэй	-10.712
▁биеийг	-10.712
▁банкуудын	-10.7122
батхүү	-10.7125
▁хүрдэг	-10.7126
▁харилцаагаа	-10.7131
▁говиор	-10.7135
▁хуулбар	-10.7143
▁онцгойлон	-10.7144
▁макро	-10.7144
▁97	-10.7145
▁оч	-10.7146
рон	-10.7146
▁нөхдүүд	-10.7146
▁дугуйн	-10.7146
▁байгуулаад	-10.7148
▁дуусгах	-10.7154
▁хүсэхгүй	-10.7154
▁эся	-10.7155
▁үгүйсгэхгүй	-10.7166
▁цуг	-10.7167
тол	-10.7167
▁шахалт	-10.7168
▁data	-10.7179
▁ирэхгүй	-10.7179
▁баримтална	-10.7179
▁зузаан	-10.7181
▁сех	-10.7182
▁малтмал	-10.7184
▁суу	-10.7188
▁эгэл	-10.7192
▁ас	-10.7193
▁казахстан	-10.7201
▁дуугаа	-10.7201
▁бүлд	-10.7216
▁үүд	-10.7218
▁шилжиж	-10.7221
▁хариуцлагагүй	-10.7222
▁хариулах	-10.7223
▁далан	-10.7224
85	-10.7226
▁шаарддаг	-10.7228
▁чөлөөлж	-10.7228
наасаа	-10.7231
▁нийтийг	-10.7236
▁засгаас	-10.7241
▁арабын	-10.7241
▁тулж	-10.7244
▁нурууны	-10.7245
▁ахин	-10.7246
▁паспорт	-10.7246
▁академийн	-10.7247
▁өөрөөсөө	-10.7248
▁хөрөнгөө	-10.7248
▁p	-10.7249
▁10:00	-10.7252
оё	-10.7255
▁тиймдээ	-10.7255
▁хүрээг	-10.7257
▁салбарынхан	-10.7264
▁бүртгэлд	-10.7272
▁учирч	-10.7273
▁буянт	-10.7273
▁мөрний	-10.728
▁хүлээлгэх	-10.7284
▁хүргэнэ	-10.7286
▁гэдэсний	-10.7286
▁шатандаа	-10.7291
▁тааруу	-10.7294
▁хүрлээ	-10.7301
le	-10.7301
▁тээвэрлэлт	-10.7303
▁амаа	-10.7303
▁мэдээлэлд	-10.7305
▁180	-10.7305
▁дуулсан	-10.7309
65	-10.7311
гууд	-10.7312
▁гамшиг	-10.7313
▁өвчнийг	-10.7315
лэдэг	-10.7316
▁эз	-10.7318
амаржаргал	-10.7319
▁галзуу	-10.7321
▁өмсөгч	-10.7321
▁харан	-10.7323
▁багтааж	-10.7325
огийн	-10.7326
▁хүргэдэг	-10.7328
▁нисдэг	-10.7329
▁өвөлжилтийн	-10.733
оюутолгой	-10.7331
▁харъяа	-10.7332
▁харь	-10.7335
▁хахууль	-10.7338
▁улаанбаатарын	-10.734
▁ачааны	-10.7342
сар	-10.7342
▁бүрээс	-10.7342
▁хурдтай	-10.7343
▁оролцохыг	-10.7344
▁хэлэлцэхээр	-10.7347
▁14-19	-10.735
уулна	-10.7352
гор	-10.7352
▁харьцаа	-10.7353
▁олдог	-10.7356
▁нүүдэл	-10.7356
▁тавигдах	-10.7356
▁өршөөл	-10.7359
▁73	-10.7359
дай	-10.7361
▁хийдийн	-10.7364
▁таамаг	-10.7365
▁найдвар	-10.7372
▁олборлох	-10.7372
▁лаборатори	-10.7373
▁хээл	-10.7374
▁нэгэнд	-10.7376
▁заншил	-10.7376
▁тэмдэглэсэн	-10.7376
▁анхааралд	-10.7379
▁мөс	-10.7379
▁авир	-10.7381
▁импорт	-10.7388
▁байгуул	-10.739
▁унадаг	-10.739
▁гүний	-10.739
▁сүүний	-10.739
▁нэгжүүдийн	-10.7391
▁там	-10.7393
▁хагалгаа	-10.7394
▁стандартад	-10.7395
▁эдлэл	-10.7396
▁зэвсгийн	-10.7397
дуу	-10.7398
лов	-10.7399
▁талийгаач	-10.7399
▁сүлжээг	-10.74
▁төхөөрөмжийн	-10.7401
▁яриаг	-10.7404
▁хаягдлын	-10.7404
▁тэтгэлэг	-10.7407
▁бразил	-10.7408
▁нөгөөтэйгүүр	-10.7408
өндөр	-10.7409
длаа	-10.7412
▁16-18	-10.7413
▁төвтэй	-10.7413
▁босгож	-10.7413
▁өргөөнд	-10.7414
▁хандлагыг	-10.7415
▁86	-10.7416
▁5000	-10.7422
▁мөчид	-10.7422
▁эдлэх	-10.7424
▁өвчнөөр	-10.7429
▁өтгөн	-10.7435
путин	-10.7436
▁томилгоо	-10.7438
▁зогсоосон	-10.7441
▁арми	-10.7442
fact	-10.7447
▁баригдах	-10.7452
▁яр	-10.7453
оп	-10.7455
▁илрүүлж	-10.7457
▁борлуулалтын	-10.7457
▁хоёрхон	-10.7457
▁лиценз	-10.7459
баян	-10.7459
▁эхлэхэд	-10.7463
▁оролцоотой	-10.7466
▁хамгаалсан	-10.7469
зоригт	-10.7481
▁жүжгийн	-10.7484
▁жингийн	-10.7484
▁илтгэлийг	-10.7486
▁хүргэн	-10.7487
▁алсын	-10.7491
▁ороогүй	-10.7491
▁хэрэглэгчдэд	-10.7492
▁бзд	-10.7492
хүүхдийн	-10.7493
76	-10.7497
-18	-10.75
▁настан	-10.7504
▁өчигдрийн	-10.7507
▁эзэлсэн	-10.7512
▁"...	-10.7512
▁шинэлэг	-10.7513
изм	-10.7516
▁сууцанд	-10.7518
▁топ	-10.7519
өж	-10.752
▁арал	-10.752
▁шүдний	-10.7522
▁88	-10.7523
▁алдагдалтай	-10.7524
▁өөдөөс	-10.7526
шгүй	-10.7528
▁bolod	-10.753
▁хөөж	-10.7532
ле	-10.7533
▁хүчинд	-10.7534
▁хувиас	-10.7534
▁чөлөөг	-10.7535
сарангэрэл	-10.7535
▁тэмдэглэл	-10.7537
▁de	-10.7537
▁санагдсан	-10.7537
▁төлөвлөөд	-10.7539
▁тодруулахад	-10.754
▁штаб	-10.7541
▁бичлэгийг	-10.7541
▁67	-10.7543
▁дэлгүүрийн	-10.7552
▁санаагаа	-10.7553
▁хөөр	-10.7554
37	-10.7554
тойгоо	-10.7556
▁зайтай	-10.7561
▁цаашаа	-10.7564
▁илэрч	-10.7565
▁дугаартай	-10.7568
▁хаалгыг	-10.7568
▁төлөөлөгчдийг	-10.7574
▁(2017	-10.7576
▁тулгар	-10.7576
▁бүлгээс	-10.7578
цогт	-10.7578
▁цалинтай	-10.7583
▁цэвэрлэж	-10.7586
▁арвин	-10.7588
▁шахаж	-10.7591
▁мүонрт	-10.7591
даш	-10.7592
▁гишүүдээс	-10.7595
▁нэгтгэх	-10.7595
▁автозам	-10.7596
▁гарав	-10.7598
▁үүсгэсэн	-10.76
▁худалдааг	-10.7602
▁гашуун	-10.7603
▁тушаалыг	-10.7604
▁тохиролцсон	-10.7606
▁унаа	-10.7606
▁тив	-10.7606
▁дархлаа	-10.7607
▁гэлтгүй	-10.7607
▁130	-10.7608
ter	-10.7609
-01	-10.761
▁үнээ	-10.7611
▁маргааныг	-10.7612
news	-10.7612
▁хамааран	-10.7613
▁шалгагдаж	-10.7614
▁бо	-10.7616
гд	-10.7617
▁дэвшигчийн	-10.7619
▁малаа	-10.7619
▁энхрийлүүштэй	-10.762
title	-10.762
44	-10.7634
▁золиос	-10.7636
▁татдаг	-10.7639
▁хороодын	-10.7639
▁хэмжээнээс	-10.7639
▁алдагдлыг	-10.7641
▁зурвас	-10.7644
▁өгвөл	-10.7648
▁дадал	-10.7654
хний	-10.7656
ухаа	-10.7661
▁татвараа	-10.7661
▁сөүл	-10.7663
▁про	-10.7663
▁хамаатан	-10.7666
▁дааж	-10.7666
▁хүдэр	-10.7673
▁нэвтэрч	-10.7674
▁офицер	-10.7686
▁багууд	-10.7687
▁дүрийг	-10.7688
батзориг	-10.7688
▁мэдээлнэ	-10.769
▁хороололд	-10.769
▁ирснийг	-10.7693
47	-10.7693
▁нарийвчлан	-10.7695
▁эрхлэлтийг	-10.7698
:10	-10.77
▁гүйцэтгэл	-10.7701
▁холын	-10.7703
▁ки	-10.7703
84	-10.7705
▁даанч	-10.7706
▁аймшигт	-10.771
үгүй	-10.7711
▁ресурс	-10.7712
▁мэх	-10.7714
▁авахын	-10.7714
▁засаж	-10.7718
▁барин	-10.772
▁ашиггүй	-10.772
▁чадалгүй	-10.772
▁нүдээр	-10.7721
na	-10.7725
ль	-10.7727
49	-10.7728
▁ахмадын	-10.7735
▁байцаах	-10.7737
▁байцаалтын	-10.7738
▁илрүүлсэн	-10.7739
дал	-10.7741
▁аялгуу	-10.7745
▁дал	-10.7745
html	-10.7746
лл	-10.7748
▁төмрийн	-10.7749
▁солонгост	-10.775
▁африкийн	-10.7753
▁өгөхөд	-10.7757
▁домог	-10.7759
пүрэвсүрэн	-10.7765
▁үзэгчид	-10.7765
зан	-10.7769
▁хаях	-10.7772
▁таслах	-10.7773
▁өрөөний	-10.7774
▁хүлээлгэж	-10.7778
▁сурвалжийн	-10.7779
▁гаргахыг	-10.7779
▁хүчирхийллийн	-10.7779
▁хөвгүүд	-10.7786
▁хүзүү	-10.7788
▁эрхэнд	-10.7795
us	-10.7795
▁дорвитой	-10.7795
at	-10.7802
▁шийднэ	-10.7802
эгч	-10.7811
▁унт	-10.7813
▁сингапур	-10.7816
▁зүйлээс	-10.7816
▁дангаараа	-10.782
▁одоогоос	-10.7822
мо	-10.7823
ша	-10.7824
-13	-10.7826
▁театрт	-10.7826
▁километр	-10.7828
▁ходоод	-10.7828
уудаа	-10.7834
▁не	-10.7835
▁1996	-10.7836
▁тэнгисийн	-10.784
▁уралдааныг	-10.7841
▁зөвлөлд	-10.7841
▁хуурч	-10.7843
▁удаагүй	-10.7845
▁оросууд	-10.7845
▁анхааралтай	-10.7846
▁өөрчлөн	-10.7846
▁үгэнд	-10.7848
▁явуулна	-10.785
▁бүртгэж	-10.785
▁мугж	-10.7851
▁витамин	-10.7853
ви	-10.7853
▁амьтад	-10.7854
▁тусгайлан	-10.7858
чийн	-10.7858
▁хаягдлыг	-10.7858
▁судлал	-10.786
▁халж	-10.786
ио	-10.7861
▁тэдэнтэй	-10.7861
▁кофе	-10.7862
▁өрнүүлж	-10.7863
ээж	-10.7864
лал	-10.7865
▁торгох	-10.7865
▁солилцож	-10.7868
▁нэгнийг	-10.7868
▁зардлаа	-10.7871
▁авахдаа	-10.7874
зориг	-10.7877
энхболдын	-10.7878
ol	-10.7881
▁хамтаар	-10.7883
en	-10.7885
оч	-10.7886
▁зөвшөөрлийн	-10.7887
хныг	-10.789
▁06-	-10.7898
ээрэй	-10.7899
ань	-10.7899
▁мартаж	-10.7904
▁бүхэндээ	-10.7905
▁харц	-10.7906
▁ивээл	-10.791
члан	-10.7917
▁суулгаж	-10.7919
▁асуудлаас	-10.7919
▁гайхаж	-10.792
▁шатрын	-10.7922
▁хяналтыг	-10.7926
▁шонхор	-10.7927
▁1999	-10.7927
▁ногдох	-10.7928
▁талаархи	-10.793
▁сэргээж	-10.7931
▁гарга	-10.7935
▁350	-10.7939
▁2001	-10.7939
:20	-10.7942
▁юань	-10.7945
▁вашингтон	-10.7946
▁мэдрэлийн	-10.795
▁ихэр	-10.795
▁ноёд	-10.7952
▁олонхийн	-10.7954
▁санхүүжилтээр	-10.7956
▁овог	-10.7956
▁аван	-10.7956
▁байрладаг	-10.7956
▁ганцаар	-10.7957
▁бэлчээр	-10.7959
▁ээжийн	-10.7962
▁судасны	-10.7963
бер	-10.7965
▁хүлэг	-10.7966
▁зас	-10.7968
▁гэрийнхэн	-10.797
-02	-10.7971
▁зорчиж	-10.7971
▁халбага	-10.7978
▁хэрэгжилтэд	-10.7979
▁уруул	-10.798
лана	-10.7981
▁ста	-10.7983
▁хүртээмжтэй	-10.7985
▁орлогоо	-10.7992
-17	-10.7993
▁магад	-10.7994
пи	-10.7996
▁бүрд	-10.7999
▁давтан	-10.7999
:11	-10.8001
st	-10.8003
▁иран	-10.8004
▁голд	-10.8004
▁дүүргүүдийн	-10.8005
▁пак	-10.8007
▁стресс	-10.8009
▁гүнж	-10.8009
▁хул	-10.8012
▁эргүүлж	-10.8015
жуулж	-10.8015
▁азтан	-10.8017
▁цэврийн	-10.8018
▁y	-10.802
▁нөөцтэй	-10.8022
▁өмчлөх	-10.8026
төгс	-10.803
▁дэвшигчдийн	-10.8031
▁үзүүр	-10.8031
▁хийвэл	-10.8032
▁кон	-10.8034
эндээ	-10.8036
▁18-20	-10.804
▁хүлээ	-10.8043
▁сургаж	-10.8043
▁явагдсан	-10.8047
▁зааг	-10.805
▁нараа	-10.8053
▁12-17	-10.8053
▁нартаа	-10.8055
te	-10.806
▁нилээд	-10.8062
▁олгогч	-10.8064
▁спортоор	-10.8065
▁нээлтэд	-10.8065
▁хараал	-10.8066
▁тайлбарлах	-10.8067
▁дэмжигч	-10.807
▁туссан	-10.807
▁товчхон	-10.8071
▁мо	-10.8072
мс	-10.8075
▁багийнхан	-10.8076
▁арьсны	-10.8076
▁мхег	-10.8078
▁өсөн	-10.8079
77	-10.8082
▁хохирлыг	-10.8083
лөн	-10.809
89	-10.8091
үл	-10.8094
▁хэмээв	-10.8095
▁110	-10.8095
▁үетэй	-10.8097
▁хүсээгүй	-10.8097
▁хун	-10.8098
▁хадгаламжийн	-10.8099
▁бүхнээс	-10.8099
▁гаригийн	-10.8102
▁сартай	-10.8107
▁байлгаж	-10.8109
▁чадваргүй	-10.811
▁ширээн	-10.8111
▁шилжин	-10.8112
▁тан	-10.8115
▁бодлоор	-10.8119
▁биенээ	-10.812
▁шүтээн	-10.8122
▁байгуулалтад	-10.8123
▁орноос	-10.8129
▁хэтэрсэн	-10.8129
▁оврын	-10.8131
▁газруудын	-10.8131
98	-10.8138
▁ортой	-10.814
▁барьдаг	-10.8141
▁гадагшаа	-10.8141
▁үүл	-10.8142
▁ярина	-10.8142
▁аман	-10.8143
▁орц	-10.8146
1-	-10.8146
▁хуудсыг	-10.8147
▁нэгжид	-10.8148
▁санагдах	-10.8148
▁гхя	-10.8152
▁шаттайгаар	-10.8153
▁мэндчилгээ	-10.8154
▁тэлж	-10.8156
▁тэвчээр	-10.8158
хууль	-10.8158
▁00	-10.8159
▁өөдрөг	-10.816
▁май	-10.8161
▁дуугаар	-10.8167
▁2.5	-10.8175
▁пост	-10.8175
гол	-10.8175
▁нийлээд	-10.8177
▁хэрэгцээнд	-10.8178
лээгүй	-10.8178
▁вьетнам	-10.8178
▁судлаачдын	-10.818
▁баяжуулах	-10.8182
▁нийтээрээ	-10.8186
▁оролдсон	-10.8189
уль	-10.8196
-16	-10.82
▁багтдаг	-10.8204
нийхээ	-10.8205
▁захирлаар	-10.8205
▁залгамж	-10.8207
▁өнгөрлөө	-10.8208
▁бууруулахад	-10.8208
▁барьцаа	-10.8211
шээ	-10.8213
▁байхаас	-10.8215
▁хачирхалтай	-10.8215
▁танилцлаа	-10.8216
▁болтлоо	-10.8216
▁онуудад	-10.8217
▁канадын	-10.822
▁гуайн	-10.8222
шинэчилсэн	-10.8222
▁гаднын	-10.8224
▁болчихлоо	-10.8224
▁ялагдсан	-10.8226
▁үйлсэд	-10.8226
▁бичигдсэн	-10.8227
▁холбосон	-10.823
▁хэлэлцээрт	-10.823
▁ажиллажээ	-10.8231
▁эсрэгээрээ	-10.8232
▁үзэсгэлэнт	-10.8237
▁зорилгоо	-10.8238
▁со	-10.8239
▁зарцуулдаг	-10.824
▁өргөсөн	-10.8243
▁журамд	-10.8245
▁тогоо	-10.8246
ич	-10.8246
▁зориуд	-10.8249
▁даашинз	-10.8254
▁тусламжтайгаар	-10.8255
дэлгэр	-10.8269
ши	-10.8273
▁амжилтын	-10.8275
▁зорилтын	-10.8276
▁харна	-10.8277
▁агсны	-10.8277
▁байгуулахыг	-10.8281
▁өдрөө	-10.8281
▁консулын	-10.8285
▁хөлийн	-10.8292
no	-10.8295
▁заал	-10.8296
▁ухаж	-10.8299
▁хөндөж	-10.8303
▁өмссөн	-10.8305
▁vi	-10.8305
▁оролцогчдын	-10.8305
▁буусан	-10.8309
▁үеэ	-10.8316
▁91	-10.8317
▁хажуу	-10.8321
▁нздтг	-10.8324
▁яармаг	-10.8325
▁сүрэг	-10.8325
▁05-	-10.8332
▁шахуу	-10.8334
▁талбар	-10.8335
38	-10.8336
▁хохирсон	-10.8337
▁удаатай	-10.8339
▁далайд	-10.8342
▁цусан	-10.8345
▁тоглодог	-10.8346
▁бурхны	-10.8347
▁үргэлжлүүлж	-10.8348
▁хэлбэрийн	-10.835
gonews	-10.8352
▁гүрэн	-10.8356
▁ебс	-10.8357
оно	-10.8358
▁ивээн	-10.8362
▁зүтгэх	-10.8362
▁хэ	-10.8362
▁штабын	-10.8364
▁програм	-10.8365
▁шог	-10.8367
▁харагдсан	-10.8367
кин	-10.8373
▁валют	-10.8376
▁боажя	-10.838
▁хувцасны	-10.838
▁ажлаасаа	-10.8382
алдаг	-10.8382
овоо	-10.8386
▁олоод	-10.839
▁литр	-10.8392
▁польш	-10.8393
68	-10.8394
йорк	-10.8396
▁нефть	-10.8399
▁оу	-10.8402
▁өвдөг	-10.8403
тийм	-10.8403
▁дайчин	-10.8405
▁үзээрэй	-10.8409
▁хулгайн	-10.8409
▁оруулан	-10.841
▁босоо	-10.841
▁тунгалаг	-10.841
чинзориг	-10.8414
▁сонсгол	-10.8416
▁амласан	-10.8416
▁байршилд	-10.8418
пүрэв	-10.8419
▁бичдэг	-10.842
▁аюулгүйн	-10.842
▁огтхон	-10.842
▁уриа	-10.8421
де	-10.8425
▁чанаргүй	-10.8426
▁байрлал	-10.8427
▁үрийн	-10.8429
▁хамруулж	-10.8432
▁замдаа	-10.8432
▁хүнээр	-10.8439
▁тинто	-10.8445
▁үзэсгэлэнг	-10.8446
сэлэнгэ	-10.845
▁заах	-10.8457
▁мор	-10.8457
▁шинжилгээнд	-10.846
▁обама	-10.8461
▁дээдэс	-10.8463
▁будаг	-10.8465
▁шаттай	-10.8469
▁захирлын	-10.8473
▁үсээ	-10.8475
▁дурсгалын	-10.8476
▁худ	-10.848
▁нөхөрлөл	-10.8482
▁багтай	-10.8482
▁боксын	-10.8483
ахгүй	-10.8489
▁маяг	-10.8489
төв	-10.849
▁2030	-10.8492
амар	-10.8492
▁хямралын	-10.8492
▁нуух	-10.8492
▁тогтоомжийг	-10.8492
▁түншлэл	-10.8498
la	-10.85
▁оруулдаг	-10.8504
▁тэргүүлсэн	-10.8505
▁нүүрсийг	-10.8507
▁сонгогч	-10.8513
бор	-10.8516
▁анхдагч	-10.8518
▁хорхой	-10.8518
▁бэлдэж	-10.8526
▁71	-10.8527
▁1997	-10.853
мер	-10.8535
ек	-10.8539
баттулгын	-10.8542
▁шийддэг	-10.8545
▁iv	-10.8545
▁16-21	-10.8545
▁цуглуулах	-10.855
▁өртөө	-10.8551
▁махан	-10.8551
▁бөөр	-10.8554
▁монцамэ	-10.8557
▁ямаа	-10.8563
▁хосууд	-10.8564
▁гуниг	-10.8564
▁итгэдэг	-10.8567
▁төвүүд	-10.8568
▁шутис	-10.8572
▁тосгоны	-10.8574
ью	-10.8579
▁бусадтай	-10.8579
уих	-10.8582
▁төлөлт	-10.8583
▁өлсгөлөн	-10.8586
чүүд	-10.8587
▁дэмжлээ	-10.8588
▁салхинд	-10.859
▁буруутгаж	-10.8595
гүйгээс	-10.8595
▁хичээ	-10.8599
▁gmt	-10.86
▁боловсролыг	-10.8601
ийж	-10.8605
el	-10.8611
▁гэгээ	-10.8613
▁зөвлөмжийг	-10.8616
▁түмнийг	-10.8617
▁кан	-10.8618
▁төгсгөл	-10.8619
▁машинаар	-10.8623
▁үйлдвэрлэдэг	-10.8628
▁суудалд	-10.863
▁згхэг	-10.863
▁тайлбарласан	-10.8633
▁цэнэтэй	-10.8636
▁ногооны	-10.8642
79	-10.8646
▁ингэхэд	-10.8649
▁нислэгийн	-10.865
▁шүлхий	-10.8654
▁түүхт	-10.8655
▁ка	-10.8658
▁болгонд	-10.8663
▁институт	-10.8663
▁авав	-10.8665
▁алдан	-10.8673
▁испани	-10.8673
▁авагч	-10.8673
▁унгар	-10.8676
▁сунгах	-10.868
▁үзэг	-10.8683
▁худагт	-10.8683
▁өндөрт	-10.8685
▁схд	-10.8687
▁хийснээр	-10.8691
▁хаасан	-10.8693
▁өсвөрийн	-10.8694
▁чимэг	-10.8695
▁чадавхийг	-10.8696
өм	-10.8698
▁ашгаа	-10.87
▁үлдлээ	-10.87
▁уйлж	-10.8703
▁намаа	-10.8704
▁мэдэгдэв	-10.8704
▁буудай	-10.8705
▁даалгалаа	-10.8709
▁мэдлэгтэй	-10.8712
▁эрдэмтдийн	-10.8714
гу	-10.8716
▁сонгино	-10.8716
0.0	-10.8722
долларт	-10.8722
▁түрээс	-10.8723
▁хаагчдыг	-10.8723
▁цүнх	-10.8725
▁сэтгэцийн	-10.8726
▁энерги	-10.8727
▁машинд	-10.8728
▁түц	-10.8728
..."	-10.8733
▁ирэхийг	-10.8734
-2016"	-10.8736
▁үй	-10.8736
▁болзол	-10.8741
▁яаран	-10.8742
▁үзэгдэх	-10.8743
▁өсгөж	-10.8744
▁тарьсан	-10.8746
41	-10.8747
▁дүгнэх	-10.875
▁94	-10.8753
ийм	-10.8754
▁сайхныг	-10.8754
аб	-10.8755
▁билэг	-10.8757
лэнэ	-10.8758
ён	-10.8761
▁пуужин	-10.8768
▁хая	-10.8769
46	-10.877
▁хуримтлал	-10.8773
▁самар	-10.8775
▁дэмб	-10.8776
▁хийсний	-10.8778
дэлгэрцэцэг	-10.8781
ul	-10.8783
▁барагдуулах	-10.8784
▁ухамсар	-10.8785
▁автозамын	-10.879
▁аяллын	-10.8791
▁бэх	-10.8792
64	-10.8792
мар	-10.8794
▁81	-10.8799
▁сонгогдох	-10.8801
▁оныг	-10.8804
▁зөрчлөөс	-10.8807
▁дэслэгч	-10.8809
▁хангахгүй	-10.8811
▁хилэнц	-10.8811
▁асуулгын	-10.8811
▁чигээрээ	-10.8812
▁залууст	-10.8813
▁шаардлагад	-10.8818
▁мэдээгүй	-10.8818
▁хүсэлтээр	-10.8818
мин	-10.8819
▁толбо	-10.8822
▁цэвэрлэгээ	-10.8822
▁цомын	-10.8825
▁тэдгээрийг	-10.8826
ийх	-10.8829
▁хоолоо	-10.8833
▁нөлөөлөл	-10.8837
лөх	-10.8838
▁шүүс	-10.8845
▁при	-10.8846
▁үйлчлүүлэгч	-10.8853
▁танихгүй	-10.8854
▁манж	-10.8854
▁саудын	-10.8857
▁бүтээлчдийн	-10.886
se	-10.8862
төмөр	-10.8865
ху	-10.8865
му	-10.8866
▁зогсоо	-10.8868
▁одоохондоо	-10.8868
▁ундааны	-10.8873
▁дүрмийг	-10.8876
▁тэмдэглэв	-10.8877
▁тушаалаа	-10.8877
▁өртөх	-10.8877
амарсайхан	-10.8877
▁янзын	-10.8878
▁дөө	-10.8879
▁баталгаатай	-10.8885
▁туршилтын	-10.8885
▁захиалгаар	-10.8885
руулж	-10.8886
ногоон	-10.8887
▁дах	-10.8887
▁даг	-10.8887
▁байцаалт	-10.8888
:02	-10.8893
▁дэл	-10.8894
▁удирдлагуудад	-10.8897
▁бүдүүн	-10.8899
▁тэтгэвэрт	-10.8901
▁коридор	-10.8901
▁нотолгоо	-10.8904
▁ухаанд	-10.8911
энхсайхан	-10.8912
▁захирамжийн	-10.8913
фи	-10.8915
ану	-10.8917
66	-10.8918
▁цэгт	-10.8919
▁замаа	-10.8922
чихаж	-10.8923
▁гишүүнтэй	-10.8924
▁нандин	-10.8924
лэгч	-10.8925
▁өндөрлөлөө	-10.8927
▁гүйлгээ	-10.8938
▁цэнгэл	-10.8949
▁дурджээ	-10.895
▁хуралдсан	-10.895
▁17-22	-10.8951
▁цагтаа	-10.8951
▁ялагч	-10.8956
▁борлуулж	-10.8958
▁мэдүүлэх	-10.8959
▁дахиж	-10.896
ation	-10.8961
▁охидын	-10.8963
▁идсэн	-10.8965
ков	-10.8968
▁ургах	-10.8968
▁холбон	-10.8969
▁гуравдугаарт	-10.8971
▁магистр	-10.8972
▁но	-10.8974
▁халах	-10.8978
▁ялгаж	-10.8979
▁ондоо	-10.8979
▁орхи	-10.8982
▁буцаах	-10.8984
▁тодруулсан	-10.8987
▁го	-10.8992
▁суртахууныг	-10.8992
▁мэлхий	-10.8996
▁ёслолд	-10.9
74	-10.9001
▁корпорацийн	-10.9003
▁баривчлах	-10.9003
▁архаг	-10.9003
гыг	-10.9003
▁зайлуулах	-10.9004
▁уулсаар	-10.9004
▁давах	-10.9005
▁босгосон	-10.9005
▁бичээд	-10.9009
-3	-10.901
▁юманд	-10.9012
▁хамаатай	-10.9016
▁содон	-10.9017
ci	-10.902
▁at	-10.9021
▁барж	-10.9023
▁гуравдагч	-10.9024
8/	-10.9025
▁3-4	-10.9026
▁зорих	-10.903
ап	-10.9033
▁хараагүй	-10.9035
▁чадварын	-10.9036
оз	-10.9037
▁засуулбал	-10.9037
▁маягийн	-10.9039
▁хувьцаат	-10.9039
▁нийлүүлэлт	-10.904
67	-10.9041
▁урсгалыг	-10.9041
▁уучлал	-10.9045
▁гунигтай	-10.9045
▁хөлд	-10.9046
▁хүртээмж	-10.9047
▁алхах	-10.9049
▁ти	-10.9051
▁сэм	-10.9051
▁салхины	-10.9054
йг	-10.9056
▁шийдвэрт	-10.9057
үүлээд	-10.9059
орхон	-10.9059
:09	-10.906
▁сүлжээгээр	-10.906
▁гавьяа	-10.906
▁78	-10.906
▁зуунд	-10.9069
▁амьсгаа	-10.9081
et	-10.9081
▁олно	-10.9083
58	-10.9084
-14	-10.9084
члал	-10.9087
▁тэрэгний	-10.9088
▁хийхээс	-10.9089
▁машинаа	-10.909
▁найрал	-10.9096
▁эрийн	-10.9097
▁баривчилсан	-10.9099
▁зөвшөөрөгдсөн	-10.9101
▁токио	-10.9103
▁коммунист	-10.9103
▁бсшуся	-10.9106
▁экологийн	-10.9106
▁ангилал	-10.9108
▁эмчлүүлж	-10.9109
▁ахмадууд	-10.9112
▁шинэчилж	-10.9121
▁хязгааргүй	-10.9121
▁болсноо	-10.9123
▁санаачилгаар	-10.9123
▁лондон	-10.9125
▁хохирч	-10.9128
▁иддэг	-10.9129
тар	-10.913
▁секс	-10.9132
▁эргэлзээтэй	-10.9135
▁ху	-10.9141
▁бүсгүйг	-10.9141
▁сонгогчид	-10.9142
єє	-10.9143
▁тохирох	-10.9144
ут	-10.9147
▁мэдээгээр	-10.9147
▁бүтээлүүд	-10.9148
▁хөдлөлтийн	-10.9149
таван	-10.9153
▁140	-10.9153
▁өсөлтийн	-10.9154
▁нийлүүлсэн	-10.9155
▁хамгаалал	-10.9161
▁сонсч	-10.9165
▁онлайн	-10.9168
▁төрөө	-10.9173
-30	-10.9174
▁ирвэл	-10.9177
▁төлнө	-10.9178
▁тэгэхдээ	-10.9181
▁рашаан	-10.9181
▁шалтгаалж	-10.9184
▁тодорсон	-10.9184
▁хүндээ	-10.9191
▁хурдны	-10.9192
▁нэгтгэсэн	-10.9197
▁сурын	-10.9199
чуудын	-10.9203
▁вант	-10.9203
▁то	-10.9203
▁хэргүүд	-10.9204
▁малыг	-10.9206
▁айлчилж	-10.9207
том	-10.9207
▁угаасаа	-10.9211
▁хошой	-10.9212
▁тохижилтын	-10.9213
▁тохиолдсон	-10.9213
яа	-10.9215
▁санаачлага	-10.9217
▁халдсан	-10.9217
доржханд	-10.9222
▁77	-10.9227
▁таашаал	-10.9227
▁оролцон	-10.923
▁1500	-10.9233
▁дээж	-10.9236
▁нөлөөлнө	-10.9236
▁бэлтгэн	-10.9247
▁насаараа	-10.9247
▁зүйлүүд	-10.9247
▁мөнхийн	-10.9248
▁сэргэлэн	-10.9252
▁шалгалтад	-10.9252
▁этгээдүүд	-10.9252
▁эхэлснээс	-10.9254
пер	-10.9254
▁нэм	-10.9256
:06	-10.9259
▁төлбөрт	-10.9264
▁урлагт	-10.9266
▁хэлбэртэй	-10.9267
▁хямралаас	-10.9269
▁төсөөлж	-10.9271
▁as	-10.9272
билэг	-10.9273
:03	-10.9274
▁сэжиг	-10.9278
▁шийдвэрлэлээ	-10.9278
▁/2015	-10.928
алдар	-10.9281
▁олимпын	-10.9281
хо	-10.9282
▁амыг	-10.9282
:05	-10.9286
▁нэмэгдүүлэхэд	-10.9289
▁үзэхээр	-10.9292
▁биологийн	-10.9298
▁дэлгэрүүлэх	-10.9298
лаагүй	-10.9299
▁хаясан	-10.9303
42	-10.9304
▁сэрүүн	-10.9304
▁мэндэлсэн	-10.9308
▁төгсөөд	-10.9308
▁жуулчдын	-10.9312
▁шалгасан	-10.9313
▁драмын	-10.9317
тоо	-10.9318
▁орхиод	-10.9319
▁тагнуул	-10.932
цогзолмаа	-10.932
▁хариуцлагаа	-10.9322
▁хөө	-10.9325
▁угтаж	-10.9325
▁ажиллахаа	-10.9326
▁хариуцах	-10.9327
▁өмнөхөн	-10.9327
▁шинэчлэлийг	-10.9327
▁мак	-10.9328
▁хөдөөгийн	-10.9329
▁сүүлчээр	-10.933
▁хаалгаа	-10.9333
▁хуулиуд	-10.9333
▁мэтийн	-10.9333
▁илүүдэл	-10.9337
▁ойлголтыг	-10.9338
▁сэтгэлгээ	-10.9338
▁найздаа	-10.9338
▁болгов	-10.9342
▁өгүүлэх	-10.9344
▁нүүлгэн	-10.9344
▁хэрэгсэхгүй	-10.9344
▁09:00	-10.9347
▁цуваа	-10.9348
▁бөө	-10.9349
▁өөрчилсөн	-10.935
▁хувьчлах	-10.9353
▁гэрээсээ	-10.9353
▁тух	-10.9353
▁хэвлэлээр	-10.9356
бэл	-10.936
▁хамтрагч	-10.9362
▁төсөлтэй	-10.9363
▁дээрэм	-10.9364
▁үйлдвэрлэгчид	-10.9368
▁эзэнт	-10.9371
▁сон	-10.9377
гаараа	-10.9378
▁барихад	-10.9379
▁зовох	-10.9384
▁булш	-10.9389
▁сэргэж	-10.9389
▁азтай	-10.939
▁тэмцээнээс	-10.939
▁ажиглаж	-10.9391
▁баярт	-10.9396
▁буцаад	-10.9399
▁булаг	-10.9399
▁тойм	-10.9402
▁утсаа	-10.9404
▁тооцвол	-10.9407
▁өрсөлдсөн	-10.9409
шилдэг	-10.9409
mo	-10.941
▁амьдралынхаа	-10.9411
▁харав	-10.9413
▁үзүүлбэр	-10.9417
▁бензин	-10.9417
▁гардуулан	-10.9425
▁хүлээдэг	-10.9427
▁улстөр	-10.9428
рт	-10.9428
▁твиттер	-10.9428
▁хөдлөл	-10.9432
▁1-2	-10.9432
▁эмэгтэйн	-10.9436
▁бүхэлдээ	-10.9441
▁үгийн	-10.9442
дэл	-10.9442
▁боол	-10.9443
▁танин	-10.9443
▁admin	-10.9446
▁мухар	-10.9446
нер	-10.9447
57	-10.9447
86	-10.9447
▁эмэгтэйг	-10.9448
▁төртэй	-10.9451
өөсөө	-10.9452
43	-10.9454
сандуй	-10.9455
▁мэдэгдээд	-10.9457
▁жолоо	-10.9457
▁явахыг	-10.9458
▁хичээллэж	-10.9461
▁ру	-10.9463
вөл	-10.9464
▁амжилтанд	-10.9465
▁хуудсанд	-10.9466
▁хариуцаж	-10.9467
▁хөтлөгч	-10.9469
ub	-10.9472
▁муур	-10.9477
▁хэтрүүлэн	-10.9479
▁хариуцан	-10.9482
▁хус	-10.9483
оюу	-10.9484
▁салгаж	-10.9488
▁торгон	-10.9488
▁арьсыг	-10.9489
▁телевизээр	-10.9489
▁хучилттай	-10.949
▁нийслэлээс	-10.9493
чойжилсүрэн	-10.9503
▁жам	-10.9504
▁баяжмал	-10.9505
нам	-10.9507
▁багахангай	-10.9508
агдаж	-10.9508
▁бараан	-10.9509
▁айх	-10.9512
▁сантай	-10.9513
▁амины	-10.9513
▁цэнэ	-10.9517
▁1.2	-10.9517
▁гаж	-10.9519
тэрбишдагва	-10.9519
▁томилж	-10.9521
52	-10.9521
луулан	-10.9522
▁хураалтын	-10.9523
▁үүсгэдэг	-10.953
▁багаас	-10.9535
▁гайхамшигт	-10.9535
:50	-10.9538
▁хорьж	-10.9539
200	-10.9539
▁бодлоготой	-10.954
▁өргөмжлөл	-10.9542
▁2016-2020	-10.9545
▁зарлалаа	-10.9546
▁тэнцүү	-10.9547
▁шингэсэн	-10.9548
▁таарах	-10.955
▁дуудах	-10.9551
▁хошин	-10.9551
▁n	-10.9555
800	-10.9556
▁баттай	-10.9558
▁залуугийн	-10.9559
▁миат	-10.956
оюунчимэг	-10.9561
▁оршино	-10.9564
▁урьдын	-10.9565
ру	-10.9566
чихоод	-10.957
▁байршуулах	-10.957
ta	-10.9573
▁даргатай	-10.9575
▁явуулахаар	-10.9575
▁асран	-10.9576
▁энергийн	-10.9581
▁хэрэгжүүлдэг	-10.9583
-4	-10.9583
▁адууны	-10.9584
▁үйлчилгээтэй	-10.9585
▁тааламжтай	-10.9586
▁роман	-10.9586
▁эмчилгээнд	-10.9586
to	-10.9587
▁хотуудын	-10.9588
:04	-10.959
▁уйл	-10.9593
87	-10.9594
▁олноороо	-10.9599
ова	-10.9599
▁дэмжихгүй	-10.9599
▁удаж	-10.9602
▁дуудлагын	-10.9603
▁шударгаар	-10.9604
▁сурвалжлах	-10.9604
▁бур	-10.9608
ара	-10.961
id	-10.9611
оюунгэрэл	-10.9611
▁унага	-10.9612
▁хуучны	-10.9612
▁төлөвлөгөөнд	-10.9612
3-	-10.9615
▁бахархал	-10.9616
▁байгаадаа	-10.962
▁дагасан	-10.9621
ндаа	-10.9624
▁хон	-10.9626
говь	-10.9627
▁нууруудын	-10.9628
▁швейцарийн	-10.9629
72	-10.963
тэд	-10.9631
▁лавлагаа	-10.9633
▁хангаагүй	-10.9635
▁баталгаажуулсан	-10.964
▁илрүүлэн	-10.9643
ажил	-10.9643
▁биетэй	-10.9644
▁зурхай	-10.9644
аав	-10.9645
нь	-10.9646
▁татаад	-10.9648
▁3-5	-10.9649
▁дох	-10.965
үүдээс	-10.965
хоёр	-10.9653
/:	-10.9655
▁жолоочийн	-10.9655
▁хувцастай	-10.9656
▁шүүгчид	-10.9656
лдаг	-10.9656
▁тавигдсан	-10.9657
▁нутгаа	-10.9658
▁шатаж	-10.9659
▁сэв	-10.966
▁навч	-10.9661
▁санаачилгыг	-10.9661
зул	-10.9662
▁эхнээсээ	-10.9662
▁байрлаж	-10.9663
▁баймаар	-10.9667
▁илэрхийлэл	-10.9669
▁сорилт	-10.9669
▁гарал	-10.967
▁явбал	-10.967
рүү	-10.9672
▁сири	-10.9673
▁тайлж	-10.9673
▁вирусын	-10.9676
чдыг	-10.968
▁хоолойг	-10.9683
▁код	-10.9683
▁араб	-10.9687
▁гарсны	-10.9689
▁хэрэгтээ	-10.9696
▁сайтын	-10.9698
▁ялах	-10.97
53	-10.9702
▁нэхэмжлэл	-10.9704
ку	-10.9705
▁харваа	-10.9705
▁таамаглаж	-10.9707
▁шалгаруулалтад	-10.9708
▁хором	-10.9708
82	-10.9708
▁төлөгч	-10.971
as	-10.9713
раг	-10.9716
▁хууч	-10.9719
дээс	-10.9719
▁уулс	-10.9719
▁ойлгуулах	-10.9721
▁98	-10.9721
чны	-10.9723
▁хаагчдад	-10.9727
▁буурал	-10.9728
▁авснаар	-10.9732
лэгдсэн	-10.9732
▁боов	-10.9733
▁захад	-10.9736
▁дороо	-10.9738
▁холбогдоорой	-10.974
▁байг	-10.974
▁суугчид	-10.9742
уудтай	-10.9743
▁үйлдлийн	-10.9746
▁бодитоор	-10.9749
жаргалсайхан	-10.975
▁жим	-10.9752
▁амттай	-10.9753
занданшатар	-10.9759
элгүй	-10.976
эрх	-10.9762
▁хямралыг	-10.9765
▁марафон	-10.9766
▁экспо	-10.9766
▁төслөө	-10.9767
▁мэдлэгийг	-10.9772
▁батлуулах	-10.9772
▁хов	-10.9774
▁хурлаа	-10.9775
▁билүү	-10.9776
▁төрдөг	-10.9777
▁учиргүй	-10.9779
сын	-10.9781
▁co	-10.9781
▁ярь	-10.9781
▁чихрийн	-10.9783
өнөөдөр	-10.9783
▁үлэмж	-10.9784
▁баялгийг	-10.9785
▁кор	-10.9785
▁хүмүүсээ	-10.9786
▁өртгийн	-10.9791
ланд	-10.9791
ари	-10.9792
▁тооцогддог	-10.9794
▁олохгүй	-10.9794
айн	-10.9795
▁авиа	-10.9796
энхбат	-10.9799
▁тэнгис	-10.98
▁чамгүй	-10.9802
▁сонирхох	-10.9803
▁ноолуур	-10.9803
▁цагдаагийнхан	-10.9803
өнд	-10.9805
▁дүүс	-10.9809
кон	-10.9811
▁зуслангийн	-10.9815
▁тэгэх	-10.9816
▁социалист	-10.9817
▁үзүүлэн	-10.9818
▁группийн	-10.9819
▁дагах	-10.982
.12.	-10.982
▁санаачлагчийн	-10.9821
бага	-10.9821
ег	-10.9823
▁сүүн	-10.9829
▁холбоонд	-10.9829
▁тавьжээ	-10.9829
▁явагдана	-10.9834
▁тасаг	-10.9838
▁явдалд	-10.9838
▁дуурийн	-10.9848
▁бэлдмэл	-10.9851
лахад	-10.9854
▁па	-10.9856
▁мессеж	-10.9856
▁этгээдэд	-10.9858
▁ажлынхаа	-10.9859
▁болгохыг	-10.9862
ti	-10.9862
▁болсноос	-10.9863
91	-10.9863
▁бичнэ	-10.9863
▁махыг	-10.9868
▁гарыг	-10.9869
▁болохын	-10.9869
▁явцын	-10.9873
чилсан	-10.9873
▁хагарал	-10.9883
▁хэвлэлүүд	-10.9884
▁сайжруулахад	-10.9885
▁байрлуулах	-10.9888
хүрэлсүхийн	-10.9889
є	-10.989
▁чадлыг	-10.9891
▁тэрийг	-10.9893
▁сургаал	-10.9894
▁авахаас	-10.9896
▁эмчид	-10.9896
▁цуцлах	-10.99
▁аудит	-10.9905
▁санаачлагч	-10.9907
▁хавтгай	-10.991
▁оронтой	-10.9911
▁хангадаг	-10.9912
▁хумх	-10.9913
ял	-10.9918
▁хэвтэн	-10.9919
▁соёлтой	-10.992
▁хүргүүлнэ	-10.9922
▁түг	-10.9923
▁хомс	-10.9927
па	-10.9928
хор	-10.9928
▁орсноор	-10.993
▁ерөөл	-10.993
▁автотээврийн	-10.9933
▁по	-10.9937
▁холимог	-10.9939
▁төвлөрүүлэх	-10.994
▁тайлбарыг	-10.9942
тамир	-10.9942
▁оношилгоо	-10.9942
тг	-10.9943
▁mpa	-10.9945
▁бардам	-10.9945
▁наадмаар	-10.9946
▁дэвтэр	-10.9946
▁нухацтай	-10.9948
▁тэлэх	-10.9948
▁тантай	-10.9953
▁залууг	-10.9954
▁аугаа	-10.9954
▁өмсөж	-10.9962
▁тооцдог	-10.9962
▁эхнээс	-10.9964
бадрал	-10.9964
▁хуваарилалт	-10.9965
▁бизнесийг	-10.9971
▁дэлхийг	-10.9973
▁ядарсан	-10.9975
▁худалдаалах	-10.9976
▁илэрхий	-10.9977
▁эвдрэл	-10.998
▁өвчтөн	-10.9985
▁уусан	-10.9986
▁гэхчлэн	-10.9989
100	-10.9989
бх	-10.999
хал	-10.999
▁байгаагаараа	-10.9991
▁дөхөж	-10.9991
▁тогтоон	-10.9996
▁номоо	-10.9998
▁аминд	-11
▁23-28	-11.0001
▁мөргөж	-11.0001
▁шу	-11.0003
▁ухааныг	-11.0005
!”	-11.0011
▁үзье	-11.0013
▁гучин	-11.0014
▁бүтээгч	-11.0015
▁шунал	-11.0015
▁хоршоо	-11.0015
өл	-11.0017
лагдаж	-11.002
снээ	-11.0022
▁эг	-11.0022
▁гарснаас	-11.0024
▁атал	-11.0026
▁шаардлагын	-11.0029
▁салбартаа	-11.003
▁ассамблейн	-11.0031
▁шалтгааны	-11.0031
▁25-30	-11.0032
▁дорнодын	-11.0033
▁трейд	-11.0034
▁үүдэнд	-11.0035
үг	-11.0038
▁цац	-11.0039
▁өртэй	-11.0042
1.1	-11.0042
▁21-26	-11.0043
▁анхнаасаа	-11.0043
нарантуяа	-11.0044
▁жаргалант	-11.0047
▁хэлэхгүй	-11.0049
▁дуусаагүй	-11.0052
▁мэдээд	-11.0053
ович	-11.0059
▁зуслан	-11.006
▁дурсгал	-11.006
▁хуваарийг	-11.0061
▁эзэмшүүлэх	-11.0062
▁гэмтэж	-11.0064
▁цав	-11.0065
▁амнаас	-11.0067
▁байгуулагчид	-11.0068
▁амьжиргааны	-11.0069
▁owl	-11.0069
▁давалгаа	-11.007
еп	-11.0073
▁тусламжаар	-11.0074
▁үйлчлүүлэх	-11.0079
▁бололцоог	-11.0082
is	-11.0084
de	-11.0088
▁танаас	-11.009
▁явдлууд	-11.0098
▁илгээж	-11.0098
▁хүйтэрч	-11.0099
▁93	-11.01
54	-11.0101
▁эхлүүлээд	-11.0101
▁04-	-11.0103
▁асуу	-11.0104
▁дэмжигчид	-11.0107
▁усаа	-11.0107
чихсөн	-11.011
▁авсны	-11.0112
97	-11.0115
63	-11.0117
үүлдэг	-11.0119
▁сун	-11.0119
хыг	-11.012
тогтох	-11.0122
▁илэрхийлжээ	-11.0124
▁орчноо	-11.0125
▁цалингаа	-11.0128
руулах	-11.0134
▁нисгэгч	-11.0135
▁зоос	-11.0136
▁ламын	-11.0136
▁1994	-11.0137
▁дон	-11.0137
?"	-11.014
▁чан	-11.0143
нуудын	-11.0146
арсан	-11.0147
▁хийлгэсэн	-11.0147
▁байгаасай	-11.0147
▁үнэлгээг	-11.0147
▁шоуны	-11.0148
най	-11.015
▁тулааны	-11.015
тулга	-11.0151
▁байраа	-11.0151
li	-11.0153
жаа	-11.0154
маг	-11.0159
▁гэрээс	-11.016
▁орхих	-11.016
▁дэмжлэгтэйгээр	-11.0161
▁болчих	-11.0162
дэмбэрэл	-11.0162
кер	-11.0163
ион	-11.0166
лу	-11.0167
рэг	-11.0167
▁сэтгүүлийн	-11.0169
▁гэгчээр	-11.0169
▁цогцос	-11.0169
▁халаа	-11.017
62	-11.0173
дуусгавар	-11.0173
▁зохицуулагч	-11.0175
▁03-	-11.0175
▁улсуудын	-11.0177
фа	-11.0177
▁ундны	-11.0178
▁уриалга	-11.0178
▁хариулж	-11.018
▁нүдэн	-11.0181
▁тэсвэр	-11.0181
▁тэзү	-11.0181
▁хөдлөлт	-11.0182
хүний	-11.0187
▁19-24	-11.0187
▁ойлго	-11.0188
▁цогцолборт	-11.0188
▁сүүдэр	-11.0188
▁1995	-11.0189
▁эе	-11.0192
иль	-11.0193
▁нэгтгэл	-11.0194
▁хариулсан	-11.0196
:45	-11.0197
▁бнмау	-11.0199
▁жишигт	-11.02
▁мэдэн	-11.0202
▁больж	-11.0204
▁эмгэн	-11.0204
93	-11.0204
▁хамгаал	-11.0204
▁хүнийхээ	-11.0207
▁чөтгөр	-11.0208
ri	-11.0209
хам	-11.0209
▁нууж	-11.021
56	-11.021
▁таньж	-11.021
▁хаант	-11.0211
▁гүйцэтгэдэг	-11.0212
▁до	-11.0215
▁92	-11.0215
▁тохиромжгүй	-11.0216
▁дулаанаас	-11.0217
▁үгс	-11.0217
▁min	-11.0217
▁алан	-11.022
▁аажмаар	-11.0222
▁санаачилж	-11.0223
-2018"	-11.0223
▁гардуулж	-11.0225
▁учруулах	-11.0227
▁нэгжүүдэд	-11.0228
▁гааль	-11.023
ia	-11.0232
▁байгууллагуудыг	-11.0233
▁данстай	-11.0235
▁тавихад	-11.0235
▁84	-11.0236
▁ту	-11.0237
▁дэн	-11.0238
▁хөвгүүн	-11.024
▁мэнгэтэй	-11.0243
▁парис	-11.0243
үр	-11.0244
▁нэмээд	-11.0247
▁хүүхнүүд	-11.0253
▁байя	-11.0255
▁зөгийн	-11.0256
▁аймгуудад	-11.0257
▁оруулжээ	-11.026
▁америкт	-11.0261
▁ги	-11.0261
▁зүйлгүй	-11.0262
▁мэдээлэлтэй	-11.0263
▁насныхан	-11.0264
▁нийтлэгдсэн	-11.0266
▁нур	-11.0266
▁хэрэглээнд	-11.0267
83	-11.0269
отгон	-11.027
рийг	-11.027
▁хандивын	-11.0273
▁09-	-11.0274
▁шалтаг	-11.0276
иш	-11.0276
▁алх	-11.0278
▁эрдэнэтийн	-11.0278
▁бэлгэ	-11.0281
ип	-11.0283
▁тоглолтууд	-11.0286
▁1.3	-11.0289
▁баригчдын	-11.0291
▁инфляци	-11.0292
▁асуулаа	-11.0296
▁уй	-11.0296
▁шинэчлэлт	-11.0298
▁ирэхдээ	-11.0299
таны	-11.0301
▁хоригийг	-11.0303
▁4-5	-11.0303
▁хороод	-11.0303
▁академи	-11.0305
▁хамаарна	-11.0307
▁үзэгчдэд	-11.0309
▁өсөлттэй	-11.0314
бүрэн	-11.0315
▁зардалд	-11.0316
▁тосон	-11.0317
▁юнеско	-11.0317
▁үхэл	-11.0319
▁сумдад	-11.0325
▁зөвшөөрөлтэй	-11.0326
▁сургалтанд	-11.0328
▁сонголтоо	-11.0329
59	-11.033
сүхбат	-11.033
▁одоог	-11.0332
▁бясалгал	-11.0333
▁голлох	-11.0336
▁жарны	-11.0337
▁авлага	-11.0337
муу	-11.0338
▁зохиож	-11.0339
▁ярихдаа	-11.034
▁сууцыг	-11.0341
▁боомтын	-11.0342
▁by	-11.0344
▁хутагт	-11.0349
▁оюутнуудын	-11.0349
▁удирдлагуудтай	-11.0351
тнууд	-11.0352
рыг	-11.0354
▁тэнцэж	-11.0359
▁эмчилгээг	-11.036
▁mminfo	-11.0361
▁инфляц	-11.0362
▁бодисыг	-11.0363
▁дунджаас	-11.0366
▁өгөхдөө	-11.0366
зо	-11.0368
▁мессенжерт	-11.0371
▁архины	-11.0373
▁концессын	-11.0373
▁ла	-11.0373
▁зурлаа	-11.0374
▁угтаа	-11.0375
81	-11.0375
▁анхаарна	-11.0378
▁бусын	-11.0382
▁авснаас	-11.0383
▁r	-11.0384
▁судлан	-11.0385
▁унагах	-11.039
▁дарсан	-11.0392
▁эрчүүдийн	-11.0393
▁тогтоолд	-11.0395
▁амжсан	-11.0397
▁эрхлэлтийн	-11.04
▁баримтууд	-11.0401
▁өмд	-11.0403
▁унаган	-11.0406
71	-11.0406
▁уриан	-11.041
▁бэлтгэлийг	-11.0412
дархан	-11.0423
▁хумс	-11.0424
рс	-11.0425
ганзориг	-11.0425
▁тушаалаас	-11.0427
▁цааз	-11.0428
▁түлшний	-11.0431
▁зорилгодоо	-11.0433
▁хувцсаа	-11.0433
▁хооллох	-11.0434
мэл	-11.0437
жир	-11.0439
▁сонор	-11.0443
▁аавынхаа	-11.0445
ту	-11.0447
▁зүйлээр	-11.0449
▁эмя	-11.0449
▁ярианы	-11.045
▁алдаад	-11.045
▁дайран	-11.0451
▁испанийн	-11.0452
▁уулзвараас	-11.0453
one	-11.0458
▁цэнэг	-11.0458
▁гурилын	-11.0459
▁улстөрчдийн	-11.0463
▁өнгөөр	-11.0465
▁хуримын	-11.0467
▁ойртож	-11.0468
▁ягаан	-11.0469
▁хордлого	-11.0469
гон	-11.0477
▁биднээс	-11.0482
▁зайг	-11.0485
▁хүрэгчдийн	-11.0489
энхбаярын	-11.049
▁зээлээс	-11.0491
▁өгүүлбэр	-11.0492
▁эрин	-11.0496
▁нэмэгдэл	-11.0497
▁хуралдах	-11.0499
▁александр	-11.0499
▁ис	-11.05
▁нүгэл	-11.05
▁тушаалтны	-11.0503
▁дуулга	-11.0505
▁шийдвэрлэхэд	-11.0506
▁хичээх	-11.0506
▁уураг	-11.0508
▁убтз	-11.0511
▁болго	-11.0512
▁сэрүүсч	-11.0517
▁уналт	-11.0517
▁буур	-11.0518
▁өртөгтэй	-11.0518
▁бодлогод	-11.0521
▁it	-11.0521
▁сонслоо	-11.0523
▁нэгээр	-11.0523
▁зантай	-11.0524
▁солилцлоо	-11.0526
▁шигшээд	-11.0529
▁орохоор	-11.0531
▁очдог	-11.0531
▁тиймээ	-11.0533
▁аваарай	-11.0534
▁угсралтын	-11.0535
▁хүүхэлдэйн	-11.0535
▁чөлөөлсөн	-11.0535
▁өвдөж	-11.0536
▁бүрдүүлдэг	-11.0539
цаа	-11.054
▁африк	-11.0542
лна	-11.0542
үд	-11.0543
▁төрч	-11.0546
▁бодохоор	-11.0546
▁нүүрний	-11.0548
▁ханшийг	-11.0548
▁өсчээ	-11.0548
▁элсэх	-11.055
▁зуд	-11.0551
гүүд	-11.0556
▁олголт	-11.0556
дэв	-11.0558
▁хорь	-11.0558
▁цемент	-11.0558
▁замнал	-11.0563
▁хичээллэх	-11.0563
▁хөндлөнгийн	-11.0568
▁хүчирхийлэлд	-11.0568
▁тойронд	-11.0568
дуулсан	-11.0569
▁эргэлзээ	-11.0572
▁учрах	-11.0572
номтойбаяр	-11.0573
▁ma	-11.0574
▁багачууд	-11.0576
▁өрнөсөн	-11.0578
▁хичээдэг	-11.0585
▁зохиосон	-11.0587
▁ов	-11.0591
▁ашиглалтанд	-11.0591
▁гуравны	-11.0592
урт	-11.0592
▁жо	-11.0593
▁нэгнээ	-11.0594
▁мэдээллүүд	-11.0596
▁сараар	-11.0598
▁тойрч	-11.0602
ers	-11.0602
▁торгуулийн	-11.0604
▁хурдацтай	-11.0604
▁шавар	-11.0606
:15	-11.0606
хийг	-11.0607
ry	-11.0608
▁сайжруулсан	-11.061
▁хүлээгээд	-11.0612
▁тодорч	-11.0612
эхэд	-11.0613
рин	-11.0615
▁зарлигаар	-11.0616
▁хэлбэрт	-11.0617
гөө	-11.062
▁холбогдуулж	-11.0621
▁хаалтын	-11.0621
▁ээжийнхээ	-11.0622
ез	-11.0624
▁такси	-11.0626
▁зөөж	-11.0627
▁туу	-11.0628
ынх	-11.0632
мж	-11.0634
▁унаад	-11.0634
▁тоолох	-11.0636
▁бүлээн	-11.0636
хэд	-11.064
▁гэдгээр	-11.064
▁хэмнэлт	-11.0642
▁наадмаас	-11.0642
▁багтах	-11.065
▁тогооч	-11.0653
▁шөл	-11.0654
▁12:00	-11.0654
▁механик	-11.0655
▁яамд	-11.0656
▁маршал	-11.0656
▁сумаас	-11.0656
▁нөхдийн	-11.0657
▁гаргаагүй	-11.066
▁үндэслэлгүй	-11.066
▁ри	-11.0661
▁цөл	-11.0662
▁сацуу	-11.0664
▁нэгтэй	-11.0665
▁жуулчин	-11.0666
▁ертөнцийг	-11.0669
▁нөлөөгөөр	-11.067
▁бил	-11.0671
ино	-11.0675
▁оруул	-11.0675
ош	-11.0676
аасай	-11.0678
▁багахан	-11.0683
▁xvii	-11.0684
▁ашигласны	-11.0684
▁хийц	-11.0685
хаянхярваа	-11.0686
оросын	-11.0687
▁тогтож	-11.0692
▁хуваарилах	-11.0693
▁дагуулан	-11.0694
▁чам	-11.0695
▁доллараар	-11.0695
▁урагшаа	-11.07
▁ууган	-11.0704
▁банктай	-11.0708
хэл	-11.0708
▁хоригдож	-11.0711
▁эсэргүүцсэн	-11.0714
▁орчихсон	-11.0716
▁улз	-11.0716
▁дарь	-11.0718
сүх	-11.0721
▁хүндрэлийг	-11.0721
▁хүргүүлэх	-11.0725
▁рок	-11.0727
▁туршлагыг	-11.0733
▁гарьд	-11.0737
▁зөвлөгөөг	-11.074
▁хорооллыг	-11.0742
▁арилгаж	-11.0747
▁нээн	-11.075
▁шалгаруулж	-11.0751
▁эрж	-11.0751
чимэг	-11.0752
▁ярилцлагадаа	-11.0755
▁хэрэглэл	-11.0758
▁салбараа	-11.0758
▁өмөзо	-11.0763
▁хардлага	-11.0766
энхболдод	-11.0767
▁хашаанд	-11.0769
▁хэсэгтээ	-11.077
▁удирдлагад	-11.077
▁бүлийнхэн	-11.0771
▁12.00	-11.0771
▁засварлах	-11.0772
элбэгдоржийн	-11.0772
▁хоолойн	-11.0774
▁өмчийг	-11.0775
▁даваанд	-11.0779
очирбат	-11.078
▁уудам	-11.0781
▁алслагдсан	-11.0783
▁болсонд	-11.0783
▁эгшиг	-11.0784
▁зээ	-11.0784
▁зөвшөөрөхгүй	-11.0785
▁тогло	-11.0786
дуулж	-11.0786
▁өргөжин	-11.079
▁тэмдэглэдэг	-11.0793
▁адал	-11.0793
▁төлөвлөгөөгөө	-11.0795
▁өргөтгөсөн	-11.0797
▁бэрхшээлийг	-11.0797
элж	-11.0799
жүүлж	-11.0799
▁02-	-11.08
▁чех	-11.0801
92	-11.0801
▁гаран	-11.0805
▁төгрөгөөс	-11.0806
▁тоглолтонд	-11.0806
▁ажилчин	-11.0807
▁амлаж	-11.0808
▁шоо	-11.0812
лга	-11.0815
агдсан	-11.0816
▁захиалагч	-11.0818
▁аваар	-11.0819
▁бүсийг	-11.082
▁тооцоолж	-11.0822
▁даах	-11.0823
▁суулга	-11.0825
▁ви	-11.0835
▁үлдээд	-11.0835
son	-11.0838
▁хүйс	-11.0843
▁хадгалагдаж	-11.0845
▁товчхондоо	-11.0846
▁медалийг	-11.0848
▁ёстойг	-11.0848
▁бичигдэж	-11.085
▁гор	-11.0854
▁болих	-11.0855
▁экспортыг	-11.0856
▁загварыг	-11.0859
▁болбол	-11.0861
▁хувиараа	-11.0861
▁аргаа	-11.0862
▁эрэл	-11.0863
▁инновацийн	-11.0863
лүүлдэг	-11.0864
▁тавилаа	-11.0868
time	-11.0872
▁хороог	-11.0873
▁се	-11.0873
▁арбитрын	-11.0875
▁тэрбумаар	-11.0875
▁жаал	-11.0879
▁барахгүй	-11.088
ца	-11.0881
▁харгис	-11.0881
▁харилцагч	-11.0882
▁мөнөөх	-11.0886
▁жуулчид	-11.0887
лаарай	-11.0889
▁ираны	-11.0891
▁үлджээ	-11.0892
оу	-11.0893
▁биечлэн	-11.0896
▁ирээдүйг	-11.0899
▁нөхөж	-11.0902
▁дайр	-11.0902
▁автомашиныг	-11.0903
▁төлөвшүүлэх	-11.0906
▁сахих	-11.0908
man	-11.0909
▁төлөвлөх	-11.0911
зи	-11.0914
▁шугамаар	-11.0915
рам	-11.0916
▁цогцоор	-11.0916
▁алдаатай	-11.0919
▁секунд	-11.0919
▁түшмэл	-11.0921
▁дамнасан	-11.0921
▁лидер	-11.0923
▁цацраг	-11.0926
кв	-11.0927
ts	-11.0928
лэгдэж	-11.093
аач	-11.0931
▁дурлалын	-11.0931
▁өргөжүүлэн	-11.0931
чихвал	-11.0933
▁музейд	-11.0934
яг	-11.0935
▁лабораторийн	-11.0936
▁буурчээ	-11.0937
шар	-11.094
▁худалдаалж	-11.0947
▁07-	-11.0947
▁байгуулснаар	-11.0947
▁өс	-11.0948
▁судалсан	-11.0949
▁засаглалыг	-11.095
▁цонхоор	-11.0954
ау	-11.0955
▁дууссаны	-11.0955
px	-11.0957
▁машинтай	-11.0961
▁нэмэгдүүлсэн	-11.0963
▁төрхийг	-11.0963
лосон	-11.0965
▁алдааг	-11.0966
▁үргэлжилсээр	-11.0969
▁нярай	-11.097
сах	-11.0971
ке	-11.0972
um	-11.0975
▁байрлуулсан	-11.0978
▁сайншанд	-11.0978
▁сэжигтэн	-11.098
▁олборлож	-11.098
▁дэмжээд	-11.0982
▁тэ	-11.0982
▁даргаас	-11.0983
▁сүй	-11.0985
▁өргөтгөх	-11.0986
лг	-11.0987
▁цолыг	-11.0991
▁террорист	-11.0992
▁дэлгэц	-11.0995
бямбасүрэн	-11.0996
▁солилцсон	-11.0996
▁1990-	-11.1
▁уулзан	-11.1001
▁гун	-11.1003
▁даргаа	-11.1003
▁баяраа	-11.1004
тойгоор	-11.1006
▁морьдын	-11.101
▁гарцыг	-11.101
▁халхын	-11.1011
▁хайрт	-11.1012
▁дэвшигчийг	-11.1013
▁холбогдон	-11.1013
51	-11.1013
▁нэвтрүүлсэн	-11.1014
▁комиссар	-11.1014
▁орнуудтай	-11.1014
▁байрандаа	-11.1016
▁зодож	-11.1017
▁тэнцсэн	-11.1026
ba	-11.1027
▁хүрэхэд	-11.1031
▁эрсдлийг	-11.1036
▁гэрлэх	-11.1039
▁чөлөөлөгдөх	-11.104
▁өөрчлөгдөх	-11.104
▁шалга	-11.104
▁сайнаар	-11.104
▁дараахь	-11.104
хөгжлийн	-11.105
▁санасан	-11.1052
наранбаатар	-11.1053
▁хүчирхийлэлтэй	-11.1053
▁хаяа	-11.1054
▁тогтолцоонд	-11.1055
▁семинар	-11.1056
▁хойшлуулах	-11.1059
▁нэмэгддэг	-11.1059
▁гэрэлтүүлэг	-11.1062
▁угаал	-11.1062
▁архивын	-11.1066
▁ком	-11.1066
▁хат	-11.1071
▁with	-11.1071
chuhal	-11.1071
▁босоод	-11.1073
▁хэлээгүй	-11.108
▁чанд	-11.108
гү	-11.1082
▁эмгэнэл	-11.1084
ямар	-11.1085
▁үймээн	-11.1085
чулуун	-11.1088
da	-11.1089
▁зайн	-11.1089
▁муудсан	-11.1091
▁нутгийнхаа	-11.1094
чихэж	-11.1095
▁нөхрөө	-11.1098
▁87	-11.1099
▁тосгон	-11.1099
▁малайз	-11.11
▁маргаантай	-11.1102
▁байхаа	-11.1104
батцэцэг	-11.1106
▁сургуулиудад	-11.1107
вэр	-11.1108
▁алах	-11.111
▁монголчуудыг	-11.1111
▁ураг	-11.1116
▁ядуурал	-11.1118
▁барилдсан	-11.1122
▁орнуудаас	-11.1122
▁цув	-11.1123
мягмар	-11.1123
▁оруулалттай	-11.1127
▁хамба	-11.113
нг	-11.1131
today	-11.1132
▁зогсч	-11.1132
насан	-11.1137
▁ух	-11.1139
▁өвчилсөн	-11.1139
im	-11.1145
▁бетон	-11.1146
▁баримтаа	-11.1147
▁үзэмж	-11.1148
▁зөрчин	-11.1149
▁цог	-11.1151
▁хэрэгтэйг	-11.1153
▁хөтөлбөрүүд	-11.1155
▁одонгоор	-11.1156
me	-11.1156
▁эрдэнэс	-11.1158
чир	-11.1159
▁амьдар	-11.1159
▁хасч	-11.116
▁маск	-11.1161
▁сэргээлт	-11.1161
▁дэмжлэгийг	-11.1163
▁хамаарал	-11.1164
▁заалтууд	-11.1174
лиг	-11.1175
▁шаргал	-11.1175
▁чен	-11.1176
61	-11.1179
▁нүүрсээ	-11.1179
дэггүй	-11.118
▁22-27	-11.118
мийн	-11.1181
▁гүнд	-11.1183
▁хамрах	-11.1183
▁82	-11.1186
элт	-11.1186
▁байгуулав	-11.1187
▁одод	-11.1188
▁тогтоосны	-11.119
▁хэрэглээгээ	-11.1191
▁тэмдэгт	-11.1191
мын	-11.1193
▁/2016	-11.1197
▁нааштай	-11.1197
▁хойших	-11.1198
чиж	-11.1198
▁түүндээ	-11.1199
▁суугч	-11.1202
▁хаягаар	-11.1203
ad	-11.1204
▁цаазын	-11.1206
▁мэр	-11.1209
▁барилаа	-11.121
▁утсыг	-11.1211
▁зэрэгтэй	-11.1215
▁олимпод	-11.1215
▁хөндийн	-11.1216
▁батламж	-11.1218
▁халдаж	-11.1218
▁омог	-11.1223
▁уулзав	-11.1223
▁https	-11.1224
чихлээ	-11.1225
▁дурьдсан	-11.1226
▁авчихсан	-11.1226
▁зээлтэй	-11.1227
▁тохироо	-11.1229
▁төсөөлөл	-11.1231
▁онгоцыг	-11.1232
▁боаж	-11.1233
гэсэн	-11.1233
▁роберт	-11.1239
▁газ	-11.1241
мөнхбаяр	-11.1244
▁гүүрэн	-11.1249
▁аялж	-11.1251
▁буурна	-11.1254
▁нэгд	-11.1255
▁устгаж	-11.1255
▁амьдралтай	-11.1257
▁чаджээ	-11.1258
▁баримтат	-11.1259
▁дуусна	-11.126
▁болсоор	-11.1262
▁тэрнээс	-11.1262
▁амарна	-11.1266
лалын	-11.127
▁очно	-11.127
▁урин	-11.1273
▁жинлүүр	-11.1273
▁явчих	-11.1278
▁хүргэ	-11.1283
▁мөрдөгдөж	-11.1289
▁тайл	-11.1291
▁компаниудыг	-11.1295
▁аб	-11.1296
▁дайралт	-11.1298
▁холбоод	-11.1299
▁төрөлхийн	-11.13
▁онцолжээ	-11.1302
хурд	-11.1305
▁явчихсан	-11.1306
▁тв	-11.1308
2-	-11.1309
▁бүргэд	-11.1309
▁говьсүмбэр	-11.1309
▁хувиа	-11.1311
жа	-11.1311
▁уурхайг	-11.1311
▁илэрдэг	-11.1312
▁тайзан	-11.1313
▁өнгөрөөх	-11.1316
▁туйл	-11.1317
am	-11.1317
▁отгон	-11.1317
▁гараас	-11.132
сноор	-11.132
▁батлуулсан	-11.1322
▁тасагт	-11.1322
сумъяабазар	-11.1323
далай	-11.1323
▁бололцоотой	-11.1324
▁залуучуудыг	-11.1325
▁дээвэр	-11.1327
▁хассан	-11.1328
▁эгнээнд	-11.1331
▁тохой	-11.1333
▁нимгэн	-11.1337
▁суга	-11.1337
▁оров	-11.1339
▁нэрлэх	-11.1341
▁алджээ	-11.1343
▁шийдээд	-11.1344
▁үүрч	-11.1344
▁азарга	-11.1345
▁дэгийн	-11.1345
▁лалын	-11.1346
▁харамсаж	-11.1346
▁хувилбарыг	-11.1347
мб	-11.1349
▁бүртээ	-11.135
▁батлагдсанаар	-11.1351
▁зарлаад	-11.1352
▁зэрэглэл	-11.1353
▁үргэлжлэн	-11.1358
▁аянд	-11.1359
▁хөв	-11.1359
оогүй	-11.1361
▁боль	-11.1361
▁эрсдэлд	-11.1362
▁явагддаг	-11.1363
▁төгсөх	-11.1365
▁1991	-11.1365
▁дээрхи	-11.1365
▁анхаарууллаа	-11.1366
▁үхлийн	-11.1367
▁хэрэгтэн	-11.1368
▁тариф	-11.1368
▁хийе	-11.1368
▁тохиолдож	-11.1372
▁металл	-11.1375
▁даалгаврыг	-11.1376
▁тавигдаж	-11.1376
▁барак	-11.1377
▁pro	-11.1378
▁дөрвөлжин	-11.1379
▁бүтээгдэхүүнүүд	-11.1379
▁хоолойгоор	-11.1382
▁эдгээрээс	-11.1383
рээд	-11.1385
▁электрон	-11.1385
▁биржийн	-11.1387
▁радиогийн	-11.1388
▁өмнөговийн	-11.1388
▁утгагүй	-11.1389
дөж	-11.1391
▁гайх	-11.1391
▁төлөөд	-11.1392
▁сайгүй	-11.1395
дож	-11.1398
▁оролцоод	-11.1399
▁эрдэнийн	-11.1402
▁алим	-11.1405
▁шин	-11.1406
▁саналтай	-11.1408
▁ялагдал	-11.1408
▁ирэн	-11.1408
▁багассан	-11.1409
▁хямралд	-11.1409
▁бүдүүлэг	-11.1409
▁хадаг	-11.1409
▁кв	-11.141
▁зовлонг	-11.1412
▁сергей	-11.1412
▁харагдахгүй	-11.1414
▁эцэстээ	-11.1415
▁малчны	-11.1416
▁тендерт	-11.1416
▁өмчлүүлэх	-11.1417
▁цул	-11.1421
▁гэгдэх	-11.1424
▁баталгааг	-11.1426
▁лу	-11.1426
▁тамирчдыг	-11.1426
▁сайдтай	-11.1426
▁тохиолддог	-11.1426
▁1993	-11.1428
▁ахиад	-11.1434
▁уут	-11.1434
▁зарцуул	-11.1435
▁гэлтэй	-11.144
▁харш	-11.1445
▁монголчуудад	-11.1446
facebook	-11.1446
▁оруулахгүй	-11.1447
▁бүрэлдэхүүнийг	-11.1447
▁шүүгдэгч	-11.1452
▁угсаа	-11.1452
▁эргэлтийн	-11.1455
-22	-11.1455
montsame	-11.1459
▁уриалсан	-11.1459
▁манжийн	-11.1461
94	-11.1463
лсэн	-11.1466
▁ёсондоо	-11.1466
▁бсшус	-11.1468
цгаая	-11.1469
▁сумд	-11.147
▁практик	-11.147
▁аваачиж	-11.1472
мент	-11.1473
уран	-11.1474
жсэн	-11.1476
▁гаруйн	-11.1476
▁төвөгтэй	-11.1479
▁эсэргүүцэл	-11.148
▁засагчид	-11.148
▁нэгдлийг	-11.1484
▁өгснөөр	-11.1486
▁тэтгэмжийн	-11.1488
▁хээ	-11.1488
▁нууцаар	-11.1489
▁цагдаад	-11.1489
▁арлын	-11.1491
▁хадны	-11.1491
▁08-	-11.1497
▁харшил	-11.1497
▁сувгийн	-11.1499
▁хориглоно	-11.15
▁l	-11.15
нар	-11.1501
▁хязгаарлагдмал	-11.1502
▁цамхаг	-11.1503
баярхүү	-11.1503
дол	-11.1504
▁шан	-11.1504
▁удирдагчид	-11.1504
▁хожсон	-11.1505
▁бүүр	-11.1506
▁ахуйг	-11.1506
▁тайлангаа	-11.1507
лэхэд	-11.1509
▁79	-11.151
▁хамруулсан	-11.1511
▁хамгаалдаг	-11.1511
▁амандаа	-11.1513
▁сэлбэ	-11.1514
▁удмын	-11.1516
▁түлхэц	-11.1516
▁дорж	-11.1517
ика	-11.1519
▁довтлогч	-11.1521
▁гэснээ	-11.1526
жид	-11.1527
тус	-11.1528
▁эвэр	-11.1531
▁st	-11.1532
▁араасаа	-11.1541
▁гэсээр	-11.1543
▁хоёроос	-11.1544
▁бүтээ	-11.1546
▁бахархаж	-11.1547
▁тег	-11.1551
гэх	-11.1552
сал	-11.1552
▁ярихгүй	-11.1555
▁салбараас	-11.1556
▁жолоодох	-11.1557
▁нэгэнтээ	-11.1558
▁цаазаар	-11.1558
▁an	-11.156
▁линк	-11.1562
лүүлэн	-11.1562
▁бодно	-11.1565
▁үйлчлэгч	-11.1565
▁сургуулилт	-11.1566
▁ангийг	-11.1569
▁эрсдэлээс	-11.157
-24	-11.157
▁инээж	-11.1571
▁цээрийн	-11.1572
▁бөөрний	-11.1572
▁үүснэ	-11.1573
үйц	-11.1575
сүхбаатарын	-11.1576
▁зүтгэсэн	-11.1578
▁элсэлтийн	-11.1578
▁багасгаж	-11.1579
▁өргөдлөө	-11.158
▁хонх	-11.1582
▁vv	-11.1583
гджээ	-11.1585
▁алдахгүй	-11.1586
▁мэдээллээс	-11.1586
өөгүй	-11.1587
▁сонгогдож	-11.1587
73	-11.1589
ii	-11.1591
▁аятайхан	-11.1592
▁/2014	-11.1594
▁үрэвсэл	-11.1598
▁зов	-11.1601
уз	-11.1601
лээр	-11.1604
▁урилга	-11.1607
энхбаярыг	-11.1609
▁үлдэнэ	-11.1611
дулам	-11.1611
▁нүүдлийн	-11.1614
▁сануулсан	-11.1615
▁дуулгахад	-11.162
ардаг	-11.162
▁норм	-11.1626
▁дурдаж	-11.1628
▁намтар	-11.1629
▁бүтэхгүй	-11.163
▁өрөөндөө	-11.1631
▁швед	-11.1635
gov	-11.1636
дод	-11.1638
▁хөтөлбөрүүдийг	-11.164
элсэн	-11.1641
▁гэснийг	-11.1643
▁нэмэгджээ	-11.1645
▁тооцоог	-11.1646
▁цохиж	-11.1646
▁үндэслэлтэй	-11.1647
▁карьер	-11.1651
лер	-11.166
▁дарх	-11.166
▁мэнгэ	-11.1665
ант	-11.1666
▁номонд	-11.1666
▁зургууд	-11.1667
▁хорвоо	-11.1669
▁ро	-11.167
▁шагай	-11.1671
тэ	-11.1671
нийгмийн	-11.1672
▁малчдад	-11.1674
ном	-11.1675
цэн	-11.1675
▁поп	-11.1675
▁мөрөөр	-11.1681
▁төрөлх	-11.1681
▁булчин	-11.1683
▁сурвалжууд	-11.1684
▁240	-11.1685
ro	-11.1686
▁спортыг	-11.1687
▁ихсэх	-11.1687
▁өснө	-11.1689
▁нүдийг	-11.1695
▁саванд	-11.1697
▁сэн	-11.1701
▁манлайлагч	-11.1705
▁эрүүлжүүлэх	-11.1708
▁гэрлийн	-11.1708
ого	-11.1712
▁импортоор	-11.1715
▁констракшн	-11.1716
▁ногдол	-11.1717
▁орхин	-11.1718
▁зогсоод	-11.1719
▁сэрэмжтэй	-11.1719
▁гоёл	-11.1724
▁замтай	-11.1724
▁зоог	-11.1725
▁лиг	-11.1728
▁бээжингийн	-11.173
▁хуралдуулах	-11.1731
▁хөдөлгөх	-11.1732
▁утсанд	-11.1735
сноос	-11.1736
▁цахимаар	-11.1737
▁нэвтрүүлэгт	-11.1739
▁явжээ	-11.1739
-25	-11.1741
▁вагон	-11.1744
▁үүрд	-11.1744
:07	-11.1746
▁me	-11.1746
тавантолгой	-11.1747
ци	-11.1748
▁шөвг	-11.1749
сансар	-11.175
уудаар	-11.1753
▁грамм	-11.1755
▁сугалаа	-11.1755
▁ду	-11.1757
▁грек	-11.1757
дор	-11.1758
▁гардууллаа	-11.1762
▁утааны	-11.1763
ами	-11.1765
түвшин	-11.1771
▁халз	-11.1771
▁өчнөөн	-11.1772
▁тусган	-11.1773
▁зөвшилцөх	-11.1773
▁сайжрах	-11.1775
▁бу	-11.1777
▁хичээлээ	-11.178
▁морио	-11.1782
▁зааланд	-11.1783
оль	-11.1784
байгаль	-11.1785
▁дуурь	-11.1786
▁бэлтгэлийн	-11.1787
▁москвагийн	-11.1787
▁идэвхи	-11.179
▁аяндаа	-11.1794
моор	-11.1796
▁нэвт	-11.1797
▁исламын	-11.1797
▁цагаасаа	-11.1798
lo	-11.1805
▁онгон	-11.1805
▁дуучид	-11.1806
билэгт	-11.1806
▁уучлалт	-11.1807
▁настайдаа	-11.1807
▁микро	-11.1808
▁хуудсаар	-11.181
▁уншина	-11.181
▁хулгайлсан	-11.1811
▁үрээ	-11.1811
▁тооцон	-11.1812
▁дундговийн	-11.1812
лхагвасүрэн	-11.1813
▁салбарууд	-11.1813
▁тээж	-11.1814
лам	-11.1814
▁багаасаа	-11.1814
▁жигүүр	-11.1817
▁хөрөнгөтэй	-11.1819
▁багаа	-11.182
-21	-11.1822
▁байгальд	-11.1825
▁ирвэс	-11.1835
▁австри	-11.1838
▁монголбанкнаас	-11.1838
▁сурталчлан	-11.1842
▁хольж	-11.1842
▁хэлэлцүүлж	-11.1843
вай	-11.1843
▁900	-11.1845
▁дутмаг	-11.1845
▁ихэнхдээ	-11.1846
мэн	-11.1847
▁энийг	-11.185
▁ойролцоох	-11.185
▁ос	-11.1853
▁үнэлэлт	-11.1854
▁14:00	-11.186
▁хуудаснаа	-11.1862
▁даш	-11.1863
▁охинтой	-11.1867
▁хүчил	-11.1868
арга	-11.1868
газар	-11.187
▁хадгал	-11.187
пүрэвдорж	-11.1873
▁бүлгүүд	-11.1874
▁89	-11.1875
▁бүртгэлийг	-11.1876
сэр	-11.1876
▁нээгдэж	-11.1876
▁цочир	-11.188
▁хойшхи	-11.1881
▁модель	-11.1881
▁тодотголтой	-11.1883
▁хальс	-11.1885
▁тогтлоо	-11.1885
▁/2017	-11.1885
еф	-11.1888
болормаа	-11.1888
хангай	-11.1889
хөх	-11.189
▁эхчүүдийн	-11.189
▁шөхтг	-11.189
дамба	-11.1891
▁соён	-11.1892
▁дэлгүүрт	-11.1896
дер	-11.1898
▁эрхлэгчдэд	-11.1898
▁ялгарах	-11.1899
▁судас	-11.1902
▁тогтнолоо	-11.1903
▁оролцохгүй	-11.1904
▁адилгүй	-11.1906
per	-11.1906
▁оллоо	-11.1908
▁суулгасан	-11.1909
▁цугласан	-11.1912
дорлигжав	-11.1914
▁донор	-11.1916
▁чуулгын	-11.1917
▁ослоос	-11.1918
мөнгөн	-11.1919
▁зохи	-11.1922
▁хийг	-11.1923
▁украин	-11.1923
▁мэдэгдэлд	-11.1924
▁гэдэгтэй	-11.1925
▁төлөөллийг	-11.1925
▁болоо	-11.1928
▁онолын	-11.1929
тны	-11.1929
▁гадуурх	-11.193
▁цэрэгт	-11.193
▁тайз	-11.1931
▁хэрэгцээтэй	-11.194
▁оноог	-11.1941
▁судар	-11.1942
▁хүрээтэй	-11.1945
▁үзлэгт	-11.1948
▁зүүж	-11.1949
▁хүргээд	-11.195
▁түгээн	-11.1951
▁орчуулагч	-11.1951
рол	-11.1952
не	-11.1957
▁шүүмжлэлтэй	-11.1958
▁105	-11.1958
▁125	-11.1962
▁хуралдаанаас	-11.1963
▁хуваах	-11.1965
▁ингэх	-11.1966
▁хэрэгч	-11.1966
чээ	-11.1967
▁ойлголцол	-11.1968
▁мэдэрсэн	-11.1968
▁ороо	-11.197
▁яригдсан	-11.1971
▁ажиглагдаж	-11.1971
▁босож	-11.1971
▁дагалдан	-11.1972
▁тамирын	-11.1974
▁цэргийг	-11.1975
▁суут	-11.1981
ери	-11.1983
▁оруулахыг	-11.1984
▁яадаг	-11.1984
▁үзүүлэлтийг	-11.1988
▁мэдэгдлийг	-11.1989
▁ерөнхийлөгчийг	-11.1994
▁хүлээнэ	-11.1994
▁бүтээлтэй	-11.1995
▁танилцуулгыг	-11.1996
▁хүмүүжил	-11.1997
▁болохоо	-11.1997
▁шийдвэрлэнэ	-11.2001
▁гарахыг	-11.2002
▁төлөөллүүд	-11.2003
▁жаргалыг	-11.2009
▁орноосоо	-11.2009
нх	-11.2009
▁170	-11.2011
▁хүндэтгэх	-11.2014
хүүгийн	-11.2015
▁экспортод	-11.2015
оюунбаатар	-11.2017
бидний	-11.2019
▁жив	-11.2019
▁жишгээр	-11.202
▁гуравхан	-11.2021
▁хүндэрсэн	-11.2035
▁гүйцэтгэгчээр	-11.2035
▁зохиогч	-11.2035
▁ресторан	-11.2037
▁төгрөгтэй	-11.2039
▁гут	-11.2039
▁зүйч	-11.2039
▁гайхан	-11.2042
▁бригадын	-11.2044
▁органик	-11.2049
тн	-11.2055
▁цэгцлэх	-11.2058
▁дараахан	-11.2058
▁аваас	-11.2059
▁онөаатүг	-11.2059
▁бичлэгийн	-11.206
▁хөрөг	-11.2062
▁хэлхээ	-11.2062
▁world	-11.2063
▁con	-11.2066
элэг	-11.2067
▁танигдсан	-11.2068
буян	-11.2069
▁цэцэд	-11.2069
▁урамшууллын	-11.207
▁ээжүүд	-11.2072
▁авбал	-11.2072
▁дайчид	-11.2075
▁ходоодны	-11.208
▁баталгаажуулж	-11.2085
▁био	-11.2087
▁нөгөөх	-11.2094
▁зарц	-11.2094
▁дарханы	-11.2095
▁бүтээлд	-11.2097
▁тендерийн	-11.2097
▁бүтээмж	-11.2098
▁диплом	-11.2099
▁хэзээнээс	-11.2099
▁болгоё	-11.2099
▁хариултыг	-11.21
▁зал	-11.2106
▁баримтаар	-11.2109
▁хашааны	-11.2109
▁тусламжийг	-11.2112
▁мөнгөнөөс	-11.2114
▁үзэсгэлэнтэй	-11.2115
ee	-11.2118
уйн	-11.212
▁авт	-11.212
▁мм	-11.2122
▁тэнцвэр	-11.2125
▁цогцолборын	-11.2127
▁сонирхуулахад	-11.2129
▁барааг	-11.2129
▁агуулах	-11.213
али	-11.213
▁цаанаа	-11.213
▁урвуулан	-11.2131
▁монголынхоо	-11.2141
▁зөвлөлт	-11.2144
хятадын	-11.2148
▁шийдлийг	-11.2153
ент	-11.2158
тс	-11.2158
▁мөргөлдөөн	-11.2159
▁казахстаны	-11.216
▁зарсан	-11.2161
▁50-	-11.2161
▁гүйх	-11.2163
▁сэлгээ	-11.2165
▁тайж	-11.2167
▁хүчинтэй	-11.217
▁төрчид	-11.2171
▁тэмдэглэлээ	-11.2171
▁байршуулсан	-11.2172
дана	-11.2175
1.2	-11.2178
go	-11.2178
▁бөхчүүдийн	-11.2179
овын	-11.2179
мөн	-11.2183
▁төвшин	-11.2184
▁моах	-11.2187
эрдэнэбатын	-11.2187
▁хамтрах	-11.2189
▁хуулиудыг	-11.2191
▁эхнэрээ	-11.2192
▁солилцов	-11.2192
▁ь	-11.2193
▁матар	-11.2195
▁алдагдаж	-11.2196
▁108	-11.2196
▁зочилж	-11.2198
▁хангамжийг	-11.2198
▁хэрэгжсэн	-11.2199
▁ногдуулах	-11.22
▁соёлоо	-11.2201
▁гарахдаа	-11.2207
▁тодруулга	-11.2208
▁зайлсхий	-11.2208
▁ярив	-11.2213
▁тусах	-11.2213
▁нарийвчилсан	-11.2213
▁цонхны	-11.222
:08	-11.2221
▁шүүгчдийн	-11.2222
▁хоолойгоо	-11.2224
▁уурхайгаас	-11.2224
хүүхэд	-11.2225
▁агуулгатай	-11.2225
агдана	-11.2228
▁мэдэгдэхгүй	-11.223
▁явуул	-11.2231
▁нотолж	-11.2232
▁цэрэн	-11.2232
▁эрсдэлийн	-11.2233
▁түшиглэн	-11.2234
▁олгогдсон	-11.2235
сг	-11.2238
▁лувсан	-11.224
▁онооны	-11.2241
▁тариалалт	-11.2242
▁үйлчилнэ	-11.225
▁орлон	-11.2251
▁нохойн	-11.2254
▁аварч	-11.2255
▁өвөлжилт	-11.2255
▁бууны	-11.2256
буу	-11.2256
лен	-11.2256
гурван	-11.2261
игийн	-11.2265
▁тулгуурласан	-11.2265
зам	-11.2267
▁утааг	-11.2269
▁хуулиас	-11.2269
▁хотууд	-11.2271
▁үрэгдсэн	-11.2271
▁дээдсийн	-11.2272
▁үгүйсгэх	-11.2275
▁ухаар	-11.2275
▁ихийг	-11.2276
▁гаргахдаа	-11.2277
▁тахих	-11.2279
▁богдын	-11.228
▁элссэн	-11.2283
▁таалал	-11.2285
эрч	-11.2285
▁бууруулсан	-11.2285
▁гаргав	-11.2286
▁тэтгэлэгт	-11.2288
▁голлон	-11.2288
▁галдан	-11.2289
▁замаас	-11.2291
аны	-11.2298
лүндээжанцан	-11.2301
▁хүндэрч	-11.2301
▁гуравт	-11.2305
▁аймгууд	-11.2307
▁зөрчих	-11.2308
▁аргачлал	-11.231
▁айхтар	-11.2312
▁өгөөжтэй	-11.2315
үүдээ	-11.2315
▁автсан	-11.2315
▁сүрхий	-11.232
▁барах	-11.2322
ну	-11.2325
▁байцаагчийн	-11.2327
▁талуудын	-11.2327
▁газруудыг	-11.2327
ig	-11.2329
▁үнэмшил	-11.2329
▁хэмнэл	-11.2331
▁нуусан	-11.2333
▁тулгарсан	-11.2333
▁изнн	-11.2333
▁өгөхөөс	-11.2334
дөн	-11.2334
▁шулуун	-11.2336
▁1-3	-11.2338
▁зохицуулсан	-11.2339
▁модыг	-11.2339
▁999987	-11.2341
▁орсны	-11.2344
▁бүгдэд	-11.2345
▁ра	-11.2348
▁өмс	-11.235
▁татвал	-11.2351
▁фу	-11.2351
▁ангиллын	-11.2352
▁хоолыг	-11.2352
▁чой	-11.2353
▁үргэлжлэл	-11.2355
▁ирүүлэх	-11.2357
▁эгнээ	-11.2357
▁малтай	-11.2357
тра	-11.2358
▁үүсгээд	-11.2361
сайханбилэгийн	-11.2362
▁оноосон	-11.2363
▁эхлэхээр	-11.2363
▁дээдлэх	-11.2363
▁гүйлтийн	-11.2365
▁жорж	-11.2366
▁цацаж	-11.2367
иад	-11.2369
▁таамаглал	-11.2372
▁дээшээ	-11.2372
▁бүрэлдэхүүний	-11.2373
▁хориотой	-11.2375
▁хэрэглэхгүй	-11.2375
бүх	-11.2376
▁жүжигчид	-11.238
▁яана	-11.2381
▁өрнүүлэх	-11.2381
▁түү	-11.2383
▁менежментийг	-11.2385
▁үдийн	-11.2385
єг	-11.2388
▁казах	-11.2389
▁уурхайд	-11.239
▁ардчиллыг	-11.2392
▁одсон	-11.2394
▁зардаг	-11.2394
хулан	-11.2399
▁шшгег	-11.2399
▁байшинд	-11.24
▁дугаарыг	-11.24
▁үлдээж	-11.24
▁ээжийгээ	-11.2401
▁cap	-11.2401
▁визгүй	-11.2402
▁япончууд	-11.2402
▁20-30	-11.2403
▁залуухан	-11.2403
сүрэнгийн	-11.2404
▁олдох	-11.2405
▁хүндхэн	-11.2405
▁гэрээгээ	-11.2406
▁айдаг	-11.2407
▁урлагийг	-11.2408
▁шалгаруулалтын	-11.241
▁үзүүлэлтээр	-11.241
▁that	-11.2411
▁нэмэгдсээр	-11.2411
анг	-11.2411
▁буяны	-11.2412
▁биелэлт	-11.2415
лэгдэх	-11.2416
▁адаг	-11.2416
▁хилэн	-11.2416
▁шугамын	-11.2417
▁оролцжээ	-11.2419
▁мянганы	-11.2423
▁вэб	-11.2423
▁хи	-11.2427
▁шүүмж	-11.2431
▁хүлэмжийн	-11.2431
▁дуудсан	-11.2432
▁хяналтад	-11.2435
▁мат	-11.2436
pe	-11.2436
▁давтамж	-11.2437
▁тариаланчид	-11.244
▁сонирхдог	-11.244
▁цэнийг	-11.2441
▁мэдэхэд	-11.2442
май	-11.2445
▁гишүүнээс	-11.2446
лаас	-11.2449
▁цор	-11.245
▁салшгүй	-11.2451
▁сурдаг	-11.2452
▁онцлоод	-11.2453
▁зураглал	-11.2454
▁хаялт	-11.2455
чихдэг	-11.2456
▁эрхмүүд	-11.2458
▁ханшаар	-11.2462
▁сити	-11.2464
▁хэлийг	-11.2465
▁гарааны	-11.2467
▁эзэмшил	-11.2468
▁төрөлхтөн	-11.2469
▁зүйлсийн	-11.247
▁ургийн	-11.247
▁бизнесээ	-11.2471
▁хязгаарлаж	-11.2472
▁тээвэрлэж	-11.2472
▁дагуулсан	-11.2472
times	-11.2474
tsag	-11.2475
▁уснаас	-11.2477
▁контент	-11.2477
▁эцгийн	-11.2478
content	-11.2481
▁чийг	-11.2481
:25	-11.2483
sa	-11.2484
амгаланбаатар	-11.2484
▁удирдлагыг	-11.2488
▁will	-11.2489
▁хурууны	-11.2491
▁түвд	-11.2492
▁майкл	-11.2493
▁хэдийнээ	-11.2494
▁группын	-11.2495
▁олгохгүй	-11.2497
уб	-11.2498
▁бэлдэх	-11.2499
▁ариутгал	-11.2501
▁дуусгаж	-11.2504
:35	-11.2508
▁хонож	-11.2512
гин	-11.2513
▁улсдаа	-11.2514
▁реклам	-11.2514
сэл	-11.2516
кар	-11.2516
▁товчооны	-11.2517
▁томилогдох	-11.2519
▁суларч	-11.2519
▁ясны	-11.2519
▁дэлгэцийн	-11.2522
▁төлөвлөн	-11.2522
▁яллах	-11.2522
like	-11.2526
▁хожиж	-11.2527
▁автомашинтай	-11.2527
▁хөндсөн	-11.253
▁өглөг	-11.2531
▁тэмцлийн	-11.2533
▁харьцаагаар	-11.2533
▁хадгалсан	-11.2537
золжаргал	-11.2538
▁бээр	-11.2538
▁багтаасан	-11.254
иан	-11.254
илсан	-11.2541
▁тохиолдох	-11.2541
▁цэцэн	-11.2542
▁зохиолчдын	-11.2547
▁хэргээ	-11.2548
ори	-11.2549
▁бүртгэгдэж	-11.2551
▁сарыг	-11.2553
▁зориулалт	-11.2553
▁бен	-11.2554
▁сургуулиас	-11.2555
▁дүнгээс	-11.2555
▁буцсан	-11.2558
▁тархсан	-11.2562
вч	-11.2564
▁эсгий	-11.2566
▁хадлан	-11.2568
▁заяаг	-11.2569
▁цэгийн	-11.2569
▁от	-11.2573
се	-11.2573
▁түрүүн	-11.2574
үүлнэ	-11.2575
▁барьцаанд	-11.2577
зоригийн	-11.2581
▁харвааны	-11.2583
▁харьцаатай	-11.2584
▁суулаа	-11.2584
▁бан	-11.2587
▁концерт	-11.2589
учрал	-11.2589
▁хаш	-11.2591
▁төсвөө	-11.2591
тэг	-11.2592
▁эзгүй	-11.2592
▁квот	-11.2593
▁гүм	-11.2596
▁талбайтай	-11.2601
▁зорилгын	-11.2604
▁нэгдээрэй	-11.2608
▁идэвхжүүлэх	-11.2608
▁самуун	-11.2608
▁хязгаарыг	-11.261
сээ	-11.2611
▁дасан	-11.2612
▁трампын	-11.2612
▁амьдарсан	-11.2614
гэнэ	-11.2616
▁бог	-11.2616
▁хяналтгүй	-11.2618
ины	-11.2618
▁зүйлтэй	-11.2618
▁дүгнэсэн	-11.262
ge	-11.2626
▁гэдгээс	-11.2627
▁тавцанд	-11.2627
▁интернет	-11.2627
▁байгууллагынхан	-11.2628
▁хя	-11.263
▁сүсэг	-11.2631
▁нэгт	-11.2632
юр	-11.2632
▁жагсаалтын	-11.2632
▁хэмээгч	-11.2633
лалт	-11.2634
▁ме	-11.2637
өнө	-11.264
▁хамгаалахад	-11.2642
▁эмээл	-11.2644
▁хөшөөнд	-11.2645
▁үеийнхэн	-11.265
▁хоногоос	-11.2651
▁унагаж	-11.2652
тсан	-11.2653
▁баяраар	-11.2654
▁илчлэг	-11.2655
▁хэсгүүд	-11.2657
▁дүүргээс	-11.2658
төрөөс	-11.2659
ga	-11.266
дугаар	-11.2662
▁жор	-11.2664
▁нийцэж	-11.2664
▁коллеж	-11.2665
ьд	-11.2666
▁яамтай	-11.267
▁15.00	-11.2674
▁сурагчдад	-11.2677
▁өнгийг	-11.2677
▁харахгүй	-11.2677
▁зорин	-11.2678
▁нуруун	-11.2679
▁хонин	-11.268
▁эвлэл	-11.2684
▁үнэмлэхүй	-11.2685
инээв	-11.2686
▁сонирхогчдын	-11.2687
▁эзэнгүй	-11.2688
▁оруулахад	-11.2688
▁найргийн	-11.2689
▁сонго	-11.2696
▁тасарсан	-11.2699
саж	-11.27
▁давхардсан	-11.27
ac	-11.27
▁дуугарч	-11.2701
▁төст	-11.2701
ru	-11.2701
▁2-7	-11.2702
▁багтжээ	-11.2704
▁багасна	-11.2706
▁тогтох	-11.2713
▁no	-11.2718
▁4000	-11.2719
▁туршиж	-11.2721
▁салгах	-11.2722
▁шагайн	-11.2724
ейн	-11.2724
рх	-11.2727
▁ждү	-11.2727
▁нуга	-11.2729
об	-11.2733
▁засагтай	-11.2733
▁боломжоор	-11.2733
▁тэвчээртэй	-11.2734
гээрээ	-11.2735
▁залхуу	-11.2736
▁бодон	-11.2736
▁гэмгүй	-11.2737
иод	-11.274
▁ажилгүйдэл	-11.274
▁чихэнд	-11.2743
гаж	-11.2745
▁хамаардаг	-11.2746
▁бэлдсэн	-11.2749
▁мөргөл	-11.2753
▁эмчилж	-11.2753
▁гудамжаар	-11.2755
▁эсэргүүцэн	-11.2755
▁хийхийн	-11.2756
буянт	-11.2757
▁83	-11.2758
иуд	-11.2769
▁үзүүлэлтүүд	-11.2772
top	-11.2773
▁осолдсон	-11.2774
▁дэлгүүрүүд	-11.2776
▁are	-11.2776
▁ерөөе	-11.2778
▁ойлгомжгүй	-11.2782
▁хүмүүжүүлэх	-11.2782
▁клип	-11.2785
▁муугаар	-11.2785
ата	-11.2787
▁шалгуулах	-11.2787
лөг	-11.2791
▁сонсдог	-11.2791
▁алдаагаа	-11.2794
▁буддын	-11.2798
▁муудаж	-11.28
▁намдаа	-11.28
▁зайлсхийх	-11.2801
▁авъя	-11.2801
▁туулсан	-11.2801
▁хэмээлээ	-11.2802
▁түм	-11.2802
тунгалаг	-11.2803
1.5	-11.2804
▁зохиолыг	-11.2805
▁согтуугаар	-11.2805
ment	-11.2808
▁буруутгах	-11.2809
▁нян	-11.281
▁судал	-11.2814
▁дурдаад	-11.2814
▁шижин	-11.2815
▁авалтын	-11.2817
▁сурган	-11.2817
▁хэсгийнхэн	-11.2817
▁тавцан	-11.2821
ао	-11.2823
лөөд	-11.2825
▁байлдан	-11.2826
ду	-11.2827
▁дараалал	-11.2827
▁хэвтэх	-11.2828
лаар	-11.2828
▁суугчдын	-11.2828
▁хуваарьт	-11.2829
▁салсан	-11.2832
▁хямралтай	-11.2832
дс	-11.2832
рей	-11.2832
▁сургагч	-11.2832
▁хүчнийг	-11.2833
▁энгэр	-11.2833
▁хэрэгцээний	-11.2835
▁зориул	-11.2836
▁амьтдын	-11.2836
▁хамтраад	-11.2836
▁хөндлөн	-11.2837
▁тэгэхгүй	-11.2837
▁уулзаад	-11.2838
▁шүүмжлэх	-11.2839
хүртээмжийг	-11.2841
▁энхийн	-11.2843
▁цирк	-11.2843
ойн	-11.2843
мен	-11.2845
▁боломжит	-11.2846
чихна	-11.2846
▁гацаа	-11.2848
▁цуу	-11.2851
луулдаг	-11.2851
ник	-11.2851
▁тулга	-11.2853
▁болохуйц	-11.2854
▁ажиллахгүй	-11.2855
▁бялуу	-11.2856
▁нарынхаа	-11.2857
ээн	-11.2857
▁цэвэрхэн	-11.2861
▁хотхоны	-11.2862
▁сталин	-11.2863
▁эрхэмсэг	-11.2864
батчимэг	-11.2864
▁пан	-11.2866
▁унш	-11.2867
▁нуун	-11.2867
▁өрөнд	-11.2867
▁угаалгын	-11.287
▁нэхэж	-11.2871
харин	-11.2873
▁балчир	-11.2875
▁ch	-11.2877
▁даатгалд	-11.2878
▁шалгарлаа	-11.2879
1.3	-11.2882
▁уянга	-11.2883
▁заалтын	-11.2886
▁сарнай	-11.2886
▁магнай	-11.2887
▁удирдлагуудын	-11.2887
▁зодог	-11.2888
▁тавилга	-11.2889
▁хулгайлах	-11.2889
▁тойрны	-11.2889
▁хуваалцаж	-11.2894
▁уртын	-11.2898
▁яармагийн	-11.2898
▁ордод	-11.2898
▁хоёул	-11.2899
▁ядарч	-11.2902
▁үрж	-11.2902
▁орост	-11.2903
▁хэнээс	-11.2904
▁эзэмшигчдийн	-11.2905
▁цогцсыг	-11.2906
▁оддын	-11.2906
▁нээрээ	-11.2907
▁үстэй	-11.2908
▁морьд	-11.2909
тах	-11.291
▁шагнаж	-11.2912
▁вон	-11.2914
▁ялгах	-11.2918
em	-11.292
▁тавилан	-11.2922
бү	-11.2924
▁заалтуудыг	-11.2925
олж	-11.2926
▁балет	-11.2927
▁гадаадаас	-11.2928
▁дурсгалт	-11.2928
амба	-11.2929
тик	-11.2929
▁гүр	-11.293
▁хүрээлэнгээс	-11.2931
▁нүүж	-11.2931
▁жуулчлалыг	-11.2932
▁гацууртын	-11.2934
▁анзаар	-11.2935
таж	-11.2935
▁дэвид	-11.2936
▁зүйг	-11.2936
▁сонирхлоо	-11.2937
▁сүмийн	-11.2938
▁аг	-11.2942
▁залги	-11.2943
▁шимийг	-11.2943
▁he	-11.2944
▁тэнцэл	-11.2944
▁оношлогоо	-11.2947
▁илэрхийлдэг	-11.2947
▁шуудай	-11.2949
азийн	-11.2952
▁үйлдвэрлэлд	-11.2954
▁хэсэгчилсэн	-11.2954
▁сурагтай	-11.2958
▁элбэгдорж	-11.2961
▁суулт	-11.2961
▁ашиглаад	-11.2962
▁барьц	-11.2963
▁суралцагч	-11.2965
ect	-11.2966
▁домогт	-11.2966
▁хөшөөг	-11.2967
▁үзүүллээ	-11.2968
▁хоцорч	-11.297
▁танк	-11.2977
▁бүрдүүлэхэд	-11.2977
▁дуул	-11.2978
▁алчуур	-11.2978
▁судалгаанаас	-11.2978
▁бүлээ	-11.2979
▁хөлбөмбөг	-11.2979
▁амьдралаас	-11.298
арай	-11.2982
▁латин	-11.2982
▁сайдаас	-11.2986
▁илрэх	-11.2988
▁хойноо	-11.2989
▁томъёо	-11.2995
▁оролдох	-11.2997
дсон	-11.2998
▁нийлбэр	-11.2998
▁дуунууд	-11.2998
▁дамжиггүй	-11.3002
▁жаргалын	-11.3004
▁шахсан	-11.3004
▁хэнтэй	-11.3005
▁түшиг	-11.3006
:12	-11.3006
▁даруйдаа	-11.3006
▁зэм	-11.3006
дарь	-11.3007
▁бгд	-11.3008
▁хаз	-11.3008
гуу	-11.301
▁чадавхи	-11.3012
▁явцтай	-11.3012
▁гаргасныг	-11.3013
▁дураар	-11.3014
▁чанарт	-11.3014
▁өрхөд	-11.3015
▁банкуудад	-11.3016
▁мэтгэлцээн	-11.3019
▁яа	-11.302
▁залуучуудад	-11.3023
▁тоглоно	-11.3026
▁хөшиг	-11.3027
▁нэмүү	-11.3028
▁форумын	-11.303
▁гараагаа	-11.3034
▁зүрхэнд	-11.3036
▁хэлбэрийг	-11.3036
▁зохицох	-11.3041
▁үзүүл	-11.3043
▁ээждээ	-11.3047
▁эмчлэгч	-11.3048
▁гэнэн	-11.3048
▁гэрээт	-11.3048
▁хөтөлбөртөө	-11.305
▁ширээнд	-11.3051
▁сансар	-11.3055
▁заажээ	-11.3055
▁оролцоогүй	-11.3057
▁үхэж	-11.3058
▁авъяас	-11.3062
▁дүрэмд	-11.3062
▁мвт	-11.3069
▁залруулах	-11.307
▁хүндэтгэж	-11.3074
▁дун	-11.3075
▁шийдлээ	-11.3077
магц	-11.3081
▁яригдах	-11.3081
▁дүрэмт	-11.3084
▁барилд	-11.3084
▁нөлөөг	-11.3086
амартүвшин	-11.3087
▁хе	-11.3089
▁баримжаа	-11.309
▁өдийг	-11.3092
▁шийдвэрүүд	-11.3093
ча	-11.3093
▁бразилийн	-11.3093
▁төлбөртэй	-11.3093
эрхэмбаяр	-11.3094
▁үсний	-11.3098
▁1989	-11.3101
▁шалгаад	-11.3103
▁академич	-11.3104
▁бухимдал	-11.3106
▁дэлгэн	-11.3107
300	-11.3108
▁цэгц	-11.3109
▁командлагч	-11.3109
ip	-11.3115
болорчулуун	-11.3116
▁нийслэлчүүд	-11.3118
▁хх	-11.312
батжаргал	-11.3121
▁олоогүй	-11.3122
▁цомог	-11.3122
▁1072	-11.3122
▁хормой	-11.3124
хот	-11.3124
▁хүснэгт	-11.3125
▁оюутнуудад	-11.3125
▁үд	-11.3128
▁түүнийхээ	-11.3134
▁орууллаа	-11.3135
600	-11.3138
▁эмэгтэйчүүдийг	-11.3141
▁хубилай	-11.3141
цгааж	-11.3142
▁нууцыг	-11.3144
▁ядах	-11.3146
саруул	-11.3149
▁үнэлэмж	-11.3151
▁тулсан	-11.3154
▁уудаг	-11.3158
▁чимэглэл	-11.3159
сийг	-11.3159
▁бичгээ	-11.316
▁яллагдагчаар	-11.3162
▁1.1	-11.3162
▁уя	-11.3164
▁хуралдана	-11.3167
▁ингэ	-11.3168
▁болгоныг	-11.3169
▁үлддэг	-11.3169
гарамгайбаатар	-11.3171
▁нэгжийг	-11.3172
оху	-11.3174
▁шатар	-11.3178
▁айлчлах	-11.3178
:01	-11.3183
▁айлууд	-11.3184
▁тэв	-11.3186
▁пол	-11.3186
ld	-11.3188
трамп	-11.3191
▁ажиллагсад	-11.3191
▁лю	-11.3194
▁бэлд	-11.3194
▁асуудлаарх	-11.3194
▁ёо	-11.3196
▁хангуулах	-11.3196
▁сайжирна	-11.3197
итгэл	-11.3197
▁дамжсан	-11.3197
▁алддаг	-11.3199
▁төслөөр	-11.32
энхжаргал	-11.3201
ъё	-11.3201
▁хөнөөл	-11.3202
▁уншдаг	-11.3203
▁явдлаас	-11.3206
▁завь	-11.3208
▁хөөх	-11.3211
▁эрлийз	-11.3212
uk	-11.3213
▁өгчих	-11.3215
ag	-11.3216
▁харахаар	-11.3216
члах	-11.3219
▁зохиох	-11.3222
▁зэрэгцээд	-11.3222
▁гэрийнхээ	-11.3226
иф	-11.3227
▁суурьшл	-11.3227
▁төрөн	-11.3228
▁уулыг	-11.323
▁мартсан	-11.323
▁мэндэлсний	-11.3232
▁оффис	-11.3232
жсан	-11.3233
▁мэдэлтэй	-11.3234
▁сэдвүүд	-11.3234
▁хийморь	-11.3234
▁орохыг	-11.3237
▁сануулах	-11.3237
▁биелүүлсэн	-11.3237
▁103	-11.324
:55	-11.3242
▁ухаанаар	-11.3244
▁хомсдол	-11.3245
агдаагүй	-11.3247
үз	-11.3248
▁системтэй	-11.3248
үх	-11.3248
▁алсан	-11.3249
▁2012-2016	-11.3249
төл	-11.3251
ver	-11.3251
рөх	-11.3253
▁өнгөр	-11.3253
▁цуглуулсан	-11.3255
▁төрсний	-11.3256
▁горхи	-11.3257
бямба	-11.3257
▁гам	-11.3258
▁so	-11.3259
▁дэлбэрэлт	-11.3264
▁үүсэн	-11.3265
▁зарцуулалт	-11.3266
▁удирдсан	-11.3266
▁хоцорсон	-11.3268
▁хүсээд	-11.3268
▁газартаа	-11.3269
▁хариулав	-11.327
▁тушаалтнуудын	-11.3271
луу	-11.3272
▁хүрэхийн	-11.3272
▁ургасан	-11.3274
▁дусал	-11.3277
▁хүндэд	-11.3281
▁(19	-11.3283
▁сана	-11.3284
▁багасч	-11.3286
▁гарцгүй	-11.3286
▁боломжоо	-11.3287
▁ген	-11.3287
рэл	-11.329
▁алдав	-11.3294
▁сууцжуулах	-11.3294
гөөр	-11.3297
▁дундад	-11.3297
▁24-29	-11.3297
▁автобусанд	-11.3298
▁гээ	-11.33
▁итгэхгүй	-11.3301
▁мартах	-11.3302
▁хуурын	-11.3302
▁огцрох	-11.3306
▁санаатайгаар	-11.3308
▁220	-11.331
▁тооллого	-11.3311
▁өгүүллэг	-11.3313
▁сэргээ	-11.3313
▁гран	-11.3315
ден	-11.3315
▁хэтийн	-11.3317
▁мөл	-11.3321
▁тойрогтоо	-11.3322
лагдах	-11.3323
▁үйлдвэрлэгчдийн	-11.3324
▁хичээн	-11.3325
▁халдах	-11.3326
▁хэллэг	-11.3328
▁уурлаж	-11.3329
▁хайрлан	-11.333
▁олонтаа	-11.333
▁мэдүүлгийг	-11.3332
▁насаар	-11.3334
▁жолооны	-11.3336
▁сааруулах	-11.3339
▁хаалгаар	-11.3343
▁өн	-11.3347
▁сугар	-11.3347
зе	-11.3348
цгоо	-11.3349
▁зөөврийн	-11.3352
▁эзлэн	-11.3353
▁өрсөлдөгчөө	-11.3353
▁томилолт	-11.3358
▁халдварын	-11.3359
▁хувцсыг	-11.336
400	-11.3366
▁сэжигтэй	-11.3366
▁алтанбулаг	-11.3367
▁адгуус	-11.3369
▁7000	-11.3371
ion	-11.3372
▁хаяад	-11.3374
▁таньдаг	-11.3375
наар	-11.3376
▁уучлаарай	-11.3376
▁тосыг	-11.3378
▁зөвлөхөөр	-11.3378
чихгүй	-11.3379
▁төгрөгний	-11.338
▁эрэмбэ	-11.338
▁u	-11.3382
жавын	-11.3383
намайг	-11.3385
▁суув	-11.3385
▁саналуудыг	-11.3387
эгдэх	-11.339
▁хичээсэн	-11.3392
▁1.6	-11.3392
▁урлан	-11.3393
▁өгүүлэв	-11.3394
▁бах	-11.3394
▁баримтлан	-11.3395
▁өвд	-11.3395
▁нэмэгдүүлнэ	-11.3397
▁ло	-11.34
▁сугалааны	-11.34
по	-11.3402
баярын	-11.3402
▁авьяаслаг	-11.3404
▁алив	-11.3405
цахим	-11.341
▁бокс	-11.341
▁do	-11.3411
▁завшаан	-11.3413
▁шийдэлд	-11.3414
▁5-6	-11.3414
▁алж	-11.3417
сү	-11.342
▁өлзийт	-11.3423
вин	-11.3423
▁үйлдвэрлэлээ	-11.3426
▁үлдээ	-11.3428
▁сэргэх	-11.343
▁чадавх	-11.3431
▁гамшигт	-11.3432
▁арваад	-11.3434
▁хариуцдаг	-11.3434
▁хийдэггүй	-11.3434
▁өгдөггүй	-11.3434
▁ямааны	-11.3436
агдан	-11.3437
▁оноотой	-11.3437
▁халаалт	-11.3437
▁ухаа	-11.3437
отгонцэцэг	-11.3437
▁очин	-11.344
үнэн	-11.344
▁гүйцэтгэлийн	-11.3441
▁зүүсэн	-11.3441
▁өндрөөр	-11.3443
▁үнэлдэг	-11.3444
▁тулгараад	-11.3446
▁гулгаа	-11.3448
▁солилцоо	-11.345
▁авилга	-11.3456
▁хум	-11.3457
цу	-11.3461
нүүдийг	-11.3464
жамц	-11.3464
▁дуулгасан	-11.3464
▁хү	-11.3465
▁саар	-11.347
өдрийн	-11.3474
▁уламжлалыг	-11.3476
▁дамжуулалт	-11.3479
▁тушаалтанд	-11.348
▁эргийн	-11.348
▁дом	-11.3484
▁олноо	-11.3486
хуу	-11.349
▁зорилгыг	-11.3491
▁нээгдсэн	-11.3492
▁хайл	-11.3494
▁гэл	-11.3494
▁суис	-11.3495
▁халзан	-11.3496
▁гэмтлийн	-11.3498
▁зайсан	-11.3498
▁хорлох	-11.3501
▁хэрэгслүүд	-11.3502
▁сувилал	-11.3503
▁дуусаад	-11.3504
▁бүрдүүлнэ	-11.3504
▁сэтгэлдээ	-11.3507
▁хуримтлагдсан	-11.3507
▁ашт	-11.3508
▁шү	-11.351
▁тараг	-11.3511
▁боомтоор	-11.3512
▁эрхэс	-11.3517
▁загасны	-11.3518
▁ярихад	-11.3518
булган	-11.3519
▁ташуур	-11.352
араа	-11.352
▁суралцсан	-11.3521
▁агуулдаг	-11.3525
▁биелүүлээгүй	-11.3527
▁харийн	-11.3527
арна	-11.3528
▁ханхүү	-11.3529
▁чансаа	-11.353
▁бурууг	-11.3531
▁нэгжтэй	-11.3533
▁1,5	-11.3533
▁хоногоор	-11.3535
ho	-11.3537
▁уулз	-11.3538
▁компьютерийн	-11.3539
▁цолны	-11.354
▁ярилцлагыг	-11.354
дам	-11.3541
одонтуяа	-11.3541
/4	-11.3541
▁лос	-11.3543
▁таваг	-11.3544
▁толгойтой	-11.3544
▁солонго	-11.3545
▁манайхаас	-11.3547
гана	-11.3547
▁мян	-11.3547
▁тон	-11.3549
ant	-11.3553
▁зорилтууд	-11.3555
▁сэрэмжлүүлэг	-11.3555
▁муста	-11.3557
▁олго	-11.3558
толгой	-11.3559
бямбадорж	-11.3559
▁ойлголттой	-11.3565
эрсэн	-11.3566
▁төвлөрүүлж	-11.3567
▁бэхжүүлж	-11.3568
▁зо	-11.3568
шу	-11.3569
▁бодохгүй	-11.3571
bi	-11.3572
▁маршрут	-11.3572
өрсөн	-11.3572
▁эелдэг	-11.3573
▁ажилласны	-11.3578
▁зөрчилд	-11.358
кийн	-11.3581
▁олигтой	-11.3581
▁машинууд	-11.3582
▁хүүхдүүддээ	-11.3583
жанжин	-11.3584
▁зг	-11.3586
▁бөлгөө	-11.3588
▁мүхаүт	-11.359
▁аятай	-11.3591
▁дагалдах	-11.3591
▁pa	-11.3592
▁эмэгтэйчүүдэд	-11.3594
кан	-11.3594
▁швейцарь	-11.3594
▁чинээлэг	-11.3595
▁давхрын	-11.3595
уйц	-11.3597
▁шувууны	-11.3598
▁байцаан	-11.3599
▁банкаар	-11.36
▁үсрэх	-11.36
▁олжээ	-11.3603
▁толгойлсон	-11.3604
▁байхав	-11.3605
▁хүрэлцээ	-11.3605
▁форумд	-11.3608
▁тээвэрлэлтийн	-11.3608
▁эмчлүүлэх	-11.3608
▁царайтай	-11.3608
▁баярласан	-11.3613
▁залилан	-11.3613
▁тогтооно	-11.3615
▁иракийн	-11.3615
икс	-11.3615
▁хөдөлгүүр	-11.3615
▁товлосон	-11.3615
▁москвад	-11.3619
▁итгэмжлэгдсэн	-11.3619
▁хичээлийг	-11.3621
▁транс	-11.3623
▁тодорхойлдог	-11.3624
▁сонсогдож	-11.3627
▁яамдын	-11.3628
аш	-11.363
▁хороогоор	-11.3631
▁sa	-11.3631
▁you	-11.3633
▁эхэлснээр	-11.3634
▁461	-11.3635
▁харууллаа	-11.3635
▁international	-11.3636
▁шийдвэрлүүлэх	-11.3637
▁буулгасан	-11.3639
▁аялан	-11.364
▁дурс	-11.364
▁хоногтой	-11.3645
▁буруугүй	-11.3646
дагвадорж	-11.3647
▁дүнжингарав	-11.3647
▁тойруу	-11.3647
▁шхаб	-11.3647
▁амжилтаа	-11.3648
дөх	-11.3651
төмөрбаатар	-11.3652
▁хуванцар	-11.3652
▁40-	-11.3652
нан	-11.3653
▁хуяг	-11.3653
▁багана	-11.3655
▁тогтоодог	-11.3656
▁ажиллагаанаас	-11.3658
▁өвдсөн	-11.3658
▁филиппин	-11.3658
▁холбогдлыг	-11.3661
▁өдөржин	-11.3662
▁хяналтаа	-11.3662
▁тохируулан	-11.3662
хурц	-11.3665
▁цэцгийн	-11.3665
▁эрхлэн	-11.3666
▁болмоор	-11.3667
▁th	-11.3668
▁хуульчдын	-11.3668
▁эсэн	-11.367
▁ххаахүя	-11.3671
▁эзэгтэй	-11.3673
▁тэмдэглээд	-11.3678
▁буланд	-11.3678
▁зогсоно	-11.3681
▁мубис	-11.3681
▁мэдүүлгээ	-11.3685
▁суртахуун	-11.3691
▁шувууд	-11.3691
▁шалгаруулалтыг	-11.3692
ддэг	-11.3693
▁дуудлагыг	-11.3694
▁нутгийнхан	-11.3694
▁орлох	-11.3695
▁бизнест	-11.3698
▁чадамж	-11.3699
▁гу	-11.3702
▁инээмсэглэл	-11.3703
▁bo	-11.3704
доржийн	-11.3705
иу	-11.3705
▁хайрла	-11.3705
▁очир	-11.3709
▁хураасан	-11.371
▁өвдөлт	-11.3711
▁сахин	-11.3712
▁хүсэлтийн	-11.3712
▁туршлагаас	-11.3712
▁тодорлоо	-11.3715
▁нүүрийг	-11.3716
▁анхааруулсан	-11.3717
pa	-11.3717
▁тохиролцоонд	-11.3718
өнгөрсөн	-11.3718
▁ханцуй	-11.3719
▁уйлах	-11.372
▁өргө	-11.3721
▁тогтоогоод	-11.3723
ийл	-11.3724
▁шүтлэг	-11.3724
▁1.4	-11.3726
▁хувьцаагаа	-11.3727
▁хэрэглэгчдийг	-11.3729
▁дахины	-11.3731
ариун	-11.3731
▁боломгүй	-11.3733
жигжид	-11.3737
▁хувьчлал	-11.3739
▁/2018	-11.3739
▁шатсан	-11.3742
▁хүргэхээр	-11.3742
▁бүртгүүлж	-11.3743
▁зассан	-11.3745
▁өгчихсөн	-11.3746
▁хүргүүлжээ	-11.3748
▁заалттай	-11.375
▁сардаа	-11.3751
▁хэрэм	-11.3752
▁450	-11.3752
▁дамжиж	-11.3754
▁шагналаа	-11.3754
орос	-11.3754
▁зодоон	-11.3755
▁урьсан	-11.3756
▁бахархах	-11.3758
▁мэдэрдэг	-11.3758
гээгүй	-11.376
▁амьтныг	-11.3762
▁эрэгтэйчүүд	-11.3763
ита	-11.3763
os	-11.3769
▁тийнхүү	-11.377
▁хэрээ	-11.377
▁ажиллагаандаа	-11.3772
2.1	-11.3772
▁өнцгөөс	-11.3773
▁сармис	-11.3774
▁янзтай	-11.3777
▁коксжих	-11.3778
▁ирсний	-11.3778
зөв	-11.378
▁системээр	-11.3784
▁гүйцэд	-11.3786
▁ургацын	-11.3786
▁очлоо	-11.3787
▁гав	-11.379
▁эсэхээ	-11.3792
үнэ	-11.3793
▁зад	-11.3794
▁тэндээ	-11.3794
▁гаралт	-11.3796
лц	-11.3798
оюундарь	-11.3803
хол	-11.3804
▁үгүйсгэж	-11.3804
▁шуу	-11.3805
авто	-11.3805
▁амаржих	-11.3806
▁хөөс	-11.3808
▁илүүд	-11.3809
▁сэтгэлгээний	-11.3809
▁ихэссэн	-11.3809
дас	-11.3809
▁анзаарч	-11.381
▁мянгаар	-11.3811
▁удирдлагаар	-11.3813
▁хөтлөх	-11.3813
▁хүмүүн	-11.3814
▁хөлний	-11.3814
▁бүрхүүл	-11.3815
гүүр	-11.382
зу	-11.382
▁холгүй	-11.3822
▁бэлэглэсэн	-11.3823
▁социализмын	-11.3827
▁сонгуулиас	-11.3828
▁аймгийг	-11.3829
di	-11.3829
▁сурталчилж	-11.383
▁заадаг	-11.3831
▁эхлэхээс	-11.3833
▁фа	-11.3835
▁босох	-11.3835
▁багуудын	-11.3837
▁хархорин	-11.3837
▁объект	-11.3839
▁цөөнх	-11.3839
▁шүүн	-11.384
▁ажиллахдаа	-11.384
▁тааз	-11.3842
▁төлүүлэх	-11.3842
▁хэрцгий	-11.3842
▁хэлээ	-11.3845
▁хэмээж	-11.3845
эрчим	-11.3848
▁хаус	-11.3849
батмөнх	-11.3849
энержи	-11.385
▁гарахаар	-11.385
▁онгоцонд	-11.3851
▁өвийг	-11.3851
арт	-11.3852
▁хорвоод	-11.3854
▁зөрчлүүд	-11.3855
▁геологийн	-11.3855
▁агууламж	-11.3856
▁хамруулан	-11.3856
рэй	-11.3857
▁материаллаг	-11.3857
▁вирусийн	-11.3858
▁гүүрийн	-11.3858
▁зарлагын	-11.3859
▁сэтгүүлд	-11.386
▁шарга	-11.3861
▁нийцэхгүй	-11.3865
▁үзүүлэхээр	-11.3869
▁агсан	-11.3871
▁сарны	-11.3873
▁доошоо	-11.3877
▁цогт	-11.3878
▁болъё	-11.3878
▁гуйсан	-11.3879
▁захиран	-11.3881
▁нэгээс	-11.3883
1.4	-11.3883
▁блок	-11.3885
▁тэмдэглэгээ	-11.3885
▁аварсан	-11.3888
хайр	-11.3888
▁шийдэгдэх	-11.3889
▁шийдвэрлэжээ	-11.3891
▁бүсгүйчүүдийн	-11.3898
▁орвол	-11.39
▁эмнэлэгийн	-11.3901
▁хэрэглэнэ	-11.3902
▁буулган	-11.3905
▁чойбалсан	-11.3905
▁болчихдог	-11.3906
-100	-11.3908
▁тэнхээ	-11.391
▁археологийн	-11.391
▁хорвоогийн	-11.3914
ре	-11.3914
▁зоогийн	-11.3915
▁даалгасан	-11.3921
ерс	-11.3921
▁олдвор	-11.3925
гдсан	-11.3925
▁хөтөлбөрөөр	-11.3925
▁заасныг	-11.3926
▁гүйцээ	-11.3927
▁дэлгэж	-11.3927
ашгүй	-11.3928
▁нууцын	-11.3929
▁нэрс	-11.393
дуулах	-11.393
▁нөхцөлтэй	-11.393
▁завдсан	-11.3934
▁хаанд	-11.3936
▁хугацаанаас	-11.3936
▁магтаал	-11.3936
▁эсэргүүцэх	-11.3936
!!!	-11.394
луулаад	-11.3941
▁иван	-11.3941
рүүлж	-11.3942
▁түймрийг	-11.3944
2.5	-11.3945
ice	-11.3948
▁эгүүлэн	-11.3949
юн	-11.3949
▁зурагчин	-11.3949
▁эмнэлгүүд	-11.3951
▁царайг	-11.3952
▁нийлүүлэгч	-11.3955
▁байлга	-11.3958
гантуяа	-11.396
▁тэрбумтан	-11.396
▁дундах	-11.396
сэ	-11.3961
сумъяа	-11.3966
▁тайвань	-11.3967
▁сүрьеэ	-11.3968
▁давхиж	-11.3968
▁бэлэглэх	-11.3968
▁төгсөж	-11.3971
▁шийджээ	-11.3973
▁жуулчны	-11.3975
▁оруулагчдад	-11.3975
▁үүрэн	-11.3976
▁энхтайваны	-11.3979
▁хөндөх	-11.3982
▁санаачлагыг	-11.3983
▁боловсруулжээ	-11.3985
▁баавгай	-11.3986
▁сонсголын	-11.3988
▁буулт	-11.3988
▁дуудлагаар	-11.3989
▁бүтээгдэхүүнд	-11.3991
▁бузар	-11.3992
▁хилс	-11.3993
▁загалмай	-11.3993
сур	-11.3993
▁түгшүүр	-11.3994
▁эрхлэлт	-11.3995
▁хими	-11.3995
▁гайхамшиг	-11.3996
▁хэрээс	-11.3997
▁жорлон	-11.3998
▁тасарч	-11.3999
тав	-11.4001
▁харьяалал	-11.4002
▁баярлах	-11.4002
▁цээр	-11.4002
▁тэгснээ	-11.4003
▁докторын	-11.4004
ундармаа	-11.4005
▁дууслаа	-11.4005
▁сурвалжлагч	-11.4009
▁чийрэг	-11.4013
▁хуульчилсан	-11.4014
▁үнэд	-11.4015
▁даац	-11.4015
▁орчлон	-11.4017
▁хөсүт	-11.4018
▁болгосноор	-11.4018
▁баланс	-11.4018
хэ	-11.402
▁хөлсийг	-11.4023
▁лавтай	-11.4023
▁шалгахад	-11.4024
▁зон	-11.4026
▁хэрэгжүүлснээр	-11.4026
▁заг	-11.4029
ардын	-11.4029
▁нуугдаж	-11.4031
▁хэлэхийг	-11.4032
▁харснаа	-11.4032
▁тэжээх	-11.4033
эгдсэн	-11.4035
▁суралц	-11.4036
▁бодлын	-11.4037
▁бяр	-11.4039
▁ардаа	-11.4039
▁мөнгөгүй	-11.4039
▁шон	-11.4039
▁хэвт	-11.4039
хас	-11.4041
▁мэдэхээр	-11.4042
▁үзэв	-11.4043
▁нөхрийн	-11.4043
▁гэнэтхэн	-11.4044
▁баримтын	-11.4048
▁ний	-11.405
▁ххаахү	-11.405
▁түгээж	-11.4051
▁ихэнхи	-11.4051
ent	-11.4051
▁нэгнээс	-11.4055
▁цуц	-11.4057
▁циркийн	-11.4059
▁хацар	-11.4061
▁цаадах	-11.4061
эцгээ	-11.4062
:21	-11.4063
ага	-11.4065
▁эрээ	-11.4066
замын	-11.4067
▁ямарч	-11.4068
сугар	-11.4071
барс	-11.4071
▁сонгоно	-11.4073
▁ялагд	-11.4075
▁аймаар	-11.4075
үндсэн	-11.4076
▁өвийн	-11.4076
▁үндсийг	-11.4078
▁хуралдаанаараа	-11.408
▁өөрийнхөөрөө	-11.408
▁хувирсан	-11.4081
-23	-11.4084
▁мандах	-11.4085
▁хулан	-11.4085
▁саран	-11.4088
▁ирснээс	-11.4089
-5	-11.4091
▁хэлэлцэхийг	-11.4092
▁залгаа	-11.4093
ue	-11.4094
▁урамшуулах	-11.4099
▁чулууг	-11.4099
▁юн	-11.4099
▁түшээд	-11.41
▁наранд	-11.41
хишиг	-11.4101
агддаг	-11.4103
▁архив	-11.4103
бек	-11.4104
логдсон	-11.4104
▁куба	-11.4104
бэ	-11.4105
▁настны	-11.4105
▁сонирхогч	-11.4106
▁онлайнаар	-11.4108
▁тоймч	-11.4108
▁дүгнэлтэд	-11.4109
▁гоцлол	-11.4109
▁тунхаглал	-11.4114
▁нийлэх	-11.4115
сыг	-11.4115
▁нор	-11.4115
▁зугаа	-11.4115
нголын	-11.4117
▁үдшийн	-11.4118
▁шинжээчдийн	-11.4119
▁цаанаас	-11.4119
fi	-11.4122
▁гомдлын	-11.4122
▁устай	-11.4124
руулан	-11.4124
▁гайхсан	-11.4124
чдад	-11.4125
▁цэвэрлэгээний	-11.4126
▁ядуурлыг	-11.4126
▁үүсэж	-11.4127
▁эзний	-11.413
уранцэцэг	-11.4131
▁жу	-11.4131
▁засуулаха	-11.4131
лас	-11.4137
▁итгэ	-11.4138
▁хүннү	-11.4139
▁үнэний	-11.4139
▁арьсан	-11.4142
▁зэв	-11.4143
▁эвд	-11.4143
лагын	-11.4144
иц	-11.4144
▁ижий	-11.4146
700	-11.4147
▁нөхөрсөг	-11.4148
▁эдгээрийг	-11.4153
▁талийгаачийн	-11.4154
▁аюулт	-11.4155
▁(1	-11.4156
▁организм	-11.4157
▁хөтөч	-11.4157
▁тэдэн	-11.4159
▁bu	-11.4159
▁ирүүлж	-11.4161
▁хааныг	-11.4162
▁зохицуулна	-11.4163
▁бэлтгэдэг	-11.4164
▁ястай	-11.4164
▁угаасан	-11.4165
8.2	-11.4165
▁мөрөөдлөө	-11.4166
:17	-11.4166
▁шуудангийн	-11.4168
амин	-11.4168
▁оргилд	-11.4168
:22	-11.417
▁сер	-11.4171
▁тохиох	-11.4173
-200	-11.4174
▁мотоцикл	-11.4177
▁үрс	-11.4179
▁завшсан	-11.418
▁аврагч	-11.4181
▁хятадаас	-11.4181
▁улсуудад	-11.4182
▁асуултыг	-11.4183
▁хэлсэнчлэн	-11.4184
▁1200	-11.4187
▁залж	-11.4189
▁олговор	-11.419
▁шалтгаантай	-11.4191
▁нэмнэ	-11.4195
▁занг	-11.4195
▁хүслийг	-11.4197
▁бодов	-11.4197
/10	-11.4198
▁шарын	-11.42
▁шорон	-11.4202
▁ялгаварлан	-11.4202
▁даян	-11.4203
▁ы	-11.4204
▁уашт	-11.4204
▁тарианы	-11.4205
метр	-11.4206
▁довтолгоо	-11.4207
ных	-11.4208
▁суралцдаг	-11.421
▁шийдвэрлэхээр	-11.421
▁гарахаас	-11.4211
▁оролцуулж	-11.4213
▁тэмдэглэжээ	-11.4213
▁twitter	-11.4213
▁чиглэж	-11.4216
▁оператор	-11.4218
▁хөөрөг	-11.4218
▁өрнөх	-11.4219
▁хөнд	-11.422
▁пуужингийн	-11.4222
▁өнгөрчээ	-11.4223
тэж	-11.4224
нийтийн	-11.4224
▁хошууны	-11.4225
▁хоорондох	-11.4227
▁ноолуурын	-11.4227
▁ярилц	-11.4229
▁жич	-11.4231
айж	-11.4231
▁жэ	-11.4233
хө	-11.4234
▁буга	-11.4238
▁тараа	-11.4239
чихвэл	-11.4239
▁түншүүд	-11.4241
▁гуя	-11.4241
▁тохижуулах	-11.4247
▁хэрэглэхийг	-11.4249
▁дүрслэх	-11.425
▁температур	-11.4255
:28	-11.4255
▁шуурч	-11.4257
▁номин	-11.4258
▁зээлжих	-11.4261
-2017"	-11.4264
▁санагдаад	-11.4266
▁оролцохдоо	-11.4267
гончигдорж	-11.4267
ki	-11.427
дэнзэн	-11.4271
▁өрнө	-11.4271
▁зэхэж	-11.4272
сай	-11.4273
▁агшин	-11.4273
▁лондонгийн	-11.4275
▁мүбх	-11.4276
айл	-11.4277
▁сэтгүүлчийн	-11.4277
▁нээ	-11.4281
▁үйлдэлд	-11.4289
ill	-11.4289
бан	-11.4289
екс	-11.4292
▁нисч	-11.4292
▁шаардлагатайг	-11.4293
офф	-11.4294
саг	-11.4296
▁буйд	-11.4297
▁даагч	-11.4297
▁анзаарсан	-11.4297
▁тусгал	-11.4298
-26	-11.4298
▁тохиролцож	-11.4298
:59	-11.4303
▁орхив	-11.4304
бас	-11.4305
▁курс	-11.4305
▁өөрчлөлтүүд	-11.4307
▁хоттой	-11.4308
▁робот	-11.4309
▁шингэх	-11.431
▁эрхээр	-11.4311
▁гарз	-11.4311
▁капитал	-11.4315
▁явуулахыг	-11.4317
▁sp	-11.4317
▁боловсруулалт	-11.4318
▁ак	-11.432
▁догшин	-11.4321
авч	-11.4323
▁зу	-11.4323
▁сонголтыг	-11.4324
▁сэлбэг	-11.4324
▁ханга	-11.4326
энхболдыг	-11.4327
▁яриагаа	-11.4328
▁сбд	-11.433
▁бхя	-11.4331
▁тооцооны	-11.4332
▁баялгаа	-11.4336
▁хамаа	-11.4336
▁эхэндээ	-11.4336
▁дурдах	-11.4336
▁баар	-11.4336
▁тэмдэглэлт	-11.4337
ген	-11.434
▁бүрхэг	-11.4341
▁цацагдсан	-11.4343
▁тунхаг	-11.4344
▁өөрчлөлтөд	-11.4346
▁өөрсдийнх	-11.4347
ity	-11.4348
:13	-11.4349
▁инээмсэглэн	-11.4349
▁хөдөлгөж	-11.435
▁илрүүлжээ	-11.4351
▁шурга	-11.4351
▁харагдаад	-11.4351
үс	-11.4352
2.2	-11.4352
▁хаанаа	-11.4352
▁хөрсөнд	-11.4352
▁сахиж	-11.4354
▁төлөөлөлтэй	-11.4356
▁дуусга	-11.4357
▁доромжилж	-11.4357
▁кай	-11.4358
таг	-11.4358
▁102	-11.4363
▁өнгөрүүлж	-11.4365
атор	-11.4369
▁парисын	-11.4369
▁мсүт	-11.437
доно	-11.437
илт	-11.4372
▁тушаа	-11.4378
▁xerox	-11.4379
▁8-10	-11.4379
▁нийлсэн	-11.438
▁явахаар	-11.4381
▁хэрэгжүүлэхийн	-11.4382
▁үзмэр	-11.4385
▁нийтлэх	-11.4388
▁эргэлзэж	-11.4388
рсан	-11.439
tr	-11.4393
:16	-11.4396
▁зөвшөөр	-11.4396
▁эеш	-11.4398
▁зориулах	-11.4399
▁физик	-11.4401
▁iphone	-11.4401
▁сангууд	-11.4403
▁бух	-11.4404
▁мексик	-11.4404
▁фи	-11.4405
▁тэтгэмжийг	-11.4407
▁гайхах	-11.441
▁хийлгэ	-11.441
▁эсийн	-11.4413
▁галыг	-11.4415
▁зүйлсээ	-11.4416
▁худалдаагаар	-11.4418
▁зөвлөгөөнд	-11.4418
▁заль	-11.4418
▁гул	-11.4419
▁тархинд	-11.442
▁экологи	-11.4421
шл	-11.4421
лүүд	-11.4421
▁тогооны	-11.4423
▁хэлмэгдүүлэлт	-11.4423
▁математик	-11.4424
▁хэлэлцэв	-11.4424
▁өнчин	-11.4426
жийн	-11.4426
▁үүнийхээ	-11.4426
▁берлин	-11.4428
▁ядаргаа	-11.4429
▁төрлүүд	-11.4433
▁шинжилгээг	-11.4434
▁үйлийн	-11.4435
▁парад	-11.4435
▁чадлаараа	-11.4437
▁хундага	-11.4438
▁хөдөлгөөнтэй	-11.4438
▁ирак	-11.4438
:48	-11.4439
▁гоулд	-11.4442
▁хэвлий	-11.4443
▁өнгөрүүлсэн	-11.4444
▁өмчид	-11.4445
▁нүүдэлчин	-11.4445
▁хүүд	-11.4445
▁зовоож	-11.4446
▁алдаршсан	-11.4447
▁гаргагч	-11.4448
▁ялтан	-11.4449
▁зхжш	-11.4451
надад	-11.4452
▁хүүгийнхээ	-11.4453
:38	-11.4453
mi	-11.4454
цгээе	-11.4455
▁хүргэлээ	-11.4456
▁барь	-11.4457
▁өрхийг	-11.4457
юм	-11.446
▁дүрмээ	-11.4462
▁ялын	-11.4463
oo	-11.4463
▁border	-11.4465
▁оролц	-11.4466
ir	-11.4468
▁ангийнхан	-11.4469
▁дулаахан	-11.4469
▁рейтинг	-11.4469
▁батлагдаж	-11.4471
▁казино	-11.4475
▁сэлт	-11.4476
-7	-11.4477
op	-11.4481
▁хэлэлцүүлгээр	-11.4483
ne	-11.4483
▁дээлтэй	-11.4484
▁босгон	-11.4486
▁хөр	-11.4486
▁обьект	-11.4487
▁нобелийн	-11.4487
▁this	-11.4487
▁тэргүүлдэг	-11.4488
▁боломжууд	-11.4489
:52	-11.449
▁мүан	-11.449
▁1800	-11.4491
▁дотоодод	-11.4494
▁ойлгоод	-11.4494
▁эзэнтэй	-11.4495
▁буурахгүй	-11.4496
▁илэрхийл	-11.4497
▁тохилог	-11.4497
▁ум	-11.4498
ca	-11.45
▁дүй	-11.45
:58	-11.45
▁санхүүжүүлж	-11.4501
шаа	-11.4501
▁петр	-11.4501
▁ажиллан	-11.4506
▁цагаач	-11.4507
гүн	-11.4508
▁нөхцөлөөр	-11.4508
зүүн	-11.4509
▁сексийн	-11.451
▁тусч	-11.451
▁дуугарах	-11.4511
▁үнэг	-11.4511
өргөө	-11.4511
-2"	-11.4513
▁байршл	-11.4514
▁өнгөрдөг	-11.4515
єр	-11.4521
янь	-11.4523
▁анагаахын	-11.4523
хийтэл	-11.4524
▁танайх	-11.4525
▁авчирна	-11.4526
амарбаясгалан	-11.4527
▁ша	-11.4528
▁авдаггүй	-11.4528
mb	-11.453
ээсэй	-11.4532
▁тугал	-11.4532
лол	-11.4533
эрдэнийн	-11.4533
▁станцыг	-11.4535
▁вангийн	-11.4535
mail	-11.4536
▁тодотгож	-11.4536
ныхоо	-11.4539
▁нунтаг	-11.4542
▁болор	-11.4543
▁түрэмгий	-11.4548
▁яамыг	-11.4549
▁хүдрийн	-11.4551
батцэрэг	-11.4553
▁батга	-11.4553
▁хагалгаанд	-11.4553
▁дог	-11.4553
сэг	-11.4553
ааг	-11.4554
▁бүтцэд	-11.4555
бург	-11.4557
▁бариа	-11.4557
кас	-11.4558
▁билл	-11.456
▁өсгөсөн	-11.456
▁уулзана	-11.4563
▁6000	-11.4566
▁эрхлэгчдийг	-11.4566
▁тусална	-11.4568
▁хэрхэх	-11.4569
▁2500	-11.4572
▁түмнээс	-11.4573
руулсан	-11.4574
цэрэнбат	-11.4576
▁тууж	-11.4576
сс	-11.4577
▁зиньпин	-11.4577
▁үсгийн	-11.4577
лэгддэг	-11.4578
ста	-11.4579
▁хөнгө	-11.4579
▁саяар	-11.4579
▁зарцуулна	-11.4582
▁халсан	-11.4583
чинбат	-11.4583
▁магадлан	-11.4585
▁ургадаг	-11.4585
▁хавч	-11.4585
▁зохиомол	-11.4587
мах	-11.4588
▁ca	-11.4588
▁нөөцөө	-11.4589
▁ахан	-11.4592
▁саа	-11.4595
▁харагдав	-11.4595
▁импортлох	-11.4596
▁явуулаад	-11.4596
▁тэтгэврийг	-11.4596
▁төлөөгүй	-11.4597
▁цэргээ	-11.4601
▁тогтоомжид	-11.4601
▁абэ	-11.4601
▁we	-11.4602
▁зуураа	-11.4604
аки	-11.4605
▁тах	-11.4606
▁ерөнхийлөгчтэй	-11.4606
:14	-11.4607
:44	-11.4608
▁тохирч	-11.461
▁ургаж	-11.461
▁фил	-11.4611
▁дэмжив	-11.4611
aa	-11.4612
▁хатны	-11.4613
:54	-11.4614
▁америкчууд	-11.4614
▁явав	-11.4615
▁дуут	-11.4616
▁from	-11.4619
▁мөрд	-11.4619
▁хөвүүн	-11.462
▁махбод	-11.4621
▁бэртэл	-11.4625
▁томилогдон	-11.4627
▁хойт	-11.4629
:18	-11.4629
баа	-11.4629
▁тэмүжин	-11.4632
▁ангараг	-11.4633
▁хуулиараа	-11.4633
▁пал	-11.4633
:43	-11.4634
▁багшийг	-11.4634
▁буулга	-11.4638
▁байрууд	-11.4639
цай	-11.4643
▁хөдөлмөрлөж	-11.4643
тогтвортой	-11.4643
▁өргөжүүлж	-11.4644
▁устгасан	-11.4646
▁өгүүлж	-11.4646
▁санаачлагаар	-11.4647
▁хүнгүй	-11.465
▁хохироосон	-11.4652
▁германд	-11.4652
▁өндөрлөг	-11.4653
▁жүдоч	-11.4654
▁ихэсч	-11.4656
▁хөгжөөн	-11.4656
▁хүүхэддээ	-11.4659
▁хит	-11.466
:27	-11.466
аф	-11.4661
▁ажигла	-11.4662
▁гаргасны	-11.4663
shtml	-11.4666
шсан	-11.4668
▁чиглүүлэх	-11.4669
▁тэмцэлд	-11.4671
▁өөрөөс	-11.4671
нэр	-11.4671
инь	-11.4672
▁график	-11.4672
▁нүдтэй	-11.4674
▁даавуу	-11.4675
лаач	-11.4676
▁төрлийг	-11.4677
▁геологи	-11.4677
▁гаргуулж	-11.4682
баянсэлэнгэ	-11.4682
ot	-11.4683
▁анхаардаг	-11.4683
ийнхэн	-11.4686
▁үйлдлүүд	-11.4686
цан	-11.4689
сугай	-11.4691
▁ачиж	-11.4692
▁хөндлөнгөөс	-11.4693
▁хөдөлмөрч	-11.4694
▁гишүүнд	-11.4694
▁хөнгөвчлөх	-11.4694
▁ле	-11.4697
▁баривчилж	-11.4698
▁импортыг	-11.4699
▁хэлэлцээний	-11.4701
▁сэрэмж	-11.4702
▁ник	-11.4703
хэр	-11.4706
цэж	-11.4713
олт	-11.4713
▁эсэргүүцлийн	-11.4716
▁халаас	-11.4717
▁буг	-11.4718
▁мотор	-11.4719
▁хэмээгээд	-11.4721
▁вер	-11.4722
анх	-11.4722
эко	-11.4724
vi	-11.4727
▁тайландын	-11.4727
▁эхлүүлэхээр	-11.4729
▁баянхошуу	-11.473
▁бэлгэдэл	-11.4731
▁хөтөлж	-11.4731
▁маркетингийн	-11.4734
ваас	-11.4735
өлт	-11.4735
▁жишээг	-11.4735
хятад	-11.4736
▁бүлээрээ	-11.4736
▁смарт	-11.4738
▁давхарга	-11.4739
▁сэдвийг	-11.474
▁гарахын	-11.4741
▁сүмо	-11.4741
▁эхээс	-11.4742
▁гүйлт	-11.4743
сен	-11.4744
нямтулга	-11.4745
▁төсөөллийн	-11.4745
сэргэлэн	-11.4746
▁төхөөрөмжүүд	-11.4748
▁бүтсэн	-11.475
еб	-11.4751
мэд	-11.4752
:47	-11.4753
▁хамааралгүй	-11.4753
▁хөлгийн	-11.4753
өс	-11.4754
гоороо	-11.4754
▁урттай	-11.4755
жуулсан	-11.4755
нэргүй	-11.4756
▁сурвалжилж	-11.4757
▁крым	-11.4758
▁гоёмсог	-11.4758
▁дурсгалыг	-11.476
▁багтаа	-11.4763
▁дууд	-11.4765
луур	-11.4766
хү	-11.4767
▁хүндрэлээс	-11.4767
▁үйлчлэл	-11.4768
▁сонгуультай	-11.4772
ров	-11.4772
▁олгожээ	-11.4773
тов	-11.4775
▁сонгогдон	-11.4778
▁буурай	-11.4779
▁мадрид	-11.4781
▁тооцогдох	-11.4786
▁дэвшүүлье	-11.4786
дов	-11.4787
▁хариуллаа	-11.4787
▁төхөөрөмжөөр	-11.4788
▁дөчин	-11.4788
▁хорьсон	-11.479
▁дорно	-11.4792
▁өдөрлөгийн	-11.4793
▁явцдаа	-11.4794
:31	-11.4794
▁дэнж	-11.4795
▁бариул	-11.48
▁гүйцэтгэнэ	-11.4801
▁чадахаа	-11.4802
▁өгүүлжээ	-11.4805
▁хүрд	-11.4805
ура	-11.4806
▁зорилтуудыг	-11.4806
▁адилаар	-11.4808
▁барс	-11.4809
▁малайзын	-11.481
агүй	-11.4813
▁зөвлөлийг	-11.4816
▁нэлээдгүй	-11.4818
▁зуршил	-11.4819
▁бөгж	-11.4819
сэж	-11.4822
▁олоход	-11.4822
:19	-11.4823
▁татгалз	-11.4824
tion	-11.4824
:46	-11.4824
▁өрсөлдөнө	-11.4825
ази	-11.4825
дуулан	-11.4826
▁олборлолтын	-11.4826
▁иргэншил	-11.4827
▁хандана	-11.4828
▁найраг	-11.4831
▁илүүтэйгээр	-11.4831
▁кампанит	-11.4835
нарантуул	-11.4836
▁зориулагдсан	-11.4838
▁үзүүлэхийг	-11.4839
ынхны	-11.4839
бул	-11.4843
2.3	-11.4844
▁тосгонд	-11.4845
▁ром	-11.4845
▁төрөлт	-11.4846
▁хөхний	-11.4847
ава	-11.4849
▁онгоцоор	-11.485
мор	-11.485
:32	-11.4851
▁буцаагаад	-11.4852
▁түдгэлзүүлэх	-11.4854
▁морьт	-11.4854
▁худалдсан	-11.4854
▁дүрээр	-11.4855
▁дүрийн	-11.4857
▁хатуухан	-11.4858
▁уулзахад	-11.4861
▁бэлтгэ	-11.4862
хой	-11.4864
▁тарган	-11.4865
ондоо	-11.4865
▁өвч	-11.4868
▁үеийнхээс	-11.4869
лодог	-11.487
▁төлөгчдийн	-11.4872
түмэн	-11.4872
▁шоколад	-11.4875
▁эхчүүдэд	-11.4877
▁болчихож	-11.4877
▁хүрээгээ	-11.4878
эйн	-11.4878
▁илд	-11.4879
▁хоолонд	-11.4879
▁эхийг	-11.4879
▁сэтгэхүй	-11.4879
▁ялаар	-11.4879
:42	-11.488
▁медиа	-11.4881
▁1988	-11.4882
▁сургуульдаа	-11.4884
че	-11.489
▁орлогоос	-11.4891
▁бичин	-11.4891
▁цам	-11.4894
дүү	-11.4895
bo	-11.4895
▁уулзахаар	-11.4895
▁төлөгдөх	-11.4899
▁одооноос	-11.4902
▁шведийн	-11.4904
gt	-11.4904
▁мил	-11.4905
▁дэвшигчдийг	-11.4906
▁128	-11.4907
форд	-11.4909
▁нөхдөө	-11.4909
▁хуруугаа	-11.491
▁2017-2018	-11.4911
рик	-11.4913
...”	-11.4914
▁масс	-11.4914
▁амжилтаар	-11.4914
▁аюулын	-11.4915
▁цацсан	-11.4917
▁араншин	-11.4921
▁тө	-11.4922
▁хүртжээ	-11.4923
▁татна	-11.4924
чу	-11.4924
сч	-11.4925
▁хуурамчаар	-11.4925
▁наснаас	-11.4926
цэвэр	-11.4928
▁уяачдын	-11.4928
▁дуулдаг	-11.493
▁алдагдах	-11.493
вор	-11.493
▁эсэхэд	-11.4931
▁авран	-11.4932
▁27-32	-11.4933
▁аврал	-11.4933
▁син	-11.4937
▁хөдөлсөн	-11.4937
▁шилж	-11.4938
▁хэвшлийнхэн	-11.4942
▁хангахын	-11.4943
ang	-11.4943
шилт	-11.4944
▁тэмүүлэл	-11.4946
▁хэмжээнүүдийг	-11.4948
▁хэмнэлттэй	-11.4949
▁дани	-11.495
▁үйлсийн	-11.4951
лүүлнэ	-11.4951
:34	-11.4953
▁хөрсөн	-11.4953
▁өнгөт	-11.4954
▁1.8	-11.4961
▁журамтай	-11.4964
▁хайрладаг	-11.497
▁гавъяат	-11.4971
▁жингээ	-11.4971
▁биржид	-11.4972
вен	-11.4973
▁удирдлагатай	-11.4973
бүс	-11.4975
▁арц	-11.4975
▁мэдэлгүй	-11.4975
▁математикийн	-11.4976
▁ойртох	-11.4976
длээ	-11.4979
мөнхжаргал	-11.498
▁дата	-11.498
▁зүүх	-11.4981
▁тооцно	-11.4981
▁тэсрэх	-11.4981
▁хангана	-11.4984
маш	-11.4988
▁наадах	-11.4988
▁буудаж	-11.4988
:49	-11.4989
▁түүж	-11.499
▁тува	-11.499
3.1	-11.499
▁байцаагчид	-11.4991
▁маягтай	-11.4992
▁зургаар	-11.4993
▁хамгаална	-11.4994
▁тарга	-11.4994
сныхаа	-11.4994
үүдтэй	-11.4997
ест	-11.4998
▁үзүүлэхэд	-11.5
ский	-11.5
▁хэмжих	-11.5001
▁элемент	-11.5002
содбаатар	-11.5003
▁тооц	-11.5005
▁оролцуулсан	-11.5005
цацрал	-11.5006
-11-	-11.501
▁зардлаар	-11.5011
ie	-11.5014
:53	-11.5014
▁5-7	-11.5015
▁үүрийн	-11.5016
▁оршуулгын	-11.5018
▁түрүүлэх	-11.502
▁урсаж	-11.502
▁хийгдээгүй	-11.5023
▁хөөцөлдөж	-11.5023
▁даншиг	-11.5024
▁гардуулна	-11.5027
▁саша	-11.5027
▁оймс	-11.5031
▁бүтэцтэй	-11.5034
▁байдгаас	-11.5039
▁гарсныг	-11.5039
▁цахиагийн	-11.5042
▁аминдэм	-11.5043
км	-11.5045
▁саваа	-11.5048
▁улаанбурхан	-11.5049
▁прокурорт	-11.505
▁үгтэй	-11.5052
▁баталгаажсан	-11.5052
ийхээ	-11.5052
▁торго	-11.5053
▁ажиглагч	-11.5054
▁зовиур	-11.5056
▁импортлогч	-11.5059
тен	-11.5059
▁сүн	-11.506
▁бүрмөсөн	-11.5061
кс	-11.5061
▁саван	-11.5062
:41	-11.5064
дэм	-11.5064
▁томил	-11.5065
анхбаяр	-11.5067
гер	-11.5068
▁харъяат	-11.507
▁бүсээ	-11.507
ллаа	-11.5074
▁долларыг	-11.5075
▁лууван	-11.5077
▁угтах	-11.5078
▁чамтай	-11.508
▁рекорд	-11.508
▁сонирхон	-11.5085
▁даруухан	-11.5087
▁технологиор	-11.5092
лууд	-11.5092
арлаа	-11.5093
▁шах	-11.5095
баатарын	-11.5095
▁орохдоо	-11.5096
▁даам	-11.5096
▁азид	-11.5098
▁тэргүүлэгчид	-11.5102
▁хөтөл	-11.5104
▁найрамдлын	-11.5104
▁нийцүүлэх	-11.5106
be	-11.5106
▁al	-11.5107
▁ухах	-11.5108
▁төвлөрч	-11.511
элтийн	-11.5111
▁нато	-11.5113
▁хохирох	-11.5113
▁бээлий	-11.5115
-2015"	-11.512
▁явууллаа	-11.5121
▁лавлах	-11.5122
▁сунгаа	-11.5127
▁байдгаараа	-11.5129
▁оруулагчдыг	-11.513
▁apple	-11.5132
▁сай	-11.5135
▁лус	-11.5136
▁ажилла	-11.5138
▁илтгэх	-11.5138
:51	-11.5139
▁холдинг	-11.5139
▁зургуудыг	-11.514
▁морьтой	-11.5143
▁дийлэхгүй	-11.5144
▁үйлдвэртэй	-11.5144
9.2	-11.5145
▁болсонтой	-11.5146
▁терроризм	-11.5146
▁харваач	-11.5146
▁авахуулаад	-11.5147
:33	-11.5149
▁дизайн	-11.515
▁анхлан	-11.5151
▁1945	-11.5152
цэнд	-11.5152
▁захидлыг	-11.5152
давхар	-11.5154
▁уугаад	-11.5154
ni	-11.5154
▁бумба	-11.516
:37	-11.5162
▁хүндэтгэлтэй	-11.5162
▁хүснэ	-11.5162
лэлт	-11.5163
тог	-11.5164
лхагва	-11.5164
▁явъя	-11.5167
баасан	-11.5169
▁олонтой	-11.517
▁бүрчлэн	-11.517
▁гүүрний	-11.5171
▁хэсэгчлэн	-11.5171
аюуш	-11.5173
▁бэртсэн	-11.5177
▁жилийнхээ	-11.5177
архи	-11.5179
▁хонконг	-11.5179
▁шүдээ	-11.518
▁жимсний	-11.5182
лай	-11.5183
▁студи	-11.5183
▁гаднах	-11.5183
▁бэхжүүлэхэд	-11.519
▁онцлогийг	-11.519
▁харьцаж	-11.5192
▁шүүж	-11.5192
▁ахын	-11.5194
▁дайсны	-11.5194
▁зөвшөөрлөө	-11.5194
▁цэнгүүн	-11.5196
▁чамаас	-11.5199
▁жа	-11.52
9.5	-11.52
▁олимпиад	-11.5201
тлаа	-11.5205
:29	-11.5205
▁баянхонгорын	-11.5207
▁цуглуулга	-11.5207
▁ён	-11.5213
хаас	-11.5214
▁уршиг	-11.5216
▁даруу	-11.5219
:57	-11.5219
▁ачаалалтай	-11.522
▁хөндийд	-11.5221
▁3.5	-11.5223
▁дархлаажуулалт	-11.5223
▁суудлаа	-11.5223
▁болвол	-11.5224
:56	-11.5226
▁даатгуулагч	-11.5227
▁найрамдал	-11.5229
▁өрсөлдөөний	-11.5229
▁удсан	-11.523
▁ятга	-11.523
▁тусалдаг	-11.5231
▁google	-11.5233
ai	-11.5235
▁хөмсөг	-11.5235
▁утгыг	-11.5235
▁асуугаад	-11.5236
▁европт	-11.5239
▁тулгардаг	-11.524
▁кабинет	-11.524
▁илтгэж	-11.5241
▁яваарай	-11.5243
▁муудах	-11.5246
уулаа	-11.5247
gu	-11.5248
▁ta	-11.5249
▁ээлжлэн	-11.525
удвал	-11.5252
:24	-11.5254
▁үүгээрээ	-11.5255
мөнхбаатар	-11.5256
▁мэдрэмжийг	-11.5257
▁маягт	-11.5259
▁өмчлөлийн	-11.5259
▁материалаа	-11.5259
▁хийморийн	-11.526
ерөнхий	-11.5261
▁итгэсэн	-11.5262
▁эбола	-11.5262
сувд	-11.5262
▁тушаалтнуудад	-11.5263
▁дамдин	-11.5264
▁уншигчид	-11.5267
▁ажлаар	-11.5268
▁эрчимжүүлж	-11.5268
өгч	-11.5273
▁боссон	-11.5273
▁сахиус	-11.5274
▁хичээлдээ	-11.5276
▁автаж	-11.5276
▁амьдарна	-11.5277
▁сүйд	-11.5277
▁ичих	-11.5279
доод	-11.5279
▁асуултанд	-11.5279
▁хүлээгдэж	-11.5279
▁сонсогч	-11.528
▁асуудлуудын	-11.5282
▁нийтлэлч	-11.5284
▁суудлыг	-11.5284
▁маркетинг	-11.5286
жаст	-11.5288
▁продюсер	-11.5289
▁2015-2016	-11.5291
лей	-11.5291
▁ойлголцлын	-11.5294
▁халаалтын	-11.5295
дамдин	-11.5296
▁цугларсан	-11.5296
▁le	-11.5298
kh	-11.5298
▁эхэл	-11.53
▁2-4	-11.5301
илан	-11.5301
▁илэн	-11.5301
▁саатуулсан	-11.5302
▁баталжээ	-11.5302
▁дутагдаж	-11.5304
:23	-11.5305
:36	-11.5305
▁явдалтай	-11.5308
1.6	-11.5309
▁баатрууд	-11.5309
▁гэрлэн	-11.5309
баясгалан	-11.5314
▁арилж	-11.5314
▁гурвын	-11.5314
▁хожих	-11.5316
▁хичээллэдэг	-11.5321
▁мишээл	-11.5321
тун	-11.5321
▁шаард	-11.5324
▁сунгаж	-11.5325
▁хосгүй	-11.5325
▁болоосой	-11.5326
▁нийцэх	-11.5326
▁ни	-11.5329
▁дурдлаа	-11.533
▁хашир	-11.533
▁ганган	-11.5332
▁мөрийг	-11.5333
▁агуулагддаг	-11.5334
▁бос	-11.5337
▁тарж	-11.5339
▁юугаа	-11.5342
▁тэрбумыг	-11.5343
net	-11.5345
цг	-11.5346
▁харьцуулбал	-11.5348
!"	-11.5349
▁ахалж	-11.5349
▁эрмэлзэл	-11.5351
▁шингэ	-11.5352
мандах	-11.5352
▁ашиглахыг	-11.5352
шуу	-11.5355
▁талбайгаас	-11.5356
▁боловсрох	-11.5356
▁айсан	-11.5357
▁хүл	-11.5357
одон	-11.5358
▁шоунд	-11.536
▁онцлогт	-11.5364
8.3	-11.5366
▁хэлснийг	-11.5366
▁олуулаа	-11.5368
▁унгарын	-11.5369
▁эхтэй	-11.5371
▁сад	-11.5372
▁ойлгоно	-11.5373
▁янзаар	-11.5373
▁дурсан	-11.5375
▁өдөрлөгийг	-11.5377
ax	-11.5378
▁гэмтээсэн	-11.5378
▁үүсгэгч	-11.5381
бин	-11.5381
дин	-11.5382
▁лугаа	-11.5383
sp	-11.5385
▁халуу	-11.5393
▁шалтгаална	-11.5393
▁ихэс	-11.5394
▁нэ	-11.5395
▁сануулахад	-11.5397
▁хөгжинө	-11.5398
▁нэмрийг	-11.5398
▁тоотой	-11.5399
▁томьёо	-11.54
▁бууралт	-11.5402
▁байгуулагдана	-11.5402
▁тоолж	-11.5403
▁дүүгээ	-11.5404
▁орохоос	-11.5405
тур	-11.5406
▁төслөөс	-11.5406
це	-11.5406
▁болгоны	-11.5408
▁засаглалтай	-11.5408
▁аргентин	-11.5408
доллартай	-11.5409
▁барилгууд	-11.541
▁унтраа	-11.5411
▁маа	-11.5414
▁үйлчлүүлж	-11.5416
елийн	-11.5416
▁шийдлийн	-11.5416
▁ажиллуулдаг	-11.5417
▁xx	-11.5418
аши	-11.5418
гүүт	-11.5419
▁la	-11.5421
▁эвдэж	-11.5422
▁new	-11.5424
▁ханын	-11.5425
▁цацагдаж	-11.5428
▁дээшлүүлж	-11.5432
▁еврогийн	-11.5432
▁суухад	-11.5433
▁дайчлан	-11.5433
▁таалагддаг	-11.5433
▁нэрсийг	-11.5434
гуур	-11.5434
▁тэмцэгч	-11.5435
:39	-11.5435
▁хороон	-11.5437
▁тарвага	-11.5437
▁дагуулаад	-11.5438
▁эхэд	-11.5439
▁дэлгэсэн	-11.5439
▁тулган	-11.5439
▁зогсоолын	-11.544
▁арт	-11.5442
▁өч	-11.5442
▁сайжирсан	-11.5445
do	-11.5446
▁ангиуд	-11.5447
гэл	-11.5448
▁балба	-11.5449
▁ярилцаад	-11.545
ото	-11.5451
▁конвенц	-11.5453
илдаг	-11.5458
▁бүгдийн	-11.5458
▁төрөлжсөн	-11.5458
▁15:00	-11.5459
▁тогтов	-11.5463
жан	-11.5464
?!	-11.5465
▁гардаггүй	-11.5466
▁саяын	-11.5466
▁ro	-11.5469
▁үүсвэрээс	-11.5469
▁хүнсийг	-11.547
▁хэрэгжүүлэхийг	-11.5471
▁тооллогын	-11.5473
▁үрчлээ	-11.548
▁улаа	-11.5481
▁өвчинд	-11.5482
▁дас	-11.5483
▁тандалт	-11.549
▁хүчнийхэн	-11.5491
▁ямархуу	-11.5491
ёо	-11.5491
▁хямдхан	-11.5491
▁гүтгэлэг	-11.5493
ийсэн	-11.5493
▁дорнын	-11.5494
▁сүрьеэгийн	-11.5495
▁төвүүдэд	-11.5497
ся	-11.5498
▁коллежийн	-11.5499
▁буугаад	-11.5499
▁үсгээ	-11.5499
▁төлөвлө	-11.5499
▁хооллож	-11.5499
▁үзүүлээд	-11.55
▁хайрыг	-11.55
хэм	-11.5501
▁боломжтойг	-11.5503
түвшинбаяр	-11.5504
▁хөгжүүлэхийн	-11.5504
▁цэгцтэй	-11.5506
▁сөнөөгч	-11.5506
▁хуу	-11.5506
▁аппликейшн	-11.5508
▁элгэн	-11.5508
▁бодолд	-11.5511
сайханбилэгийг	-11.5513
▁1921	-11.5514
▁өлзий	-11.5514
▁маг	-11.5516
▁зөвлөгөөний	-11.5521
▁буцаа	-11.5522
▁түшээ	-11.5523
▁чанадад	-11.5523
▁шилжилтийн	-11.5523
▁байгуулагдаад	-11.5524
▁иен	-11.5526
▁чад	-11.5526
▁им	-11.5527
▁жолоодсон	-11.5528
▁нэвтэрсэн	-11.5529
▁тойр	-11.5529
▁ухаанаа	-11.5531
баруун	-11.5531
▁хэмнэлтийн	-11.5532
▁сайдууд	-11.5532
▁нмхг	-11.5535
▁сэтгэлзүйн	-11.5537
агсад	-11.5537
ap	-11.5538
▁амжиж	-11.554
▁рон	-11.5543
:26	-11.5544
ынхоо	-11.5547
▁эхэлбэл	-11.5547
▁шатаа	-11.555
▁шатаар	-11.5551
▁баримталдаг	-11.5553
▁хотуудад	-11.5554
▁чухамдаа	-11.5555
▁шалгадаг	-11.5557
▁борлуул	-11.5559
▁өнгөрөө	-11.556
▁аавыгаа	-11.5561
▁сүмогийн	-11.5562
европын	-11.5564
▁намхан	-11.5564
▁өнгөрөөж	-11.5565
▁1980	-11.5565
▁боомтууд	-11.5567
-27	-11.5568
▁таргалалт	-11.557
▁гон	-11.557
▁явагч	-11.5571
▁шийдэмгий	-11.5571
▁зогсонги	-11.5573
▁хүсэв	-11.5575
▁тайлагнах	-11.5575
амж	-11.5577
▁10-12	-11.5577
аст	-11.5578
▁хуй	-11.5581
▁дэвшүүлэн	-11.5581
▁дут	-11.5581
▁спортод	-11.5582
▁арч	-11.5582
▁төрхтэй	-11.5582
▁инноваци	-11.5582
▁даран	-11.5583
▁тактик	-11.5584
▁цаасыг	-11.5585
▁жилүүд	-11.5587
▁тээвэрлэгч	-11.5587
▁хакүхо	-11.5588
▁ганцаарчилсан	-11.5589
wa	-11.559
гоод	-11.5591
▁2016-2017	-11.5591
еш	-11.5592
түвдэндорж	-11.5593
лагыг	-11.5594
самбуу	-11.5594
▁өдрүүдийн	-11.5595
age	-11.5598
▁тэтгэгч	-11.5598
▁хэрэгсэлд	-11.5602
▁нийтлэлийн	-11.5604
▁ra	-11.5604
▁аваргууд	-11.5605
лээс	-11.5605
▁шээс	-11.5607
▁либерал	-11.5608
▁цөлжилт	-11.5608
▁явуулахгүй	-11.5608
аюурсайхан	-11.5609
алд	-11.5611
магнай	-11.5611
ноён	-11.5611
▁медалиар	-11.5613
▁төсөөл	-11.5614
▁шинзо	-11.5614
чихжээ	-11.5614
лагчид	-11.5614
▁тахал	-11.5615
▁банкийг	-11.5616
рүүлэх	-11.5617
лжээ	-11.5618
▁инээ	-11.5618
▁арлууд	-11.5618
▁аваргад	-11.5622
▁цайр	-11.5622
▁хардаж	-11.5622
▁хурга	-11.5623
ica	-11.5624
▁халимаг	-11.5625
▁цохон	-11.5625
▁хөтөлбөртэй	-11.5627
▁мега	-11.5628
тин	-11.5629
▁польшийн	-11.5629
▁хэрэгжүүлэн	-11.563
▁мандат	-11.5631
▁жинг	-11.5631
▁хөлийг	-11.5632
▁сэжигтнээр	-11.5634
▁бүртгэгджээ	-11.5634
▁үсгийг	-11.5634
▁тулаанд	-11.5635
▁шархадсан	-11.5636
▁нотариат	-11.5639
▁шинжилгээгээр	-11.5639
▁зугтаж	-11.564
чний	-11.564
▁тахилга	-11.5643
тэмүүлэн	-11.5643
▁томчууд	-11.5643
▁гэгээрүүлэх	-11.5644
▁хийхээ	-11.5644
▁саадгүй	-11.5651
▁өгөөмөр	-11.5652
баттөмөр	-11.5652
▁үгнээс	-11.5654
▁нэвтрүүлгийг	-11.5655
▁шугамыг	-11.5656
▁консул	-11.5657
хотын	-11.5659
ыхаа	-11.566
if	-11.5662
ели	-11.5663
▁бүрддэг	-11.5664
рен	-11.5665
▁яривал	-11.5666
сам	-11.5666
▁тулгаж	-11.5666
муй	-11.5669
▁соёрхолт	-11.5669
нийслэл	-11.5671
оф	-11.5674
▁дороос	-11.5674
▁хүрэв	-11.5675
▁уншуул	-11.5677
стер	-11.5678
▁тэргүүнээр	-11.5679
▁кара	-11.5679
▁хүйтэнд	-11.568
▁мэндээ	-11.5686
▁онтой	-11.5686
▁саруудад	-11.5689
▁баримтуудыг	-11.569
▁төрнө	-11.5691
▁боловсролд	-11.5691
▁has	-11.5692
▁ухаарч	-11.5692
▁баримал	-11.5694
▁сохор	-11.5696
▁горим	-11.5697
▁дэвжээнд	-11.5698
▁төслүүдэд	-11.5699
▁se	-11.5699
▁ho	-11.5701
▁хуралдуулж	-11.5701
▁эерэгээр	-11.5702
▁байцаа	-11.5703
ала	-11.5703
▁булчирхай	-11.5704
▁13.00	-11.5704
▁үйм	-11.5705
▁зүтгэ	-11.5708
▁дэвжээ	-11.5708
▁гял	-11.5709
төгөлдөр	-11.571
ka	-11.571
▁буруутан	-11.571
▁заалтад	-11.5711
ком	-11.5712
▁залах	-11.5713
▁жиргээ	-11.5713
▁106	-11.5715
улаанбаатарын	-11.5717
▁байгал	-11.5718
хийл	-11.5718
хаар	-11.5719
▁үнэрт	-11.5721
▁ge	-11.5722
▁зарлажээ	-11.5726
end	-11.5726
▁жижүүр	-11.5726
▁хойшлуулж	-11.5728
▁шалгуурыг	-11.573
▁хардах	-11.573
▁түүхэндээ	-11.5731
▁карл	-11.5733
▁уялдуулах	-11.5733
▁бүтээлүүдийг	-11.5733
▁ёр	-11.5734
▁хэтэрч	-11.5734
агдах	-11.5734
▁гэрчилгээг	-11.5735
▁түүгээрээ	-11.5737
наж	-11.5737
▁төг	-11.5737
цэдэнбал	-11.5738
▁хөөрч	-11.5739
▁худалдагч	-11.5739
▁хэмжээнүүд	-11.574
▁эрэлд	-11.5741
▁талаа	-11.5742
▁олондоо	-11.5742
▁лобби	-11.5742
▁монголиа	-11.5743
▁хэвлэн	-11.5743
рөн	-11.5743
/1	-11.5743
гр	-11.5743
▁даатга	-11.5744
ger	-11.5747
▁ажиглагчид	-11.5749
▁хандаад	-11.5749
солонго	-11.575
▁have	-11.5751
▁нэрийдлээр	-11.5752
▁гардуулсан	-11.5752
▁4-6	-11.5754
▁бордоо	-11.5756
▁томилогдож	-11.5757
▁агш	-11.5758
▁тэм	-11.5758
монголчууд	-11.5759
▁тохиролцоо	-11.5759
▁эвлэр	-11.5761
▁хэлтэй	-11.5762
▁хамрын	-11.5763
▁гишүүдээ	-11.5767
▁хайсан	-11.577
▁харьцааг	-11.5772
▁батлагдах	-11.5773
▁боть	-11.5773
▁дэвшин	-11.5774
▁санкт	-11.5774
▁новш	-11.5775
▁угаас	-11.5775
▁үзүүрт	-11.578
▁хүндэлж	-11.578
▁буудлаас	-11.5783
▁хуваан	-11.5783
▁тээвэрчид	-11.5784
▁юанийн	-11.5786
▁булчирхайн	-11.579
▁асга	-11.5791
бурхан	-11.5793
реал	-11.5793
▁тогтвор	-11.5794
▁команд	-11.5794
гасан	-11.5795
▁сахар	-11.5796
▁тоохгүй	-11.5797
▁оруулснаар	-11.5798
▁хувирч	-11.5799
▁зүйр	-11.5799
▁su	-11.58
▁яваандаа	-11.5806
▁бэртэж	-11.5809
▁гутлын	-11.5809
▁зөвөөр	-11.5812
жү	-11.5813
-8	-11.5814
▁сургуулийнхаа	-11.5816
▁бодогч	-11.5817
▁ачааг	-11.5822
нэн	-11.5822
▁инженерүүд	-11.5822
нс	-11.5823
▁лигт	-11.5824
▁устга	-11.5825
▁lo	-11.5828
▁нэмэгдүүлэхээр	-11.5828
ака	-11.583
▁ахуйд	-11.5831
▁ат	-11.5832
▁ирснээр	-11.5833
▁батлаад	-11.5835
▁чангарч	-11.5836
▁хориглож	-11.5837
уулагч	-11.5839
▁дизель	-11.5839
▁хийчихсэн	-11.5841
4-	-11.5841
▁сэтгэгдэлээ	-11.5842
▁хуан	-11.5846
▁төлөөлөгчөөр	-11.5848
tra	-11.5848
▁хамгаалан	-11.5848
▁харгалзах	-11.5852
▁нэмэгдүүлэн	-11.5852
▁үнэртэй	-11.5853
▁холбоогүй	-11.5854
▁ухаангүй	-11.5854
гэхдээ	-11.5856
▁анхааран	-11.5856
▁зөвшөөрдөг	-11.5857
▁хдхв	-11.5857
▁2.1	-11.5858
▁тээврээр	-11.5859
өсөхбаяр	-11.5859
бр	-11.5861
булаг	-11.5862
▁амлалтаа	-11.5864
▁дөрөө	-11.5865
▁тэсвэртэй	-11.5867
▁чиглүүлж	-11.5869
▁15-17	-11.5871
▁хэрэгжсэнээр	-11.5871
▁ерөнхийлөгчөөс	-11.5871
нүүрс	-11.5872
▁түүхээ	-11.5873
▁али	-11.5873
жүүлэлт	-11.5874
0.9	-11.5875
▁олборлогч	-11.5877
ена	-11.5878
▁санаагаар	-11.588
▁шаналж	-11.5881
▁өргөнөөр	-11.5882
үүлэв	-11.5882
▁ингэхээр	-11.5886
▁тэмээний	-11.5886
▁же	-11.5887
бл	-11.5888
▁интер	-11.5889
▁сэлэнгийн	-11.5889
▁сууцтай	-11.5895
▁гаа	-11.5898
01100	-11.5899
▁тууз	-11.59
▁хорго	-11.5903
▁зочлох	-11.5907
▁бүрнээ	-11.5908
▁бүлгийг	-11.591
▁тусад	-11.5911
ирээдүй	-11.5912
▁романтик	-11.5913
▁бүсээс	-11.5918
▁фунт	-11.5918
▁те	-11.5924
▁золгож	-11.5924
хх	-11.5924
▁хайран	-11.5925
лз	-11.5927
▁was	-11.5927
▁солилцооны	-11.5927
/5	-11.5927
зүй	-11.5927
▁сагс	-11.5928
шийлэгдамба	-11.5928
▁далавч	-11.5929
сарнай	-11.5929
▁дүүгийн	-11.593
▁дурсах	-11.5931
хэрэв	-11.5935
бум	-11.5935
чуул	-11.5936
▁хотгороор	-11.5937
15-	-11.5938
▁өргөс	-11.5939
▁үзэхгүй	-11.5939
▁багасах	-11.594
▁халагдсан	-11.5941
дамдинсүрэн	-11.5941
▁цоож	-11.5946
даваажаргал	-11.5949
▁своп	-11.5949
▁шүүмжилсэн	-11.595
▁зориудаар	-11.595
▁батлуулж	-11.5952
▁урсах	-11.5954
гөөс	-11.5954
▁зорчигчдын	-11.5954
▁сурлага	-11.5955
▁асуудаг	-11.5955
▁тусалсан	-11.5957
▁сүргийн	-11.5958
▁шийдвэртэй	-11.5959
▁тогтоо	-11.596
▁орноор	-11.596
▁цаазат	-11.5961
▁талбарт	-11.5961
▁удирдаач	-11.5965
мишээл	-11.5966
▁vii	-11.5966
▁ханамж	-11.5967
▁хийсээр	-11.5968
▁өнө	-11.597
▁шаргуу	-11.5972
ури	-11.5972
▁монголоо	-11.5974
▁тарифын	-11.5975
▁халдлагын	-11.5975
▁эрэлхэг	-11.5975
▁цайгаа	-11.5976
▁мэдэлтнүүд	-11.5976
▁дамжих	-11.5977
▁ar	-11.5978
▁наашаа	-11.5978
▁сувд	-11.5981
▁агуулж	-11.5982
▁ог	-11.5983
▁шүтэж	-11.5986
элдэг	-11.5986
▁эдний	-11.5989
▁чанад	-11.5991
▁харьцаанд	-11.5991
▁хэвлэлийнхэнд	-11.5991
▁эвтэй	-11.5992
▁сурталчилгааг	-11.5993
▁нарийхан	-11.5996
▁хохирогчийн	-11.5997
▁дуран	-11.5998
▁mass	-11.5999
▁царцаа	-11.5999
▁биелэлтийг	-11.5999
▁эсэргүү	-11.5999
▁массаж	-11.6
▁төрүүлдэг	-11.6
▁хөшүүрэг	-11.6002
▁совин	-11.6002
▁жагсаж	-11.6002
ром	-11.6002
эз	-11.6002
▁арчаагүй	-11.6002
▁бер	-11.6003
▁баглаа	-11.6006
лалаа	-11.6009
▁хийчих	-11.6009
:2	-11.6009
▁хангагдсан	-11.6012
▁удаах	-11.6014
▁амттан	-11.6017
▁хөгж	-11.6018
he	-11.6018
▁нөхрийнхөө	-11.6018
▁нийлүүлдэг	-11.602
▁эмнэлгээс	-11.602
▁дэхь	-11.6021
▁во	-11.6024
▁хайрласан	-11.6024
▁хавсарга	-11.6025
рес	-11.6025
▁1,2	-11.6026
▁индэр	-11.6027
▁нүдээрээ	-11.6027
уулахгүй	-11.6028
▁бохирдолтой	-11.6029
▁тоотод	-11.6032
▁дөхсөн	-11.6034
▁саатуулах	-11.6036
▁болчихвол	-11.6037
▁772-	-11.6039
▁бахархдаг	-11.6041
▁судлаад	-11.6043
▁сумыг	-11.6043
ууштай	-11.6044
▁илбэ	-11.6044
▁өгүүлрүүн	-11.6044
5-	-11.6045
▁дампуур	-11.6047
▁дагуух	-11.6047
▁цохи	-11.6048
▁аадар	-11.605
▁тоноглол	-11.605
▁компаниудтай	-11.6051
▁хэрэгцээт	-11.6053
▁барилдана	-11.6054
▁ослоор	-11.6055
▁хуудсандаа	-11.6055
▁шалтгаалах	-11.6056
логдож	-11.6056
амарсанаа	-11.6058
▁төлөвлөгөөт	-11.6059
▁тогт	-11.6061
кор	-11.6062
▁танхай	-11.6063
жүүлсэн	-11.6065
▁буудлыг	-11.6066
▁албад	-11.6069
▁сүүгээр	-11.607
▁чадварт	-11.607
▁үзүүлжээ	-11.6074
▁үеийнхний	-11.6078
▁хажуугийн	-11.6078
▁барьцааны	-11.6079
▁эргэлзэх	-11.6079
▁мзх	-11.608
ундрах	-11.608
▁багтаамжтай	-11.608
шү	-11.6082
▁төлөхгүй	-11.6083
▁бүрдүүлэлт	-11.6083
▁нураа	-11.6084
▁уулга	-11.6085
▁өмнөө	-11.6086
▁тохир	-11.6087
эгдэж	-11.6089
▁илч	-11.6091
▁хэрэглэхэд	-11.6091
▁интернэшнл	-11.6092
▁зол	-11.6092
▁булааж	-11.6095
вел	-11.6097
▁шүүгчээр	-11.6097
▁замууд	-11.6097
▁фе	-11.6098
гдаж	-11.6098
рэв	-11.6099
▁эрэгт	-11.61
ардчилсан	-11.6102
цсэн	-11.6102
▁үнэлсэн	-11.6103
▁шийдэхэд	-11.6104
▁төлөвшил	-11.6104
▁пакистан	-11.6104
▁бүтээжээ	-11.6105
▁асуулгад	-11.6107
▁хойшлуулсан	-11.6107
▁гэрээтэй	-11.6107
9.1	-11.6108
/6	-11.6108
▁цусаа	-11.6108
▁тархаж	-11.6109
▁эрхэмлэн	-11.6109
▁шалан	-11.6112
▁машинаас	-11.6112
▁гэрэгмн	-11.6113
▁жиньпин	-11.6113
▁харилцаж	-11.6113
цар	-11.6117
▁дүүргүүд	-11.6118
▁агуулгыг	-11.6119
▁авчихаад	-11.6119
▁гэгчийг	-11.612
▁тарах	-11.6121
▁0.5	-11.6122
рой	-11.6124
▁гуй	-11.6127
▁дэмжигчдийн	-11.6127
▁шалгуулж	-11.6127
▁зарчимд	-11.6127
▁хадгалан	-11.6128
▁тавив	-11.613
▁хөвөн	-11.6132
▁юугаар	-11.6134
▁мэргэжлээрээ	-11.6135
▁хадам	-11.6135
▁бухимдаж	-11.614
▁хавьгүй	-11.6141
▁захирлууд	-11.6142
тэгвэл	-11.6143
▁компаниар	-11.6144
▁шалгуулахаар	-11.6144
▁түлээ	-11.6144
▁эрхүү	-11.6146
▁гуч	-11.6147
25-	-11.6148
энхтөр	-11.615
▁улай	-11.6154
▁сэтгэж	-11.6155
▁цаашилбал	-11.6156
▁өгүүл	-11.6156
▁танилц	-11.6156
▁хүнтэйгээ	-11.616
▁28-33	-11.6162
нямбаатар	-11.6163
▁эхнэрийн	-11.6164
▁хүндээр	-11.6167
▁дэвш	-11.6169
рис	-11.617
▁2.2	-11.6171
жуу	-11.6174
▁аяс	-11.6176
▁даваад	-11.6178
▁хүүхэлдэй	-11.6179
▁эвдэрч	-11.6181
▁үүдсэн	-11.6181
▁төлөөлөх	-11.6182
▁гектопаскаль	-11.6183
/12	-11.6184
▁26-31	-11.6185
▁шанд	-11.6185
▁уушгины	-11.6186
тэм	-11.6187
bu	-11.6187
ist	-11.6189
▁нярайн	-11.6191
▁зорчигчид	-11.6191
▁оныхоос	-11.6194
▁аялалд	-11.6196
▁согог	-11.6198
▁гашуунсухайт	-11.6198
▁өгөөрэй	-11.6199
▁тогтоогджээ	-11.62
▁viii	-11.6201
ганаа	-11.6201
▁дуулгалаа	-11.6202
▁салхин	-11.6204
▁гүйгээд	-11.6205
▁үйлдлээс	-11.6206
▁тави	-11.6207
пил	-11.6208
▁тарваган	-11.6208
▁алдлаа	-11.6211
▁оролцоотойгоор	-11.6211
▁картын	-11.6212
▁банди	-11.6213
▁нэхэх	-11.6214
алтангэрэл	-11.6215
▁захирлуудын	-11.6215
▁хуурайшилт	-11.6216
▁гарчихсан	-11.6217
▁санагдав	-11.6218
▁орнуудыг	-11.622
▁салан	-11.6221
гчид	-11.6222
▁үүдийг	-11.6224
▁аллага	-11.6225
▁хүмүүний	-11.6226
санжмятав	-11.6231
залуу	-11.6231
чимгээ	-11.6232
▁хуулиудын	-11.6233
▁халдвартай	-11.6236
▁төвлөрлийг	-11.6236
▁тайлангийн	-11.6237
▁(2/19-3/20)	-11.6237
▁зүлэг	-11.6237
▁ялгарч	-11.6238
▁хуримтлуулсан	-11.6239
▁илэрчээ	-11.6239
▁гэнээ	-11.624
▁хамаараад	-11.6244
исламын	-11.6245
▁хүчнүүд	-11.6246
▁зохиогдсон	-11.6247
▁ашуүис	-11.6248
есс	-11.6249
▁ээлжээр	-11.6251
гуут	-11.6252
▁болгоомжил	-11.6253
▁хөдөлмөрийг	-11.6253
▁гахайн	-11.6254
06.0	-11.6254
▁гадас	-11.6255
▁бсшуя	-11.6255
▁дараатай	-11.6256
ше	-11.6256
4.1	-11.6256
▁хүүхдэдээ	-11.6258
▁хавийн	-11.6261
▁дэгдэлт	-11.6264
▁мэнддээ	-11.6264
▁мөрөөдлийн	-11.6267
▁танах	-11.6267
дэр	-11.6268
▁авахуулах	-11.6268
▁грекийн	-11.6269
▁болохоороо	-11.627
чалко	-11.6271
ень	-11.6272
▁огцор	-11.6274
4.5	-11.6274
▁хийгддэг	-11.6275
март	-11.6275
үүлэгч	-11.6276
▁цуглаж	-11.6276
▁урган	-11.6277
гадаад	-11.6279
rd	-11.6279
ых	-11.6281
▁боловсруулахад	-11.6281
ll	-11.6281
▁төржээ	-11.6283
▁сандарч	-11.6284
▁ажиллагсдын	-11.6285
▁үсийг	-11.6285
30-	-11.6286
▁мөчлөг	-11.6288
▁зууч	-11.6288
▁хэвлэж	-11.629
▁хөг	-11.6291
▁антибиотик	-11.6291
▁арьсанд	-11.6292
▁тогтнох	-11.6292
▁вакциныг	-11.6293
▁мэдүүлж	-11.6294
20-	-11.6294
▁үнэмлэхээ	-11.6294
▁104	-11.6295
▁нээлтийг	-11.6295
▁ширэн	-11.6296
▁голыг	-11.6296
▁борлуулсан	-11.6298
▁өвчлөх	-11.63
хийх	-11.6301
▁мөрөөдөж	-11.6302
▁анна	-11.6303
▁монголбанкинд	-11.6304
▁зугтах	-11.6305
дүүлсэн	-11.6306
нк	-11.6306
▁холливудын	-11.6307
▁өрхүүд	-11.6307
▁бүрдүүлэн	-11.631
▁агуй	-11.6311
▁ромын	-11.6312
▁баригд	-11.6312
▁(10/23-11/21)	-11.6312
▁кувейт	-11.6315
▁гөлөг	-11.6315
▁өвчинтэй	-11.6316
/19	-11.6317
ахыг	-11.6318
▁явуулжээ	-11.6318
/08	-11.6318
▁зөвлөсөн	-11.6321
гав	-11.6321
▁сэрэмжлүүлж	-11.6324
▁хөлдөө	-11.6324
▁сүх	-11.6325
▁политехник	-11.6326
/11	-11.6328
▁тэмдгийг	-11.6329
▁майхан	-11.633
▁гэрийг	-11.6332
лю	-11.6334
женко	-11.6335
▁допингийн	-11.6336
▁ялаа	-11.6336
лүүл	-11.6337
▁дэглэмтэй	-11.6339
▁кен	-11.6341
туу	-11.6341
▁цацрагийн	-11.6343
tass	-11.6344
▁настнууд	-11.6346
▁цайз	-11.6349
төсвийн	-11.6349
▁мэдрэмжтэй	-11.6352
цэнгэл	-11.6352
▁буйн	-11.6354
тусгай	-11.6355
▁юмгүй	-11.6356
▁ахиж	-11.6356
▁найруулагчаар	-11.6358
▁сэрээ	-11.636
луулна	-11.6362
ерийн	-11.6362
▁атаарх	-11.6363
яв	-11.6364
▁зугаалах	-11.6366
▁гавъяа	-11.6366
▁жагсаалд	-11.6371
▁дангаар	-11.6371
▁хураа	-11.6373
▁сурвалжлага	-11.6378
▁үлгэрийн	-11.6379
▁china	-11.6379
▁оноогоо	-11.638
▁баяс	-11.6381
▁(7/23-8/22)	-11.6383
▁нэгээхэн	-11.6384
▁өргөтгөлийн	-11.6387
олсон	-11.6388
▁баясгалан	-11.6388
▁зайл	-11.6388
▁ажлуудын	-11.6388
▁хооллолт	-11.6388
▁халдашгүй	-11.6389
хаг	-11.639
▁монголоор	-11.6391
▁дүгнэлтээр	-11.6393
ууганбаяр	-11.6393
хамгийн	-11.6395
▁индонез	-11.6395
▁махаа	-11.6396
▁гавьяаны	-11.6396
▁суларсан	-11.6396
▁ньюс	-11.6398
алтанхуягийг	-11.6398
▁ойртон	-11.64
▁түшиж	-11.64
▁идээд	-11.6401
▁уршг	-11.6402
▁бүлтэй	-11.6404
▁нууцлал	-11.6405
▁цэн	-11.6406
▁тохиосон	-11.6406
▁6-8	-11.6408
▁тарифыг	-11.6408
▁сорьц	-11.6409
900	-11.6409
▁гуу	-11.641
снөөс	-11.641
▁ойрхи	-11.6411
▁ангиар	-11.6413
▁харуулна	-11.6414
▁эргэлзэхгүй	-11.6414
▁халдун	-11.6415
▁тээврийг	-11.6416
зин	-11.6416
▁квадрат	-11.6416
▁намаасаа	-11.6417
хэрэг	-11.6419
▁байшинг	-11.6419
▁хүүдээ	-11.6421
▁шилдгүүд	-11.6421
▁хаагчийг	-11.6423
▁сэтгэцэд	-11.6423
▁санаандгүй	-11.6426
чилсэн	-11.6427
▁мексикийн	-11.6428
▁хаад	-11.6431
пан	-11.6432
▁тодотголыг	-11.6433
▁эргүүлийн	-11.6434
▁гарамгай	-11.6434
▁сайндаа	-11.6434
▁газрынхаа	-11.6435
чийг	-11.6435
▁удирдамж	-11.6437
▁хэмжил	-11.6441
ноосоо	-11.6442
-6	-11.6444
▁урагшлах	-11.6448
яр	-11.6448
тэс	-11.6448
▁болгоомжлол	-11.6449
▁түүчээ	-11.645
хаж	-11.645
▁квт	-11.645
▁баржээ	-11.6452
▁үзвэр	-11.6452
▁нартайгаа	-11.6453
билгүүн	-11.6454
▁өндөрлөсөн	-11.6454
▁аргууд	-11.6454
▁кноп	-11.6455
▁доромжилсон	-11.6456
▁сингапурын	-11.6458
▁гэрэлд	-11.6458
▁1984	-11.6459
▁гаргуулах	-11.646
▁агуулгаар	-11.6462
▁тэмцэхэд	-11.6463
гүйг	-11.6464
▁зоригт	-11.6464
бакей	-11.6464
▁санадаг	-11.6464
▁байрлуулж	-11.6465
▁ханиа	-11.6468
▁ом	-11.647
▁тогтолцоотой	-11.647
▁төлөөллийн	-11.6472
▁төлбөрөөс	-11.6475
▁хөшөөний	-11.6475
нуур	-11.6478
дөлгөөн	-11.6479
▁more	-11.648
лая	-11.6481
цээ	-11.6481
▁хорвоог	-11.6482
▁эхлэлийг	-11.6483
▁тулах	-11.6483
▁кинонууд	-11.6484
▁агентлагууд	-11.6487
▁бэлтгэгдсэн	-11.6488
▁өдөөн	-11.6489
miss	-11.6491
▁ертөнцөөр	-11.6491
▁тэмдэгтэн	-11.6491
▁шатааж	-11.6492
▁төлөвлөлтийг	-11.6493
▁өргөөний	-11.6495
▁автоматаар	-11.6495
▁продакшны	-11.6497
▁пар	-11.6501
цэргийн	-11.6504
[...]
